#version: 0.2 - Trained by `huggingface/tokenizers`
Ġ a
Ġ t
Ġ d
e s
i n
Ġ c
e r
Ġ p
Ġ s
č Ċ
e n
Ġ o
a r
o r
o n
Ġ e
Ġ čĊ
o s
Ġ m
a n
i s
Ġd e
r e
a s
h e
Ġ f
a l
a t
i t
Ġ b
o m
Ġ n
a d
i c
en t
Ġt he
Ġ in
Ġ w
r o
q u
Ġ l
e l
Ġa n
Ã £
o u
Ã£ o
Ġ u
Ġ h
Ã §
e d
Ġ v
i on
a m
i d
i l
Ġt o
Ġo f
in g
e m
Ġc om
Ġ g
es t
r i
Ġan d
Ġ re
r a
Ġ qu
i m
o t
Ġp ar
e c
o l
Ã ¡
e t
Ã ©
i a
Ġe m
Ġc on
u r
a c
u t
i v
Ġ r
Ġt h
u s
Ġd o
Ã§ Ã£o
Ġp ro
l e
Ġs e
es s
Ġu m
i r
Ġpar a
Ġf or
Ġ y
u l
Ġqu e
i g
an t
o d
o c
u n
Ġa l
Ã Ń
Ġa s
Ġy ou
is t
at ion
d o
Ġd a
Ġ is
t er
Ġm a
Ġs u
i f
Ã ª
er s
Ġs t
or t
a g
Ġe x
Ġo n
Ġ est
u m
Ġ j
Ġn o
c e
Ã ³
a Ã§Ã£o
v e
a b
s t
it h
p l
ent e
ad e
i z
h o
ad o
Ġw ith
Ã µ
Ġa t
Ġb e
Ãµ es
t h
Ġp r
Ġ en
Ġa c
Ġ k
Ġu s
c h
v er
an d
a p
Ġo s
a y
Ġs er
Ġum a
Ġo r
Ġa p
ec t
Ġf r
l y
Ġc h
Ġ Ã©
i p
p er
Ġh ot
Ġcon t
f or
Ã§ Ãµes
t o
Ġr es
ent o
Ġ it
id ade
o g
Ġth at
o w
en s
Ġd es
Ġw h
en d
u d
il l
ad os
Ġ es
Ġn e
it y
ad a
Ġa r
c t
v el
Ġcom p
ic a
Ġt r
c i
t a
Ġp er
os s
p ort
Ġa re
o b
Ġp or
Ġ im
Ġa d
Ġn a
at e
Ġhot el
t e
ig h
Ġc l
Ġu n
s e
Ġp l
d u
er e
Ġyou r
os t
t he
Ġp re
o p
a is
Ġc an
oc Ãª
Ġo u
Ġfr om
v i
i b
Ġw e
i al
d e
Ġl e
Ġc ar
Ã º
Ġn Ã£o
for m
Ġa b
i es
Ã¡ ri
Ġa m
Ġ he
u g
Ġp od
Ġd is
i o
us t
Ġma is
Ġs p
Ġb y
i re
h a
c on
in e
Ġt em
an do
Ġm an
c ia
c l
it e
t s
or es
a v
o k
al l
Ġn ot
Ġin ter
Ġ ro
Ġv ocÃª
as t
iv e
ar t
ou r
it o
u re
s o
m ent
Ġo ut
c om
e i
u al
r es
Ġg r
Ġd os
Ġcom o
Ãª n
Ġ ent
as s
an s
or e
Ġth is
an g
k e
Ġm e
a ve
Ġm ar
b l
ar d
in d
Ġa g
Ġt ra
f er
l d
a z
id e
ou n
p o
Ġe l
Ġal l
Ġpar t
Ġt er
Ġ i
ul t
Ã§ a
u ra
Ġs h
ic e
Ġ Ã
ion s
ic o
id o
p t
am ento
c o
Ġw ill
Ġw or
if ic
Ġf l
o ok
a i
Ġb r
ag e
ant e
h ot
e w
Ġa o
t r
am ente
Ġc ol
est a
c ess
el l
Ġqu al
g r
ĠÃ ł
Ġes p
in a
Ġp el
h er
Ġse u
a Ã§Ãµes
Ã© m
a in
g u
Ġv er
un d
om e
Ġin form
ac h
at ed
v a
on g
p on
Ġre l
id a
ion al
Ġh ave
qu e
r os
ig n
as e
ab le
ar e
Ġcon s
Ġs ob
ic h
Ġw as
Ġg o
Ġsu a
Ġs Ã£o
ent es
Ġc or
Ġc o
Ãªn cia
Ġto d
Ã© is
ou t
Ġm in
p e
m o
ic al
an ce
ad as
Ġs o
ac k
Ã§ o
ri g
Ġas s
Ġo b
b er
w e
r u
at er
Ġpro du
ad or
Ġin st
a k
Ã ¢
p ar
Ġpod e
Ġf il
igh t
ation s
Ġp ri
el h
Ġre g
Ġm od
w n
Ġsob re
Ġm u
p os
Ġl oc
ad es
Ġp e
re e
ac t
Ġs a
on e
Ġo ur
Ġin d
iv o
Ġe v
i an
en ce
Ġfor m
Ġe u
ess o
Ġtr ans
Ġd as
Ġn oss
am b
Ġc as
m ente
Ġf o
or d
Ġv e
Ġc ent
Ġp ort
ou s
Ġd ire
Ġt im
Ġf e
ant es
Ġc am
Ġm ore
Ġs em
Ġs ol
Ġt e
Ġo p
th er
Ġb l
ag em
Ġa ut
Ġre c
Ġg u
is s
i as
ac e
u e
Ġin cl
o v
Ġne w
Ġv is
u b
Ġwh ich
Ġser v
f f
in t
al iz
ent s
p r
g e
ent os
im ento
ic as
d er
ic k
Ġp oss
is h
Ġhotel s
esta ur
d it
p ro
Ġh as
e ar
id ades
Ġm on
v is
Ġb ar
Ġc he
Ã³ s
Ġl a
Ġd if
at a
Ġ x
c a
Ã¡ri o
in do
Ġest Ã¡
Ġs c
Ġ Ã¡
ar y
j a
Ġu p
t il
u p
k s
pl ic
Ġm elh
Ġf az
Ġcon f
Ġ ra
ing s
x im
Ġ z
ic os
Ġes c
Ġinter n
am e
i or
ou ld
ul ar
Ġm as
ri o
Ġp ol
Ġm et
Ġc ap
ol og
os e
Ã¢ n
Ġon e
p or
Ġc ri
y s
ÃŃ vel
Ġa ir
er t
Ġpro v
Ġv al
or a
i e
Ġc r
es e
Ġb ut
Ġprodu ct
amb Ã©m
er v
Ġtim e
am os
Ã¡ri os
d ut
at iv
r as
Ġa v
Ġa f
ve is
ic es
id os
c is
est e
Ġp esso
v ol
Ġde l
Ġn os
f t
Ã§ os
il e
n o
Ġt ec
b al
Ġent re
Ġo ther
Ġal so
ant o
Ġpr es
Ġf un
Ġpro gr
Ġm es
i x
ai x
Ġc a
Ġl o
Ġt ri
it os
Ġpro cess
Ġar t
Ġs ho
i Ã§Ã£o
Ġm ed
em b
Ġthe ir
el e
us e
Ġs y
Ġp a
Ġcom m
Ġfo i
Ġg er
Ġt ambÃ©m
Ġv i
r y
Ġe le
Ġno v
ri a
Ġm ost
Ġal g
Ġs al
Ġe qu
el s
Ġs im
p res
Ġf in
n e
Ġus e
or s
Ġan t
Ġex per
Ġit s
Ġpro dut
qu er
on t
r ic
Ġan y
Ġp ers
p re
re at
Ġsu b
g l
n ow
Ġab out
Ġen con
en c
Ãª s
Ġs ec
Ġtod os
Ġt a
c k
m in
u bl
p s
Ġr estaur
Ġpro f
Ġp o
Ġse us
p h
ei ro
Ġac t
vi ew
Ġpr Ã³
Ġv ia
en do
Ġb us
Ġd ist
Ã ´
ei ra
Ġesp ec
Ġb ook
Ġprogr am
Ġb o
an c
ist a
it a
w s
iv ers
f e
Ġb u
ÃŃ n
Ġs oc
or y
ri b
ar i
m e
on d
Ġse g
Ġin t
g an
Ġsu p
Ġg l
Ġ er
j ect
Ġwe b
Ġof f
it ies
Ġp ass
Ġwor k
Ġex t
Ġthe y
Ġf ree
igh ts
j et
l o
i ra
Ġser vi
ec ess
e x
ec e
Ġb est
at es
ic i
Ġinform ation
Ã§ as
Ġs et
Ġm en
Ġu til
ant s
Ġtra bal
h ar
in c
il d
Ġcom pl
Ġin f
Ġfaz er
Ġmu ito
p a
Ġ ess
Ġhot Ã©is
ug h
Ã¡ vel
at o
Ġc ur
is e
Ġl i
Ġl in
i ro
Ġl iv
Ġl u
l ine
m an
or n
er o
el y
Ġd i
h n
Ã¡ t
Ġj og
Ġma y
in o
Ġcl i
Ġy ear
Ġcon st
Ġp ra
ation al
Ġn um
th is
em ent
en as
Ġth ere
Ġn ecess
Ġm il
Ġin c
an Ã§a
p ri
Ġre al
it u
Ġo per
Ġpers on
Ġn as
hot Ã©is
i os
Ġw ho
Ġd ur
t al
ist em
Ġh igh
Ġutil iz
oun t
Ġcont ro
Ġdes c
Ġim port
m a
Ġre ce
Ġgr and
Ġmelh or
Ġ if
Ġp h
Ġb et
Ġv o
Ġk m
c er
at ur
Ġh is
Ġsu as
Ġpel o
Ġa qu
er g
w h
Ġg ro
ta in
Ġhe l
Ġf am
Ġ ir
Ġtem po
Ġm y
Ġpod em
Ġequ ip
ad ores
r ar
Ġs el
Ġeu ro
Ġde v
Ġd ata
Ġg en
t im
Ġ Ãº
Ġc al
b o
Ġexper i
al s
Ġencon tr
p le
Ġin s
pr ess
ar es
Ġwh en
Ġthe m
Ġac c
Ġc ity
l and
Ġdes ign
id as
Ġth an
Ġcon v
w ay
Ġk now
ab il
Ġp es
Ġs ite
Ġd ados
Ġin v
st em
an a
g et
ul o
Ġve z
ra v
z a
Ġest e
w are
Ġsp ec
Ġd ia
Ġpel a
rig h
n a
Ġc re
Ġl ong
Ġm un
Ġne ar
ro ugh
Ġwor ld
Ġp al
at ure
it al
ver y
p ect
bl em
k et
Ġs m
Ã¡ l
d s
Ġa j
en h
Ġne ed
Ġh um
Ġde f
ang e
g o
Ġar qu
it es
Ġof er
Ġo ver
Ġsy stem
Ġon ly
Ġs ur
Ġf ind
Ġpl ay
Ġst ud
Ġ id
Ġde c
m os
Ġt w
Ã© s
Ġm ot
Ġincl ud
Ġcomp an
Ġf ir
Ġpro blem
ag ens
Ġres pon
k ing
vol v
p ed
y ou
Ġb el
Ġp ubl
Ġb as
ib le
Ġor gan
t on
c el
ar ch
Ġat Ã©
Ġo c
ect ion
Ġpri v
Ġw ere
en e
Ġpart ic
Ġc er
ÃŃ s
Ġpl an
ir os
at h
i ed
qu is
ci o
op le
at ing
Ġb ec
Ġwh at
par a
ag es
Ġcompl et
Ġm ater
Ġm Ã©
Ġse e
ment s
ÃŃ t
Ġd est
ci as
Ġl im
iv er
Ġs k
Ġfor n
id er
h as
Ġf ol
n ing
ic s
Ġf ic
Ġqual quer
Ġpri m
Ġh ist
pl o
iv os
ib il
Ġinform aÃ§Ãµes
il y
Ġout ros
ow er
u do
g a
em os
Ġqu ando
Ġs ign
Ġf er
el a
Ġpod er
h os
c ion
ou se
Ġon line
Ġs istem
Ġpe ople
Ġdo wn
Ġdis pon
Ġh ow
Ġli ke
Ġf ac
Ġres ult
Ġdes en
Ġb an
Ġa os
Ġv ol
c ur
Ġincl u
ĠprÃ³ xim
Ġb em
Ġg et
Ġsu per
ic ion
Ġre view
Ġth rough
Ġc ust
in ess
Ġs ome
Ġem pres
v ocÃª
re as
it ar
ÃŃ veis
ac ion
Ġre f
r it
Ġw ell
Ġb ot
l es
Ġtem per
Ġp op
oun d
ct ion
Ġv ers
t od
r am
Ġo pt
Ġd u
ut e
Ġt ip
t ra
Ġse gu
Ġm er
Ġtri p
Ġh ol
c ar
Ġst r
Ġus ed
va il
Ġtr ad
if e
vel op
at her
r al
Ġh er
Ã¡ s
d es
Ġj ust
Ġpre cis
Ġl ist
Ġj an
Ġg ar
l ow
Ġb ra
Ġbe en
Ġaj ud
it s
Ġsu ch
Ġth ese
g h
Ġtec hn
b e
j o
Ġa vail
f ul
Ġan os
Ġpr om
he d
ent al
en ci
Ġn et
Ġad d
Ġne g
Ġvia g
Ġfir st
Ġm o
c ed
Ġp os
Ġre qu
f r
a ir
Ġsho w
Ġw ay
Ġfil e
e p
Ġnoss o
Ġport ug
d a
Ġc ab
un s
i Ã§Ãµes
Ġpr inc
com m
in s
Ġj o
Ġda y
Ġv ari
Ġan al
Ġpesso as
or m
it ed
Ġw indo
Ġde velop
Ġs om
Ġper m
Ġch ar
Ġcomp ut
Ġt ur
Ġde p
Ġk e
Ġ righ
Ġaf ter
Ġac cess
Ġf re
Ġtra vel
n er
i que
Ġserv ice
l et
Ġa plic
t y
Ġro om
ec er
Ġmes mo
Ġde m
oc k
at os
Ġe very
Ġver y
am entos
l l
Ġap art
ig o
Ġdire ct
Ġres erv
Ġun ivers
iz aÃ§Ã£o
Ġso ft
Ġe ff
on s
Ġaut om
Ġwh ere
Ġe t
Ġencontr ar
Ġfl ights
Ġdif fer
um a
Ġma ke
Ġest Ã£o
an o
Ġj un
Ġap enas
Ġin to
Ġs an
Ġhel p
Ġm at
Ġgo od
Ġpro t
Ġcont in
i er
Ġprodut os
Ġt y
Ġdif er
Ġm ade
Ġbr as
a il
le x
Ġesc ol
Ġeuro pe
ut ion
Ġb ro
Ġweb s
Ġmun do
Ġs ou
Ġma ior
c um
Ġvi ew
Ġqual idade
he c
Ġt est
Ġav al
Ġon de
Ġespec ial
Ġpubl ic
Ġb re
our s
Ġmar ket
r ess
en g
vis or
ia is
Ġgrand e
Ġavail able
Ġbus iness
Ġe con
Ã¡ g
Ġen g
en a
Ġcust om
ci os
lo ad
Ġ ide
or k
Ġl ug
Ġcon d
Ġc idade
Ġcom e
el o
g ar
Ġform a
em ber
in es
ac ional
Ġre m
Ġwindo ws
Ġis so
Ġp ed
Ġcas a
Ġgen er
it t
b r
m s
Ġtw o
for e
Ġtrabal ho
it as
ĠÃł s
i k
ate g
Ġmater ial
Ġc ada
ad visor
ind a
Ã¢ m
u x
it ion
Ã¡ri a
c ul
Ġf ot
Ġg ra
Ġproduct s
we en
Ġb ack
Ġest r
iz e
Ġle g
Ġm al
Ġqual ity
Ġb ase
Ġin te
du c
Ġno w
Ġen d
Ġh om
Ã© r
Ġloc al
j e
Ġh or
Ġp hot
Ġv ida
Ġen erg
Ġprov id
Ġpes quis
at ura
Ġbet ween
in al
end er
re d
Ġp at
ist o
iv a
Ġop en
Ġe as
u a
ar am
t en
Ġm ic
Ġl ar
Ġservi Ã§os
Ġf av
Ġe d
et s
Ãªn cias
Ġh Ã¡
er n
i Ã£o
Ġam b
Ġsoft ware
Ġserv ices
u Ã§Ã£o
Ġsh ould
ter n
Ġf i
Ġh ad
Ġyear s
Ġbe ach
Ġf al
Ġh ome
Ġprinc ip
ot e
Ġsp e
Ġad v
m as
Ġpar te
a f
ad r
o od
Ġtod as
Ġs ab
Ġcom b
Ġsup port
Ġp ower
Ġman y
Ġc ult
c il
x t
Ġd ig
Ã³ g
Ġdo cum
at ive
Ġbras il
Ġcontro l
Ġw ant
ou gh
al th
Ġest a
Ġqu est
Ġmin ut
Ġd om
Ġnoss os
Ġma in
Ġman ual
res ent
Ġg re
Ġin n
Ġsoc ial
Ġdesen volv
ur es
s os
Ġconst ru
Ġl ife
Ġcl ass
Ġwebs ite
Ġre t
Ã³ r
Ġst ay
Ġs ant
in ha
Ġmelh ores
in as
Ġsistem a
Ġpa ÃŃs
Ġo rig
ess e
pl es
pt ion
Ġst e
im a
Ġdiffer ent
Ġg reat
ro und
Ġim p
ac ter
Ã¢n cia
iss ion
Ġcol l
Ġfol low
Ġinv est
Ġw ar
v al
Ġap plic
us s
Ġse arch
ic t
rav Ã©s
on a
Ġpro jet
Ãª m
Ġh ost
c he
Ġch ild
Ġgro up
hot els
Ġw ould
Ġdis c
Ġcons ider
Ġcom un
Ġfav or
Ġf ar
Ġid ent
Ġd iv
h es
ul l
end a
Ġap resent
Ġc oun
r en
Ġh and
an Ã§
g er
v en
Ġass oc
Ġtrip advisor
Ġnoss a
ist as
Ġ rio
Ġs w
d ia
Ġarqu ivo
Ġp ap
h ing
Ġser Ã¡
Ġcon dit
at ic
Ġw ater
h ip
Ġl ook
Ġto tal
Ġind ust
Ġb aix
Ġpro ject
Ġev en
Ã´ n
Ġservi Ã§o
ÃŃ st
am es
Ġs he
Ġd ri
Ġre aliz
Ġus u
at or
Ġex pl
Ġre ad
Ġreview s
r on
Ġfor am
n ess
Ġreg ist
Ġp ur
a use
Ġ ri
con t
Ġo wn
Ġpartic ip
Ã© c
Ġm Ã¡
Ãº m
Ġm ult
Ġs ent
Ġta ke
Ġcomm un
Ã© ri
av a
at u
Ġat ravÃ©s
Ġa inda
gl ish
ÃŃ l
Ġhum an
Ġl og
Ġm us
c as
gu a
Ġs itu
Ġat t
is mo
Ġpl ace
Ġrespon s
Ġel ect
m ar
Ġs in
Ġe duc
re t
Ġaval ia
Ġd ias
Ġf ri
al mente
Ġpe qu
Ġpro per
Ġgo ver
Ġun der
Ġseg ur
olog y
Ġloc aliz
Ġto do
re l
Ġviag em
d ade
Ġe f
Ġtrans port
Ġvis it
ol d
Ġam er
Ġex ist
i um
Ġc le
Ġprodut o
Ġc ho
Ġc ert
c ri
l tim
Ġn ort
s el
Ġo l
Ġvo os
Ġfac il
Ġc at
Ġn Ã³s
Ġno va
Ġen s
Ġto p
Ġr is
Ġinst al
Ã³ ria
Ġt al
Ġel es
Ġde ve
Ġst and
Ġm emb
in ho
Ġh im
c ent
Ġcomp ar
Ġp Ã¡g
Ġm om
ab or
ar ia
z il
Ġper f
po is
Ġg od
Ġv el
ic ial
Ġth en
Ġh ouse
Ġof fer
Ġmer c
Ġj Ã¡
Ġt om
t ing
Ġper to
Ġintern ational
u es
Ġar m
Ġforn ec
f l
Ġpro te
i ar
Ġh ere
r estaur
an Ã§as
Ġs l
Ġrestaur ants
il s
Ġdur ante
Ġv ai
Ġs ens
Ġma p
re a
Ġjan eiro
Ġr om
el d
Ġc u
Ġst ar
Ġcon n
Ġt orn
Ġsup pl
ol s
Ġdown load
l ess
am a
Ġorgan iz
Ġact iv
Ġair port
Ġre fer
al e
pos it
Ġqu er
olog ia
el es
Ġt en
Ġ il
Ġpart ir
Ġse x
he iro
Ġprof ess
Ġe dit
Ġper form
Ġcont ra
Ġcons um
Ġf und
Ġs Ã³
Ġwith out
Ġde us
Ġm m
Ġche ap
Ġrigh t
et y
Ġca us
Ġv ir
Ġan im
Ġl ight
Ġf ab
Ġor der
Ġpl ac
ĠprÃ³xim os
b le
Ġintern et
Ġ ip
Ã¡ veis
Ġass im
Ġch ina
Ã³ ri
Ġus ing
Ġhe alth
an ha
ica Ã§Ãµes
Ġf a
ter s
Ġp ost
og ra
i am
ci al
Ġre du
Ã³ rio
Ġp on
Ġf ound
h am
Ġbra zil
a ut
v o
Ġext ens
Ġd in
l ed
Ġp ack
Ġat ual
ri es
Ġgr u
Ġfri end
Ġag ora
Ġcon hec
Ġst art
ar Ã¡
Ġbec ause
u f
Ġcli entes
Ġf Ã¡
Ġm ach
ir as
re ad
Ġt ele
Ġb ed
Ġf ut
tod os
Ġe ach
Ġv ÃŃ
ot her
Ġre d
ent a
in k
e qu
Ġth ose
ig os
v ir
Ġpar k
w ard
n Ã£o
at ivo
Ġr est
ect ed
Ġl he
Ġtip o
Ġm or
Ġcent ro
rib u
re m
Ġan o
Ġc ost
Ġc ook
as h
Ġpesquis a
b y
Ã¡ri as
ific aÃ§Ã£o
ul ts
Ġin gl
Ġch am
ar a
Ġout ras
ur n
Ġ Ã³
it or
Ġall ow
Ġs ame
Ġpr ess
Ġw est
Ãº bl
Ġcompan y
Ġd r
e u
Ġind iv
Ġare a
ur al
Ġp an
Ġl ine
Ġb om
ro om
Ġch r
Ġgr atu
Ġaqu i
com o
p ing
Ġgl ob
Ġda ys
Ġperson al
Ġus o
Ġc ir
Ġtra in
Ġr Ã¡
Ġap ro
f ort
ĠÃº ltim
Ġac esso
Ġ ig
Ġpro pri
Ġest ab
re g
ra Ã§Ã£o
ativ a
Ġsegur anÃ§a
enc y
th ere
Ġv ide
Ġs at
Ġalg uns
Ġnum ber
ce pt
cl us
Ġfun cion
Ġdo es
Ġen vi
Ġspec ial
Ġc all
Ġt ar
Ġle vel
b a
Ġm ust
et e
or do
Ġdef in
un t
b ook
Ġc op
Ġvez es
Ġnov o
Ġen glish
im entos
Ġp ot
Ġse ja
Ġinst all
Ġp ac
ec h
Ġag ain
Ġneg Ã³
Ġl ast
Ġl ib
ar n
Ġad icion
Ġcap ac
Ġn Ãºm
Ġcont act
Ġd iz
Ġle v
Ġb at
Ġm ov
d io
Ġp ou
Ġecon om
Ġg e
Ġu r
Ġbe fore
ri r
Ġalg um
Ġpre Ã§os
Ġj ul
Ġassoc i
b ur
Ġre p
Ġpop ular
est s
Ġinclud ing
ent ar
n ot
Ġre pres
ÃŃ cio
g n
Ġinte gr
Ġant es
Ġfin al
Ġt udo
Ġim pl
Ġex p
Ġempres a
Ã´ m
Ġn atur
Ġta x
an e
is m
ap p
pl ay
Ġpr ice
am s
er a
Ġf act
Ġl l
Ġtec n
Ġb al
Ġwith in
Ġv ill
Ġamb i
Ġle ad
il le
Ġc ount
Ġb i
Ġt or
Ġm ob
Ġt ro
Ġeff ect
z e
et a
Ġg ame
Ġmod el
ĠÃ¡ gua
Ġdo is
Ġcomp et
Ġet c
ÃŃ f
Ġm ac
Ġsem pre
Ġal ta
Ġs on
Ġat iv
Ġex ec
c es
ain t
Ġmon t
Ġrequ ire
f a
ru ct
Ġpr ices
en Ã§a
i u
ene f
Ġfab ric
Ġt v
od y
iz ar
Ġd on
od e
Ġde ter
port un
com p
Ġh ar
tr y
agem ent
v ers
Ġexperi ence
Ġex press
emb ro
Ġt am
Ġspe ed
Ġap pro
Ġap r
an h
ear ch
Ġcent ral
Ġc our
Ġen c
Ġp ay
Ġportug al
Ġn ome
Ġt our
c le
Ġh o
Ġun ited
Ġbe ing
Ġst re
Ġl ig
ĠÃ¡ rea
Ġrestaur antes
v es
Ġob jet
Ġm use
Ġp as
ent ly
qu anto
un g
Ġde ta
Ġex em
em ente
ang u
iz ed
Ġprogram a
Ġre mo
Ġoff ers
Ġp c
Ġit al
an k
Ġlu x
Ġpo int
is a
or ies
Ġmon th
Ġm ud
Ġt ak
Ġqu art
Ãº s
Ġal t
Ġcur r
iss Ã£o
Ġpol ÃŃt
Ġin de
Ġest ud
Ġb enef
Ġus ar
og le
Ġpres ent
c os
Ġdur ing
Ġres ort
Ġsm all
Ġdesenvolv imento
y ing
Ġer a
Ġdifer entes
enc es
Ġa um
Ġter ra
Ġgar ant
Ġnatur al
Ġprov ide
Ġesp a
end ed
p es
Ġc ould
o f
Ġmen os
Ġbu ild
Ġex am
Ġtr at
Ġcom er
Ġl at
Ġob s
Ġd ar
Ġf ace
Ġf ull
l a
es us
Ġres earch
Ġqu ais
Ġcent er
r om
Ġp et
Ġs ing
Ġdig ital
as on
Ġs il
Ġm ant
Ġest ar
way s
Ġpor que
Ġac ordo
Ġs ay
Ġs us
Ġsign ific
Ġad min
Ġl as
Ġman agement
Ġspec ific
d ay
Ġsa id
Ġfot os
ul a
id ay
Ġes per
Ġa Ã©
Ġc i
Ġind ic
Ġchild ren
Ġp Ãºbl
or ia
ĠpÃ¡g ina
Ġingl Ãªs
Ġqu ar
ord ing
Ã³ri os
Ġpre Ã§o
Ġs ites
Ãº de
b ut
Ġdes de
Ġl os
Ġt ab
Ġout ro
Ġrel aÃ§Ã£o
Ġcon se
Ġche ck
Ġp ag
Ġprocess o
w ith
Ġde pois
en Ã§Ã£o
Ġus er
Ġsec ond
Ġc ateg
d ers
Ġlo ve
Ġcontin u
Ġvel oc
Ġphot os
ol Ã³g
Ġp age
Ã³ n
Ġe ar
Ġvis ual
Ġcas o
g est
Ġa ud
Ġp le
l oc
Ġap Ã³s
Ġbas ed
ed ade
Ġres er
Ġdevelop ment
Ġposs ÃŃvel
Ġex c
Ġcar e
Ġlug ar
ol a
Ġfo od
Ġcl ick
Ġd ent
ĠrÃ¡ p
ed i
Ġent er
Ġsa Ãºde
Ġconf ig
Ġgover n
ĠnÃºm ero
Ġh y
Ġad equ
Ġw om
Ġty pe
it er
ĠvÃŃ de
Ġcont e
Ġcont ent
Ġsou th
Ġst ate
Ġme io
Ġma pa
Ġm ul
Ġger al
Ġres ults
Ġh av
Ġgo ogle
Ã©c n
Ġindiv id
Ġma il
Ġcar t
Ġan g
uf act
Ġpa ulo
s u
Ġp ont
el ho
ol e
Ġst at
g as
ent ial
v ed
Ġt Ãªm
Ġdis posit
Ġeng ine
vir on
al a
Ġgener al
ho w
ical ly
Ġbre ak
it ch
ud e
Ġh os
Ġwh ile
a o
Ġjog o
on es
Ġl ive
Ġt re
Ġn ational
Ġconte Ãº
Ġac ess
Ġtemper ature
Ġre le
Ġchr ist
Ġpre par
Ġinclu indo
Ġl and
Ġadmin ist
Ġtemper atura
Ġexperi Ãªncia
Ġpar is
ĠÃº n
Ġm em
en o
Ġn orm
Ġrel acion
Ġlin k
Ġd ivers
Ġcol or
Ġdire t
Ã¡t ica
ent ion
Ġad dit
Ġcont r
Ġrec ur
ut ions
Ġmot or
abil idade
Ġac om
Ġem b
Ġw al
Ġk ing
Ġcoun try
Ġavalia Ã§Ãµes
ug u
Ġt Ã©cn
if ied
Ġcond iÃ§Ãµes
Ġen viron
Ġman ufact
Ġex cel
Ġquart os
Ġofer ece
Ġde ix
Ġfollow ing
Ġjog os
com end
Ġth ings
m er
Ġcar d
Ġre port
Ġim pro
Ġn ame
Ġel a
Ġprim eiro
Ġab le
ibil idade
ir m
ur as
Ġposs ible
ual ly
Ġperm it
Ġj esus
Ġfam ily
Ġcont a
Ġfer ram
Ġc ast
Ġme u
at ch
Ġr ent
u ro
Ġnet w
Ġass ist
u ais
Ġbot h
in ter
Ġveloc idade
t ar
Ġap ar
Ġaut h
ri m
Ġqu ant
an n
Ġo ld
Ġbook ing
p end
Ġfl ight
Ġglob al
Ġfic ar
Ġl et
Ġth ree
Ġimport ant
Ġh a
Ġinform aÃ§Ã£o
Ġfam ÃŃl
Ġr en
id es
Ġbl ack
Ġpel os
atur es
Ġresult ados
Ġa round
Ġamer ic
Ġf oc
Ġh ard
Ġwe e
hot el
Ġg iv
is hed
and a
Ġdispon ÃŃvel
Ġme et
Ġis land
Ġcomb in
z o
Ġtim es
abil ity
os a
Ġr ad
Ġn ature
s h
Ġpal av
Ġde tal
Ġ q
Ġst ation
Ġl is
Ġh app
Ġmul her
Ġp ens
ativ os
Ġres id
Ġstand ard
Ġart ic
Ġest ado
Ġsu port
an ho
Ġs ci
ne y
ĠfÃ¡ cil
Ġres ol
Ġsc ho
Ġinf l
Ġent Ã£o
comm od
Ġst ates
Ġs enh
Ġch ang
a h
Ġal ter
ver t
Ġm ass
Ġem ail
Ġexem plo
wh en
Ġp s
Ġdest in
Ġloc ated
Ġrepres ent
ess a
Ġcri anÃ§as
Ġtr Ãªs
or r
Ġl ond
Ġke y
ura Ã§Ã£o
Ġch ange
Ġup d
Ġmu ch
Ġc ase
Ġeas y
Ġpartic ular
Ġprodu Ã§Ã£o
Ġm ens
Ġdesc ri
Ġcondit ions
u i
ra g
Ġcon c
Ġdes e
Ġver dade
Ġw ind
Ġim press
Ġe c
em ents
Ġcor re
Ġext ra
Ġaut or
r ito
vis Ã£o
ur ity
Ġreg ul
Ã³ d
Ġtrans fer
ar s
Ġgru po
Ġop Ã§Ãµes
Ġob ject
Ġprofess ional
Ġc Ã©
d om
Ġest ados
Ġminut os
m et
Ġc in
Ġres ist
Ġs ul
il i
Ġn ÃŃvel
Ġpol ic
pl y
qu es
Ġmerc ado
Ġtechn ology
ub e
Ġempres as
Ġop in
Ġm ill
Ġdu as
ec ion
Ġpon to
Ġacc ount
Ġcook ies
Ġprim eira
Ġg ames
ir it
Ġl angu
Ġre comm
Ġhe ad
a u
if y
ĠprÃ³ p
f o
Ġd ou
Ġse ver
ir d
Ġinst it
Ġn ight
Ġpriv ac
Ġmin ha
Ġcome Ã§
ro p
Ġtem por
ific ar
ist s
od o
Ġapplic ation
Ġenviron ment
ur y
Ġb er
Ġd at
ĠnegÃ³ cios
Ġpesso a
Ġest rel
Ġg est
port o
p en
Ġt ick
Ġl ow
Ġqu ick
is c
Ġorig inal
Ġsim ples
Ã£ os
r ation
ĠmÃ¡ qu
il o
Ġvide o
b on
Ġde cis
ÃŃ d
Ġb ody
Ġsh all
Ġcont ain
gu e
Ġpra ct
en i
Ġap p
er y
s c
Ġc ru
h od
Ġfil es
Ġprojet o
Ã© t
Ġdeter min
Ġdispon ÃŃveis
i Ãµes
Ġcomput er
Ãº n
Ġp adr
Ġcent re
Ġsec urity
n ers
Ġconv ers
Ġstud y
Ġs i
Ġj ap
Ġm ess
Ġdep end
Ġd im
Ġla w
Ġd id
d f
Ġl ed
Ġbook s
r um
anc es
Ġroom s
ur ch
Ġex pect
Ġide al
f ind
ĠaÃ© reas
i ous
Ġpro p
Ġvers Ã£o
Ġit em
Ġrel ated
Ġal ways
Ġa ust
Ġp u
Ġv ista
ter ior
Ã³ l
r ado
Ġwe ather
le y
Ġd er
wh at
Ġproduct ion
Ġopt ions
ent Ã¡rios
Ġsom et
Ġs ac
im ent
Ġdent ro
Ġac commod
ĠconteÃº do
m b
Ġa ero
Ġg ard
Ġre con
Ġan other
b us
Ġc res
Ġre de
s w
Ġsub st
il h
on te
le g
Ġess e
ri p
Ġdis so
er to
Ġobs erv
Ġpre fer
Ġdire ito
Ġfl or
Ġexec ut
Ġ ib
Ġm Ãºs
c ol
ay ak
Ġmu itos
r ad
Ġindivid ual
Ġcam p
Ġmom ento
s p
Ġenerg ia
v ille
ĠpaÃŃs es
Ġlu z
Ġintern acional
un do
Ġhor as
m ore
qu i
Ġf im
qu ando
Ġus ers
Ġsc re
Ġd este
Ġt it
co ver
Ġproblem as
Ġcom fort
Ġra p
il ity
Ġfre qu
Ġl ista
acion ais
Ġseg und
Ġw i
Ġab s
Ġvi ol
Ġcomput ador
Ġperform ance
it aÃ§Ã£o
Ġport o
is as
Ġan Ã¡l
Ġportug u
en ch
Ġval or
Ġcon ce
Ġinter est
Ġmanufact ur
Ġwh ite
o per
fe ito
Ġprecis a
a x
Ġun ders
Ġor g
th ing
Ġc e
Ġde t
Ġplac es
Ġper ÃŃ
Ã¡t is
r ada
Ġsant a
aix o
Ã¡ f
Ġmost rar
Ġtod a
Ġfe atures
m es
ag o
um e
os to
Ġalgum as
ens e
Ġadd ress
at s
ot h
Ġl ic
Ġr u
ro w
ort e
Ġcre ate
l ing
Ġs ize
Ġbe aut
Ġpl ant
Ġgr Ã¡tis
Ġmod o
Ġp i
aix a
Ġbr an
Ġr un
Ġev ent
ativ as
Ġar ch
Ġnort h
l i
um in
g in
Ġob ter
to p
Ġc reat
Ġdep art
Ġno ite
s a
t le
Ġdes em
Ġb ig
Ġen quanto
Ġf ew
Ġp ain
al Ã©m
Ġi i
Ġw he
Ġper g
Ġajud ar
Ġa way
Ġpres id
Ġim agens
Ġbet ter
Ġn u
Ġcomp on
Ġrecur sos
Ġte am
Ġl ess
Ġc m
Ġc os
Ġc ob
un to
id s
Ġcri ar
Ġst ill
Ġex er
Ġmu itas
Ġa z
Ġliv ros
Ġusu Ã¡rio
Ġex clus
ar o
Ġpriv ate
Ġhe art
Ġl ot
Ġnov os
Ġdec or
Ġp ast
Ġmod ern
y n
ap e
Ġenerg y
ogra ph
Ġne xt
Ġdev ice
y e
Ġbar atos
Ġad ap
Ġsystem s
Ã³ p
ro id
Ġcar ro
f ic
Ġap o
Ġt reat
Ġlug ares
Ġele v
Ġmarket ing
Ġmon itor
Ġhol iday
Ġb ath
ÃŃ p
en cia
og o
Ġsenh or
Ġval ue
Ġp en
Ġs am
Ġcon j
Ġimpl ement
at ely
Ġfr an
Ġsin ce
ect or
pos ta
Ġam ong
Ġmet hod
Ġdis se
com e
Ġc y
Ġimport ante
ul aÃ§Ã£o
Ġperm ite
j am
ia Ã§Ã£o
Ġdeta ils
Ġcl ose
r or
Ġa ce
et o
Ġvers ion
i ores
Ġho je
Ġper i
u Ã§Ãµes
v ent
Ġtrans m
Ġlar ge
ver age
eng th
f ace
l in
ro du
Ġsh ort
Ġess a
Ġn on
Ġf eira
jo y
itt le
est er
Ġdel iver
Ġsal v
Ġwor ks
ed er
Ġindust ri
ibil ity
b ia
led ge
Ġst ock
Ġloc ation
Ġacc ording
Ġtrans form
ct ions
Ġo ri
ce iros
o j
Ġtecn ologia
un ci
in ts
Ġagain st
Ġunivers ity
Ġap pe
Ġofer ec
Ġcol oc
Ġto wn
Ġse par
Ġcontro le
f ast
Ġwom en
t and
Ġch urch
Ġe p
Ġre v
pro du
Ġal c
ert as
Ġprom o
it ive
z er
Ġtod ay
Ġh ora
ÃŃ do
Ġbo x
Ġchar acter
Ġmach ine
Ġsim il
ent emente
Ġre comend
Ġposs a
am p
p ass
Ġb it
Ġestab el
Ġman ag
Ġsel ecion
Ġger man
z ir
Ġnetw ork
Ġsa f
Ġme as
Ġlong o
Ġauth or
Ġcon cer
Ġpr on
Ġsu c
Ġb ol
Ġequip ment
Ġeurope an
Ġh ours
Ġal Ã©m
Ġfe el
Ġdire itos
Ġgro w
Ġle arn
Ġter mos
Ġdis play
Ġsh are
Ġdist Ã¢ncia
Ġcap ital
v ing
ast ic
Ġg ive
Ġstre et
Ġf u
the y
m ais
et er
Ġproper ty
m ost
Ġst y
Ã©ri as
al ly
Ġv Ã¡rios
Ġun idos
Ġl ittle
Ġbo a
ĠfamÃŃl ia
Ġscho ol
Ġcar acter
v ia
Ã¡ st
Ġhom em
Ġs aint
Ġco z
Ġb ag
Ġma k
Ġp df
Ġminut es
Ġf ix
Ġim ages
ific ation
Ġte xt
Ġw all
Ġd esta
Ġint el
Ġper man
d is
Ġor d
Ġmed ic
Ġter ms
Ġv ento
ours es
Ã¡l ia
Ġy ork
Ġtam anho
Ġte x
Ġg al
ĠvÃŃde o
Ġmuse um
Ġcl ou
il a
Ġna ve
Ġcle ar
Ġde d
at Ã³rio
Ġsho p
Ġca f
Ġusu Ã¡rios
Ġc ou
Ġro ad
Ġprincip al
Ġreser va
b an
Ġwork ing
Ġmin ist
Ġn enh
se arch
Ġajud a
os o
Ġcompan ies
Ġarqu ivos
Ġde cl
Ġnecess ary
ÃŃst icas
Ġa ff
b or
Ġanal ys
n g
Ġindust ry
Ġste el
Ġd en
read y
iz ado
Ġfornec ed
Ġb ay
Ġcomp rar
Ġapart ment
Ġcommun ic
b it
th ers
Ġsk y
Ġg rav
Ġmus ic
Ġconv eni
Ġbu y
Ġperson aliz
ĠmÃ© d
Ġcons ult
Ġunders tand
Ġmaior ia
Ġinde pend
restaur antes
Ġim m
l s
Ġcount ries
Ġcour se
Ġhist Ã³ria
Ġpesso ais
Ġc Ã¢m
Ġliv re
Ġout ra
ĠperÃŃ odo
Ġand roid
at Ã©
one y
Ġpre m
is so
Ãº st
Ġbr and
ĠanÃ¡l ise
Ġmod elo
Ġn este
Ġth ird
in st
se e
res pon
k a
Ġquar to
Ġlin ha
ess es
fl ights
Ġc ourses
Ġcomun ic
Ġl ado
Ġpou co
Ġsp irit
Ġmic ro
Ġest aÃ§Ã£o
c ional
Ġn acional
Ġg old
Ġdesem pen
Ġsever al
Ġma g
Ġter min
Ġsat is
Ġare as
Ġproblem a
Ġr ange
Ġpoder Ã¡
Ġke ep
Ġal em
Ġpont os
iv al
Ġ ic
Ġlangu age
Ġknow ledge
Ġcli ente
Ġm id
Ġent anto
Ġs end
e ver
Ġs endo
t em
Ġs port
Ġf ra
at ro
Ġmen u
Ġpo is
Ġj our
Ġgratu ito
Ġambi ente
Ġres pect
Ġmob ile
Ġf our
u c
Ġnecess Ã¡rio
Ġv ac
Ġg ir
g en
Ġnov as
Ġrigh ts
Ġest udo
Ġarm az
Ġperf ect
Ġexam ple
Ġb on
m elh
Ġrestaur ant
b est
Ġcomp lex
in form
Ġaero porto
Ġperi od
Ġpap el
el as
Ġman eira
Ġcondit ion
Ġqu em
Ġexpl or
Ġam pl
Ġgest Ã£o
Ġal ready
Ġsu m
Ġcomp art
Ġpart y
Ġsistem as
Ġab rir
ad d
Ġple ase
Ġdis p
Ġco isas
ec imento
Ġdocum ent
Ġcustom er
ad ia
Ġprovid es
ens Ã£o
Ġt Ã£o
ip s
Ġn or
Ġcor po
Ġd an
Ġn em
Ġus a
Ġwee k
Ġdesc ob
Ġprincip ais
Ġme ans
o ft
Ġreg ion
Ġam or
Ġespec ÃŃf
Ġve get
Ġpro ced
Ġf ire
Ġw atch
Ġpra ia
Ġs ido
Ġespa Ã§o
Ġcomp re
Ġma j
Ġsm art
Ġd ra
Ġhos p
i ers
Ġan n
Ġsp a
Ġb ud
ent as
Ġcho ose
Ġfor t
Ġsub ject
ib us
Ġl ÃŃ
ut o
get her
Ġser ies
Ġig re
cul os
iv as
Ġis s
Ġsp ace
Ġinvest ig
Ġprovid ed
Ġcapac idade
Ġcle an
Ġc us
Ġanal y
Ġpro xim
Ġde al
Ġd am
Ġconf ort
Ġp ut
Ġst or
Ġcam po
Ġsh ar
n s
restaur ants
Ġpur pos
Ġconn ect
b ra
Ġl t
Ġo il
Ġfin an
Ġexc ell
b ack
ere Ã§o
Ġrece ber
Ġestr ut
Ġpr int
Ġloc ais
Ġinclud e
Ġcustom ers
ra el
Ġrel ig
Ġk ind
Ġf ica
Ġest ava
in te
ric t
Ġf at
Ġsol utions
Ġa Ã§o
il he
Ġfr ance
in h
Ġsuper ior
Ġph il
Ġneed s
Ġs un
Ġviag ens
Ġv Ã¡rias
t ro
Ġpl at
Ġmic ros
Ġf lex
Ġcont ato
Ġb ur
Ġcor aÃ§Ã£o
c ip
ĠpolÃŃt ica
m on
Ġdri ve
ing u
Ġdetal hes
Ġc iv
Ġser ver
Ġameric an
j ust
Ġk ayak
ib a
om a
Ġst ore
Ġestrel as
ig a
Ġinfl u
Ġmas ter
Ġim agem
Ġl ord
enci al
Ġs ide
Ġh d
l er
Ġe ast
r ing
Ġwor d
Ġanalys is
if ica
Ġnum a
Ġvir t
m ap
Ġlook ing
op e
Ġreg iÃ£o
Ġtransport e
Ġser Ã£o
Ġsu f
Ġdev em
is ing
n Ã³s
Ġg as
ho we
Ġreserv as
Ġop portun
Ġcon du
l ines
od a
Ġoff ice
howe ver
Ġlim it
itt ed
Ġr at
ÃŃn io
Ġl ab
ot s
c an
o ve
id or
in ar
Ġinst rum
Ġs Ã©ri
Ġqu anto
Ġma king
Ġbel ie
vi ous
Ġb ab
Ġm Ã£o
vo os
y al
p ir
Ġen joy
ov o
Ġdesempen ho
Ġquest ion
Ġis rael
Ġm b
ian Ã§a
Ġrec ord
Ġnew s
e a
Ġin ici
Ġar g
im os
Ġhost el
Ġs and
for d
Ġac ont
c ulo
Ġan sw
pos iÃ§Ã£o
Ġj u
m ing
Ġprot ection
Ġlocaliz aÃ§Ã£o
Ġcer tain
Ġw in
Ġsu ites
Ġs qu
bur g
Ġpr Ã©
Ġpolic y
Ġeduc ation
Ġcon fer
ian o
sel f
f ia
if ul
Ġto gether
e e
ĠmÃ¡qu ina
ÃŃ da
Ġam ar
Ġmet al
Ġmed ia
Ġt ou
Ġhist ory
ĠprÃ³xim o
Ġel et
ul ation
Ġal tern
Ġg ol
our ces
Ġreg ard
s er
Ġro t
Ġf ast
Ġmes es
Ġinc reas
Ġsuport e
Ġgrand es
Ġj e
Ġgu ard
Ġab r
Ġbut ton
ian a
Ġto ols
Ġde als
Ġvari ous
Ġf el
Ġde z
Ġtrabal h
b u
Ġm ol
Ġvo o
Ġseg undo
as se
Ġse a
k ed
Ġnoss as
Ġest iver
el f
Ġgre en
Ġim age
Ġac h
Ġfut ure
Ġscre en
Ġmil h
Ġbel ow
bo a
con s
Ġconstru Ã§Ã£o
Ġbar cel
Ġgr ad
Ġtrat amento
ac es
Ġbuild ing
le o
Ġrequ est
Ġcl os
Ġcli que
th ings
oc a
en os
Ġcu id
Ġint rodu
Ġsing le
id ence
j as
Ġar r
Ġ ÃŃn
at ors
th ese
Ġsel ect
Ġdisposit ivo
Ġem pre
ĠÃ¡ reas
in ce
am ent
if t
Ġrel ations
Ġfic heiro
Ġm und
Ġab aixo
Ġus ado
Ġest im
er ing
Ġcon he
olog ical
Ġconhec imento
ac to
Ġutiliz aÃ§Ã£o
Ġplan e
Ġativ idades
Ġv it
ur ing
Ġat tra
Ġpadr Ã£o
Ġmulher es
Ġfor a
Ġproblem s
Ġvia j
Ġfam il
Ġexcel ente
Ġcres c
Ġarmaz en
us h
Ġtrans l
po int
Ġu l
Ġrap id
Ġgl ass
Ġcl ub
Ġbl og
Ġtip os
Ġw a
Ġgard en
Ġs av
i eld
Ġst a
Ġautom atic
Ġfriend ly
Ġcommun ity
Ġsegund a
Ġsuc cess
ad amente
ve ja
Ġcom entÃ¡rios
ul as
Ġw r
Ġcor por
Ġsab er
Ġm ight
Ġa do
Ġpar ts
Ġl anÃ§
Ġt iver
Ġstud ents
Ġknow n
Ġb en
Ġmemb ros
Ġfin ance
Ġcan cel
Ġa pl
Ġface book
Ġgu ar
Ġleg al
end e
Ġten ha
Ġus ando
Ġag o
Ġsoc i
ed e
Ã©r ica
Ġlond on
Ġag re
Ġpart ners
Ġactiv ities
Ġcomm on
Ġaplic aÃ§Ã£o
Ġs le
Ġindustri al
Ġrecomm end
Ġb a
Ġn ut
Ġelect ron
l im
Ġtempor ada
un ch
Ġj ud
Ġbec ome
Ġem plo
Ġc idades
Ġne ver
Ġst ruct
Ġind Ãºst
Ġcall ed
Ġnave g
Ġal to
Ġtele f
Ġir Ã¡
un ca
Ġpur ch
og n
Ġsatis f
id ge
ist ic
Ġph ys
Ġcert ific
es c
Ġco ver
Ġth ough
Ġto ol
Ġcon form
Ġde b
Ġsp ain
Ġmonth s
Ġa vi
is ed
Ġc ot
Ġf em
Ġpres ente
Ġsol ic
Ġal oj
Ġferram entas
Ġtick ets
b ol
g ra
Ġret urn
des cri
iz ation
Ġc aixa
int es
Ġdist ribu
Ġm el
ill s
Ġt as
on st
Ġcap az
Ġw on
Ġbarcel ona
Ġsol uÃ§Ãµes
Ġo thers
Ġl abor
Ġe g
Ġde ver
ÃŃ cios
Ġex ig
Ġobjet ivo
Ġcomp os
righ t
Ġc ut
il t
Ġpart ner
Ġconse gu
Ġfoc us
Ġb or
Ġex ped
our ce
Ġgu est
Ġforn ecer
Ġstr ateg
s ter
iz ados
Ġsal e
Ġh ab
Ġded ic
Ġap pl
it ation
Ġw rit
Ġestab l
s on
Ġth ink
h ol
Ġm i
Ġst op
Ġof ertas
Ġtem os
Ġgu ide
Ġsal a
is on
Ġsu re
Ġtrain ing
Ġmemb ers
Ġmaj or
Ġsem ana
Ġpro cur
Ġart igo
Ġmet e
Ġinf o
Ġequip e
Ġpr est
ual mente
Ġres pe
rib ut
Ġs ch
re ase
un a
Ġaplic ativo
Ġd ue
Ġdisc uss
iv es
atÃ© g
ador a
Ġcr it
c u
y a
Ġsomet hing
Ġw ood
Ġla ke
Ġpro c
ĠmÃ¡ xim
ĠsÃ©ri e
Ġo portun
af ter
Ġco oper
o que
w ord
Ġaccommod ation
Ġas pect
Ġm os
Ġin ov
Ġfriend s
Ġj ard
al u
Ġfi eld
Ġal ugu
Ġsimil ar
Ġsu g
Ġmod er
Ġigre ja
i j
Ġinn ov
Ġn esta
es a
Ġb all
Ġreal ly
Ġpo ints
Ġcurr ent
Ġm est
ut a
Ġj ov
Ġpropri edade
Ġm oney
ul es
Ġsol uÃ§Ã£o
Ġlib er
Ġl ou
Ġd ate
Ġv end
ot o
Ġe ur
Ã³s ped
Ġpodem os
b re
i entes
Ã¡t icas
Ġofer ta
Ġag e
n ed
Ġac ad
Ġcompan h
Ġbeaut iful
Ġb and
Ġz o
c am
Ġh Ã³sped
Ġf ur
Ġc ities
o id
w or
in hos
Ġallow s
Ġbl ue
Ġto o
Ġf Ã©rias
Ġch at
Ġbot Ã£o
Ġjo hn
Ġa verage
Ġper fe
Ġex port
Ġcer ca
Ġdirect ly
x ico
anc ed
Ġestr atÃ©g
Ġd ll
Ġm iss
Ġf all
d en
Ġs n
Ġun til
Ġgu ests
ĠmÃ© dia
Ġeuro pa
Ġsegu intes
Ġadequ ado
Ġprote Ã§Ã£o
Ġbe b
cess o
Ġc and
oc ol
Ġconf ianÃ§a
ÃŃ m
Ġcomplet e
Ġcab e
in ta
Ġsh ip
Ġte ach
in os
Ġch u
Ġp ict
Ġde g
d ing
Ġhist or
Ã© tr
Ġact ion
Ġp t
y l
Ġm ember
at ory
ward s
Ġmilh Ãµes
Ġex ch
Ġv est
Ġris k
Ġadap t
Ġbreak fast
is es
Ġcont ex
Ġf ig
n oss
Ġpro por
Ġmin ute
Ġt ela
Ġev ol
Ġapplic ations
Ġch ave
Ġpel as
Ġs op
Ġtechn ical
im o
Ġpar cer
id ro
id ores
Ġpl ata
che ap
Ġfran cis
Ġconf irm
Ġpequ eno
Ġa ug
Ġv enda
Ġt anto
Ġcoll ect
Ġlt d
Ġprogram as
Ġf ul
bo ard
Ġlis boa
ur t
Ġre ach
is er
as es
Ġv en
wh ere
ar ning
Ġmes ma
el ine
do wn
oun tain
Ġj et
z h
Ġmade ira
ĠÃºltim a
Ġcult ural
Ġvis itar
Ġpalav ras
ot a
Ġmin i
Ġsec ret
Ġconj unto
Ġc ra
Ġaddit ion
Ġsol ution
Ġh on
Ġr ate
Ġextens ion
Ġ isto
Ġof ten
Ġcan not
ÃŃt ulo
Ġeff ici
Ġab ove
Ã© l
Ġappe ar
Ġartic le
Ġh air
Ġm ist
Ġant i
Ġn unca
se g
Ġgovern ment
Ã© rio
p al
Ġc ele
Ġprom ot
Ġhom ens
i ents
n ew
Ġcons ist
Ġliv ing
Ġplay er
Ġperg unt
ĠcÃ© u
Ġcaf Ã©
Ġt ais
Ġc ro
Ġdem onst
Ġfl o
Ġc Ã³d
Ġma gn
av am
Ġm adr
an as
Ġar te
Ġrel ax
Ġa im
Ġev ents
Ġrequire d
Ġcre ated
Ġre un
ission ais
Ġdecl ar
Ġavalia Ã§Ã£o
iv ed
Ġon ce
Ġmun ic
Ã³ veis
Ã¡t ico
ost as
ire d
t es
Ġl Ã¡
Ġevery thing
Ġl ater
Ġs ess
Ġprof iss
Ġpri or
Ġwal k
Ġcon cent
Ġmar ca
bo x
Ġt inha
Ġmicros oft
Ġm im
Ġfr ont
Ġescol ha
Ġest adia
p Ã§Ã£o
ĠrÃ¡p ido
Ġt el
Ġk itch
Ġus b
Ġob rig
Ġle ft
Ġest es
Ġc it
ied ade
Ġacom od
ĠmÃºs ica
Ġcomp at
Ġair lines
Ġnort e
Ġens ure
Ġac cept
Ġrele v
Ġciv il
Ġc ell
s k
ab a
Ġfl ash
Ġalg o
Ġprof issionais
Ġopt im
Ġsaf ety
cl u
Ġmater iais
Ġstr ong
Ġam az
Ġinter ior
Ġra z
Ġt able
Ġdin heiro
Ġinst ru
Ġlin ks
t ies
Ġexcell ent
c re
Ġmaterial s
po ol
Ġpesso al
vis ion
p et
Ġinstal aÃ§Ã£o
Ġvis Ã£o
Ġc um
Ġbe gin
aliz aÃ§Ã£o
Ġph one
Ġchang es
cur sos
Ġre ino
w a
ic ional
Ġam Ã©rica
Ġinter ess
Ġf eder
Ġmant er
ĠhÃ³sped es
Ġprofiss ional
Ġre vol
Ġus ados
Ġm ind
Ġche g
Ġital y
Ġter m
if icaÃ§Ãµes
Ġef ici
ist ics
Ġesp ÃŃ
Ġnot e
ir t
Ġso f
Ġrem ain
Ġg ost
h ouse
Ġris co
Ġr ental
h Ã¡
Ġst ra
Ġhist Ã³r
Ġbaix o
Ġhosp ital
Ġsp an
Ġh al
Ġr uss
Ġapart ments
Ġpr ic
Ġpre t
Ġsim ple
Ġfo ot
Ġcor r
ch a
Ġmadr id
an har
Ġgiv en
Ġu pon
om as
Ġmak es
o x
o ver
em a
s ia
Ġat r
Ġpre cip
Ġadminist r
ĠÃºn ico
ke y
Ġcult ura
Ġche gar
Ġbo ard
Ġcr ist
Ġhav ing
Ġre ason
Ġv ar
Ġl ay
z z
Ġem p
Ġesc rit
Ġwh y
v id
Ġwe ight
Ġbran co
ter y
m u
b i
Ġdec id
Ġescol her
Ġvill a
ul ho
Ġri ver
c r
z es
Ġadd ed
Ġex ib
Ġreg ular
ap art
Ġmain tain
r ica
iz a
Ġle i
fe itos
Ġh p
Ġmill ion
Ġplat form
Ġm ec
Ġma xim
Ġsel f
Ġqu atro
Ġtr y
Ġking dom
Ġro ck
Ġproxim idades
Ġfe ito
Ġfacil ities
Ġinc or
Ġre pl
Ġro yal
Ġcam inho
Ġter Ã¡
il har
Ġdesign ed
Ġc el
Ġpes o
Ġach ie
Ġev entos
Ġgroup s
Ġcomunic aÃ§Ã£o
iz ada
b ar
Ġch all
n es
Ġ idade
ĠindÃºst ria
Ġbrazil ian
Ġm l
Ġper ce
ure d
Ġfun Ã§Ã£o
Ġt end
Ġcab o
y m
Ġf it
Ġpap er
Ġnecess idades
Ġfinan cial
Ġinst itu
h i
Ġs ave
ec Ã§Ã£o
m en
ei as
Ġcr oss
Ġm ig
Ġesp anha
Ġest ilo
ĠprÃ³p rio
Ġparcer ia
Ġeduc aÃ§Ã£o
ci e
t i
um p
Ġfil ho
Ġcart Ã£o
Ġcor respon
Ġspe ak
c al
Ġ ill
Ġrece ive
im e
Ġin it
Ġgu er
Ġac ima
Ġcont ribu
Ġcon ver
room s
Ġt ent
it ect
Ġsty le
Ġl iter
Ġcoz inha
Ġb ad
Ġle ast
Ġtrad it
ish ing
Ġplan o
Ġmund ial
Ġp ais
ph one
Ġapro xim
Ġob tain
Ġf ant
Ġc ode
Ġquest ions
Ġplata form
Ġmin im
Ġeas ily
Ġch in
Ġdesen vol
Ġguar ante
Ġin ÃŃcio
Ġofer ecer
Ġyou ng
Ġpol it
he l
Ġpl us
om et
Ġinc rease
en cont
Ġal un
Ġprogram s
Ġenvi ar
Ġb ir
Ġt u
Ġban co
Ġdem and
Ġprot ect
Ġwor ds
Ġgo ing
ĠpÃºbl ico
Ġd ry
un ta
Ġbro ws
u el
Ġt ub
Ġpri me
Ġpe Ã§as
Ġfe ed
Ġf ib
g s
ro l
ill a
Ġrent als
Ġpre vious
Ġstud ies
Ġop Ã§Ã£o
Ġlocaliz ado
Ġmult i
r ut
Ġl av
b ru
Ġjun e
Ġaddit ional
Ġal mo
il idade
Ġfr ente
ith er
Ġprivac y
it ude
Ġf ly
Ġty pes
Ġdiz er
Ġclou d
g es
Ġtreat ment
Ġcl im
Ġess es
Ġcoll ection
Ġsqu are
y es
iz aÃ§Ãµes
Ġoff icial
Ġexch ange
Ġforn ece
Ġdescri ption
s ide
Ġtar if
c y
Ġgr an
Ġn ice
Ġaut o
ub ro
as ed
av es
er os
Ġm Ãªs
Ġnu v
Ġp Ã©
Ġecon Ã´m
Ġm ountain
Ġsy n
Ġsta ff
Ġt ag
Ġmodel os
Ġacess Ã³rios
Ġar ri
Ġvol ta
Ġo ce
Ġf est
Ġm art
Ġu k
s im
es p
ut enÃ§Ã£o
Ġcar ri
Ġcomfort able
b s
Ġkitch en
Ġan Ãºn
ur g
Ġfun ction
Ġexped ia
Ġestud os
Ġme an
Ġprivac idade
Ġfrancis co
Ġp isc
Ġapart amento
Ġcre dit
Ġautom at
Ġe ver
Ġit Ã¡lia
ex pl
Ġf ÃŃs
oc ar
Ġm ort
Ġro up
g ed
Ġw el
Ġanim ais
Ġv an
Ġcol e
Ġal ong
ag ing
h ere
Ġdis cover
v as
Ġs ust
Ġac r
ens ive
Ġdisposit ivos
Ġjul ho
Ġquant idade
act ion
ch es
Ġbr ing
Ġw ire
Ġc ul
qu al
oc ity
Ġsub m
Ġat l
Ġl es
Ġun ion
Ġcomm er
id ity
Ġpo ol
Ġorgan izaÃ§Ã£o
b el
ho p
Ġpos ition
Ġjap an
Ġamer ica
ir es
c ast
om es
an y
Ġbas ic
Ġexpect ed
ubl ic
d as
Ġform at
Ġdist ance
Ġunivers idade
Ġj ob
Ġam igos
ÃŃst ica
Ġcru z
Ġwhe ther
Ġsignific ant
en Ã§as
Ġcas os
Ġc ort
Ġv ivo
Ġth er
encont re
do or
u ar
ip e
im es
Ġco isa
Ġext rem
Ġpalav ra
on om
Ġcomp rom
ed ades
Ġda ily
Ġman h
Ġcus to
Ġvari edade
an ia
Ġset t
Ġmelhor ar
Ġw ide
ĠÃºn ica
Ġd ro
Ġd v
m y
Ġman utenÃ§Ã£o
Ġcomun idade
he iros
Ġpro pos
Ġprojet os
ur ar
Ġcont em
Ġend ereÃ§o
Ġwh ole
melh ores
Ġacom p
h y
Ġgover no
g ing
Ġs en
Ġinclu i
Ġatr Ã¡s
Ã ±
Ġfr es
Ġtrabal har
Ġextens Ã£o
ĠrÃ¡p ida
Ġl y
Ġre vel
Ġtravel ocity
Ġpas se
il ha
Ġcon ect
Ġnature za
Ġele g
Ġm p
Ġsign ifica
Ġgru pos
Ġdiret amente
l ight
Ġh und
Ġad m
Ġcaus a
Ġm ix
Ġalg uma
ĠcÃ³d igo
ed a
Ġev alu
ul os
Ġdev ices
Ġfe ver
Ġfut uro
Ġem erg
Ġh our
ing o
Ġped ido
ur s
ar k
Ġh id
Ġelect ric
Ġadicion ar
ĠprÃ³p ria
c ular
Ġsu cesso
Ġun ique
Ġcam a
Ġent rar
Ġferram enta
Ġfar m
Ã³ vel
b our
Ġsa fe
Ġapl icaÃ§Ãµes
er ta
Ġger enci
Ġreserv ar
Ġstr ength
c in
Ġdis e
Ġdes af
Ġear th
Ġmess age
Ġrestaur ante
Ġpag amento
Ġpos it
am in
Ġter rit
Ġconstru ction
Ġg os
Ġess as
Ġori ent
Ġat ra
Ġsub s
sel ves
Ġtex to
Ġfl ow
Ġdifer ente
Ġmens agem
Ġir m
Ġstor age
ant ar
Ġel im
gr ess
Ġdev ido
Ġrec ogn
ĠÃ³ leo
Ġt ell
Ġdevelop ed
Ġcho ice
iv ely
Ġdes k
Ġaloj amento
u ri
Ġdou ble
Ġportugu ese
Ġgerman y
Ġvol ume
Ġhigh er
Ġgarant ir
iv amente
Ġv aria
t as
Ġs ound
Ġtelef one
Ġm ad
Ġhe av
Ġcomm it
Ġres ources
Ġrespon d
Ġliv ro
Ġent rada
Ġreal mente
Ġef et
u per
Ġd one
Ġfl u
Ġset embro
Ġeconom ic
g round
Ġspan ish
w ood
Ġcl a
fic ult
c ost
Ġprocess ing
tod o
n y
ho od
p ut
Ġse pt
ĠÃ ´
Ġfor Ã§a
Ġesp anh
w ire
Ġeu a
Ġfr ench
Ġc ores
Ġhe ar
Ġmanag er
Ġt on
pri m
h ib
Ġdif ficult
er ia
Ġj ur
Ġprodu z
Ġresult ado
Ġaccess ories
Ã ł
Ġsur f
Ġcons ci
ĠespÃŃ rito
b n
Ġapo io
Ġinclud es
Ġin volv
Ġk g
Ġam ount
Ġsoc iais
Ġtit le
Ġl c
Ġfil hos
Ġinclud ed
Ġfil m
Ġrapid amente
ent Ã£o
ĠprÃ³ pri
Ġle arning
Ġimpro ve
Ġr ich
Ġproject s
Ġincl us
Ġsuppl iers
Ġespec iais
Ġbu ilt
Ġjul y
Ġlo ad
b all
Ġdim ens
Ġconst itu
Ġsom ente
Ġwest ern
Ġmete or
Ġf ive
Ġfr anÃ§a
Ġad vert
Ġconst ant
Ġban k
ific ado
Ġalc anÃ§
Ġimp act
Ġrelations hip
Ġjo in
Ġsk in
Ġsoci ety
Ġregist er
Ġcop y
b ec
Ġport a
Ġtradit ional
Ġutiliz ar
Ġcas ino
n ibus
is l
Ġelet r
Ġn ada
Ġs ell
Ġm and
Ġtra ck
Ġcom um
ÃŃ du
Ġpar que
Ġcontin ue
Ġav anÃ§
Ġsoc iedade
Ġc ic
Ġin g
in i
Ġb ill
th at
Ġcap t
Ã¢n t
re dit
at amente
ro u
Ġorig in
am ental
Ġent ire
Ġde ath
Ġinter pre
Ġcas es
Ġl od
tr os
Ġsci ence
Ġphot o
Ġnorm al
u ary
Ġbr it
Ġcr isto
Ġrec uper
Ġrece b
Ġpel e
Ġaust ral
ÃŃ g
Ġproper ties
Ġf ather
Ġb Ã¡s
Ġban ho
Ġp ai
Ġw ik
Ġcom bo
Ġqu ad
Ġap ple
cur s
Ġupd ate
u ck
Ġf onte
Ġest acion
icion ado
Ġperf il
Ġp ul
ĠpÃ¡g inas
Ġdat ab
Ġj ack
Ġsuppl y
Ġn ar
Ġnenh um
Ġespecial ly
d i
Ġu e
Ġh ou
Ġse ason
rib ution
Ġac ab
Ġval e
Ġsport s
h ic
oun ts
Ġve ÃŃ
x y
ech an
pass agens
Ġfor ec
Ġch ann
Ġv ib
et h
Ġel em
l ook
Ġqu ase
Ġinstall ation
ĠÃ´ nibus
Ġopt ion
Ġro le
Ġcomplet amente
Ġm ission
Ġtur n
Ġinst ant
Ġp ovo
Ġh ong
am ic
Ġag oda
p ol
Ġsal es
s em
Ġfur ther
et te
Ġactiv ity
Ġmeet ing
Ġro b
es ar
Ġn am
ple ase
Ġtorn ar
ant ic
Ġfever eiro
Ġv idro
Ġk ong
Ġpart es
Ġjun ho
Ġfacil mente
Ġy et
Ġestrut ura
az a
Ġtr ade
Ġcri aÃ§Ã£o
Ġposs ui
Ġconf idence
Ġna v
Ġto w
ams ung
Ġel Ã©tr
Ġb ast
Ġcons ul
Ġconf l
Ġra il
Ġav oid
Ġp ages
k y
Ġa Ã§Ã£o
Ġag rad
Ġtax a
te is
Ġst ep
Ġpl Ã¡st
Ã© d
Ġrat io
Ġsust ent
Ġpric eline
en ing
Ġsol d
Ġmet ros
Ġt este
Ġref l
Ġc d
Ġmar c
fr om
Ġgu ia
Ġforneced ores
or ial
Ġdeta il
if i
Ġportugu Ãªs
Ġform aÃ§Ã£o
Ġal iment
Ġcam e
Ġstat us
Ġd re
Ġdes con
Ġrequire ments
Ġcaracter ÃŃsticas
Ġg ot
Ġvirt ual
Ġitem s
Ġv iv
Ġg b
Ġac qu
Ġcar re
Ġpro va
Ġint ens
ag a
Ġdese j
Ġl oss
Ġoper ation
Ġjard im
Ġw ish
Ġsept ember
or ias
Ġver de
Ġen ough
Ġlevel s
Ġin icial
Ġcam era
Ġen volv
Ġcol abor
Ġt ÃŃtulo
ant a
Ġbus ca
Ġs ource
Ġres posta
fr ica
Ġarch itect
Ġe feito
ug ar
Ġpequ ena
Ġvill age
Ġse jam
Ġbl ood
Ġcresc imento
ir am
Ġal i
Ġus d
Ġl er
Ġalem anha
ot es
Ġbe h
v c
Ġcomplet o
Ġcas as
Ġfuncion Ã¡rios
Ġcommunic ation
expl ore
Ã³ t
Ġjet cost
Ġd ol
Ġsho ws
Ġca use
Ġproc ura
t os
Ġb ang
y our
Ġd uraÃ§Ã£o
al g
encia is
Ġest at
Ġch ap
ĠcomeÃ§ ar
d am
Ġr ar
Ġacad em
e o
we ather
Ġman age
Ġess ential
Ġimport antes
Ġquick ly
Ġcom es
Ġapr ender
k i
u aÃ§Ã£o
Ġsus tain
Ãµ e
Ġim per
Ġad ult
it ter
Ġev itar
Ġmanufactur er
r Ã¡f
Ġdat as
Ġsuper f
Ġex tern
Ġsol ar
l os
Ġes for
Ġun ido
Ġ ist
down load
h ost
m od
Ġpron unci
it amente
Ġalun os
Ġp il
Ġpe ace
s ol
Ġa ra
ug e
Ġd ress
Ġl ÃŃn
Ġem bal
Ġpl astic
Ġdi am
Ġperfe ita
Ġcal cul
Ġcos ta
Ġpropor cion
ass im
Ġm echan
Ġapr end
d r
ess as
ff ee
Ġjour ney
Ġmanh Ã£
Ġh all
Ġab ord
Ġtom ar
Ġis o
Ġdocum entos
bru ary
Ġw ine
Ġbl ow
ĠnegÃ³ cio
Ġv Ã£o
Ġmed ical
Ġj er
Ġus es
Ġtr ue
av al
os co
Ġcomp ra
Ġim edi
Ġcabe Ã§a
Ġreserv ations
Ġpay ment
Ġe feitos
Ġpro ud
Ġsug gest
Ġforec ast
Ġcons elho
Ġprocess os
Ġcat al
Ġcur so
Ġpropri edades
t rip
ch ar
olog ies
Ġnecess idade
Ġvari ety
m ed
Ġsu it
Ġhot wire
Ġa vis
Ġf air
m at
Ġaf rica
Ġsci ent
Ġc ore
Ġre produ
Ġsuf ici
Ġdescri Ã§Ã£o
h one
en ess
Ġpar ceiros
Ġa leg
Ġve hic
Ġart igos
Ġim ag
Ġview s
Ġsa ud
ot os
ĠlÃŃ der
Ġfe ature
Ġint ell
t ambÃ©m
Ġcontra ct
m p
Ġn ÃŃveis
Ġdif ÃŃ
Ġcin co
Ġcomp are
Ġun it
ĠÃ³ tim
at as
Ġequip amento
Ġtou ch
Ġter ceiros
Ġs anto
Ġest as
Ġm c
Ġh ip
ut ar
Ġprof ile
in ary
Ġm s
Ġcl ic
Ġcult ure
Ġout ubro
Ġeng en
j i
Ġw id
Ġmod els
Ġm Ã£
Ġra in
Ġjog ar
Ġest amos
Ġespecial mente
Ġfabric ante
Ġcl aro
Ġdia gn
Ġpropri et
Ġm g
Ġun idade
Ġtak ing
Ġfe bruary
Ġsitu aÃ§Ã£o
Ġequip amentos
Ġreser ve
ap s
Ġpan el
Ġcorre ct
ar ian
Ġh t
tr ans
Ġcomm ission
f in
Ġc ai
Ġv ene
Ġintel ig
p art
Ġorg ulho
Ġr os
Ġesc re
Ġjov ens
on de
Ġmar ch
Ġfa ith
Ġex ce
Ġmar ia
Ġe at
ot t
iz es
we et
Ġo d
Ġinter esse
f as
Ġam ost
Ġcol et
Ġacr oss
e f
Ġway s
ra y
Ġo k
Ġdel es
Ġhost els
Ġrelacion ados
enc ed
Ġphys ical
Ġap ps
Ġescol a
og rÃ¡f
Ġs ap
Ġat enÃ§Ã£o
f ol
Ġtak en
Ġavi Ã£o
h ome
Ġb ilhe
Ġsol id
Ġp ec
Ġthrough out
Ġfl at
de pois
Ġgrow th
Ġci ent
Ġc ad
Ã³ m
Ġmon te
est es
Ġpre to
Ġco ord
Ġtotal mente
o fer
os os
Ġh ous
Ġm ÃŃn
el er
if ique
Ġappro ach
Ġp az
ou th
Ġcom issÃ£o
end imento
ĠÃ¡ frica
Ġconse qu
Ġfr ank
val ho
Ġshop ping
Ġhow ever
Ġter ce
Ġv as
Ġne igh
Ġcl ar
Ġfor te
Ġlog o
Ġatt ack
ic amente
Ġcele br
Ġg all
ativ amente
Ġajud Ã¡
Ġrom a
Ġaug ust
Ġestacion amento
Ġv ig
Ġb ater
Ġro ll
in has
Ġpre v
Ġreg ional
Ġord em
h igh
Ġor bit
ĠmÃ© dio
g em
Ġcont Ã©m
Ġdesc rib
Ġsab e
r ant
Ġro und
Ġencon tra
Ġprogr ess
ĠÃº til
Ġanim al
Ġconn ection
Ġcapac ity
Ġpergunt as
Ġc ade
Ġrespe ito
Ġbl ock
Ġr am
to ber
Ġact ive
Ġcontro ll
it ing
Ġb ord
Ġaqu eles
Ġh am
ve z
Ġs ection
Ġintern acionais
Ġbaix ar
Ġpisc ina
c op
f ree
Ġalt ura
vel mente
r ados
ĠÃ ¢
Ġcomplet ely
a qui
Ġb ib
iv ity
Ġits elf
Ġpress ure
land s
Ã©t ica
Ġsegu inte
Ġver m
ia b
Ġj orn
Ġbab y
Ġs amsung
Ġgr Ã¡f
ber g
Ġs int
Ġform ato
i ance
Ġmar k
c ing
est as
Ġro ut
ed s
Ġtr an
Ġcon ex
Ġro ta
Ġv os
at Ã³rios
Ġsel ected
as ons
Ġcr y
Ġn at
ac o
Ġro ute
Ġob t
Ġmod e
Ġs ector
Ġsegu ida
ĠvÃŃde os
Ġfil ter
f re
Ġlis bon
Ġex istem
Ġpre oc
ric ult
ell a
Ġeffect s
Ġopportun ity
ogra fia
Ġwas hing
or re
Ġen h
Ġlux ury
k en
Ġdatab ase
Ġt ut
Ġt are
Ġan terior
Ġlux o
Ġquais quer
Ġrespons ible
Ġfe z
Ġaud io
Ġd Ã¡
Ġfavor ite
Ġpresid ente
Ġpr Ã¡tica
ash ion
Ġmil it
Ġanal is
Ġdri ver
n et
Ġb ul
n al
Ġpa ul
Ġm ount
Ġassoci ated
Ġmunic ip
Ġinstall ed
as ter
Ġpoder ia
u it
or ge
enci es
Ġadv ant
Ġf ill
Ġleg isl
Ġtar de
Ã¢m et
id ad
Ġing red
i ent
v ida
Ġpurpos e
b as
Ġj os
Ġap ply
Ġrecon hec
Ġtrans par
t re
Ġst ory
Ġsem elh
Ġhos ped
i qu
Ġs ix
Ġval ores
pa ir
ÃŃd os
Ġex pos
Ġiss ues
Ġdez embro
bn b
iv idade
Ġver Ã£o
Ġcab elo
Ġcompar aÃ§Ã£o
Ġcal if
Ġof icial
Ġcomm and
Ġth ing
if f
Ġfem in
m l
er ve
Ġdo ct
Ġev ento
x i
Ġpl ug
Ġoper ating
Ġfamil iar
Ġyour self
Ġhuman os
ac a
Ġpre vent
Ġme us
Ġrefer Ãªncia
Ġp ath
ost os
ok e
Ġel as
Ġrece ived
Ġum idade
Ġse em
Ġmil es
Ġexer cis
ort h
Ġeurope ia
ece u
Ġex terior
Ġexp and
Ġbl oc
Ġsum mer
Ġtre in
Ġpract ice
Ġren ov
Ġass ess
Ġdocum ents
ot ec
vi o
Ġdocum ento
Ã ¨
Ġdist rict
u le
ut h
end s
Ġrec ol
Ã ¶
Ġf m
ion e
Ġun iÃ£o
Ġlong er
Ġpos iÃ§Ã£o
Ġeffect ive
et as
Ã© n
Ġsex o
Ġv oss
Ġoc tober
Ġmult ip
Ġbrows er
Ġcar ros
Ġmot her
Ġd ie
ia ble
Ġr ome
ab ly
Ġcon vert
Ġle ve
ert ura
Ġgarant ia
Ġbelie ve
Ġgra ph
Ġact ual
Ġoper aÃ§Ã£o
Ġinstru Ã§Ãµes
Ġenvironment al
b io
Ġt ours
Ġrespons Ã¡vel
Ġsett ings
Ġdes fr
co very
Ġtab let
s he
Ġpopular es
Ġlond res
olog ias
Ġvol t
Ġang eles
Ġw ifi
Ġis ol
Ġser ia
Ġhum idity
Ġplataform a
Ġnov embro
Ġjan uary
Ġpac ote
Ġespa Ã§os
ab ol
Ġdom in
Ġredu z
Ġbath room
Ġes qu
Ġalmo Ã§o
Ġid i
Ġapart amentos
Ġdra w
Ġag ricult
Ġpurch ase
Ġespanh ol
f il
Ġrealiz ar
Ġaum entar
Ġur ban
Ġlim ited
Ġl ower
Ġcar reg
Ġvis ita
Ġtax as
Ġtak es
Ġp in
Ġma io
Ġco ffee
Ġhab it
Ġcl ot
i ans
if est
um o
Ġc up
er am
Ġb air
ador as
Ġexer c
Ġmid d
Ã¡s s
Ġexist e
Ġrecomm ended
Ġguer ra
Ġpar king
Ġval id
Ġip hone
Ġg a
Ġf ine
Ġdeliver y
Ġconcer ning
Ġd or
Ġas k
Ġad just
Ġma iores
Ġmed ida
Ġb anc
Ġfr anc
ill as
t ur
Ġcan ada
Ġdispon ibil
oc h
Ġmar Ã§o
Ġaut ocar
Ġhapp y
Ġform ul
Ġfund amental
Ġarg ent
Ġsuperf ÃŃ
Ġam ster
Ġcan ad
Ġve ja
Ġcomplet a
Ġcheap est
Ġunivers al
Ġentre ga
Ġste ps
Ġsay s
olÃ³g icas
Ġimpress Ã£o
Ġorbit z
re ds
Ġdec ember
Ġcost s
Ġdescob rir
Ġf urn
Ġfor e
orn ing
Ġs ong
Ġstud io
Ġfer ro
Ġorganiz ation
Ġsur face
Ġre quis
Ġcent enas
ful ly
Ġapresent a
Ġdeg ree
f ield
Ġt i
Ġd orm
Ġinter face
Ġconc ord
Ġinstal aÃ§Ãµes
Ġcontinu ar
Ġsegu ir
Ġjun to
en ed
Ġlo ja
Ġeff ort
Ġlat est
p ers
Ġab ility
Ġfil me
Ġgre ater
Ġre des
Ġincor por
Ġex plic
Ġinclu em
Ġset or
Ġd ial
Ġed if
Ġdesenvol ver
Ġens ino
Ġin ox
c hed
ac c
Ġimm edi
Ġin fer
ain less
Ġful ly
Ġautomat ically
Ġf iz
Ġper cent
Ġt ap
Ġf ail
Ġal b
Ġk n
Ġer ro
Ġfeder al
ell ow
iam i
Ġativ idade
Ġa Ã§Ãµes
Ġl emb
Ġcar bon
Ġbl u
Ġob ras
Ġpra zo
Ġe ither
Ġv ic
Ġer ror
Ġadicion ais
ens a
Ġo x
Ġcomp r
ĠmÃ© todo
Ġdem oc
Ġto ok
ĠtÃ©cn icas
Ġche m
Ġv em
am ing
Ġpot ential
Ġc able
Ġf ashion
Ġcondu ct
ec em
Ġhor iz
Ġsubst itu
Ġbro ad
Ġf ato
qu ia
Ġg ain
Ġvol tar
Ġconsider ed
Ġl hes
Ġac id
Ã¢n cias
Ġqu iser
Ġch i
Ġdeix ar
Ġeletr Ã´n
ĠpolÃŃt icas
ent re
Ġhund reds
ar m
Ġle ave
Ã³ri as
Ġco ol
Ã¢n dia
Ġsitu ation
Ġcontain s
Ġconhe cer
Ġfuncion amento
Ġansw er
Ġd essa
Ġabs ol
ĠmÃ¡xim o
Ġpolit ical
d os
p ode
Ġf Ã³r
Ġlig aÃ§Ã£o
Ġlas er
descri Ã§Ã£o
Ġcoun cil
ci pl
b ro
Ġaplic ativos
ativ es
Ġprinc ÃŃp
Ġpress Ã£o
Ġrad io
Ġexper im
Ġthere fore
v ido
ĠfÃ¡ br
s m
ous and
Ġprocess es
Ġarmazen amento
g os
Ġv ul
Ġcateg oria
Ġp ow
Ġdese ja
or ar
Ġr ub
Ġmo ve
Ġadv anced
Ġprem ium
ĠmÃ£ e
Ġcol om
Ġsp r
abil idades
Ġagre ement
Ġmin er
Ġd yn
ĠÃŃn d
Ġp m
Ġv ict
Ġcli ent
Ġty p
Ġquest Ã£o
Ġcand id
Ġchu va
Ġmunicip al
cia is
Ġadv ent
olÃ³g ica
l ar
Ġmov imento
s ome
Ġm orte
Ġpres enÃ§a
Ġform as
Ġemplo ye
Ġg ama
Ġcontem por
ad s
Ġser ve
Ġtrad uÃ§Ã£o
e v
Ġzo om
pon line
rig er
Ġtri ponline
Ġover view
Ġelim in
Ġinterpre t
Ġb is
Ġg ast
Ġest ou
Ġsegu ro
Ġpermit ir
Ġautomatic amente
Ġrel Ã³g
Ġencon tro
Ã¡l ogo
Ġregard ing
er as
ang er
gu Ã©m
Ġorig em
Ġcurr ently
g io
Ġgro und
g i
ag ue
Ġr ates
Ġdo or
Ġmed idas
Ġesper ado
Ġpu erto
Ġt in
Ġcri anÃ§a
Ġt endo
Ġcor ret
Ġtechn ologies
Ġstruct ure
us a
Ġpequ enas
Ġp ok
at t
Ġpass ar
Ġedit ion
int en
Ġpat ients
ia go
Ġcons ent
Ġpresent ed
Ġelectron ic
ed o
Ġneed ed
av ail
pr ise
Ġabr il
Ġflo or
Ġco ast
Ġconver ter
st ru
Ġdiv id
i Ã§a
Ġma inten
ĠtÃ©cn ica
Ġmeas ure
Ġfor ce
Ġrece be
c ho
Ġd ub
Ġpar ede
Ġpro b
t om
Ġrec ent
Ġutiliz e
Ġat mos
Ġcons erv
Ġresist Ãªncia
i i
Ġver ificar
j u
Ġde w
Ġtr ust
av il
Ġcust os
com enda
Ġbud get
is o
Ġsim ply
Ġvide os
Ġear ly
Ġoportun idade
Ġcommer cial
Ġth ousand
Ġout side
Ġol hos
Ġaz ul
Ġpor n
Ġfal ar
ab les
Ġag osto
Ġital ian
Ġl ov
Ġal ber
to wn
Ġpack age
Ġpol y
Ġins ide
Ġjo Ã£o
Ġm iami
Ġnenh uma
Ġfun do
Ġb ic
le ia
Ġal most
Ġaum ent
Ġber lin
Ġtick et
Ġsec ure
Ġpass ado
Ġcur sos
Ġaj ust
Ġmemb ro
Ġper u
Ġmainten ance
Ġc ub
Ġsearch es
Ġil ha
o h
w ell
enh am
Ġcompet it
Ġcateg ory
Ġas tr
id ent
Ġas seg
Ġaum ento
Ġforneced or
Ġveget arian
m al
Ġpers pect
Ġv ent
ac hed
w ise
Ġro d
Ġten ho
Ġread y
Ġpurpos es
t ical
anc y
ĠvocÃª s
Ġle is
Ġapr il
en glish
Ġmes a
Ġnov ember
Ġk it
Ġdest ru
Ġmens agens
Ġdam age
og ue
Ġd ura
Ġr ua
Ġupd ated
Ġul tra
Ġal ugar
Ġref riger
Ġsent ido
Ġh ope
b aix
Ġd Ãº
Ġli k
Ġd rop
Ġth in
Ġent r
Ġwee ks
Ġs ha
id Ã¡vel
Ã¢n ia
Ġal imentos
Ġch ance
Ġmen or
Ġpas so
Ġrec entes
Ġmaxim um
Ġs ter
Ġob ra
Ġins er
c ada
Ġma x
Ġass in
Ġkm h
Ġgol f
Ġl ap
Ġpar l
map a
k er
in qu
Ġat ing
Ġsus p
an i
Ġtar get
Ġmin ube
Ġqu il
ĠÃºltim os
Ġmidd le
Ġtri b
st ra
ip o
Ġlin has
Ġcount y
in Ã¡ria
qu est
Ġgu id
Ġpal ace
Ġmem ory
st e
th en
Ġk ill
Ġple as
Ġpict ures
Ġmultip le
Ġpr atos
Ġac redit
Ġor valho
Ġpc s
Ġv ant
et es
ific ados
Ġcond icionado
n as
Ġre gr
on ia
Ġw ed
ac y
Ġdr ug
Ġpr in
Ġappro pri
Ġc ant
Ġl ength
Ġr ules
Ġch ic
Ġpart ies
Ġpr os
Ġconsum o
Ġo h
p ts
Ġp int
Ã© ria
har ia
Ġmo vi
Ġpi ece
Ġav en
Ġstart ing
Ġwon der
ud io
Ġhav ia
Ġhal f
oss e
Ġposs o
wh ile
Ġfal ta
Ġcl asse
Ġcam inh
Ġfun cional
Ġfact ory
Ġcombo io
Ġt ir
Ġserv idor
Ġeconom ia
Ġus ually
Ġnov amente
Ġcomer cial
Ġinox idÃ¡vel
ag ora
Ġmar ri
Ġval ley
Ġoc cur
Ġsem anas
el os
Ġmud anÃ§a
Ġd ubl
Ġj ew
Ġdiv is
Ġa w
ei x
Ġsel ection
Ġte ve
Ġ rig
Ġmat ch
Ġv ila
Ġcon cept
Ġpart ida
Ġlev ar
Ġposs ibil
Ġhol y
Ġopin iÃµes
ÃŃ a
ta ke
Ġf ont
Ġout door
ĠprÃ³xim a
Ġmat ter
dis pon
Ġs d
on y
Ġse en
Ã³s ito
Ġsomet imes
Ġblow ing
Ġpar am
ĠÃ¡ r
Ġs ang
ol o
Ġit ens
Ġprocess amento
ĠdifÃŃ cil
Ġf ight
Ġl it
Ġide ia
d ra
Ġu t
gu as
Ġcent ury
Ġmanual s
Ġm ys
Ġfaz em
Ġdig it
ÃŃdu os
Ġad s
Ġstart ed
Ã©d ito
h an
Ġv oc
Ġlist ed
Ġide as
Ġst rip
az er
Ġfam ous
Ġequip ped
Ġd c
Ġm orning
et ic
Ġper da
Ġm ir
Ġdi ante
Ġinst ruct
Ġrespon der
Ġassoc iaÃ§Ã£o
s Ã£o
us ed
Ġsk ills
Ġtele visÃ£o
Ġre asons
Ġplay ers
ograph y
in er
Ġger almente
Ġc amb
Ġsu ite
Ġutiliz ador
Ġz ona
k now
Ġp ena
Ġfun Ã§Ãµes
Ġwel come
Ġf ish
Ġcompanh ias
i ente
Ġal guÃ©m
Ġes port
Ġdest ino
Ġhard ware
Ġsimples mente
Ġl ack
Ġj antar
Ġquest Ãµes
Ġbenef its
Ġt un
Ã¡ b
Ġfe ita
Ġrefer ence
ĠplÃ¡st ico
Ġfl ux
Ġmom ent
Ġbaix a
Ġrespons abilidade
Ġd esse
ÃŃ cias
ast re
Ġdv d
avail able
Ġde le
Ġso on
Ġpac ientes
Ġt an
ay a
Ġcomp ort
Ġartic les
Ġins p
Ġaustral ia
Ġdur ation
Ġexpl ain
Ġmem Ã³ria
Ġchall eng
Ġelem entos
Ġk ar
Ġthem selves
Ġautocar ro
ci es
y er
Ġb ree
Ġw ent
Ġwom an
Ġa x
Ġopin iÃ£o
Ġf Ã©
Ġcompon entes
Ġbib li
Ġprof und
Ġdar k
Ġbr isa
Ġansw ers
Ġsop ra
at ar
Ġcomp rim
i ado
Ġpresid ent
p ost
r us
Ġsw itch
Ġrep ublic
Ġf amos
x ic
Ġou ro
Ġpop ulation
Ġed iÃ§Ã£o
Ġpain el
ĠmÃ¡qu inas
Ġarqu it
Ġped ro
Ġl ost
Ġpop ulaÃ§Ã£o
Ġmach in
Ġg or
Ġc c
Ġqu ÃŃm
Ġcham p
Ġremo ve
Ġd ut
am ar
enc ion
Ġcompon ents
zh ou
Ġre pair
ha i
Ġlead ing
Ġp ick
Ġestud antes
Ġsle e
w ide
Ġre i
Ġlead ers
gu es
Ġval ues
Ġtarif as
end ing
Ġredu zir
Ġinde x
Ġapro v
Ġcour t
Ġengine ering
Ġel ements
Ġappl ied
m ine
Ġhe at
Ġeurope u
s hip
Ġuse ful
Ġnaveg ador
pt ed
Ġbast ante
Ġl g
Ġattra ct
is ation
Ġsu je
mar k
ĠanÃºn cios
Ġst ainless
Ġconfort Ã¡vel
p ack
Ġwebs ites
Ġconfig ur
Ġiss ue
Ġt rem
ed ia
Ġhel ps
Ġrel aÃ§Ãµes
Ġport anto
Ġutiliz ado
Ġtorn a
Ġmethod s
Ġb out
Ġposs u
t udo
Ġe th
Ġre quer
Ġgiv es
Ġfor um
d on
al ugu
Ġr are
Ġdo ing
Ġhand s
Ġsex ual
s s
Ġl ad
Ġre par
ĠÃ© p
Ġsp ot
Ġimp oss
Ġef ica
Ġdecis ion
Ġp un
Ġl ag
Ġcorrespon d
Ã£ s
ÃŃ cia
Ġpr Ã¡ticas
Ġbo as
Ġoffer ed
Ġcr Ã©dito
Ġger ais
or ed
ra ft
Ġnas c
Ġc od
Ġbir th
Ġpl aza
com pl
Ġoc orr
Ġevery one
Ġalter aÃ§Ãµes
he t
Ġcol le
Ġnot ice
Ġliv es
b ers
Ġbree ze
z y
Ġsu ÃŃ
Ġins pir
Ġbat tery
iter r
Ġemb ora
n este
ar em
Ġth us
Ġaud i
Ġviaj antes
Ġe yes
Ġfaz endo
Ġjog adores
pool ing
Ġrem ote
Ġcombin aÃ§Ã£o
Ġincreas ing
Ġinnov ation
Ġesp Ã©
Ġimp acto
Ġz e
Ġact ions
in u
Ġprovid ing
Ġbe ha
ura Ã§Ãµes
Ġpubl ished
Ġneg oc
Ġestabel ec
Ã¡t icos
Ġdistribu iÃ§Ã£o
view s
Ġat a
tod as
Ġsom os
Ġconf i
Ġfot o
r ary
in ation
Ġp ad
Ġal um
Ġatt ention
Ġassist Ãªncia
fo i
Ġcol ors
Ġpass agens
Ġide a
comp are
ĠsuperfÃŃ cie
Ġal ib
Ġex hib
Ġn atura
Ġlo jas
Ġcal end
Ġecon Ã³m
Ġfabric antes
Ġnuv ens
Ġrel atÃ³rio
Ġer am
Ġvac ation
Ġm Ã£os
Ġh ill
Ġin ver
elh os
Ġpres erv
Ġmost ra
j ud
Ġcon clus
Ġ ign
Ġass um
Ġinit i
Ġf ares
Ġsur round
Ġattra ctions
trip advisor
il es
Ġfun ctions
Ġart es
Ġassoci ation
Ġd rag
Ġv Ã¡l
Ġex act
Ġj ose
Ġcli ents
Ġresort s
Ġwrit ten
s et
Ġqu ente
Ġper feito
Ġconform e
Ġcol d
Ġhistor ical
h ab
en n
il ton
Ġg el
Ġser em
Ġwire less
Ġc orte
Ġfranc Ãªs
Ġappropri ate
Ġalib aba
Ġle it
Ġbair ro
Ġcar pooling
Ġpres ence
Ġfore ign
e ad
f urt
Ġb orn
cl ique
Ġnot hing
ete o
tem po
om os
Ġtr uth
Ġgo al
Ġabs or
Ġjos Ã©
Ġ iv
Ġc p
d ur
il ing
ak es
Ġamar illas
d et
ou ra
pl os
Ġimport Ã¢ncia
Ġnetw or
Ġat h
Ġsle ep
Ġsh irt
Ã©r cio
Ġci Ãªncia
x x
Ġs Ã©c
re ce
ire ct
Ġconn ected
om s
Ġair bnb
Ã¢m ica
Ġil umin
Ġwashing ton
er d
Ġps y
Ġhe ld
Ġsc en
Ġexper t
Ġo m
Ġde ep
te za
ĠÃ¡ l
ĠhistÃ³r ico
Ġsufici ente
Ġmuse u
Ġcre ation
Ġp Ã³s
Ġl ago
em eteo
Ġchar ge
ve u
Ġtran qu
l ug
Ġreal idade
Ġoper aÃ§Ãµes
Ġbed room
Ġargent ina
Ġprincip almente
Ġoffer ing
Ġcient ÃŃf
Ġbe ar
Ġcomp ras
an os
Ġdiv ul
Ġtecn ologias
Ġcla im
Ġass emb
Ġdecis Ã£o
ĠlÃŃn gua
Ġv ou
Ġfor est
Ġback up
Ġer ros
itt ing
Ġa lex
ar do
Ġf ech
it ado
Ġk ids
ap a
ap Ã³s
Ġhigh ly
Ġefici Ãªncia
cl ick
Ġencontrar Ã¡
Ġgir l
Ġrequis itos
Ġsp ring
m ont
Ġex ter
Ġev ang
Ġvend as
Ġredu ce
Ġa ux
or f
Ġj ac
olÃ³g ico
Ġdise ase
Ġcomp ress
Ġcur ta
ict ion
Ġd ates
Ġcom ments
Ġst ri
Ġsc an
Ġfin s
ĠpÃºbl ica
Ġestabl ished
cl es
Ġgir ls
Ġh un
a qu
i el
Ġes quer
ob re
ĠfÃ¡br ica
ri z
Ġdo enÃ§a
Ġper d
Ġsuppl ier
Ġengen haria
Ġamster dam
Ġoper ations
u z
Ġsa w
Ġrun ning
Ġplane j
Ġv amos
Ġmar cas
Ġlin es
Ġchrist ian
Ġinov aÃ§Ã£o
n ote
on o
Ġfa Ã§a
i et
ĠprÃ³pri os
Ġre form
gr ad
ub ra
ĠsÃ©c ulo
b ul
k o
Ġar ts
Ġcal or
Ġconfig uraÃ§Ã£o
Ġs ele
sp ec
Ġpreoc up
c or
ct ional
on to
Ġun idades
c ks
h old
ir amente
Ã³ st
Ġcl in
Ã¢n eo
Ġorganiz aÃ§Ãµes
j Ã¡
Ġcar ry
Ġve gas
Ġexp ans
Ġalter ar
Ġd ific
Ġjog ador
Ġdetal h
id Ã£o
Ġclou ds
p od
Ġid eias
Ġeffici ency
Ġger aÃ§Ã£o
Ã´n ia
Ġcom Ã©rcio
um b
ei os
Ġrelacion adas
Ġdivers as
Ġstrateg y
Ġcon clu
Ġta il
Ġavail ability
Ġhol d
ĠfamÃŃl ias
l ist
Ġgen e
Ġmanufactur ers
Ġ ire
Ġp Ã´
Ġeste ja
Ġconex Ã£o
Ġpar ece
ĠÃºltim o
Ġv iver
Ġstar s
Ġcel ular
Ġh ire
pl aces
Ġd icas
Ġs or
Ġr d
ent Ã¡rio
Ġcham ado
s erv
pa ign
atur as
Ġdepart ure
lug ares
Ġmar avil
Ġper der
Ġspr ings
Ġqu inta
Ġmed iterr
Ġmud ar
Ġconfig uraÃ§Ãµes
ve y
ven Ã§Ã£o
Ġcompar ison
Ġmud anÃ§as
Ġcuid ados
Ġrele ase
Ġcontex t
Ġv indo
Ġun s
Ġwe ar
Ġdom ÃŃnio
il has
Ġk b
Ġcar r
ber ry
Ġpass word
Ġmov ement
Ġneigh bor
Ã§ ar
Ġson y
Ġclick ing
Ġre in
Ġstandard s
ec es
Ġcar ga
Ġdest es
Ġwar m
ent ic
Ġthough t
Ġh amb
Ġed ge
inform aÃ§Ãµes
Ġex tr
Ġmeas ures
f s
Ġd Ã©c
Ġqu adr
Ġpr atic
Ġproper ly
Ġab erto
Ġfir m
ĠalcanÃ§ ar
Ġs now
Ġad ol
Ġdist ribution
Ġcreat ive
Ġnat al
it am
Ġopen ing
Ġres p
ig ation
Ġpos itive
Ġcompanh ia
Ġm ur
Ġwindo w
Ġprofessional s
Ġnatura is
Ġme xico
Ġfre ed
Ġwar rant
Ġcompart ilh
Ġth reat
Ġcont as
Ġdis pos
Ġcer to
Ġconfer ence
Ġprecip itaÃ§Ã£o
d uring
Ġsu d
Ġst age
ch ester
Ġprecis o
du ra
Ġdet ect
Ġamaz on
Ġarquit et
Ġex cept
ĠmÃ© todos
cont act
Ġtransl ation
Ġqu ite
Ġsens e
Ġadminist raÃ§Ã£o
Ġdivers os
Ġnecess Ã¡rios
Ġclass ic
Ġsent ir
w ork
us o
Ġexperi ences
Ġacomod aÃ§Ãµes
ari amente
Ġcol um
Ġrec ente
Ġcomer ciais
Ġy e
Ġsuit able
Ġfr am
Ġtal k
Ġbout ique
Ġli qu
Ġbec ame
Ġacomp anh
Ġav ent
Ġfre emeteo
Ġbegin ning
Ġfest ival
Ġb ols
Ġem iss
ut s
Ġlim pe
Ġbeaut y
Ġposs am
Ġdubl in
Ġbas is
Ġrom Ã¢nt
Ġalugu er
Ġdub ai
Ġis l
Ġwork ers
Ġhim self
Ġinterest ed
Ġch ain
Ġm ente
Ġvis ion
Ġverm elho
Ġprodu ced
Ġregr as
an ca
ens ion
Ġaf ric
Ġthan ks
Ġworld wide
Ġdire Ã§Ã£o
Ġlar gest
Ġlib rary
Ġs ect
Ġestabl ish
Ġbater ia
he ad
re al
Ġfr ut
Ġbr inqu
Ġinf ra
al ha
ol is
ific ada
Ġampl a
Ġlc d
qu ar
Ġcl ima
t ec
Ġexercis e
Ġinter act
Ġsing ap
Ġscient ific
ĠÃº teis
Ġdispon ibilidade
ute bol
produ ct
Ġo t
Ġpre d
r s
Ġg Ã¡s
Ġtw itter
Ġcoll abor
Ġcam paign
Ġbal ance
Ġbar ato
Ġparticip aÃ§Ã£o
Ġp har
ow n
Ġwh ose
Ġliber dade
cri pt
Ġa er
Ġat ribu
Ġper t
com entÃ¡rios
Ġexperi Ãªncias
Ġprote ger
Ġy es
ist e
Ġl ingu
ap ar
Ġte u
cur so
Ġgood s
Ġbenef ÃŃcios
Ġ ÃŃ
Ġcr ÃŃt
ĠestratÃ©g ia
ĠmÃ© xico
Ġregist ro
Ġdirect or
Ġsens or
Ġdesfr utar
Ġtem pos
Ġconv id
Ġbeha vi
r is
qu ick
Ġv isto
Ġposs ibilidade
Ġm Ã³veis
Ġbar b
Ġaf et
Ġv s
am o
Ġdis co
v est
Ġsa ÃŃda
Ġimpro v
Ġa ward
ac ts
Ġch Ã¡
Ġg anhar
Ġex posiÃ§Ã£o
Ġim pr
ide z
ĠcÃ¢m era
wor ks
Ġraz Ã£o
Ġm issÃ£o
Ġnecess Ã¡ria
Ġpronunci ation
c ert
Ġair es
b es
i us
Ġf is
Ġir on
Ġdom ain
Ġjour nal
Ġsele Ã§Ã£o
Ġv inho
anc ing
Ġph en
ri f
Ġf ec
Ġda vid
Ġco ach
Ġprogram me
Ġrem ember
Ġm ental
Ġemploye es
Ġbe gan
Ġcons ol
Ġcer teza
Ġdoes n
Ġlink ed
Ġoce an
j os
Ġf io
Ġinc r
let t
Ġman uais
Ġcam pos
Ġpat tern
Ġcarri ed
Ġt entar
ou tros
Ġpequ enos
Ġcontr ato
Ġconfort o
Ġembal agem
Ġo tim
Ġtra ff
Ġpromo Ã§Ã£o
Ġcom ida
Ġam ea
Ġfi el
ĠÃºltim as
Ġinvestig aÃ§Ã£o
Ġrefl ect
ro ll
Ġship ping
Ġimedi atamente
Ġcar ds
Ġpriv ado
tra vel
Ġback ground
Ġpolic ies
Ã© st
ma il
Ġmot iv
Ġhar mon
Ġaliment aÃ§Ã£o
Ġp vc
og os
Ġref ei
Ġsant iago
Ġresol uÃ§Ã£o
Ġchem ical
Ġpre visÃ£o
Ġestrel a
Ġcoloc ar
Ġintell ig
Ġc en
descri ption
Ġshow er
n ear
Ġest avam
Ġsy m
Ġgener ation
Ġunderstand ing
Ġrail way
Ġa u
Ġesc ala
Ġelect r
Ġtorn ou
ten ha
Ġha ver
Ġfound ation
Ġg ab
Ġlat in
Ġcompart ilhar
Ġinvolv ed
Ġd esses
Ġmess ages
Ã¡ til
Ġcon g
an al
um es
inter est
Ġdan os
n os
Ġoc up
Ġsil ver
Ġcont rib
Ġlog in
Ġk il
Ġte a
Ġcomb ust
Ġsegund os
Ġeur os
ĠÃŃnd ice
e iras
th ough
acc ording
Ġimmedi ately
Ġvo z
Ġsuf fer
un e
Ġs pl
Ġre covery
Ġresid ence
Ġelectron ics
Ġfit ness
Ġon es
Ãº r
Ġag ree
Ġinvest ment
ÃŃst icos
Ġam igo
ĠmÃ©d ico
Ġgrad u
Ġavis o
om b
Ġsho wn
Ġext re
un es
p as
Ġl ider
Ġre ve
Ġmet ro
Ġpower ful
Ġedit or
Ġm ention
Ġfrank furt
Ġlimpe za
cl ud
Ġprot ocol
ĠÃ¡r v
h or
Ġl an
Ġv ag
Ġdi et
Ġsalv ador
Ġinte iro
Ãºbl ica
Ġc f
Ġpass age
fa Ã§a
Ġtest es
Ġalum ÃŃnio
Ġcom ment
Ġbeh ind
ree k
Ġany thing
Ġcreat ing
Ġc idad
Ġtec ido
Ġapro pri
Ġun its
Ġphil ips
a ult
pl ace
iz ing
Ġmil an
Ġmass a
Ġguarante e
Ġposs ÃŃveis
Ġcancel on
Ġf utebol
Ġfuncion a
ed or
Ã© cia
ag en
Ġcir cu
Ġextern al
qu ir
Ġgratu itamente
Ġapro ve
g al
p ap
Ġb ele
Ġind ia
Ġsome one
Ġrelev ant
Ġmachin ery
Ġs ar
Ġequ ival
Ġprote g
Ġlod ge
f un
Ġde ad
Ġcl ÃŃn
Ġshar ed
w al
Ġto wards
Ġdest ac
Ġapresent ar
Ġpass os
Ġambi ental
ci ples
Ġset ting
Ã¢n ica
Ġdifer enÃ§a
Ġclass es
Ġconsum ption
he m
Ġcom ing
st on
Ġman ifest
Ġmon um
Ġhum ano
Ġdem ais
Ġb ah
Ġel abor
Ġvisit ors
Ġinstal ar
Ġg ent
Ġread ing
Ġpract ices
Ġperg unta
Ġcondition ing
p are
Ġtra z
Ġmed i
Ġimpress ion
r ate
Ġdefin it
Ġincreas ed
Ġdre am
Ġm Ã³d
Ġbu enos
s l
Ã¡ cia
Ġarchitect ure
v idas
Ġv in
pro dut
Ġplay a
p i
ut il
Ġport al
Ġsw im
Ġpadr Ãµes
Ġsam ple
Ġcic lo
c up
an has
Ġbar ra
Ġcri min
Ġcul inÃ¡ria
b ed
Ġro do
Ġpe Ã§a
dur ante
Ġse qu
Ġconhec ido
Ġic on
iz adas
Ġnum er
Ġdific ul
a w
Ġc n
Ġer r
it ure
e g
Ġt ree
ul s
Ġvo ice
Ġsecond s
e very
Ġp iz
us ion
Ġcar s
n ia
Ġw inter
Ġprov ince
Ġjun t
loc aliz
Ġreport s
Ġb m
Ã£ es
Ġtrad icional
Ġhe w
en na
te ase
Ġdi rig
Ġresist ance
Ġm Ã³vel
Ġtur ismo
d ney
Ġcor ru
ous ly
Ġfil mes
Ġrespon se
Ġget ting
Ġt ua
Ġcan al
Ġev id
Ġsitu ado
Ġpromo Ã§Ãµes
on al
Ġw orth
Ġas ked
Ġamb os
Ġci Ãªncias
Ġcit iz
Ġreal ity
Ġsk i
Ġspirit ual
est rut
Ġlong a
Ġpal m
Ġparticip ar
h z
Ġpack ard
Ġtransfer Ãªncia
c ap
Ġimport ance
Ġappro xim
Ġg ala
Ġrep Ãºblica
Ġl oun
Ġfun ctional
Ġpo or
Ã´m et
d ades
Ġsur g
Ġw at
Ġh abilidades
Ġal umin
Ġanim als
Ġbe y
st and
Ġmod a
v an
Ġf ase
tim e
Ġjan ela
Ġgra Ã§as
Ġfact ors
ÃŃd as
Ġse Ã§Ã£o
Ġdes l
ie f
u k
Ġlist ing
Ġsant os
Ġcateg ories
Ġcorret amente
Ġt Ã³p
Ġo bl
Ġan unci
Ġmet ers
Ġutiliz ando
Ġhous es
Ġ rib
Ġb ri
Ġvisual izaÃ§Ã£o
Ġde posit
Ġspecific ations
Ġp ud
Ġn acionais
ot el
Ġpou cos
Ġann oun
Ġen fr
Ġstud ent
Ġcir c
Ġaproxim adamente
al ing
ag ed
Ġsh ang
rough t
Ġplan ning
Ġhigh est
Ġtow er
Ġintegr ated
Ġraz Ãµes
Ġfeed back
Ã´n ibus
Ġprofess or
Ġfall s
Ġescrit Ã³rio
n am
Ġr y
Ġpor Ã©m
Ġexist ing
Ġrecomend aÃ§Ãµes
Ġg ift
Ġse at
Ġintern al
ir Ã¡
Ġguard a
Ġcontex to
Ġprecip itation
Ġa Ã§
Ġdes per
unt os
und ay
Ġdetail ed
Ġpropriet Ã¡rio
Ġw ild
Ġfor tal
Ġrevol ution
an hos
Ġvis a
Ġr ural
ÃŃ dia
ĠcÃ© l
Ġs r
Ġe ye
Ġacc ord
Ġenter prise
Ġse is
Ġtra il
om o
ens es
Ġpict ure
Ġchin ese
Ġgerenci amento
Ġadult os
w an
Ġn esse
est ic
de u
Ġmarket s
Ġtermin al
Ġn ec
m ic
t emos
Ġjust iÃ§a
Ġatual mente
vi Ã¡ria
Ã¢n ea
Ġtransm it
Ġa k
Ġcan ais
Ġinstruct ions
l ando
ĠcomeÃ§ ou
Ġform s
Ġdiv ert
Ġcompar ed
bur go
ÃŃ c
Ġdiffer ence
Ġpi eces
Ġinstitu iÃ§Ãµes
Ġchann el
ect ual
Ġparticip antes
Ġtor onto
Ġvehic le
Ġab ra
Ġob st
Ġplay ing
Ġachie ve
ĠÃ©p oca
Ġn ic
Ġap re
Ġun to
Ġident ify
Ġsc ale
Ġmes mos
Ġportug ues
e y
z u
Ġla ws
Ġtrad ing
Ġdepart ment
Ġsc he
Ġill ust
Ġcanad Ã¡
Ġup per
Ġdestin ation
Ġhew lett
Ġz ip
Ġoc orre
Ġjer us
Ġmilit ary
Ġvul ner
Ġchic ago
iv ing
Ġsol o
Ġact ually
Ġc ima
Ġcl Ã¡ss
Ġprime iros
Ġl id
ade ira
og a
oun ds
Ġteach ing
Ġquad ro
b t
op s
k ok
Ġpsy ch
l ong
qu em
Ġutiliz ados
Ġredu Ã§Ã£o
ĠtÃ©cn icos
Ġpar ad
Ġextra ct
Ã©t ico
Ġla unch
Ġexec uÃ§Ã£o
Ġrecommend ations
Ġmaravil hos
Ġbele za
Ġtrabal hos
Ġinf ant
Ġconst it
Ġmach ines
Ġfres h
Ġsang ue
Ġadol esc
r Ã³
Ġb il
ac he
Ġnot ÃŃcias
i en
Ġd il
Ãº l
sh are
Ġnut rit
Ġent ender
Ġinstit utions
Ġse ven
Ġflux o
p to
r ich
ic let
Ġx p
Ġnear by
Ġcy cle
f it
l og
Ġch ile
Ġcont ents
Ġant on
ĠpÃºbl icos
Ġagrad Ã¡vel
Ġefica z
Ġs ag
os ter
Ġedit ar
Ġcham ada
Ġadvant age
Ġequ il
Ġacomod aÃ§Ã£o
Ġinclus ive
Ġb io
w ater
Ġr ather
ist er
Ġcont acto
Ġtem a
Ġel se
Ġclass ificaÃ§Ã£o
Ġfat ores
Ġp p
Ġm is
Ġl if
us Ã£o
Ġcont ÃŃn
Ġinstit ute
Ġindividual s
o y
ta il
Ġentre v
cas o
Ġrespons ibility
Ġcontr Ã¡rio
Ġs ÃŃ
Ġsu its
Ġlin ux
Ġmal e
Ġpack aging
Ġpan or
Ġcomer ci
Ġfamil ies
Ġjorn al
ce u
ard s
ak a
Ġsy dney
Ġwal king
Ãºn cia
b and
s ub
ad icion
ber t
Ġrequ ires
Ġdesk top
ri fic
Ġor Ã§
con tr
Ġconform idade
c ateg
f otos
Ġen gl
Ġprodu ce
Ġrec ently
al so
Ġp ure
Ġfor ward
th rough
Ġfr uit
r at
ra Ã§Ãµes
Ġhapp ens
Ġcon osco
Ġdo enÃ§as
Ġconc re
Ġpres entes
Ġgall ery
Ġcalif orn
Ġp ous
Ġaqu ele
Ġtal vez
ĠrÃ¡ dio
Ġb od
Ġdis cipl
Ġestabel ecimento
Ġoportun idades
Ġrepl ac
Ġg i
Ġim ped
Ġant ec
Ġpermit em
Ġn ames
Ġdel ici
Ġemplo y
Ġb ac
om in
Ġap ost
Ġbro ch
Ġaust r
Ġopportun ities
Ġmest rado
ogra f
Ġeconom y
Ġresol ution
Ġminim um
i ados
Ġn ord
Ġbat tle
Ġlangu ages
Ġg ave
com ments
Ġespec ificaÃ§Ãµes
Ġstr ess
Ġs ain
Ġas ia
Ġm encion
Ġst one
or me
Ġde u
b em
Ġs ed
Ġpar Ã¢met
Ġy ellow
Ġsp read
Ġgra Ã§a
Ġii i
i ques
emb ora
Ġjap Ã£o
Ġedif ÃŃcio
q l
r ando
Ġre for
Ġwr ite
ĠmÃ¡xim a
Ġp aint
Ġdire ction
Ġant ig
Ġmec an
Ġl uta
Ġcri ado
har es
Ġm t
ing ham
inform ation
Ġterce iro
Ġformul Ã¡rio
r ent
Ġprint ing
e ach
r itos
Ġisland s
Ġfreed om
Ġpass eng
man y
Ġcome Ã§a
Ġlib ert
Ġser ious
Ġinstal ado
Ġsat ell
b at
p n
ic iais
Ġv Ãª
Ġr as
con f
Ġencontr ados
Ġrev est
Ġfont es
p hot
en ge
Ġr ing
Ġdin ing
Ġaff ect
e as
Ġk y
Ġus ada
Ġrep et
Ġdecor aÃ§Ã£o
Ġdedic ated
or al
Ġf ing
gr ade
Ġlim a
Ġd ens
ur ance
Ġeffici ent
Ġg ate
bl es
wor ld
Ġch ron
ĠÃ¡ udio
Ġprecis Ã£o
Ġc oc
Ġbr idge
Ġlar g
Ġad icional
Ġcolle ge
or o
Ġl Ã¢m
Ãºs sia
Ġfram ew
r ist
em un
Ġdom ingo
Ġsalv ar
Ġ Ã³r
Ġencon tre
Ġlong e
Ġtip s
r ated
Ġconveni ent
Ġrar os
s ince
pl a
Ġobjet ivos
Ġbibli otec
j ac
es is
ar io
al idade
Ġr an
in ed
Ġgiv ing
Ġgold en
Ġdro ps
Ġnum bers
Ã©ri os
Ġcir cul
he im
Ġv il
end ereÃ§o
Ġfavor itos
g raÃ§Ã£o
Ġto ld
Ġter ror
Ġz ero
Ġmil Ã£o
Ġapplic able
Ġmonitor ing
ĠveÃŃ culos
Ġm eios
p at
ed os
Ġloc ations
Ġesp irit
Ġx box
Ġdist ribut
Ġsupport s
Ġselecion e
Ġp Ã³
Ġb ak
Ġplay ed
Ġorganiz ations
Ġcuid ado
Ġ ice
es col
Ġp ic
Ġwas te
Ġcateg orias
Ġnorm almente
Ġhum ana
t w
Ġh u
Ġcol on
Ġsc ri
Ġplan et
Ġv ot
ec om
Ġv ont
Ġcheg ada
Ġs ort
Ġou vir
Ġtele vision
Ġaccommod ations
Ġclic ando
o ff
or no
Ġtab ela
Ġstrip tease
Ġbe g
des de
ser vi
id ental
Ġna Ã§Ãµes
Ġps ic
Ġmeteor olÃ³gicas
ĠmÃŃn imo
Ġtrein amento
m i
Ġest ate
Ġpoder Ã£o
Ġconce ito
ĠrelÃ³g io
Ġr s
Ġl en
Ġal one
Ġref let
Ġterra ce
eto oth
Ġm r
Ġrel iable
icion ais
Ġestr ada
Ġcharacter istics
ofer tas
Ġdescrib ed
ib er
plo ad
Ġplac a
Ġn ations
Ġdis s
Ġcompl ement
Ġdever Ã¡
Ġt iv
al ity
ic l
Ġor lando
Ġbr ux
Ġtravel ers
Ġabord agem
on ce
ra p
Ġset e
Ġsustain able
Ġchalleng es
Ġa us
Ġp ix
Ġsh ut
Ġprecis am
Ġallow ed
ĠveÃŃ culo
ia Ã§Ãµes
Ġmod os
Ġpot encial
Ġfu el
Ġtrabalh adores
Ġcaliforn ia
h l
Ġinv ent
che ck
Ġdepend ing
alg uns
Ġnetwor ks
Ġsu pl
Ġsim pl
ux e
Ġol h
Ġviaj ar
Ġinfer ior
Ġilumin aÃ§Ã£o
Ġl este
air s
Ġrealiz ado
Ġperform ed
Ġimplement ation
Ġbey ond
Ã¢n ico
Ġcast le
ĠlÃŃ qu
j ar
Ġp eix
Ġm erg
Ġcom uns
Ġst ick
Ġgra u
Ġex curs
Ġrec ip
Ġdri vers
Ġvisual izaÃ§Ãµes
Ġroup a
r an
pt on
noss o
baix ar
al t
Ġat ender
Ġinter m
ÃŃn a
Ġident ificar
Ġresol ver
li ke
ĠfÃŃs ica
Ġb rought
ĠconteÃº dos
Ġel ement
Ġspec ies
d ed
Ġma ps
Ġcur to
Ġexpl ore
Ġexclus ive
Ġcole Ã§Ã£o
Ġvont ade
t ica
Ġs inal
Ġaval iar
Ġtas k
Ġprocur ar
n ecess
es per
os as
Ġb ou
Ġmerc ados
Ġrad i
Ġwhe el
Ġwarrant y
al ta
Ġalem Ã£o
word s
Ġlik ely
t ics
et ers
Ġat ac
pes quis
Ġinst ead
Ġescol h
it Ã¡rio
mar ks
Ġvit am
Ġloun ge
Ġhom es
Ġcaus ed
ĠnÃºm eros
Ġscho ols
Ġcolom bia
e ven
Ġadv ance
Ġn y
Ġatual izaÃ§Ã£o
Ġalt amente
Ġenter tain
Ġport as
Ġhor Ã¡rio
Ġconvers Ã£o
Ġdim inu
Ġinit ial
it zer
Ġag r
Ġcompet itive
Ġal co
Ġcan c
Ġle va
Ġreg iÃµes
Ġvisit antes
Ġhealth y
Ġobject ive
sa iba
Ġf as
Ġac res
Ġoc as
Ġpartners hip
f inal
ff ici
Ġdevelop ing
Ġmean ing
Ġrecuper aÃ§Ã£o
Ġre duc
comp art
Ġroup as
Ġm all
if ying
Ġruss ia
Ġsou l
p ite
Ġo z
Ġyou th
Ġinvest imento
Ġred or
Ġsu gar
gen er
k ayak
Ġgr am
Ġlic ense
Ġgrow ing
Ġpl ants
Ġint ended
Ġprocur ando
ro y
Ġag encies
ph ere
Ġtrad icionais
Ġrelig ios
Ġbl oque
Ġrecur so
Ġfoot ball
ay s
Ġapresent aÃ§Ã£o
Ġrealiz ada
ĠeconÃ´m ico
Ġbang kok
Ġscri pt
p el
in n
ro g
Ġac er
Ġfar o
Ġpromo ver
Ġm ut
Ġr f
Ġcont agem
Ġinnov ative
t ube
v amos
Ġto que
Ġmat Ã©ria
it age
Ġcom od
Ġac ol
Ġmar ina
Ġespecial istas
Ġremo ver
ĠÃŃn dia
Ġapproxim ately
Ġaustr Ã¡lia
s ua
Ġcin ema
Ġmin has
Ġcas al
ĠÃ¢ mb
v ar
Ġest arÃ¡
and er
aix as
c s
Ã¡ n
Ġbu ff
Ġt Ã©r
Ġh en
Ġcom plic
Ġqu ero
Ġsm ok
Ġwh om
Ġcap e
r ita
y pt
Ġal though
Ġle ia
Ġdi pl
Ġoc cup
w he
Ġfor Ã§as
Ġbe ij
Ġbed rooms
Ġaspect os
Ġneighbor hood
d el
Ġs atur
it ando
ol ic
Ġmas cul
plo y
Ġadicion ado
Ġm ouse
Ġb right
Ġtem ple
Ġprom ote
Ġatt em
Ġcombin ation
Ġcommit te
Ġsa o
Ġinici ar
Ġvol unt
Ġig ual
Ġaf irm
Ġequip a
Ġquer em
Ġcertific ate
r ast
al ed
ut en
Ġda qu
Ġresult ing
Ġmo on
Ġdes enh
Ġpre val
Ġamost ra
us ing
ir st
Ġsy mb
e k
Ġt at
Ġcom entÃ¡rio
ĠmÃ©d icos
Ġcrit ical
en quanto
Ġpre gn
Ġsh ape
Ġsa ir
Ġtour ism
Ġruss ian
c at
Ġb ell
ab out
Ġlic enÃ§a
Ġg osto
Ġber lim
Ġtraff ic
Ġfiel ds
h s
ill o
there fore
Ġregul ation
Ġheav en
Ġresp ostas
Ġr ess
Ġconst ante
Ġj a
Ġam en
ific ations
Ġatual izar
Ġjapan ese
n i
s ur
Ġin im
Ġdirect ory
Ġcoll ected
Ġbenef it
Ġsatell ite
Ġm ÃŃdia
Ġf if
Ġb ow
Ġcar ib
Ġtest emun
stra ct
s up
Ġgu ang
Ġaccord ance
itzer land
Ġdo g
ÃŃst ico
Ġdisp Ãµe
at em
quick ly
Ġd essas
Ġl ut
Ġto y
des ign
Ġep is
Ġsimil ares
Ġchall enge
l ast
Ġsp ect
Ġcas amento
uss els
cri Ã§Ã£o
Ġadvert ising
Ġshang hai
d ec
Ġd Ã³l
Ġb anda
Ġn omes
Ġtransm issÃ£o
Ġm it
Ġmar y
ix o
Ġsmart phone
Ġadvent ure
Ġcomp ens
Ġhor Ã¡rios
Ġbilhe tes
Ġt enham
al em
Ġcar ne
Ġoferec em
Ġinver no
ent y
Ġen able
ph ones
Ġopin ion
Ġwrit ing
ent er
Ġtri ps
Ġmanufactur ing
Ġwr ong
Ġr ating
Ġgr ant
ind er
Ġsupport ed
Ġexerc ÃŃcio
Ġi or
Ġtor no
Ġblu etooth
Ġtr ying
tr ad
Ġinc ent
Ġcontro lo
Ġcr is
Ġge orge
Ġpens ar
z as
Ġque en
Ġtor re
Ġfoc o
Ġcon ced
Ġr it
Ġdef esa
Ġjo y
Ġeven ing
Ġland sc
Ġaspect s
Ġgala xy
Ġcond iÃ§Ã£o
ruct ure
Ġconsegu ir
Ġtem pl
Ġrealiz aÃ§Ã£o
ÃŃl ia
Ġpost s
Ġcare er
ĠmÃºs icas
Ġdesaf ios
ĠsuÃŃ Ã§a
s al
Ġfr ances
Ġch ocol
Ġinclu ir
m ond
Ġn ingu
ot er
Ġem ir
Ġdivul g
g le
Ġbrasil eira
met ros
Ġib is
Ġacont ece
Ġado be
Ġclot hing
dispon ÃŃveis
Ġningu Ã©m
Ġcomprim ento
Ġf ogo
Ġr id
ost on
Ġpre ench
Ġsho es
Ġutiliz adores
Ġrecon he
Ġbrit ish
d Ã£o
o a
he ira
Ġal ma
enc er
Ġpet er
Ġinstit uto
Ġinterest ing
Ġindepend ent
Ġris cos
Ġsil ic
Ġparticular ly
Ġfrequ Ãªncia
Ġclean ing
Ġframew ork
Ġs inc
Ġv Ã³s
un te
ÃŃ amos
con d
Ġol har
Ġexp ensive
ograph ic
ĠespecÃŃf icos
ing ton
Ġpar ents
us es
Ġz one
Ġident ificaÃ§Ã£o
Ġarri val
Ġc s
en ha
Ġo em
Ġv ital
Ġex clu
Ġcar ta
her lands
Ġclim ate
Ġenh ance
Ġn erv
Ġcor rig
Ġplac ed
Ġs low
is mos
Ġtour ist
Ġb urn
Ġto il
av ing
Ġpag ar
Ġnuv em
Ġheav y
Ġap esar
Ġcorpor ate
Ġem it
st ar
ira Ã§Ã£o
ended or
fo x
Ġsolic itar
Ġop pos
Ġsay ing
ĠlanÃ§ amento
Ġv on
Ġtr Ã¡s
ci ent
Ġad ults
Ġfl ores
Ġinf rast
Ġreserv ation
Ġp ne
Ġve gan
Ġdeliver ed
Ġchann els
iab ility
Ġdorm ir
iv el
Ġal ar
ric s
Ġbaix os
Ġcooper ation
Ġcooper aÃ§Ã£o
ec ido
Ġec r
Ġpract ical
p Ã¡g
on as
ter iores
Ġrele ased
Ġemb ar
Ġchang ed
Ġobtain ed
Ġfurn iture
b ras
est re
Ġab and
des c
ament ais
Ġc Ã¡
it ions
Ġg ig
ol es
Ġat endimento
Ġadminist ration
Ġior que
l u
p u
Ġqu iet
Ġmed ium
Ġaltern ative
Ġfel iz
in f
Ġpersonaliz ado
Ġpot Ãªncia
bur gh
Ġengl and
Ġc Ã³p
Ġr h
Ġfor ces
port os
Ġcont ribut
Ġpra zer
Ġem ot
Ġr ose
Ġinte graÃ§Ã£o
Ġs uns
Ġm old
Ġf t
Ġab ertura
ond a
Ġempres ar
olÃ³g icos
Ġplant as
f ill
Ġv iz
Ġpa ir
abil ities
Ġdr ink
Ġintegr al
Ġcompat ÃŃvel
Ġsignificant ly
in aÃ§Ã£o
Ġb ens
Ġex cess
Ġreg ions
Ġbase ado
h u
Ġcar los
fer a
Ġdesc re
Ġlist en
Ġtest ing
Ġopen ed
Ã´m bia
p g
Ġbel ong
Ġexplor ar
h ou
Ġhotel quickly
com fort
Ġf an
Ġexper iment
Ġinflu ence
Ġcoord en
Ġtrib un
Ġap rim
Ġsal t
Ġaqu ecimento
Ġempre go
a ug
f ri
ed as
ul y
Ġdel a
Ġbook ings
Ġlist ados
Ġview ed
Ġil ust
Ġcop enh
Ġconveni ente
Ġt os
ol ina
Ġr Ãºssia
Ġpr Ãªm
Ġcan on
Ġout put
Ġcal Ã§as
Ġbro wn
Ġrest rict
Ġpas ta
Ġcurr ency
Ġtag s
u Ã¡rio
iv eness
ĠtÃ©cn ico
qu ist
Ġopt ional
ĠÃ¢mb ito
Ġv inc
Ġag Ãªncias
Ġshar ing
Ġcarre ira
Ġprim ary
Ġdeter mine
Ġpassage iros
Ġf um
ha el
Ġmod ule
Ġpass agem
Ġlu c
Ġanalis ar
z ar
Ġoper acional
Ġbrasil eiro
Ġwant ed
Ġanaly tics
Ġidi oma
ce ed
Ġlab el
Ġbrinqu edos
Ġ ia
Ġdis ap
Ġn i
Ġbec omes
Ġreun iÃ£o
at Ã³ria
Ġmil hares
Ġnu cle
Ġefet uar
ab led
ch er
Ġalb um
Ġs we
Ġo v
Ġf c
at is
Ġst ations
Ġra w
Ġsur v
Ġautom Ã¡tica
esp ec
f am
Ġr osa
cl os
Ġmu ita
Ġsw itzerland
Ġcover ed
p ra
Ġl ob
Ġh it
Ġfic heiros
Ġpower point
Ġen em
pro of
Ġf osse
Ġcomp act
Ġcol Ã´mbia
ular es
Ġcap it
Ġip ad
Ġhistor ic
Ġsess Ã£o
Ġliqu id
le v
st r
Ġhe ating
Ġinf in
Ġdefin iÃ§Ã£o
Ġlead er
Ġphar m
m ater
ou l
Ġg Ãªn
Ġsim ult
b ody
Ġb os
ig i
Ġag Ãªncia
Ġfe ar
Ġpa id
Ġseg ura
Ġlight ing
Ġvest ido
Ġespirit ual
ar Ã£o
Ġad vis
Ġdist in
Ġconstru ir
Ġdeclar aÃ§Ã£o
Ġgor dura
Ġb oston
Ġroyal ty
Ġg ps
Ġdesign s
Ġdecid ed
Ġcer ta
Ġbud ap
Ġju an
Ġd ual
port anto
Ġprot ected
Ġlev ant
Ġintegr ation
Ġauthor ity
Ġtare fas
ed ores
ĠÃ¡ sia
Ġsim ul
Ġautor idades
Ġconvers ion
Ġcertain ly
Ġerr ors
Ġh uge
Ġr ica
Ġgar ra
Ġesfor Ã§o
Ġs ources
Ġe co
Ġb in
Ġinter ests
Ġfe itas
look ing
Ġaprend iz
le arn
Ġph u
Ġref lex
Ġchar l
Ġescol as
Ġjov em
Ġara b
Ġp ip
Ġs mo
ag ram
Ġnet herlands
Ġcert amente
Ġsepar ate
Ġrout es
Ġa ve
pl an
ment os
Ġregist ration
Ġprepar ed
ĠanÃºn cio
ĠdÃº vida
Ġl ate
Ã§ am
Ġas t
und er
Ã³l ica
Ġmoder no
Ġabsol ut
Ġpiz za
Ġp oc
Ġin Ãºm
Ġen vol
Ġfr ame
Ġdire ita
Ġant igo
Ġbo y
Ġsat Ã©l
Ġgos ta
t ag
Ġh ero
Ġnecess Ã¡rias
mas ter
Ġassoci ados
ĠespecÃŃf ico
Ġaven ue
a ux
ar ily
Ġdesign er
Ġcom ando
Ġpar ce
Ġstat ement
Ġnaveg aÃ§Ã£o
Ġbic iclet
Ġthin king
Ġcommitte e
Ġs it
re c
Ġch os
se u
Ġprodu zir
Ġfe es
Ġvers Ãµes
Ġtest s
Ġpesquis as
anh Ã£
Ġvisual izar
loc alizaÃ§Ã£o
Ġd j
Ġper igos
inform aÃ§Ã£o
Ġempre g
Ġwonder ful
Ġesquer da
Ġswim ming
Ġu ltim
comp an
Ġdepart amento
or gan
Ġr c
Ġrelig ious
Ġnut ri
Ġbr ussels
Ġrel atÃ³rios
Ġgo es
Ġeduc ational
Ġindivid uais
Ġextrem amente
Ġrecebe u
Ġu v
Ġg d
Ġal de
ap esar
Ġpal est
bour ne
g ro
Ġf rio
Ġk a
Ġtele phone
Ġterra Ã§o
Ġren ew
mb h
Ġimplement aÃ§Ã£o
Ġe tern
Ġre visÃ£o
ut es
Ġappear ance
Ġr and
Ġcri me
ma ke
Ġcut ting
Ġly on
Ġbilhe te
Ġg ather
Ġle ather
Ġown er
cas a
Ġobjet os
Ġupd ates
Ġleit ura
Ġp ier
Ġe arn
Ġse i
ap ro
Ġother wise
Ġpon te
Ġfabric aÃ§Ã£o
Ġlou is
Ġbeb Ãª
m ag
Ġenvi o
Ġsingap ore
s how
Ġp ub
Ġs ons
Ġv istas
Ġk en
Ġdisc ounts
Ġbro ther
Ġdefin ed
Ġasseg urar
ĠÃŃ con
Ġr ico
Ġpre pare
Ġh orm
Ġdesenvolv ido
ĠcÃ¢m ara
Ġarg um
Ġclos ed
p an
Ġt s
Ġfin ish
Ġbenef ici
Ġfinan ci
Ġamaz ing
Ġp y
Ġv Ã¡
Ġre ais
Ġcl ip
Ġgr ade
Ġmod es
Ġany one
Ġg mbh
Ġserv idores
Ġstor ed
Ġtare fa
p op
s ec
ar ies
am m
Ġest re
Ġus adas
gu ia
Ġaud it
Ġcum pri
Ġseem s
Ġdemoc r
ce is
dit ional
Ġcompl iance
Ġjo int
ig ar
Ġi os
Ġver tical
Ġform er
Ġfer n
Ġpop ul
fr ont
Ġmont agem
ĠcÃ¢m bio
Ġmos c
Ġarquitet ura
d ist
en vi
Ã©t icos
Ġextrem ely
Ġto po
Ġph ase
Ġpriv ile
Ġfer ry
Ġsem i
Ġpol ice
Ġtin ham
Ġs weet
Ġn d
Ġh at
Ġoc cas
Ġmus ical
Ġbi ke
Ġfem ale
if er
Ġpr inter
rig o
Ġdef ici
Ġassist ance
Ġcommunic ations
Ġcomport amento
ho je
Ġport Ã¡til
Ġpra gue
press Ã£o
Ġdec ide
Ġmot el
Ġchang ing
re es
et or
Ġsu ger
Ġle ague
Ġlig a
Ġgard ens
Ġven ice
Ġf en
th us
cion ais
Ġdoct or
tur ismo
t el
v ide
Ġh an
Ġent ry
Ġcr iter
Ġthousand s
Ġest er
Ġar c
Ġutiliz a
Ġtechn iques
Ġig ualmente
Ġmunic ÃŃp
Ġregister ed
Ġa h
Ġa le
Ġd anÃ§a
il ho
im entar
Ġac eler
Ġm ent
Ġl am
Ġg on
Ġyou tube
Ġhe ight
Ġart ific
tod ay
Ġconsol id
l ers
Ġman chester
com ing
Ġte ams
Ġperson s
Ġher itage
Ġsitu ated
Ġindiv ÃŃduos
Ġprepar ar
c raft
Ġb ond
Ġk u
Ġbo at
Ġameric ana
Ġabr ang
Ġb reat
Ġas c
Ġshow ed
Ġvib r
est Ã¡
Ġset s
Ġjust ice
ĠespecÃŃf icas
Ġhosp it
ĠromÃ¢nt icos
Ġb irm
wh y
Ġdr in
Ġdiret or
Ġpasse io
at i
alth ough
Ġminist Ã©rio
Ġevalu ation
bec ause
l ic
Ġh op
ang o
ac her
Ġag entes
Ġrep ut
Ġverdade iro
Ġaprendiz agem
Ġc aval
or row
Ġl ose
Ġsu gest
Ġun if
Ġexper ts
Ġgar ante
Ġparticip ation
Ġmedic ine
Ġu pload
Ġg am
Ġprofess ores
Ġobject s
Ġcot ton
l or
gr am
Ġplan os
Ġsw ed
Ġcast elo
Ġcommit ment
Ġs unday
re comend
Ġag ency
Ġfot ograf
ri e
Ġreg ime
Ġserv ed
Ġca fe
Ġfollow ed
Ġcomun idades
Ġlap top
Ġl amp
Ġmal ware
Ġd ram
Ġp it
Ġdire to
Ġdia b
Ġbuild ings
Ġprova velmente
im port
ho ps
ex istem
Ġeas ier
Ġident ity
Ġsuccess ful
Ġinfrast ructure
Ġserv ers
Ġbot tle
ĠpÃºbl icas
Ġauthor ities
Ġcompre h
Ġire land
Ġb ug
Ġpon ta
ĠfÃ³r um
Ġam anhÃ£
Ġbr ilh
Ġcamp anha
Ġecr Ã£
Ġsol ve
anc ou
Ġess encial
Ġro l
ert os
Ġjunt amente
Ġra ce
Ġpol l
Ġsolic it
Ġcontroll er
ra k
Ġgo als
Ġpublic idade
Ġhy d
Ġv az
ason ic
ĠaÃ© rea
Ġcombust ÃŃvel
Ġanton io
p oss
y le
Ġprov ider
Ġchos en
c are
Ġp ump
Ġposs ibility
Ġsess ion
ru pt
Ġcontin ua
Ġobjet o
Ġdestin ia
Ġfant as
Ġconsul te
ĠlÃ¢m p
ro ad
Ġth ick
Ġdown town
Ġadequ ada
Ġma h
ell o
Ġrel ation
Ġadv ice
Ġparticip ants
Ġmovi e
Ġbl ess
Ġsc ore
Ġwork ed
ll a
Ġdise ases
ĠprincÃŃp ios
Ġirm Ã£os
Ġt ai
Ġan s
Ġh ilton
Ġpri ma
Ġairport s
Ġefici ente
g ica
ÃŃ tim
Ġimpl ant
Ġsav ed
Ġcell s
Ġdigit ais
Ġchocol ate
Ġle ite
Ġtas ks
Ġht ml
Ġthe me
Ġac ord
Ġoper ate
Ġquil Ã´met
qu ais
am i
Ãª ut
Ġcaus es
g ow
el iz
Ġh ang
Ġv a
Ġgr oss
Ġpra Ã§a
Ġfol ha
ik i
Ġdestin os
Ġace ita
Ġvent il
u o
Ġd ado
Ġl ac
ur go
ud es
Ġpl ans
Ã©r c
Ġadv ers
Ġident idade
ili ares
Ġdid n
Ġproced ure
Ġcitiz ens
id i
Ġesper a
Ġang el
Ġindepend ente
Ġimper ial
Ġw is
Ġdos e
Ġwill iam
Ġcas h
Ġmil k
Ġcre d
Ġdef ault
Ġconsum er
Ġintelig ente
Ġtut ors
ĠorÃ§ amento
ri as
Ġre pe
Ġinclu ÃŃdo
Ġbre ve
Ġcommun ities
Ġcook ie
Ġcart Ãµes
Ġkind s
Ġsustent Ã¡vel
ĠlÃŃder es
id el
ÃŃ b
se qu
Ġass unto
Ġfacil it
Ġland marks
Ġexecut ive
mu itas
Ġassemb ly
ancou ver
j an
Ãªn io
Ġmo z
ues day
Ġexecut ar
Ġfant Ã¡st
pro c
Ġmed o
Ġentertain ment
n el
it i
ic ed
ugh t
Ġaim s
Ġcomprom isso
Ġdie go
ĠparÃ¢met ros
Ġag ents
Ġdire ta
Ġsemelh ante
Ġp ir
ap y
gra ph
Ġprin ciples
Ġst ad
Ġpriv ada
Ġprecis ar
Ġvir gin
Ġital iano
Ġcertific ado
Ġconsul ta
Ġbirm ingham
p ublic
Ġfr iday
Ġad or
Ġsec o
Ġorgan ic
Ġtas te
p ens
Ġf isc
Ġsitu aÃ§Ãµes
Ġpac otes
Ġlet ter
Ġminist ry
Ġcarr inho
c ido
Ġw it
Ġh i
Ġen car
Ġbel o
Ġsym pt
Ġbibliotec a
Ġreg isto
Ġur b
Ġsac o
p ot
ec endo
Ġobserv ed
Ġbill ion
Ġparam eters
Ġcomod idades
Ġpro posta
Ġex Ã©rc
ĠÃ¡ guas
por que
Ġsho ps
Ġcoun ter
Ġindust ries
Ġchrist mas
ĠprÃ³pri as
ĠelÃ©tr ica
u cion
Ġmist ura
Ġincr ÃŃvel
Ġg if
tr as
Ġmom entos
Ġaum enta
Ġcry st
w est
Ġn ik
Ġbar atas
Ġch al
Ġpat ient
Ġstre am
Ġacess ar
f irst
Ã© dia
ap t
Ġoferec emos
Ġd ign
Ġex atamente
Ġlist s
Ġlat ina
Ġdese jo
Ġeg ypt
Ġmest re
n is
Ġd anger
im ate
Ġest aÃ§Ãµes
Ġen orme
Ġab erta
mar ket
Ġfund aÃ§Ã£o
Ġcou ro
Ġgost aria
Ġvene za
Ġexact ly
Ġfe itos
Ġconf id
Ġpublic aÃ§Ã£o
Ġguarante ed
Ġd s
Ġthe at
Ġl unch
ud a
Ġmor al
Ġsignific ativamente
Ġcopy right
Ġs Ã©
Ġad ot
car s
Ġespecial izados
Ġreun iÃµes
Ġaleg re
Ġdyn amic
Ġs Ã¡b
Ġan a
Ġab und
Ġfl ag
Ġalg od
Ġbel g
Ġcult iv
Ġtom orrow
Ġapar Ãªncia
Ġsp ac
Ġban heiro
ĠprincÃŃp io
Ġpossu em
r Ã¡
Ġc z
Ġf rag
Ġlocaliz ada
Ġstat istics
Ġto ler
ab l
Ġk ore
Ġsp aces
pro cur
f ur
l ock
ad ditional
se x
Ġpl ate
de fin
Ġinter v
Ġatual izaÃ§Ãµes
Ġhar m
al i
Ġtr as
Ġtr uck
cl ass
Ġident ific
Ġur l
Ġal f
Ġesc rito
Ġir Ã£o
Ġteach ers
Ġinstitu iÃ§Ã£o
ĠbÃ¡s ico
s an
Ġo ak
Ġbu ying
Ġhy ip
ĠgrÃ¡f icos
ĠcÃ©l ulas
s or
Ġa id
Ġt ens
us ta
Ġj am
Ġallow ing
Ġaltern ativa
b c
Ġp Ã©s
Ġinter esses
Ġvi enna
Ġw ants
for ce
ĠsÃ³ l
Ġge or
Ġfire fox
ur os
Ġex e
Ġoff ic
Ġdecis Ãµes
Ġb erg
ot ing
Ã¡ cio
Ġcon gr
Ġcomm itted
Ġover all
Ġlay er
g ot
cl am
Ġalugu Ã©is
Ġvant agens
Ġexhib ition
l as
Ġad qui
nes day
Ġrefriger ator
Ãºl ti
Ġc Ã¡l
Ġv ancouver
Ġgl as
Ġliv er
Ġinstrum ents
Ġpret ende
Ġvehic les
Ġn an
Ġpre f
Ġsp end
Ġinf ect
Ġlist as
Ġviol ence
Ġace it
Ġsum m
Ġmig uel
m ant
Ġag u
Ġtop ic
Ġbal con
Ġcl ara
op h
ov os
Ġmet od
bus iness
Ġfix ed
Ġo ly
us ers
ph as
Ġespec ific
Ġor ange
Ġrec re
Ġens in
rag em
Ġann ual
Ġbrux elas
Ġbeij ing
ĠsatÃ©l ite
Ġfornec idos
Ġatra Ã§Ãµes
Ġbanc os
f ile
Ġinstrum ent
ec cion
Ġr osto
Ġpart ido
Ġcomplet ed
Ġquar ta
Ġconfer Ãªncia
noss a
ĠaÃ§ Ãº
t our
Ġv ive
Ġpre jud
Ġsobre v
Ġra y
Ġprof it
Ġgre ece
Ġcontempor ary
Ġpok er
ĠÃ³r g
Ġde leg
Ġcam pe
Ġthan k
Ġped ra
Ġan teriores
Ġre comenda
Ġtec h
Ġsub met
Ġur g
Ġviol Ãªncia
al o
it iba
Ġmot ivo
Ġbusiness es
cho ose
a e
Ġs s
Ġbar s
Ġregist ry
Ġpow der
Ġf aixa
un ic
Ġk o
Ġman eiras
Ġesfor Ã§os
zu ela
Ġv all
Ġr us
un st
Ġfic arÃ¡
Ġestabel ecer
Ġc ere
Ġb es
Ġtro p
Ġexcel Ãªncia
Ġphu ket
l ife
Ġp ill
as ing
ies el
Ġol ive
Ġdetermin ar
Ġflex ible
Ġpasseng ers
f und
Ġa ware
ob ili
Ġprov ÃŃn
ativ idade
cri ption
Ġcompet ition
Ġfeel ing
Ġsmok ing
ow s
cl a
Ġinst agram
y stem
Ġe ld
Ġrec entemente
Ġdeix e
t ic
u an
in har
Ġvers ions
Ġjun tos
Ġbras ile
Ġleg end
Ġprepar ation
Ġsatisf aÃ§Ã£o
Ġb our
Ġdes ire
Ġass ign
Ġsex ta
Ġreport ed
Ġacont ecer
Ġconfigur ation
g y
om ing
Ġg mail
Ġpar ar
Ġbar co
man ual
Ġencontr am
Ġdesen ho
Ġlad y
z ia
ed es
Ġfr onte
Ġret ir
inst al
Ġtel ecom
ĠespÃ© cies
Ġoly mp
Ġb ob
Ġit unes
Ġsen ha
Ġr astre
Ġter mo
Ġdi Ã¡logo
Ġtorn ando
Ġclin ical
id amente
ra is
ex per
Ġsin ais
Ġjur ÃŃd
Ġaband on
Ġm Ãºlti
Ġme ia
ub a
Ġalg ar
Ġexcel entes
Ġevol ution
Ġpleas ant
Ġtoil et
Ġalgod Ã£o
on Ãªs
on Ã´m
re comm
Ġb ÃŃ
Ġv ice
Ġex plo
Ġshow ing
Ġexist Ãªncia
Ġgratu ita
Ġchamp ions
in ing
Ġad es
Ġconv ention
Ġmain ly
Ġhapp en
Ġpu zz
ffici ent
Ġfor get
Ġle on
Ġfic ou
Ġped ir
Ġsuppl ement
Ġmention ed
it z
Ġv ind
Ġconhec ida
Ġphil ip
Ġp av
Ġant iga
Ġnorm as
Ġcharacter s
Ġjur is
Ġescre ver
Ġt Ã¡
Ġd b
Ġhe ard
Ġcre am
Ġneg ative
Ġacres cent
Ġt es
Ġd un
Ġcon dut
Ġdiagn Ã³st
Ġs ede
on ly
og ram
Ġsubm itted
Ġsmo oth
z i
pr int
Ġdiz endo
Ġlic enci
Ġdiam ond
Ġmechan ical
Ġvict oria
Ġnec k
g ia
w el
Ġin ch
ers on
Ġsh er
ten Ã§Ã£o
Ġrecord s
Ġevol uÃ§Ã£o
p age
Ġp ig
ol os
Ġst ores
Ġsee k
Ġcir cum
ÃŃf ico
Ġsupl em
al and
Ġre vis
Ġcent ros
Ġdom Ã©st
ag re
Ġcontrol s
Ġexpress Ã£o
Ġautor idade
inst all
Ġalugu el
Ġclic ar
escol ha
Ġacer ca
om en
Ġsec und
bur y
Ġinfra estrut
l ux
m ain
res erv
Ġmet res
Ġpal ma
Ġopin ions
Ġcompat ible
Ġterrit Ã³rio
Ġcolabor aÃ§Ã£o
Ġartific ial
Ġis su
Ġap i
ak er
Ġrespons Ã¡veis
Ġmag az
Ġlabor atÃ³rio
al d
Ġacc ur
Ġfa x
Ġpay pal
Ġmag ic
Ġfig ure
Ġconsci Ãªncia
spec ial
Ġne ut
ok an
co in
Ġautom Ã¡tico
Ġredu ction
ĠquilÃ´met ros
Ġglas gow
Ġdel et
Ã´n io
Ġdescon to
c ard
Ġn it
aliz ation
Ġtur ÃŃsticos
Ġbeach es
Ġexist entes
Ġmajor ity
Ġsemelh antes
mater ial
Ġpro vis
Ġch air
Ġconhec imentos
Ġdeg rees
Ġingred ients
Ġl ip
ĠvÃŃ rus
Ġ idos
Ġh ub
us te
pl as
Ġfe et
Ġbag s
Ġdesaf io
Ġs ight
Ġmart in
Ġcor ner
Ġacc ounts
Ġsur vey
Ġru le
Ġsaud Ã¡vel
p ad
he et
Ġand ar
ÃŃ cul
Ġtr ata
Ġmet er
Ġdest roy
Ġdri ving
Ġhy per
Ġbran ca
Ġproced ures
Ġcapaz es
Ġal imentar
ell ing
Ġgu itar
Ġalt as
Ġstrateg ic
ĠÃ³tim a
Ġassess ment
Ġc av
Ġf rig
Ġte en
Ġprote in
Ġlabor atory
Ġintellig ence
ol it
Ġme al
Ġcent ers
Ġproced imentos
Ġeffort s
y cl
Ġb s
ther n
ik a
ogrÃ¡f ica
Ġimprov ement
g re
el ha
Ġfrequ ency
Ġjob s
ĠbÃŃ bl
Ġf le
Ġre ached
ol i
Ġbr on
Ġeuro p
Ġcomput adores
Ġshe l
Ġbed s
not a
Ġlux emb
Ġcou ple
Ġgraph ics
Ġlarg ura
b et
is co
Ġor al
Ġor ders
ick s
Ġvi et
Ġref ere
Ġcir urg
Ġremo Ã§Ã£o
el le
Ġse v
Ġi ra
Ġmen inas
Ġpermit indo
Ġgrad uaÃ§Ã£o
Ġparl iam
Ġconfi Ã¡vel
Ġp iso
Ġl ift
ust om
Ġpra ga
Ġown ers
Ġinstrum entos
Ġr ÃŃg
ap or
Ġbar ata
Ġtro ca
Ġconnect ing
whe ther
Ġs ÃŃt
est amos
Ġr ated
Ġev il
Ġins cre
Ġmoder na
Ġf esta
Ġal p
um as
Ġim pos
Ġcar Ã¡
pr on
Ġbom ba
Ġambi ent
Ġbenef ÃŃcio
Ġatmos phere
p her
Ġt ensÃ£o
Ġc ath
Ġp ull
Ġre tail
Ġnot es
Ġro ot
ater ra
Ġprodut ividade
Ġnav igation
ĠpÃ´ r
g ate
Ġem phas
Ġpass a
Ġcall s
Ġrepres enta
Ġinstit ution
cons ul
prim ir
h is
es h
ou rag
Ġins ert
Ġdefin ir
Ġbat alha
Ġtre es
Ġexplor er
Ġwa it
al has
Ġk w
Ġres pir
Ġval le
Ġeste ve
Ġlim po
Ġet iqu
Ġameric ano
Ġdestin ations
Ġselecion ar
Ġingred ientes
Ġt um
Ġpr ata
Ġdel ic
Ġcontr at
Ġremain s
e is
t am
Ġb ern
Ġnot a
Ġro of
Ġsem in
Ġnumer ous
Ġw ol
Ġst ories
Ġdes cont
Ġexperi enced
Ġpos terior
Ġdefin ition
Ġtarif a
Ġap point
Ġun less
Ġdisc ut
ĠespecÃŃf ica
Ġpromot ion
Ġavent ura
Ġre cover
Ġna qu
ps on
Ġhigh light
Ġstr ug
Ġcontrol ar
Ġsl ight
Ġpet ers
Ġauth entic
Ġd ance
iz ando
de pend
ex t
Ġutiliz ada
Ġtransport ation
noss os
urs day
f c
h ist
al es
Ġin aug
Ġan cient
Ġem oc
Ġar mas
Ġso z
Ġchr ome
Ġassoci ado
Ġesper anÃ§a
Ġdepend endo
ĠÃ¡l b
m ot
v in
Ġpr is
Ġdef ine
Ġshe et
Ġstrateg ies
Ġeleg ante
Ġadvert is
Ġsilic one
k u
Ġa ulas
Ġesc al
Ġsal as
Ġoper a
Ġtw in
Ġcompre ender
d ata
Ġj ar
ate ver
Ġcl ube
Ġcol our
Ġcab in
Ġnews let
Ġcontrib ute
Ġl ub
Ġv ip
Ġman ip
Ġfot ografia
Ġhand le
Ġdeix a
Ġsatisf action
Ġstra ight
Ġbehavi or
ĠmÃ³d ulo
Ġcriter ia
Ġdo c
no on
Ġban heira
Ġambi entes
Ġrub ber
s itu
w all
Ġl azer
Ġbr ings
Ġcob ertura
Ġacadem ic
Ġkil omet
h ous
w in
Ġc t
Ġr ang
ire m
Ġsh ap
Ġconsider ado
Ġata que
Ġa y
Ġen f
Ġir land
su per
Ġmountain s
Ġcatal og
us er
Ġal ic
ativ ely
Ġmil has
Ġcompre ensÃ£o
yl on
v enda
av or
Ġpra y
Ġexpress ion
Ġt x
Ġr ise
Ġimp ostos
Ġastr onom
Ġa a
Ġe ight
Ġtr uly
Ġcat Ã¡logo
Ġsac rif
Ġcondu z
Ġlid ar
f ac
en er
Ġj ames
Ġalg or
Ġcustom ized
Ġsw iss
Ġfact or
ĠÃ³tim o
i ada
Ġth y
Ġag enda
ĠaÃ§Ãº car
n ic
Ġle aving
Ġter r
Ġlu a
Ġapre ci
Ġw ave
Ġrece pÃ§Ã£o
Ġsm s
Ġhuman idade
Ġcu is
ane an
Ġpresent ation
Ġpra ias
Ġdu plo
Ġdep Ã³sito
ough t
Ġsci ences
port e
Ġind ian
Ġgl Ãº
Ġped idos
Ġmus cular
Ġextra ord
Ġsav ing
Ġparliam ent
p c
or as
Ġcom it
Ġg m
Ġfor em
Ġcons ole
Ġins pect
ren o
Ġmob il
Ġmel bourne
Ġliter ature
Ġin put
am er
Ġsp ent
Ġval u
Ġlook s
Ġregul amento
b ud
z one
Ġo raÃ§Ã£o
em ia
Ġas h
Ġfer til
Ġmor r
Ġinflu Ãªncia
Ġde ce
Ġit iner
Ġtr end
Ġingl aterra
Ġrev ista
Ġdescob ri
m ay
ou ts
Ġmed iÃ§Ã£o
be fore
Ġgeneral ly
Ġagre ed
qu ise
Ġch ip
iss Ãµes
Ġart ist
Ġpass ou
Ġbot tom
Ġmedic amentos
Ġwed ding
Ã§ ado
Ġv idas
Ġsitu ations
Ġk al
Ġinter val
Ġoff ices
Ġdom estic
Ġcert ificaÃ§Ã£o
Ġfib er
Ġamost ras
ro t
Ġve io
Ġmet abol
Ġpra yer
Ġexpl os
Ġcert ification
Ġword press
Ġbor ra
ĠgrÃ¡f ico
n orm
w ar
Ġc em
Ġc ass
Ġp om
ad i
Ġg ente
Ġk id
Ġmil itar
Ġdef ense
Ġmus cle
Ġrom an
loc ated
Ġintrodu Ã§Ã£o
k t
Ġm ira
ri os
Ġtrad u
Ġtro ubl
Ġquant ity
produt os
Ġp ia
ic an
ro z
Ġver ify
Ġdist ingu
Ġvit Ã³ria
Ġcrit Ã©rios
ĠvÃ¡l v
d ire
Ġloc k
Ġappe ars
ri an
Ġaut onom
jet o
Ġfac ul
Ġget s
Ġtrad em
Ġelev ado
ĠestratÃ©g ias
Ġcorr ida
Ġbm w
ĠglÃº ten
Ġs ai
il os
Ġon das
Ġbo ost
Ġafter noon
Ġori ente
bel ow
ĠtÃ©r m
Ġl or
Ġg an
od es
Ġsu ced
Ġir rit
Ġplan eta
cop y
n esta
Ġh es
ot ic
us to
ap as
Ġcor rel
Ġbase ada
Ġprovid ers
Ġin du
Ġen fer
Ġche ia
Ġcarbon o
Ġconduct ed
Ġamen ities
k es
n ik
re u
Ġpro ib
Ġsu pre
Ġmin as
Ġredu ced
Ġcombin ed
Ġverdade ira
Ġpain ting
Ġace itar
Ġminist er
o o
Ġin j
Ġret orn
Ġlux u
w er
in ais
Ġh ob
Ġcam as
ĠÃ¡ ra
Ġchar les
Ġaccess ible
Ġappro ved
Ġfrequ entemente
Ġexcell ence
Ġcot t
Ġt iss
Ġin tr
Ġfra ca
Ġball s
Ġbeb idas
Ġvig or
Ġt ons
os is
al f
Ġb ons
Ġg ear
Ġma ils
pre ci
atur ing
Ġpack ages
it Ã¡ria
Ġl umin
ha ve
Ġman ner
Ġter ap
Ġdel ete
Ġprepar aÃ§Ã£o
Ġbrand s
Ġaleg ria
Ġd m
Ġag ent
Ġmen ores
ugh ter
Ġdi eta
Ġpat rim
Ġlar ger
Ġus age
Ġch Ã£o
Ġwe ak
Ġout look
Ġform atos
Ġdel l
Ġpesquis ar
sa w
Ġelev ada
Ġindustri ais
Ġimpr ensa
Ġinter c
Ġinter view
Ġcheap er
Ġprop Ã³sito
Ġlingu agem
Ġch art
Ġcan cer
av as
Ġsh en
Ġport able
Ġmom ents
Ġphil os
ÃŃb rio
Ġp ipe
Ġh us
Ġg anh
Ġat ivos
act ions
Ġup grade
sel ect
Ġarm y
Ġmeet ings
ilh Ãµes
Ġk et
Ġtrabal ha
Ġbra in
Ġprefer red
zh en
servi Ã§os
Ġr ank
Ġlead s
Ġoferec endo
f all
Ġpar al
Ġop ens
Ġdesc ar
Ġsou thern
Ġpron to
Ġtir ar
Ġmedi ante
m or
con n
com par
Ġgos pel
alugu Ã©is
Ġf als
Ġh s
ed ing
Ġr ue
Ġsc ene
Ġintern o
Ġmo eda
Ġwik ip
Ġportugues a
j ogos
Ġc v
Ġm d
an other
Ġre b
ul ado
Ġcal ib
Ġil has
Ã³n ia
Ġrodo viÃ¡ria
an bul
ec ut
Ġcon gress
Ġst im
Ġmic hael
Ġenter ing
Ġconc orr
Ġrig or
h d
Ġf ishing
Ġinstit ut
Ġperman ente
Ġplataform as
ĠfÃŃs ico
Ġdut y
in tern
Ġo ra
Ġh r
Ġh ung
p m
ur b
Ġj ava
Ġz el
Ġg n
ell er
fe go
Ġdu ro
Ġalumin um
Ġtribun al
Ġsimult ane
d ri
at on
Ġis n
Ġfe e
Ġleg ais
Ġsab or
Ġtrabalh ando
Ġaccept ed
Ġestat ÃŃsticas
or ado
Ġg ord
Ġident ified
Ġtam pa
Ġsac erd
Ġsam ples
Ġgast ron
f low
r ations
ut ers
Ġk h
can ner
Ġhou ve
p ac
Ġn essa
Ġg em
Ġcont amin
Ġne ve
Ġintern a
Ġlag os
desc ubra
f ly
Ġcam ping
Ġte atro
Ġproduct ivity
Ġpers ist
Ġmelhor ia
Ġaplic ar
Ġfal a
Ġwar s
Ġru as
Ġrequest ed
Ġcade ia
Ġcalend ar
Ġcen Ã¡rio
a j
Ġl um
Ġv eter
Ã¡ fego
Ġsur pre
Ġje an
d oc
Ġn ubl
Ġw ife
ag u
Ġk l
Ġpan ama
Ġmanag ed
Ġexperim ental
Ġlandsc ape
Ġborra cha
c ustom
l ado
s ign
ag on
aint ed
Ġlegisl aÃ§Ã£o
Ġdemoc ra
ĠdÃ³l ares
ad el
Ġj ord
ab aixo
Ġbe at
ch ain
Ġres umo
Ġform al
Ġcap s
Ġwood en
Ġadvant ages
s now
Ġf ios
Ã³ is
Ġcl ock
Ġcur itiba
Ġlim ite
Ġdisplay ed
Ġassin atura
Ġwit ness
qu et
Ã³ via
Ġesp ect
ys canner
ici ans
equ ip
Ġaff ili
Ġprob ably
re views
Ġpar ecer
Ġen ables
Ġestr ange
Ġcat hed
Ġdis posiÃ§Ã£o
Ġmon day
Ġart ists
Ġcontain ing
Ġafric an
ĠprovÃŃn cia
Ġp unta
Ġb oca
Ġest Ãº
Ġor gas
Ġencontr ado
Ġbro thers
Ġaff ected
Ġdever ia
ji ang
Ġmovi es
Ġinterm edi
Ġcris is
h p
ic ia
ro v
Ġcar n
Ġconf ir
Ġdef end
ÃŃs s
Ġpac iente
Ġcomplex o
Ġinteress ante
Ġalgar ve
c p
te x
Ġestud ar
Ġelectr ical
f u
Ã´n ica
Ġfib ra
w atch
Ġb ound
Ġcar te
Ġdep th
Ġprest ig
Ġvant agem
Ġb og
Ġum bre
Ġval ve
Ġdi Ã¡ria
Ġinc red
des en
Ġdin ner
Ġue fa
Ġdesej os
atem ala
Ġt ank
Ġso il
Ġbl ind
Ġdetermin ado
Ġfel t
Ġpais agem
prim ento
Ġnasc imento
pÃ¡g ina
Ġdiffer ences
red ores
Ġdecis ions
Ġreconhec imento
h ire
Ġ ile
Ġr t
Ġdest as
Ġfol der
Ġsign s
Ġtransm ission
Ġhon or
Ġorient aÃ§Ã£o
Ġmosc ow
ad v
id ente
Ġdo ors
io x
Ġestrut uras
Ġnutrit ion
Ġstad ium
Ġjuris d
Ġle itor
Ġtra zer
Ġfornec ido
Ġcompreh ensive
Ġp end
st re
pri v
Ġtur ned
Ġgre y
Ġterrit ory
Ġhoriz ont
Ġconsent imento
Ġpint ura
Ġhamb urg
Ġsympt oms
d ig
Ġt ÃŃp
er es
ÃŃ metros
Ġcar go
Ġexclus ivo
Ġtyp ically
r idge
Ġc ÃŃ
Ġk r
Ġcr ise
Ġhid den
Ġtyp ical
ivel mente
Ġpoc ket
Ġinter fer
Ġca ir
Ġoper ators
Ġover cast
mes mo
Ġbon us
Ġcheg ou
Ġn ation
ec a
Ġconse gue
Ġcro wn
Ġmir ror
Ġalco hol
Ġfotograf ias
m el
Ġde ploy
re cent
Ġf aster
Ġl ights
Ġcar a
Ġesc ape
Ġgl uten
Ġfam iliares
Ġgreat est
Ġextens ive
Ġsint omas
Ġze aland
Ġs ql
ir l
Ġat uais
Ġapar ecer
Ġdeb ate
Ġexpert ise
rÃ³ leo
c Ã³p
g age
Ġn ights
ke ep
ind ic
Ġacc eler
Ġpal Ã¡cio
Ġcompos iÃ§Ã£o
Ġlider anÃ§a
Ġconcre te
Ġma i
Ãªn is
Ġmar co
gr and
ak i
pro per
Ġdel as
Ġess enciais
Ġeste jam
Ġcaus ar
Ġhou ver
f ar
h ado
Ġt Ã³
Ġn Ã¡
Ġv ast
Ġtr Ã¡fego
Ġgr Ã©cia
Ġform ats
ord er
Ġint u
Ã³n io
Ġcompon ent
Ġdimens Ãµes
r adas
Ġp is
Ġm eias
Ġw ro
ac i
ica is
Ġprogram aÃ§Ã£o
Ġrequ ests
Ġevent ually
Ġclot hes
Ġcri a
Ġaf ford
ios o
br and
Ġcert ified
Ġacont eceu
ĠeconÃ´m ica
Ġproporcion a
Ġtablet s
w as
Ġcom and
Ġap k
Ġwe ap
Ġle aves
co ol
Ġfil tro
Ġbu urt
Ġfac to
Ġvel ho
rad ar
Ġwall s
f al
Ġt ort
Ġc ater
at ia
Ġrel ativamente
amb ique
Ġacess ÃŃvel
Ġpersonaliz ar
Ġproced imento
Ġful fill
Ġcoord in
Ġnubl ado
Ġweb cam
Ġexist ence
Ġrefer red
Ġt ant
ul ated
ib ar
Ġqual it
Ġconhe ce
Ġleaders hip
u ff
Ġart istas
Ġcontinu ous
Ġintrodu ction
ĠexÃ©rc ito
s obre
Ãª x
st art
Ġtem as
Ġsec ador
Ġmult if
Ġconsum idores
Ġsenh ora
Ġord en
Ġfinance ira
t able
ot i
Ġno ise
ie v
Ġbre ad
Ġrest o
Ġenc ourag
Ġjose ph
Ġcirc unst
Ġcumpri r
u ca
il ar
Ġbas ket
Ġwar ning
Ġenc oun
Ġpropos ed
Ġdimens ion
Ġlod ging
Ġacqu ire
ĠcÃ³p ia
c ado
Ġe b
Ġin come
el ect
ak ing
Ġup s
Ã¢n icos
Ġdifer enÃ§as
Ġgratu itas
Ġplant a
Ġvene zuela
Ġac ts
Ġind ones
Ġmas ters
Ġban ks
Ġaplic Ã¡vel
Ġtax i
Ġspecific ally
Ġimpro ving
ky o
Ġcontroll ed
Ġcidad Ã£os
Ġd iesel
co z
Ġcor ros
Ġso vi
Ġpass ion
Ġstar ts
Ġvill as
Ġremo ved
Ġfocus ed
Ġating ir
Ġdificul dades
ĠdiagnÃ³st ico
s en
re f
Ġf og
Ġdire c
Ġpol i
Ġmet rop
Ġdu pla
Ġtur key
Ġke pt
Ġsuport a
Ġparce iro
b ase
Ġo ito
ar ta
ou d
Ġv pn
Ġres ource
Ġmov ing
Ġpet rÃ³leo
Ġbath rooms
uts ch
Ġspl it
or et
Ġin ject
Ġan ne
Ġre vers
Ġque im
ag er
Ġmar ine
Ġcas c
Ġdem anda
Ġder iv
Ġflor ida
Ġcuis ine
Ġno ites
Ġat end
Ġman ga
Ġpan asonic
Ġintelig Ãªncia
Ġbiciclet a
Ġt b
Ġs v
Ġcap a
Ġstre ets
Ġaim ed
Ġsong s
in to
ter ed
Ġcomp osto
Ġver ificaÃ§Ã£o
int age
Ġatl antic
Ã± a
is ms
Ġthe ory
Ġab ri
Ġev idence
Ġsol e
cont in
Ġfec har
de ve
Ġsc ar
Ġdist rito
Ġimport a
Ġdev emos
Ġmun ich
Ġenvi e
clud ed
g on
l ov
ir ing
Ġver ifique
Ġlig ado
consul te
m us
Ġd al
Ġr ic
te iro
Ġaqu is
Ġtab les
Ġbig gest
pal av
Ġist anbul
Ġfemin ino
know n
Ġal vo
Ġinst ance
ĠinÃºm eras
Ġbelg ium
Ġumbre lla
l ier
Ġm outh
op en
Ġtrans f
vis it
Ġche f
Ġparticip ate
Ġquar ter
Ġirm Ã£o
Ġexpans Ã£o
eliz mente
Ġa wards
Ġac ons
Ġap preci
Ġrece ita
be an
Ġperman ent
Ġfinance iros
Ġtroubl es
l en
Ġc ock
Ġw w
Ã¡ mos
cl ose
Ġcri ou
Ġris ks
Ġesper ar
Ġwik i
ĠespÃ© cie
det al
Ġv ary
Ġal arm
Ġconnect ions
fol low
Ġm am
Ġla un
Ġmet ade
go ing
Ġchu ve
Ġprevious ly
Ġacqu ainted
Ġdatas heet
Ġfill ed
Ġdyn am
Ġtai wan
Ġcons ists
Ġte acher
Ġcathed ral
b ios
ri x
Ġnot as
Ġme xic
Ġrealiz adas
Ġfornec imento
Ġmob ili
Ġmont real
h iba
en contr
el ines
Ġan ual
ort s
Ġgen u
Ġsee king
Ġautom Ã³veis
Ġgra ce
Ã³r nia
Ġvir us
Ġmuse us
Ġsil va
Ġanaly z
Ġinstrum ento
Ġconcord a
ĠsÃŃ mb
d ios
i ant
Ġsp ray
me ga
Ġbir ds
Ġeleg ant
Ġr ide
Ġco vers
Ġcam ada
car a
Ġcook ing
Ġfant astic
Ġly rics
Ġleis ure
Ġreduc ing
r ine
Ġj s
iz er
Ġrelacion ado
Ġther mal
Ġrespond em
char ge
Ġterce ira
Ġbuff et
Ġsatur day
Ġcryst al
Ġd out
Ġc reek
Ġw et
Ġv inhos
ur ado
Ġim primir
Ġle eds
Ġpres ents
Ġdepend e
Ġtheat re
Ġest ad
Ġant igos
Ġet apas
Ġmal ha
Ġste am
Ġdiv ine
Ġrefei Ã§Ã£o
Ġparad ise
Ġd ando
Ġin ner
ec o
Ġar bit
se a
pe ople
Ġserv ing
Ġalter aÃ§Ã£o
Ġequil ÃŃbrio
w ed
Ġg ender
Ġre tr
Ġimpro ved
Ġapo iar
Ġanaly ze
Ġload ing
Ġmarri ott
Ġinfant il
h um
t les
in burgh
Ġp ink
Ġdis ney
res ult
Ġcur te
Ġtest ed
hol iday
ĠelÃ©tr ico
Ġt ube
Ġp ovos
Ġan ivers
ul ate
Ġpre venÃ§Ã£o
con stru
Ġass ass
Ġequip ada
Ġunivers o
Ġcomun icaÃ§Ãµes
Ġcorre io
Ġhyd ro
Ġ ida
Ġan ex
Ġaust ria
Ġfort es
Ġnam ed
Ġsap atos
Ġcalif Ã³rnia
l ink
qu ec
Ġh az
Ġpol ÃŃcia
Ġliv ed
Ġsk ip
Ġpublic ado
Ġadv og
Ġdecor ation
Ġrelationship s
Ġmediterr anean
pro f
Ġche fe
Ġautom ot
ail and
sel ecion
Ġpens amento
Ġdim ensÃ£o
Ġattem pt
Ġfr u
int rodu
Ġline ar
Ġprop ag
Ġcos m
Ġdiscuss Ã£o
Ġdiscuss ion
Ġconfl ict
Ġfail ure
Ġcrimin al
Ġdiab etes
Ġadqui rir
n on
Ġn ap
Ġex ame
Ġac um
Ġou vido
Ġam ig
Ġcol eta
her n
ÃŃn cip
Ġfic am
Ġdirect ions
Ġtop ics
ĠÃ¡rv ore
a inda
aix Ã£o
Ġconv inc
Ġprecis ion
melh or
add ress
Ġacad Ãªm
im p
ch i
op in
Ġpe ak
Ġport fol
Ġbl o
Ġdesc ubra
Ġregul ations
Ġobject ives
apart ment
Ġjoin ed
Ġreprodu Ã§Ã£o
fam ily
r amento
Ġs as
ar ias
Ġb acter
Ġcons igo
Ġminut o
Ġcat ar
Ġbod ies
Ġra zo
Ġart ista
Ġencontr ada
Ġins urance
Ġfound ed
Ġtransform aÃ§Ã£o
Ġcele b
Ġflo ors
Ġc Ã¢n
Ã© ia
Ġr Ã©
Ġsign al
Ġang ola
ÃŃdu o
Ġm ine
Ġbe ads
Ġaqu ilo
Ġvari Ã¡veis
Ġhost ing
Ġshe ll
Ġread er
Ġexem plos
Ġtrat ar
p ower
Ġb ible
ic ip
el and
Ġg in
Ġab u
Ġab re
tal vez
Ġrom antic
Ġip od
loc ation
Ġtre ated
Ġselecion adas
Ġwid ely
l ista
Ġknow s
Ġhelp ful
ĠvÃŃ tim
Ġmem or
Ġamar elo
lim ited
Ġcultura is
p y
w ick
Ġs izes
qu ei
Ġre ven
Ġdes ativ
Ġdec orr
Ġdisc ri
Ġsens aÃ§Ã£o
Ġconect ar
Ã¢met ro
Ġcub a
Ġocorr er
Ġemir ates
Ġcircum st
Ġaccur ate
re ira
ter ies
Ġser ra
Ġour selves
Ġenvi ado
Ġsustent abilidade
ĠlÃŃn guas
Ġdrug s
Ġmascul ino
Ġc ac
Ġw eld
Ġpro ceed
Ġcont ar
Ġdis k
Ġgener ated
Ġdisc ount
Ġsex y
Ġfinal ly
Ġextre me
Ġs ig
est o
Ġsa una
Ġcho os
Ġcob re
Ġtou l
Ġelem ento
Ġaudi ence
Ġplanej amento
Ġg t
og en
Ġphot ograph
Ġspecial ized
Ġresearch ers
Ġcres cer
Ġrevest imento
k ar
on i
Ġl amin
Ġen cer
Ġsc hed
Ġcap abilities
Ġtri al
Ġgratu itos
Ġold er
Ġrecogn ized
Ġrefei Ã§Ãµes
Ġrand om
a us
Ġn in
Ġh ills
Ġser es
Ġch ines
Ġdi Ã¡rio
Ġcomput ers
ier ra
Ġalc ance
Ġremain ing
Ġjack son
Ġspac ious
b b
k in
ac idade
ac ular
Ġass untos
Ġcap able
Ġbel a
Ġoc idental
Ġke ys
Ġwall pap
Ġconveni ence
Ġvar anda
ĠÃŃcon e
Ġa ws
Ġpr ÃŃncip
Ġcont acts
ib ly
Ġsc ot
Ġident ification
Ġtub o
Ġvic tim
Ġpar ks
ab el
Ġtem plo
Ġpass ed
Ġliv res
Ġib ook
cons ider
Ġmest rados
Ġacadem y
Ġou v
Ġsoc io
Ġanal ÃŃt
Ġdirect ive
Ġmult im
Ġsens itive
Ġcontr ast
ĠlÃŃqu ido
Ġt ast
Ġk iss
Ġsh ot
Ġgu atemala
Ġx l
Ġmo edas
Ġprincip le
Ġprojet ado
Ġtom ada
Ġpack ing
Ġflor ence
Ġtex as
Ġcaminh ada
Ġinfraestrut ura
h aps
Ġb ingo
Ġn m
em pres
og ia
Ġaf ir
Ġext ended
Ġmot ion
Ġinici ativa
Ġfinance iro
qual quer
Ġrecol her
Ġpleas ure
Ġevang elho
Ġc aixas
Ġp ant
Ġbus c
Ġcu ja
fort un
Ġspecific ation
Ġmedic ina
Ġobl ig
Ġmecan ismo
palav ras
Ġac compan
Ġes que
Ġcam isa
Ġhist Ã³rias
Ġtechn ique
Ġrelig ion
Ġlov ed
Ġiniti ative
ĠcientÃŃf ica
Ġw il
Ġv ender
Ġpost ed
Ġremo val
Ġtend Ãªncias
Ġgent le
tw o
Ġpro of
ativ idades
Ġant iv
Ġview ing
Ġdownload s
Ġdin Ã¢mica
Ġweek end
Ġplatform s
Ġsubm it
Ġcommer ce
Ġsustain ability
Ġwat ers
Ġbalcon y
avas cript
Ġp ush
al le
Ġn urs
ot as
st ud
ob ile
du le
Ġval encia
Ġdi ed
Ġinv as
Ġkey board
Ġhead s
Ġevalu ate
Ġpec ado
Ġidi omas
ĠdÃ©c ada
d y
Ġde e
Ġfl ower
pr ene
ne ve
rom antic
Ġhapp ened
Ġclear ly
Ġempresar ial
Ġswed en
Ġbrilh ante
it Ã¡rios
ot y
Ġres ÃŃduos
Ġso fr
Ġmot ivos
Ġmanufact ure
dis cover
Ġachie ved
Ġparl amento
Ġnucle ar
Ġt ente
ac cess
Ġap par
Ġform ation
press ion
Ġsk ill
Ġconstru ÃŃdo
Ġapresent am
ger y
Ġital iana
Ġenviron ments
Ġrental cars
Ġpow ers
ĠlÃ¢mp ada
w r
Ġf ug
ad ura
ac as
Ġtra ils
Ġbr inc
Ġpubl ish
Ġbro w
Ġdivers idade
Ġcancel ar
oura ge
ĠsÃ¡b ado
fur ther
Ġissu ed
ĠÃ¡lb um
b ast
un o
Ġj um
ard a
Ġreserv ed
Ġresist ant
Ġsmart phones
bu y
Ġcontribu ir
Ġbord er
t ico
Ġs ad
an ks
Ġent end
Ġrece pt
Ġrecon stru
ĠmÃ©d ica
Ġperspect ive
Ġt rig
Ġn ele
Ġorganiz ed
Ġtax es
Ġenc ant
Ġrecomend ado
Ġath ens
g ada
Ġs ist
or ra
Ġre emb
ÃŃ ne
for am
Ġare ia
Ġret orno
dom in
Ġstruct ures
Ġintell ectual
Ġfuncional idade
ĠÃ¡rv ores
g ens
Ġt eles
Ġn ative
ic idade
Ġh igi
Ġg un
Ġr ans
Ġth ailand
un as
Ġap ont
vel oper
de ix
Ġcor d
Ġpol and
Ġsm ith
Ġhor se
Ġbi om
Ġrevol uÃ§Ã£o
Ġt weet
Ġf ed
Ġb t
cl ar
Ġform ula
iss ions
Ġav iv
Ġger ar
Ġphot ography
Ġinvest imentos
cas as
ĠÃ³ pt
Ġmete o
Ġfig ura
Ġaproxim aÃ§Ã£o
Ġdrag on
proc ura
recomm end
r ico
se ja
ura cy
co isas
Ġlim ites
Ġunivers e
Ġcustom ize
Ġhar bor
Ġflor esta
Ġpen et
Ġcorr ente
Ġcomprom et
ĠeletrÃ´n ico
Ġultim ate
f ing
f ig
Ġd ust
Ġd ano
Ġc ura
Ġo ct
Ã© u
st one
Ġac ho
Ġar ena
Ġme at
Ġeas tern
Ġapresent aÃ§Ãµes
sc rib
Ġflex ÃŃvel
ĠprÃªm io
w ing
Ġs orte
Ġin qu
Ġh ack
Ġad quir
Ġhe m
ari um
Ġvisit ing
Ġd ada
Ġth r
Ġwith dra
per g
Ġinter venÃ§Ã£o
we ar
Ġx vi
Ġtri m
Ġsur pr
Ġret ro
Ġprefer Ãªncias
ĠanÃ¡l ises
Ġarr ang
alg umas
Ġhoriz onte
ĠrelÃ³g ios
cla im
Ġd ental
es es
od os
Ġter Ã§a
Ġentre gue
Ġconsider ar
Ġpap a
Ġfund os
Ġexam ples
Ġgrav aÃ§Ã£o
Ġcompos ition
Ġincor re
Ġflow ers
Ġdimens ions
ĠfÃ³r m
Ġwed nesday
Ġjerus alem
Ġos lo
Ġdes pite
Ġim obili
Ġfil os
ous ness
Ġvi ena
Ġfol has
ÃŃl io
ĠlanÃ§ ado
i h
ut ical
Ġy a
ÃŃ ram
Ġtr ends
ta x
Ġadd ing
Ġmuseum s
Ġgrav es
Ġdan iel
Ġhund red
n um
an im
ur re
th ank
ver a
ill ing
Ġbec oming
Ġauth ors
Ġprefer ences
Ġreturn ed
Ġliter atura
i est
re o
ap enas
ct s
Ġx x
Ġfin almente
Ġconv ent
Ġtechn ological
Ġreserv ados
Ġrelacion amento
Ġdescon hec
Ġbeg ins
Ġs id
Ġr esta
ho f
istem a
Ġdepend s
Ġwatch es
Ġinflu enci
Ġrecuper ar
Ġpregn ancy
Ġambient ais
w ind
or ig
Ġv ector
Ġest oque
Ġbe er
Ġfin ished
Ġrece iving
Ġed inburgh
Ġless ons
Ġedif ÃŃcios
Ġcollabor ation
Ġaprim orar
Ġp ior
Ġe a
Ġre uters
Ġth ou
ÃŃn as
Ġhel ped
Ġconveni Ãªncia
hol m
Ġemerg Ãªncia
Ġmagaz ine
n esse
w ho
en joy
on ta
Ġin do
Ġv r
Ġand r
gu ests
Ġposs ess
Ġant ib
Ġpos icion
Ġconcer ns
Ġn Ãº
Ġas i
ly wood
Ġab road
ang a
Ġany where
Ġsign ed
Ġajud am
Ġleg it
Ġsof Ã¡
ĠtÃ³p ico
Ġantec ip
Ġde ck
pl ane
Ġk ings
Ġvis ited
Ġra cing
Ġz ur
Ġbas es
Ġlog ot
Ġlev ou
Ġtam anhos
Ġperman ecer
host al
ĠquÃŃm ica
qu ete
Ġman s
Ġfaz Ãª
Ġwhen ever
Ġrem oto
Ġsupport ing
Ġcontain ed
Ġlic ens
Ġmak er
bu ild
Ġado pt
mu ito
Ġmeasure ment
hous es
h us
Ġp obre
Ġo este
Ġb ola
un ning
if ies
Ġj avascript
Ġdes porto
Ġcomb ina
Ġbaix e
Ġrest ri
Ġfuncion ar
Ġincreas es
Ġmiss ing
Ġhear ts
Ġbloc ks
l ig
ra ine
ol as
Ġr oss
Ġfor d
Ġsk yscanner
Ġdiz em
Ġmov imentos
Ġtit ular
Ġconce pts
Ġdro gas
Ġperspect iva
f ts
t v
Ġo st
Ġk at
Ġstud ied
Ġproject o
Ġconsist e
Ġfly ing
Ġbah ia
Ġt reas
on ym
Ġb apt
Ġv atic
ant i
for n
we ight
Ġhelp ing
Ġatual izado
Ġmant Ã©m
mu itos
Ġrecogn ition
Ġpul se
Ġlaun ched
l ights
Ġp ob
de aux
Ġter Ã£o
Ġsh ado
Ġte oria
Ġcamp us
Ġrelig iÃ£o
Ġwa iting
Ġcorpor ation
c ement
k it
Ġs ÃŃn
Ġpro vision
Ġal m
Ġst able
Ġter ia
Ġequ al
go od
ful l
Ġef ect
Ġlay out
Ġspeak ing
Ġlav ar
Ġhous ing
ĠdÃº vidas
Ġdiscri min
Ġt all
ac om
Ġso fa
Ġbro ok
Ġded os
Ġado pted
Ġrelev antes
Ġchuve iro
om ia
el ess
end as
av ar
ĠprÃ³xim as
ced es
Ġhy dra
Ġconce itos
ĠavanÃ§ ada
Ġist ock
Ġcai ro
Ġnegoc iaÃ§Ã£o
adicion ar
Ġbudap est
ion ais
ct ive
Ġapresent ado
Ġtal king
Ġresid Ãªncia
Ġparticular mente
Ġimposs ible
rece ba
Ġbrow se
p ace
Ġc ogn
er ife
Ġv intage
Ġesp et
Ġref und
Ġrealiz ados
Ġremo v
Ġcare fully
Ġsky pe
Ġsubject s
Ġemerg ency
Ġfarm ac
Ġagricult ural
Ġevang el
Ġfacul dade
c ase
Ġsec re
Ġaqu ece
Ã¢m ico
Ġcu jo
Ġalt os
Ġaero portos
Ġdraw ing
Ġax is
Ġath let
onÃ´m ico
Ġcircumst ances
Ġrans om
e za
Ġb id
Ġin door
Ġsegur os
Ġviol aÃ§Ã£o
Ġexig Ãªncias
ĠgÃªn ero
u iÃ§Ã£o
Ġse ed
ch as
Ġsell ing
Ġcolabor adores
Ġmys elf
Ġata ques
Ġconclus Ã£o
Ġgarra fa
Ġc b
Ġh abilidade
ac commod
Ġen jo
Ġcl us
res erve
ru p
Ġmill ions
phot os
d orf
Ġd um
ur u
Ġno vel
ust ria
Ġmes mas
Ġigre jas
Ġobrig ado
Ġminer al
Ġcong reg
Ġbri ef
Ġenfr ent
ĠcontÃŃn ua
b ab
Ġk new
ch ild
Ġun known
Ãº ne
Ġtra v
Ġbus car
Ġseg ment
Ġson ho
Ġkeep ing
Ġchap ter
Ġexperim entar
detal hes
Ġl ind
Ġto b
Ġof iciais
Ġpro ve
Ġind is
Ġav an
Ġentre prene
Ġneg oti
Ġdetermin ed
Ġsect ors
ĠmunicÃŃp io
h ua
Ġv ine
Ã© dit
Ġat u
Ġpr ince
Ġrel ativos
Ġprov Ã¡vel
Ġautom ation
Ġfal se
Ġstre aming
Ġcondition ed
Ġrecord ed
Ġmechan ism
Ġcalend Ã¡rio
Ġreplac ement
h at
l at
at ravÃ©s
ir ts
Ġus am
Ġfil ters
Ġins criÃ§Ã£o
gh t
Ġcontin ues
Ġens uring
Ġconcer n
Ġrat ings
Ġtend Ãªncia
Ġconstant ly
Ġprev ention
Ġvegetarian os
Ġesport es
Ġunif orm
c ope
Ġp Ã£o
em on
et os
ura is
we b
Ġesc rita
Ġtri ed
Ġhel s
Ġwar ms
Ġpac ific
Ġfood s
Ġautor izaÃ§Ã£o
Ġcontain er
Ġchurch es
Ġconcent raÃ§Ã£o
Ġvoss o
Ġbols a
ĠtÃ³p icos
Ġcz ech
Ġanivers Ã¡rio
b en
Ġp ho
ec emos
con tra
Ġro das
Ġent idades
Ġcas ual
Ġassist ir
Ġwid th
Ġfas cin
Ġacons elh
d iv
ic on
Ġin hab
Ġpr at
Ġcan vas
Ġaut ores
Ġdel uxe
Ġestr ang
Ġcompar ar
Ġapar elho
Ġb b
Ġl Ã³g
Ġat ras
ch at
port s
Ġad ul
Ġlu is
Ġfacil idade
Ġconfig urar
Ġprem ier
Ġfemin ina
procur ar
k ia
Ġe du
Ġf ans
Ġg ay
Ġdo br
Ġwh oles
aliz ar
Ġrece ption
Ġsur ve
Ġcomplet os
sc re
Ġdemand s
b ilidade
t ipo
ir us
Ġrec Ã©m
Ġserv ir
Ġacc uracy
ÃŃt ulos
ten imento
Ġsty les
Ġestim aÃ§Ã£o
Ġexib iÃ§Ã£o
Ġchin Ãªs
Ġvas ta
Ġattack s
Ġfiz eram
Ġjew el
Ġdivis Ã£o
c ut
Ġt Ãªnis
Ġs ara
Ġl ang
ac os
Ġar ms
Ġcan a
con he
Ġel ite
Ġfl ip
Ġcri ada
Ġspec ified
Ã´n us
reg ist
Ġselecion ados
ĠeletrÃ´n icos
Ġatmos fera
Ġemploy ment
h t
Ġa i
om y
Ġn ig
pl us
Ġnot ificaÃ§Ã£o
Ġla ud
Ġdiam eter
Ġdivid ed
Ġalex and
Ġpeix e
wel come
ou ro
Ġre ver
our g
ass em
Ġgu ides
Ġprom ov
Ġsche dule
Ġsuns et
Ġcath olic
Ġirland a
Ġt iro
Ġd ong
Ġr m
Ġth ursday
Ġas us
st ation
ct or
Ġrel ativa
ian os
aliz ed
Ġbre ast
Ġfacil idades
Ġbit coin
Ġconcer ned
Ġaloj amentos
Ġperfe itamente
Ġpuzz le
ĠcarÃ¡ ter
Ġshen zhen
Ġindones ia
m ento
w i
is i
Ġn estas
ro le
Ġdes apar
so ft
Ġter reno
Ġvel ha
Ġconce b
Ġpen al
Ġinteress ado
Ġescrit Ã³rios
Ġlemb rar
Ġalic ante
t p
Ġp ak
Ġst ability
ip os
Ġne uro
up s
Ġbu ck
Ġcontinu ed
ĠÃ¢ ng
ĠclÃ¡ss ico
comfort able
import ant
f ab
h r
j esus
it is
Ġh ur
Ġequip es
Ġexpans ion
uls ion
Ġester Ã³
ĠsÃŃt io
c c
h ando
m ad
Ġt uesday
om at
ri zes
Ġap anhar
Ġcar men
Ġbar es
Ġmun ique
Ġhav en
Ġflex ibilidade
d est
Ġc row
Ġes qui
Ġun idas
av ia
Ġag ente
Ġbor deaux
Ġguid elines
compart ilhe
fortun ately
Ġt ig
Ġd ian
or i
Ġpar edes
act iv
Ġrec ording
Ġgl ory
Ġbal i
Ġmont anhas
Ġther apy
Ġcarre gar
Ġannoun ced
Ġtrop ical
Ġt n
Ġm Ã¡g
ou tras
Ġar redores
Ã³s itos
pre Ã§o
Ġinf ection
Ġutiliz adas
anÃ§ ais
Ġquer ia
Ġeffect ively
Ġaprove itar
Ġpous adas
Ġt ul
Ġf oss
Ġb ought
Ġse p
Ġfor th
Ġal ert
Ġpr ont
ch rist
Ġsp in
Ġmes h
Ġset ores
Ġlu ck
Ġrest ore
Ġpag amentos
Ġear lier
Ġholiday s
Ġdetalh adas
is b
Ġv enced
ter o
ag ar
Ġanaly tical
apart amento
Ġgerenci ar
Ġproporcion ar
Ġinteract ive
Ġtos hiba
Ġd ores
Ġap os
Ġpl as
Ġamer icas
Ġnort hern
Ġfund s
Ġcos met
Ġexport aÃ§Ã£o
Ġnote book
Ġpasse ios
Ġw c
Ġdes loc
Ġmin ing
Ġform ed
Ġair craft
Ġsur gery
Ġgener ate
Ġrad ical
Ġadministr ative
Ġprime iras
Ġfrut os
Ġkore a
i jo
ob tenha
Ġte Ã³r
Ġtiver am
f os
Ġpro port
Ġas p
Ġch a
Ġesp ess
amb a
amb ul
Ġoper ational
Ġhand ling
Ġperfect ly
Ġw o
ol ar
un ivers
pe g
Ġmon et
Ġla und
Ġsuper iores
Ġinstant Ã¢neo
Ġfuncional idades
Ġp ione
Ġp interest
ent ed
Ġth read
Ġsu ave
ak ers
Ġoc curs
Ġfollow s
Ġconsider ada
Ġpur su
Ġtor ne
Ġaud itor
Ġha w
Ġcy cl
Ġprint ed
Ġtel em
stand ing
u um
Ġch aves
Ġass ets
Ġexist ente
Ġten erife
Ġcham adas
Ġrepres ents
Ġtrat ado
Ġconfirm ed
ĠhistÃ³r icos
Ġtent ando
Ġpropos al
Ġhear ing
Ġibook ed
m art
Ġf et
Ġb ird
Ã© ns
ig r
Ġsp am
Ġche io
Ġentre tenimento
Ġmo ist
Ġsom ew
Ġjap onÃªs
Ġinim igos
b orn
c ams
v am
Ġa ula
Ġto kyo
Ġcon cess
Ġhel ic
Ġgra us
Ġcompon ente
c ab
Ġb ilhÃµes
Ġch er
Ġsp ir
Ġsem entes
pre visÃ£o
Ġelev ador
Ã©l gica
Ġpret ty
final ly
Ġinterv ention
selecion e
ar eness
Ġpro long
Ġk er
ap r
Ġmet a
Ġbas ta
Ġcra zy
Ġgran ada
Ġcade ira
Ġdesenh os
Ġhorizont al
in ity
on line
Ġm iser
Ġan gl
Ġem o
Ãµ em
ch ina
Ġposs ivelmente
Ġdesign ers
Ġtrad iÃ§Ã£o
Ġpat ro
Ġsever e
Ġacomp anhar
Ġanterior mente
Ġeld er
lux ury
ĠnÃº cle
s Ã³
Ġc ay
Ġcom igo
Ġen comend
Ġbr id
anc er
Ġlim its
Ġet apa
Ġfacil itar
Ġsignific ado
Ġc anto
Ġb und
op hy
vi amente
Ġtrad ition
Ġhar bour
Ġimpress ora
Ġcra ft
m Ã¡
Ġen ch
elh as
Ġz h
Ġoper acionais
Ġpublic ation
Ġexc eto
Ġworks hop
Ġintrodu z
Ġfern ando
Ġa ÃŃ
Ġs orr
ri er
Ġqu entes
Ġest abilidade
ĠÃ¡ cido
ras te
Ġguest house
Ġinsp ired
Ġfrut as
p ay
Ġall iance
Ġprogr esso
Ġcert as
Ġsand als
Ġton el
Ġjerus alÃ©m
recomend e
rÃ¡ ul
v d
Ġd ating
Ġg ri
Ġpara f
if ier
cl ui
ÃŃn ios
Ġtransport es
Ġconsum idor
Ġsubstitu iÃ§Ã£o
Ġdivis ion
quar to
Ġpred ict
Ġch ips
Ġpl ana
Ġbr ush
Ġtrans it
Ġbo ot
tra bal
Ġreserv es
Ġcreat es
Ġep id
Ġproc ure
Ã± ol
Ġdol l
Ġtempl ate
y cle
Ġpr Ã©m
Ġcont ribution
Ġvis ible
Ġsel eccion
enci almente
Ġatt end
Ġconn osco
Ġflex ibility
cast le
c ra
g ers
Ġh iv
Ġsu do
Ġmar ked
jet radar
Ġindiv ÃŃduo
book ing
Ġfinal idade
Ġconvers a
Ġlot s
Ġapo i
Ġexplor aÃ§Ã£o
Ġvaria bles
ĠmÃŃn ima
Ġvolt age
Ġsuffer ing
c ity
ir ty
Ġcar ton
ov en
Ġdi Ã¢metro
Ġescol ar
Ġtest oster
Ġcart as
Ġstra p
n enh
Ġc ed
Ġc ach
Ġst rict
Ġsp are
Ġwas h
Ġir an
Ġped ag
Ġcert os
Ġdou bt
Ġestim ated
Ġdescont os
a way
it em
Ġob vious
Ã³n ico
Ġcru cial
Ġsty l
Ġcresc ente
Ġbloc o
Ġchi ang
Ġreve aled
Ġh ier
Ġv ars
em or
Ġre ject
Ġr uns
Ġch ief
Ġmin or
Ġpop e
je Ã§Ã£o
Ġquer emos
Ġtit an
Ġintel ectual
Ġatl anta
Ġhid rÃ¡ul
Ġcircunst Ã¢ncias
Ġd l
ol l
ig en
Ġun limited
Ġsp ons
Ġver ific
Ġcap ÃŃtulo
Ġenter ed
Ġprop ostas
Ġbran ch
Ġoferec idos
mod el
Ġsuje itos
hold ers
Ġv l
Ġr ender
Ġat ivo
Ġun ity
par k
ne xt
Ġmat em
Ġenc ry
Ġsop h
Ġaw areness
Ġespecific amente
Ġpar ques
Ġsp ok
Ġpol eg
Ġsal Ã£o
Ġph p
Ġorgan isation
Ġtravel lers
Ġpesquis adores
Ġlig aÃ§Ãµes
Ġcard ÃŃ
Ġfu j
uc ks
ĠindÃºst rias
Ġcrist Ã£os
Ġdecid ir
Ġastronom ical
Ġesque Ã§a
Ġb ub
Ġn g
oun ce
Ġco fre
Ġpri est
Ġvis itas
Ġactiv idades
Ġll c
Ġcot aÃ§Ã£o
Ġsymb ol
ĠbÃŃbl ia
Ġestrange iros
ing l
Ġpr ison
ens o
Ġapresent ou
Ġri vers
Ġminist ro
Ġemp ire
Ġchoos ing
Ġh ua
Ġen abled
no va
man n
ÃŃl ios
Ġcaus as
Ġgol fe
Ġposit ions
Ġfech ado
Ġdisap point
Ġbreat h
Ġmetrop olit
Ġr ug
Ġat let
Ġmo ver
Ġtur quia
Ġconsum ers
Ġexpect ations
Ġsend ing
pop ular
b ow
f i
Ġde fe
Ġl ing
Ġre comp
ir Ã£o
ch al
Ġcam is
Ġte us
Ġpoder iam
Ġmal ta
Ġdig est
Ġcho ices
Ġcombin ing
Ġgrav idez
Ġampl amente
Ġhou ston
Ġdisponibil izados
Ġsuje ito
re mo
Ġw are
ul hos
ant er
Ġro de
Ġcor n
Ġdel ay
Ġtrabal ham
Ġpoder oso
Ġjul g
Ġoferec ido
Ġzur ich
e z
h and
Ġs ir
om i
Ã§ ada
Ġv ess
ec ia
Ġcol una
ios a
Ġequip ados
Ġvol umes
Ġintegr ado
Ġsignific ativa
ester dÃ£o
Ġdelici ous
ĠprÃŃncip e
Ġf ap
Ġin vis
ist an
Ġst ret
vel y
Ġref res
Ġbi od
Ġcirurg ia
isb ane
Ġb c
ra fo
ist ol
Ġar en
Ġsub sequ
Ġbo ys
Ġfac ts
Ġsab em
Ġmov ed
Ġbon ito
Ġdivulg aÃ§Ã£o
e gu
Ġb Ã©lgica
Ġor ch
Ġab stract
Ġinter action
Ġsh ock
Ġmin h
int endo
Ġra ck
Ġcri pto
Ġwar saw
Ġcir cle
Ġcompet Ãªncias
Ġreport ing
Ġmass age
Ġmodern os
Ġmaintain ed
b om
f ix
Ġthe ater
Ġmil ÃŃmetros
Ġconhec idas
Ġdial ogue
Ġ iva
Ġin es
Ġen orm
Ġcont est
res umo
Ġfil ms
Ġoper ator
Ġsolic itaÃ§Ã£o
t est
Ġe is
ed y
Ġen x
Ġwor ry
Ġmer ch
Ġlog istics
Ġmerc ador
Ġindic adores
rim ento
Ġreason able
Ġl ie
il ities
ec onom
Ġem pt
Ġr enda
Ġsu Ã©cia
Ġj ers
Ġhol ding
Ġextens Ãµes
sp ap
Ġgal eria
Ġconsult ing
Ġpossibil idades
tec hn
Ġtat to
Ġcorrig ir
Ġdrin ks
Ġtoul ouse
om atic
Ġr um
Ġwh atever
Ġcor p
Ġbut ter
Ġbook ed
Ġaplic Ã¡veis
Ġprot ecÃ§Ã£o
Ġend ere
Ġnar r
Ġcircu it
Ġhydra ul
a plic
n ight
s um
Ġg aut
Ġqu eda
Ġz onas
Ġair ways
Ġperson agens
Ġcontin ental
Ġadequ ados
Ġtransform ation
Ġrevol ucion
fas ts
Ġmarri age
Ġl ies
Ġl akes
Ġor le
com pre
Ġaj uste
apart amentos
Ġhabit antes
Ġpratic amente
Ġm ate
ÃŃ culo
Ġos aka
Ġdes ert
igh ter
Ġpl enty
Ġtransform ar
Ġbox es
Ġdesta que
Ġcn c
Ġliver pool
c art
n ome
ic Ã¡cia
ac te
ess em
Ġcont endo
Ġdes ired
Ġsa iba
Ġdel ta
Ġer rado
Ġhol der
Ġfornec em
Ġmap as
ĠpolÃŃt ico
Ġden omin
Ġapl ica
Ġvoss a
Ġadolesc entes
Ġprovis ions
Ġsurpre end
d ong
s omet
Ġp all
Ġv apor
iz am
Ġac know
Ġpre ced
Ġevery day
Ġtorn am
Ġpan am
Ġstat ist
Ġbreak fasts
Ġvac uum
Ġexib ir
Ġign or
n ov
w ei
Ġf d
Ġn om
ac ab
Ġdis sem
Ġro ub
com b
Ġop cional
pre cis
Ġinc id
Ġhost al
Ġaddress es
Ġauthor ized
Ġc edo
Ġl ifest
Ġg ym
Ġg aming
Ġen comenda
Ġac Ã§Ã£o
Ġne ither
ci ous
Ġam esterdÃ£o
Ġsp y
ha us
Ġpri ze
Ġworks hops
Ġdocument ation
Ġtrabalh amos
Ġprior ity
hel p
Ġacadem ia
Ġfunctional ity
Ġfinanci amento
Ġexplo itation
Ġd iction
Ġc ated
Ġf ator
Ġn t
am ong
Ġto ys
Ġse eds
Ġst ages
Ġel astic
Ġsh or
Ġpe p
Ġsa u
Ġfind ing
Ġfac ult
Ġbro ken
ĠÃ³ b
Ġenc ourage
Ġpay ments
Ġdocument aÃ§Ã£o
Ġju vent
Ġequival ente
Ġalde ia
Ġaquis iÃ§Ã£o
f ood
w rit
Ġof ic
vi os
Ġprocess ed
Ġfav our
Ġorganiz ar
Ġlearn ed
Ġgal van
Ġagricult ura
Ġencontro u
Ġexter no
b ot
d in
Ġb ull
Ġb Ã´nus
ra in
Ġcar o
Ġdis ser
Ġinter aÃ§Ã£o
Ġme ga
az z
Ġprodu cing
Ġsobre tudo
Ġext ent
Ġstr ing
Ġmal ici
Ġmont anha
Ġang le
su ch
Ġdivers ity
Ġresist ente
Ġsuccess fully
Ġcrit ic
ÃŃm p
Ġcarri ers
vide o
Ġdanger ous
Ġwro te
b ell
er mo
Ġthe oret
Ġdo gs
Ġse al
ter a
Ġespec ificaÃ§Ã£o
Ġresult ante
Ġprot est
Ġconsum e
Ġfra ud
Ġjard ins
Ġreceb ido
Ġentr ance
Ġgene va
l ive
es co
Ġc il
Ġm Ã¡s
Ġv at
Ġg reek
Ġre ar
Ã¡ r
Ġpara ÃŃ
all el
Ġind irect
Ġlocaliz ados
Ġsmall er
Ġdre ams
Ġcarib bean
r ise
w ill
Ġb its
Ġh ort
Ġv id
ist os
Ġst ated
Ġj Ã³
Ġdes pes
Ġes cond
Ġad e
Ġsp ots
Ġbr ilho
Ġind ica
Ġjog ado
Ġwater proof
Ġcoloc a
Ġcapt ure
Ġsugest Ãµes
ĠvÃ¡lv ula
u par
Ġc igar
it udes
ag ers
Ġpre view
Ġro bert
Ġwill ing
Ġx xx
enc ing
Ġunivers idades
Ġatt ribut
Ġfrequ ent
bre ak
Ġentrev ista
b ility
f ru
h al
s end
v ac
Ġd all
en ix
il ia
Ġac ion
Ġun comfortable
Ġhol e
br idge
Ġsl ot
Ġdin amar
Ġacess ÃŃveis
Ġfrequ ently
Ġmonitor amento
Ġcarreg amento
Ġentr adas
Ġexter na
t or
et ies
Ġcon quist
Ġpr ost
Ġpl en
Ġi q
Ġnas ceu
ĠhÃ¡ b
Ġfavor ito
Ġsl ip
Ġhealth care
Ġjap ones
Ġpros pect
ĠquÃŃm icos
Ã©dit os
Ġa ids
on ic
Ġre clam
ul u
th anks
Ġac eder
Ġche ga
ĠÃ¡ ustria
Ġra ise
Ġprom oc
Ġfre te
Ġapar ece
Ġamerican os
Ġul tr
Ġcancel amento
cre ate
Ġtrack ing
ĠrÃŃg ido
d em
Ġl inda
Ġtr u
ob rig
ind ing
Ġesp al
Ġrespon deu
Ġprote ÃŃna
Ġtre ino
Ġdifficult ies
Ġorigin ais
Ġimposs ÃŃvel
Ġchron ic
Ġpoll ution
re y
Ġb ordo
Ġl ets
Ġk el
to od
ob ter
Ġmin ibar
Ġnew spap
Ġbo ots
Ġgl or
Ġef icÃ¡cia
Ġpont uaÃ§Ã£o
Ġcorre ta
Ġsn ack
uck land
erd ale
Ġdificul dade
tour ism
Ġis a
ari am
Ġnear ly
Ġtur k
Ġfre q
Ġresol ve
Ġstock holm
Ġinteress ados
Ġmec Ã¢nica
Ġviet nam
Ġstrug gle
Ġo vers
it ada
Ġsu fficient
Ġam plo
gu ard
Ġrec ycl
Ġint l
Ġtrad uz
Ġmob ilidade
Ġtempor ary
quir y
m ud
Ġa uckland
Ġp d
re bro
un k
ap plic
Ġcomp rov
ell i
Ġconf r
Ġgl Ã³ria
Ġinclu ÃŃdos
Ġtemper aturas
Ġprecis e
Ġfund amentais
Ġcreat or
Ġposit ivo
Ġsell er
Ġenfer m
Ġconvinc ed
Ġvars Ã³via
Ġto c
Ġsu bl
Ġap er
Ġcri e
Ġwa ke
Ġhon est
Ġconcent ration
r ence
Ġt inta
al oj
Ġth or
Ġcont ido
Ġesc ap
Ġfre el
Ġconsider aÃ§Ã£o
Ġregist ros
Ġglob ais
Ġlux uri
Ġobs erve
Ġexpect ativas
Ġhosped agens
Ġtail Ã¢ndia
Ġin her
Ġth omas
Ġrec icl
Ġaval i
Ġsn ap
ĠbÃ¡s ica
Ġobt idos
Ġexerc ÃŃcios
Ġfight ing
Ġantec ed
Ġcott age
w ich
ch ing
Ġes co
Ġar co
Ġcomp il
Ġgr atis
pe ar
Ġpower ed
Ġconhec idos
Ã³n ica
Ġib m
Ġmol ec
seg undo
Ġdiagn ost
Ġtranspar ent
Ġprob abilidade
Ġmaravilhos o
Ġd ÃŃ
Ġl ens
Ġto ward
ab ul
ob serv
Ġsel v
hec imento
Ġclar amente
Ġexpos ure
Ġfamos o
ÃŃc ola
Ġdistribut ed
r est
Ġd Ã£o
Ġp v
at ualmente
Ġre gress
Ġdo ce
com es
Ġbr isbane
Ġx clus
Ġta ught
Ġint im
Ġunivers ities
Ġverdade iramente
Ġori ental
Ġperman ece
Ġist ambul
fit ri
ĠcÃ¡ ps
Ġnewslet ter
Ġlaud erdale
ingl Ãªs
n ame
t it
Ġh rs
Ġda ughter
Ġdis hes
tr ilhas
Ġcur ric
Ġvo ar
Ġelect ro
aut hor
Ġjud g
Ġcontem pl
Ġlegisl ation
Ġaven ida
Ġfrances a
Ġhus band
Ġincred ible
u ador
Ġs ierra
Ġan at
Ġre y
Ġse bast
Ġas ian
Ġen ds
Ġim Ã³veis
ial ly
Ġcor k
Ġfin ais
Ġinv ited
Ã¡l ias
Ġprecis amos
Ġescol he
Ġindic ated
Ġvig il
Ġhosped agem
Ġkill ed
Ġmachinery zone
Ġpne um
b ing
g od
r in
Ġre ct
Ġtra jeto
esta Ã§Ãµes
Ġpe gar
Ġaut entic
pr om
Ġsc ope
Ġger encia
Ġtext os
Ġnor ue
Ġeg ito
Ġcrist al
Ġconstant emente
Ġpous ada
Ġenem ies
ĠÃ³rg Ã£os
ain s
Ġfil ha
Ġdisplay s
Ġmeteor ologia
Ġolh ada
Ġa head
Ġm ast
ab ad
Ġat enas
Ġvi u
Ġfin land
Ġban heiros
Ġhost s
Ġbeb ida
apart ments
Ġprin cess
gener al
Ġe ating
Ġl Ãª
Ã© us
Ġr ul
Ġar ray
Ġent idade
Ġinform ed
Ġmod ified
Ġmost ly
ph en
Ġpes ca
Ġcomput aÃ§Ã£o
Ġcomb ate
Ġindic ate
Ġrelax ar
Ġmix ed
Ġblock chain
iab ilidade
Ġfamos a
Ġgaut eng
c amp
Ġe go
Ġf ique
qu ant
Ġh idro
Ã¡ culos
ly n
per m
Ġass em
Ġsa ia
Ġart works
Ġstand ing
Ġextens ions
Ġinde ed
Ġportfol io
b is
ed oria
ri al
Ġk im
Ġout ono
Ġrel ativas
Ġvis ite
Ġgra ve
Ġshut tle
m ult
p ubl
Ġp ants
Ġh ide
ac ial
Ġdes necess
Ġsh in
que za
Ġass ume
ater al
Ġta ip
Ġinf ecÃ§Ã£o
Ġbot Ãµes
Ġmer cedes
Ġmanual mente
Ġstay ed
Ġluz es
Ġdet ection
Ġvit amin
Ġconfl itos
s omos
Ġa ze
Ġg one
ap resent
ub le
por Ã©m
Ġjan elas
che l
Ġdivers e
Ġconfl ito
Ġdisponibil iza
Ġvitam ina
n em
Ġd ot
in um
Ġs ounds
Ġde veloper
Ġhe ct
Ġfil tros
Ġmod ules
Ġbar i
Ġmost ram
Ġmat ters
eu ro
Ġcus ta
Ġwin ning
Ġrot as
Ġarri ved
bas ta
pron Ãºncia
ĠestÃº dio
g ios
g ames
Ġt ang
on do
Ġf idel
Ġv Ãªm
Ġch ur
Ġes o
bl ed
Ġrealiz e
Ġens ures
Ġcir cular
Ġmonth ly
Ġsi em
Ġcy ber
Ġhostel world
Ġaspect o
Ġcort es
Ġimmedi ate
Ġapropri ado
Ġcolon ial
s ters
v Ã£o
Ġb righ
Ġn intendo
em n
Ġr g
Ġch ama
Ġme als
ell ation
pr esso
Ġoff line
Ġprecis arÃ¡
Ġexpl ica
Ġmerc ure
Ġsl im
rom p
Ġobject ivo
Ġcamp inas
Ġaprov aÃ§Ã£o
Ġsain do
Ġfarmac Ãªut
Ġg h
us ar
Ġun necess
cl ub
Ġfin anÃ§as
localiz ado
z za
Ġs co
Ġo mega
Ġn one
ab stract
Ġap t
Ġdas h
ĠestÃ¡ vel
Ġprogram ming
Ġadap ter
Ġindepend entemente
Ġcamb ridge
Ġfisc al
f ei
er ts
ent ret
Ġan c
Ġre Ãºne
ÃŃ de
Ġdis clos
bl og
ional ly
pro pri
Ġequip ado
ven ir
Ġru ÃŃdo
Ġthough ts
Ġmembers hip
ĠavanÃ§ ados
Ġemiss Ãµes
Ġvalu able
Ġs ides
Ġm hz
em i
Ġper c
Ġpart ilhar
Ġconsider ando
Ġstand s
Ġtiss ue
result ados
b ag
Ġt il
Ġt ape
Ġn ine
Ġg ul
Ġrel iability
Ġdesc rito
Ġconsider a
Ġsat an
comp any
Ġcontr atos
Ġmeas uring
Ġestiver em
Ġpromot ing
Ġfeature d
Ġastr onÃ´mico
Ġscan ner
Ġzel Ã¢ndia
Ġespess ura
Ġshor ter
entret anto
s ug
v et
Ġw ard
us ando
pl ac
th ose
Ġdis covery
Ġorgan is
Ġbras ÃŃlia
Ġtub os
Ġenvolv idos
Ġtut orial
rece ive
Ġjers ey
Ġtheoret ical
at ual
qu io
Ġg ang
Ġper ante
bl ing
Ġsh ift
Ġtec lado
Ġorgan ize
Ġspe ech
Ġatt ach
ĠpolÃŃt icos
Ġintrodu ced
Ġproduz ido
Ġox id
Ġthick ness
Ġc et
Ġe ter
Ġde utsch
qu art
st ep
Ġun for
Ġwe alth
Ġam end
Ġsuppl ies
Ġemail s
Ġunders tood
Ġrepl ace
Ġsubs cription
Ġdol lar
Ġdefinit ely
s ab
Ġp aixÃ£o
an na
Ġtra ins
Ã´ s
itu ais
Ġsab edoria
Ġinn s
Ġconstru ÃŃda
Ġconsider ing
Ġconsum ir
Ġconsult ar
Ġconfort Ã¡veis
Ġevalu ated
Ġexplain ed
ĠÃ¡l cool
Ġequil ib
Ġinvent ory
Ġreconhe cer
Ġbrasile iros
d ou
Ġb oc
est ou
Ġre is
Ġque bra
Ġman ila
bl ack
Ġcompl y
Ġrece itas
Ġbet a
ath ers
Ã©r ico
Ġmanual ly
Ġactiv idade
Ġcapac idades
Ġsecond ary
Ġbear ing
Ġprotocol o
Ġbron ze
Ġransom ware
c ad
Ġd ancing
Ġst an
Ġj i
con vers
Ġro w
Ġesp elho
ativ ity
Ġcomplet ar
Ġtranspar ente
Ġkilomet ers
Ġafford able
Ġt atu
an ja
Ã© ct
Ã³ i
Ġim plic
Ġinter f
Ġter ras
gr y
Ġpe ar
pro t
Ġdel hi
Ġdesc rit
ma x
Ġol ho
Ġrequire ment
Ġmanag ing
Ġhair d
Ġlogot ipo
Ġd entes
en Ã§Ãµes
Ġou vi
Ġdis h
Ġset up
Ġhol lywood
Ġchar ges
Ġmat he
Ġplac as
Ġindic ators
Ġdiret Ã³rio
Ġemb ra
Ġapar ecem
Ġdou ro
Ġce o
Ġdever Ã£o
Ġpercent age
Ġetern al
Ġprima vera
Ġinqu Ã©r
d esta
Ġc ento
Ġde pos
it ados
Ġper haps
ress e
Ġinvest ments
Ġobserv aÃ§Ã£o
col as
Ġexer cer
Ġcommunic ate
Ġcum primento
zz i
baix e
ste in
Ġvag inais
Ġequival ent
Ġtrail er
ĠfÃ³rm ula
al ia
il iar
con clus
Ġcent r
Ġrec ife
pro cess
Ġpo ols
Ġmen ina
Ġaqu ela
Ġstud ios
Ġped a
Ġson hos
met ro
Ġnaveg adores
Ġcolum n
Ġpattern s
Ġfilos of
Ġlifest yle
k l
t g
Ġd Ã©
it ou
Ġb ass
Ġmar io
act ive
ca f
Ġcri ando
min i
Ġbus es
Ġappl ies
Ġvest ir
Ġachie v
Ġsuggest ions
Ġgab ri
Ġfing er
Ġsobrev iv
Ġhigi ene
Ġd na
Ġs iga
Ġe ixo
Ġem pr
Ġon to
Ġat iva
Ġbr anc
Ġprof iles
Ġdesc end
Ġreview ers
air es
Ġcaus ing
Ġbag agem
Ġlimit ado
Ġcompos ed
Ġconfirm aÃ§Ã£o
Ġvaria ble
Ġines quec
c ore
k el
n atur
en z
Ġto car
Ġum as
ÃŃ colas
Ġwor ship
int as
Ġfac ing
Ġtravel ing
Ġcomb at
Ġclos er
Ġpurch ased
aps hot
Ġexpos iÃ§Ãµes
Ġdispos iÃ§Ãµes
Ġsuplem ento
Ġp ent
Ġg at
Ġre tain
Ġon da
Ġj orge
Ġaut oc
int os
Ġmelh ora
Ġdef ender
Ġsur ge
Ġsur pres
rel ated
Ġmov ements
Ġcou ch
Ġcad astre
trad uÃ§Ã£o
Ġdynam ics
g ary
Ġg hz
Ġreg ra
Ġserv es
Ġoper ador
Ġdec reas
Ġbel t
Ġcome Ã§o
Ġcontact ar
ĠperÃŃ odos
Ġdeb ian
Ġrecogn ize
Ġmunicipal ity
Ġcongr esso
e ps
Ġb d
Ġan fitri
Ġh z
Ġg y
im bra
Ġac quis
Ġk am
Ġreg ener
Ġgu ad
Ġsegu e
host els
compl ete
Ġpert enc
Ġmultif un
Ġpho enix
Ġunnecess ary
Ġma ur
ch en
pro gram
Ġacc um
Ġdu plic
Ġcompar a
Ġperf is
Ġpost al
Ġemb aix
Ġexig e
ĠcÃ¢n cer
Ġe ther
Ġse am
Ġpre domin
ei Ã§Ã£o
Ġprocess or
Ġpass ando
Ġir re
Ġlist ening
Ġten nis
Ġben z
Ġclaim s
Ġamea Ã§a
Ġsoz inho
ot te
Ġy oga
Ġfr on
Ġdire cion
por ter
Ġph ones
br id
comp at
aro om
Ġshort s
Ġtown s
Ġtransl ations
Ġpurch asing
Ġpret end
Ġmilit ares
Ġincreasing ly
d Ãª
Ġd our
Ġque bec
oc e
Ġne gl
Ġsan ct
ung al
Ġengine er
Ġbring ing
Ġwid get
Ġnord este
sup port
Ġhydraul ic
d irect
w ant
Ġc ache
Ġh art
Ġre je
us c
Ġfor no
Ġas pir
Ġen gan
Ġres c
Ġesp osa
rib ute
har a
Ġmay be
Ġcer veja
Ġlog ÃŃstica
Ġsubst Ã¢ncias
Ġsand Ã¡lias
Ġbutton s
Ġsta ke
Ġslight ly
Ġpanam Ã¡
b oth
in Ã¡rio
Ġv iva
Ġle x
Ġab ort
Ġall oy
Ġapresent ados
Ġexc iting
Ġinfl am
Ġbol as
add ed
Ġinici ativas
Ġinfo hostal
sk y
Ġcool ing
Ġtrust ed
Ġcated ral
t anto
w arning
ar as
Ġm x
Ġb h
Ġan th
Ġv ed
ab eth
st ock
Ġk ir
ari os
Ġback pack
Ġtrat amentos
ĠcÃ© rebro
ĠmÃ©d ias
Ġfour th
Ġtell s
Ġrit mo
Ġwis dom
Ġfap esp
Ġluxuri ous
Ġ iz
Ġac ha
Ġdes port
tr ess
Ġdi ariamente
Ġvers at
Ġcompar ador
Ġil leg
Ġmob ility
Ġappro val
Ġrepresent antes
Ġrepresent ative
Ġagricult ure
Ġbroad cast
Ġfortal eza
Ġguang zhou
Ġcopenh agen
Ġphilos ophy
Ġfru its
Ġn ylon
ec Ã§Ãµes
du e
co ok
Ġop cionais
Ġget aroom
Ġdirect ed
eng er
Ġconstru ct
Ġdeix ou
Ġgas es
Ġperce ber
Ġnav ig
ĠmÃ³d ulos
Ġww w
Ġanalyz ed
c ers
c ell
Ġin k
em as
ac ess
iz ador
ang es
Ġint enÃ§Ã£o
Ġchar ming
let ra
Ġcomb ine
Ġmicro f
Ġcong el
Ġalumin ium
Ġfrig or
iox id
Ġendere Ã§os
Ġjuvent ude
Ġv ote
Ġch ick
Ġper igo
Ġrel ating
Ġz en
Ġfac ial
Ġfal ha
Ġjohn son
Ġlater al
Ġfest iv
Ġrecol h
Ġinhab it
q i
Ġan el
ch t
se gu
Ġent ities
und a
Ġvis its
Ġtec idos
Ġcal m
Ġvol unte
Ġcab os
Ġespecial ista
Ġmud ou
Ġdet ecÃ§Ã£o
Ã³p olis
ĠdÃ©c adas
Ġafir ma
l emb
Ġp n
Ġb le
Ġesp ir
Ġpe o
Ġcam inhos
Ġtemper atures
Ġlet ters
Ġjud icial
Ġvest uÃ¡rio
Ġexib ido
Ġpros per
Ġpreocup aÃ§Ã£o
Ã§ al
Ġbe ings
res orts
Ġjun tar
Ġmult ic
Ġconsult oria
Ġwatch ing
Ġconsist ent
Ġferro viÃ¡ria
Ġcandid atos
Ġinterpret aÃ§Ã£o
det ail
Ġrus so
Ġwikip edia
l ate
l Ã¢ndia
Ġt ive
Ġp um
Ġf ides
ect s
art ic
pro v
Ġcri mes
let s
Ġdri ven
Ġlig ar
Ġquant it
Ġmedic amento
key words
Ġverm elha
Ġconex Ãµes
Ġacol hed
Ġsinc ron
n ut
Ġs ic
Ġde vol
Ġf ui
Ġcar l
Ġmar ÃŃtim
Ġbr istol
Ġra ised
Ġsec Ã§Ã£o
anc ar
Ġdu che
Ġdirect amente
af ood
Ġil im
Ġnorm ally
Ġconvers ar
Ġagre ements
Ġuk raine
Ġconsequ ences
Ġsurround ing
Ġproteg ido
Ġenfr entar
Ġdall as
k h
w indo
at ies
Ġh abil
Ġen vel
res posta
Ġmod ificar
Ġped ras
Ġsab ia
Ġtotal ly
Ġmor oc
Ġson o
Ġespa Ã±ol
loc al
Ġexclus ivamente
Ġfu ck
Ġcomunic ar
Ġcertific ados
ĠclÃŃn ica
Ġabsolut ely
c idos
o is
Ġt m
es as
in ado
Ġc Ã£es
er ies
re do
ul ada
oc ks
Ġnas cer
Ġaplic ada
Ġsab emos
Ġhuman ity
Ġdivers Ã£o
Ġflor enÃ§a
Ġace itaÃ§Ã£o
umb ai
copy right
Ġl m
Ġl amb
Ġg elo
im ar
te en
Ġoper ated
Ġtrad ers
Ġenvi ados
Ġtro users
Ġproxim idade
Ġbur ning
Ġhour ly
Ġgraph ic
ĠeconÃ³m icas
Ġweap ons
b os
t ub
Ġn c
Ġin gress
ro ta
Ġaf ili
erg y
cont udo
Ġfa q
Ġur ugu
Ġcorpor al
Ġviv em
Ġh b
Ġj ude
Ġk oh
cl ude
out ra
pos ters
Ġexecut ivo
ogrÃ¡f icas
Ġconserv aÃ§Ã£o
Ġguid ed
a ff
Ġf Ã£s
Ġre action
Ġsu cess
ace utical
Ġinc ap
Ġlook ed
Ġadicion e
Ġaz ure
Ġjack et
i ence
m and
Ġe y
at ul
Ġn ad
Ġal ign
ab ling
ver n
Ġx e
Ġprov oc
ie x
Ġart istic
Ġperson agem
Ġcer amic
Ġsee ing
su porte
Ġscre w
Ġstrength en
Ġalber gues
Ġcircul aÃ§Ã£o
coz inhas
p ou
Ġfor g
ber to
pr inc
Ġmet r
Ġant ioxid
Ġautom Ã³vel
Ġpat r
Ġaust in
Ġgas olina
Ġcondu Ã§Ã£o
Ġcombo ios
Ġisl am
Ġpeix es
Ġgrant ed
en Ã§o
Ġde grad
Ġan abol
Ġpara graph
vi k
vi era
ach i
ĠestÃ¡ gio
ty ard
Ġcop per
Ġmac ro
Ġcru ise
Ġdiagn osis
Ġaer on
Ġpeo ples
Ġl iability
Ġg p
Ġsim p
Ġdec ades
Ġlet ras
Ġcompre end
wor king
Ġsev ilha
Ġf ellow
Ġh oney
Ã³ dio
out ro
Ġmet Ã¡l
Ġsegu indo
Ġperm ission
Ġmal aga
Ġrefer Ãªncias
Ã³l io
Ġbon ita
Ġbloc os
Ġprofund idade
Ġcompress or
Ġestablish ment
Ġbil ba
Ġh Ã´
il ly
Ġj pg
ap olis
Ġman if
Ġmod ify
Ġfe aturing
Ġvari Ã¡vel
Ġtravel ling
Ġdri ves
Ġnome adamente
Ġrespect ive
Ġsecret Ã¡ria
ĠhistÃ³r ica
Ġpropriet Ã¡rios
Ġexce p
Ġconvid ados
Ġganh ou
g reat
r ates
he i
Ã© e
Ġna ples
Ġco ating
Ġtrans iÃ§Ã£o
Ġcr Ã©ditos
Ġeurope us
Ġespecial izado
Ġconc ret
Ġpain Ã©is
Ġfel icidade
Ġfinance iras
Ġnut ric
ĠdifÃŃ ceis
Ġadjust able
Ġesport e
Ġsurround ed
apro ve
Ġinspect ion
Ġluxu osos
Ġplas ma
l an
u idade
Ġp and
om ar
Ġst orm
ly ing
Ġun esco
Ġpod es
Ġpod ia
Ġmar ks
Ġag es
Ġqual ified
Ġger ente
Ġautom ated
Ġlab our
Ġelectric ity
Ãł s
Ġdial og
Ġpoly ester
Ġsud este
adicion e
m est
v nik
er va
or ing
Ġe pson
Ã¡ culo
Ġim un
Ġpre c
Ġhe ights
her es
Ġtrans actions
Ġopt ical
Ġtrad uÃ§Ãµes
Ġcontrol ador
wa it
Ġminim al
Ġoce ano
Ġconcord ou
Ġseat tle
Ġimped ir
ĠcÃŃ r
h ann
y o
de f
Ġmar rak
Ġver t
Ġprov eni
Ġpers egu
Ġpress ion
Ġmem orial
Ġmanag ers
Ġrel ative
Ġfaz emos
Ġesc rav
Ġsl ides
Ġdefin ido
Ġexclus iva
Ġshar p
Ġmoder ate
Ġadministr ador
Ġslee ps
pod emos
Ġbols as
sur fing
Ġgif ts
Ġencoun ter
Ġdian abol
Ġdespes as
r ating
Ġp up
Ġpro hib
Ġst ro
Ġst ack
st ad
ch urch
Ġtem p
Ã¡l ise
Ġdr um
Ġhar vest
Ġdam aged
ĠeletrÃ´n ica
Ġpossibil ities
Ġinspir ation
grad u
Ġchampions hip
Ġmiser ic
Ġcripto gra
Ġfilosof ia
i at
t ure
Ġc Ã£o
ar ks
ol ine
vi am
Ġfl ut
Ġrel at
gl ass
Ġapresent aram
Ġcontr ad
Ġfig ures
Ġelim inar
stre am
Ġm ile
em an
Ġfor ced
Ġbe ber
Ġen ri
Ġac compl
the ir
Ġpart ilh
Ġcor on
Ġra inha
Ġaf ast
Ġbra cel
Ġatt ached
loc ate
Ġperiod s
Ġdetalh ada
Ġincent iv
Ġlaund ry
Ġorle ans
Ġn aÃ§Ã£o
Ġthe e
Ġdo ck
Ġma u
ta is
jo in
Ġpos to
Ġespecial izada
Ġexec ution
Ġtransfer ir
Ġsen ior
Ġconstitu i
Ġdoct ors
Ġry okan
tag s
Ġabrang ente
Ġtradu ction
Ġpoleg adas
Ġde ar
Ġl ados
Ġr j
ag n
Ġest iv
Ġest ilos
Ġj as
Ġgr ill
amb u
Ġgu y
ĠfÃ¡ ceis
Ġcham ber
Ã©t icas
Ġnor way
Ġlimit aÃ§Ãµes
Ġprofund a
Ġsher aton
mÃ¡ qu
on ha
re w
ic ts
im ens
ade qu
Ġus Ã¡
Ġpre cios
vis ual
Ġsim plic
Ġbom b
reg ular
ĠavanÃ§ ado
Ġrob ust
Ġoccur red
Ġrepair s
ĠcrÃŃt ica
Ġamea Ã§as
Ġjewel ry
Ġconfr ont
f ire
Ġp ist
re z
Ġpar ent
Ġex it
Ġcri ados
Ġentre gar
Ġinf Ã¢ncia
Ġdevelop ers
Ġtur b
Ġclass ified
Ġperf ume
Ġtermin ar
Ġacqu ired
Ġimag ine
ÃŃcul as
d id
Ġp Ã¡t
en burg
Ġf ich
it ores
Ġw ines
Ġprov en
Ġlo vely
Ġmost rado
Ġperm issÃ£o
Ġtur ÃŃstico
Ġexpress ed
Ġclos et
Ġcole gas
Ġrepar aÃ§Ã£o
Ġconclu ir
d b
j ogue
Ġm ug
Ġan ch
Ġch ances
Ġar re
ne ver
Ġbel as
Ġmat ches
Ġchrist ians
Ġregion ais
ĠprÃ© vio
Ġjorn ada
Ġbirth day
Ġiniti atives
Ġquadr ados
Ġluxemb ourg
Ġempt y
r f
Ġt c
Ġre ply
ag as
Ġall posters
air bnb
Ġtest ar
Ġcat Ã³lica
Ġprop het
ocol mo
Ġcontribu iÃ§Ã£o
ĠbÃ¡s icos
product s
Ġlinked in
Ġp am
ar qu
Ġqu ot
Ġac har
Ġk i
Ġcan nes
Ġfl av
Ġco verage
Ġsoc cer
Ġutil ity
Ġmot ores
Ġconsider ados
eld orf
Ġcin za
Ġaward ed
bes ides
Ġfis her
Ġsudo este
somet imes
an es
Ġb ench
Ġn ick
Ġcri ador
Ġact ing
Ġlev ando
Ġpron Ãºncia
Ġfel izes
Ġguarante es
Ġassemb leia
Ġpob res
Ġwholes ale
Ġo mb
Ġb olog
Ġan onym
Ġre posit
ur ada
Ġpol ar
Ġpos iÃ§Ãµes
Ġmat Ã©rias
fl ight
Ġedit orial
Ġaccount ing
Ġpersonaliz ados
Ġdescob erta
Ġexplain s
Ġacompanh amento
desen volv
Ġdiction ary
m il
Ġd Ãª
Ġl ith
Ġsh am
Ġknow ing
Ġlim par
Ġamb as
Ġregist rar
Ġrefer ences
Ġintegr ada
Ġimplement ed
Ġfra gr
Ġarr an
Ġcredit s
Ġvoss os
Ġesquer do
Ġocas iÃ£o
Ġdefici Ãªncia
Ġd hab
Ġs ins
an ne
at Ã³rias
Ġn est
Ġal ive
Ġmar ido
ific ador
Ġcam ps
pro te
Ġesc uro
Ã©s ter
Ġregul ament
Ġaccept ance
Ġtradem ark
m ac
p in
s il
Ġd ito
Ġin quiry
Ġfor ever
Ġj r
Ġcar to
Ġass ista
Ġcam eras
Ġav es
ex iste
Ġins ights
Ġconv enÃ§Ã£o
get table
Ġhol anda
Ġbase ados
Ġdownload ed
Ġquer er
Ġcop a
Ġcop o
Ġdent re
Ġsecret ary
Ġgost ar
Ġt one
Ġk iev
Ġtr ucks
Ġmar ro
des pite
Ġaff airs
Ġstra w
Ġcole Ã§Ãµes
Ġinclus Ã£o
Ġpec ados
Ġattract ive
Ġtiv esse
Ġaccompan ied
b ei
Ġto xic
us os
Ġat uaÃ§Ã£o
aliz ado
Ġhel l
car acter
Ġcond en
Ġmic row
Ġpap o
Ġunder ground
Ġexist ir
Ġeg g
Ġcompos ta
Ġtent ativa
Ġgos te
Ġcorrect ly
Ġemiss ions
Ġoffic er
Ġphilip p
tam anho
Ġtonel adas
h Ã£o
Ġs ente
Ġm n
Ġj im
Ġgr at
Ġtim or
Ġfun ny
me u
Ġfal ando
ĠmÃ¡ r
Ġsubst it
Ġobserv ar
Ġstruct ural
new s
Ġmagn etic
Ġfres co
Ġposit iva
dr ome
localiz ar
Ġappoint ed
h en
y an
Ġp ico
Ġp iano
is se
Ġf ita
ic ana
Ġan avar
Ġu cr
Ġv endedor
il er
Ġal leg
ho e
op ol
de vido
Ġsk irt
Ġsalv aÃ§Ã£o
Ġmort os
Ġdens ity
fri end
Ġenem y
Ġmetod ologia
Ġpeters burg
Ġmobili Ã¡rio
Ġl yn
Ġy el
st ore
Ġsp o
Ġplay s
Ġpat ch
Ġsac os
Ġelet ro
Ġdemonst rar
Ġobrig aÃ§Ãµes
Ġalun o
Ġarri ve
Ġwol f
z en
Ġs gs
Ġm umbai
om er
Ġre ward
Ġr ice
Ġest ocolmo
st ic
Ġint ense
Ġcal orias
Ã¡l aga
Ġalt itude
Ġfrequ entes
Ġarch ive
inst ru
pol es
Ġfaith ful
Ġdiss ert
ĠtÃ³ quio
Ġadvog ados
Ġunfor gettable
e os
m ir
Ġc ow
pl ica
Ġent ity
Ġchar ged
Ġresid ents
orr er
Ġhead quar
ĠcomeÃ§ ando
Ġsug ere
Ġescre veu
Ġinser indo
Ġaus Ãªncia
Ġmorr er
windo ws
v illa
Ġs ister
ro b
id ing
ac le
Ġac us
com pr
Ġdi oc
Ġgro ve
Ġconv encer
Ġedit ions
Ġrepresent atives
Ġdetermin ados
Ġregular ly
Ġintellig ent
t ion
z os
Ġf usion
ad y
Ġg ap
Ġpar an
Ġcaf Ã©s
Ġmecan ismos
Ġtatto o
Ġdhab i
p d
Ġd ubro
Ġn v
Ġg az
ia h
Ġcon curso
de v
Ġfo x
Ġliv rar
Ġcult uras
Ġpequ im
Ġgovern os
Ġhav ana
Ġrelacion ada
Ġhapp iness
Ġmethod ology
Ġden ver
Ġindepend ence
Ġappear ed
Ġcarri er
a ust
d ale
t ese
Ġn oc
Ġh ook
ing en
Ġg ad
Ġma qu
Ġst uff
Ġno ve
Ġus amos
Ġro da
Ġrec ar
Ġsign ature
Ġbra Ã§os
Ġmult id
Ġfornec idas
Ġdefin iÃ§Ãµes
gest Ã£o
Ġrapid ly
ĠcÃ³d igos
Ġsess ions
Ġobrig aÃ§Ã£o
Ã¨ s
Ġgel adeira
Ġmerg ulho
ĠnÃºcle o
Ġt ij
Ġd n
Ġs ri
Ġs ne
est het
Ġbe ira
Ġcons id
Ġmod ular
Ġtrans action
Ġcam adas
Ġvisit or
ama ha
Ġmac au
Ġsch ol
ĠbÃ¡s icas
Ġoccas ion
Ġacord os
Ġmathe mat
n ament
Ġr amos
Ġag ress
gr u
Ġcons ecut
Ġtrans ition
Ġpubl ishing
Ġindic ado
Ġapar elhos
Ġpens amentos
Ġpersonaliz ed
Ġarr end
Ġflu id
Ġplug in
Ġdut ch
Ġcircu ito
Ġexclu ir
Ġpharm aceutical
Ã§ ados
Ġv ie
ul ados
Ġal erta
ÃŃ zes
Ġat os
Ġman uel
Ġinter rupt
Ġter em
Ġnov otel
enci ar
Ġend ed
Ġfar Ã¡
Ġge omet
ograph ical
Ġden mark
Ġregard less
Ġsn apshot
Ġextern os
Ġajust ar
Ġvind as
Ġrestri Ã§Ãµes
Ġturk ish
Ġdubro vnik
Ġs b
ec ida
Ġcon ter
Ġfr as
Ġsp ark
Ġsec a
go ogle
Ġmic hel
Ġfal has
Ġfornec ida
Ġcost um
Ġlow est
most rar
Ġnave gar
Ġconfirm ation
Ġrelev ante
Ġspeak er
Ġdiscover ed
Ġvict or
ĠcontÃŃn uo
Ġtestemun ho
Ġsched ul
y on
Ġs g
is her
Ġus ual
ta king
Ġad hes
Ġmar cos
Ġca ke
Ã©s ia
Ġdisc ÃŃp
Ġtrain ed
Ġtrat ados
Ġrespect ively
Ġemot ional
Ġdemocr atic
Ġimplant aÃ§Ã£o
Ġcatar ina
m use
s ave
Ġt l
Ġdis sol
Ġi ria
Ġmost rando
Ġref ug
Ġsitu a
Ġapar th
Ġcaracter ÃŃstica
Ġhd mi
Ġlav and
cin ia
Ġteen agers
ĠÃ¡ra bes
Ġpoli Ã©ster
f avor
i ante
s i
Ġd x
or ro
Ġcal gary
Ġwhat s
Ġautom aÃ§Ã£o
Ġtom ato
Ġcamp anhas
Ġhaver Ã¡
Ġdens idade
pesquis ar
Ġhect ares
Ġd icion
Ġd hl
Ġp uro
ic ar
Ġl ect
Ġh orn
oc o
ist ry
Ġent ra
ru b
Ġpe g
Ġport land
Ġcre me
Ã´n ico
Ġgovern ments
Ġpix els
compart ilhar
Ġdipl oma
situ ado
deix e
iex press
Ġa ur
Ġs angu
Ġe ase
Ġm Ã¡laga
Ġv etor
Ġg il
ph ia
Ġpubl icaÃ§Ãµes
Ġown ed
Ġrom ance
Ġdiret os
Ġproxim ity
Ġadm it
Ġembal agens
conhe Ã§a
Ġanteced Ãªncia
ig ual
Ġat o
Ġk in
Ġcri atividade
ry er
Ġfer r
Ġpublic ations
Ġgreat ly
Ġcompet iÃ§Ã£o
Ġib iza
Ġann ivers
Ġinvestig ation
Ġdedic ado
Ġacab amento
Ġemploye e
ĠtÃ¡ xi
Ġtransf ers
b ian
es pa
el i
Ġpar ish
Ġst unning
ade iras
Ġres pet
Ġpre ta
Ġam ino
cl ima
ult ura
Ġport s
Ġtri but
Ġext end
Ġprom ise
Ġparticular es
Ġbol iv
Ġju ice
Ġpier re
Ġfacilit ate
Ġadvertis ement
further more
Ġclus ter
Ġo g
ic ian
Ġw rap
Ġre bel
Ġj in
ke e
Ġco at
Ġnew ly
Ġpol o
Ġrem ind
Ġsl ide
Ġautor izado
post ed
Ġpix el
Ġidos os
Ġincorre ct
orig inal
p interest
s ob
er ge
re du
Ġh ay
Ġg anha
Ġab rigo
Ġent it
Ġme g
Ġcons elhos
Ġind ÃŃg
Ġprodut ores
Ġban king
Ġgra y
Ġpersonal idade
Ġindepend entes
Ġsess Ãµes
Ġadm ir
Ġcod es
ĠinquÃ©r ito
f are
m outh
Ġb oss
Ġse ating
Ġk ara
Ġne v
rig a
Ġport f
Ġprocess ador
Ġjog ue
Ġhum or
ty pe
Ġfill ing
Ġinterpret ation
Ġatualizar mos
Ġfif a
Ġguang dong
Ġsist ers
c ro
c ados
j ack
t u
Ġt f
en za
Ġv m
ul ta
Ġex ata
Ġj ump
Ġnot ur
ind ust
Ġtrans aÃ§Ãµes
Ġhigh lights
Ġover come
Ġpersonal ly
Ġmant Ãª
Ġpu rific
Ġsalv ation
Ġtex til
respon se
Ġreceber Ã¡
Ġpropor Ã§Ã£o
uri que
Ġsubstitu ir
Ġinsp iraÃ§Ã£o
Ġbes ides
ĠvÃŃtim as
Ġbolog na
v isto
or de
Ġb ate
Ġse oul
Ġcont atos
Ġar th
vi er
de us
Ġab ertos
Ġro lex
Ġz ar
Ġoper adores
ins on
Ġexpl an
Ġsus pe
Ġconfig ure
Ġcollect ive
Ġentire ly
Ġbeh alf
Ġconsequ Ãªncias
Ġinser ir
Ġafirm ou
Ġoppos ite
prof ess
quart os
c oun
k ind
s outh
ro gen
Ġda vi
iz z
Ġab aix
Ġsob er
Ġnew castle
Ġri os
Ġlimit ada
Ġsubs idi
Ġgene bra
Ġcampaign s
Ġocorre u
lev ard
Ġamig Ã¡vel
b ach
o ids
v endo
x o
Ġ Ãªncia
Ġt et
as is
Ġb un
Ġcar dio
Ġnot ed
Ġposs amos
Ġx ml
up d
Ġthem es
Ġreview ed
Ġlog ic
Ġenvi adas
Ġpou cas
ĠcomeÃ§ am
Ġarmazen ar
Ġinvolv ing
Ġpermitir Ã¡
Ġrevolution ary
Ġbos ch
Ġpris Ã£o
m Ã©
Ġpro l
Ġbot as
Ġvict ory
Ġgradu ate
agre b
ext ensÃ£o
Ġcomit Ãª
Ġt ight
Ġb one
Ġv are
Ġcom et
ig u
Ġar k
cl er
Ġel iz
Ġfil tr
vol tar
Ġinv Ã©s
Ġpan els
Ġintegr idade
Ġmotor cy
Ġrecon cil
Ġtreat ments
bra zil
Ġregular mente
Ġcorrespon ding
Ġox ford
eas y
pesquis as
adel phia
Ġdisser am
Ġchur ras
f im
ad icionado
Ġse ville
ver e
Ġdos es
amb o
Ġpres c
Ġwell ness
Ġprom pt
play er
Ġmotor ola
sh ield
Ġmeas ured
Ġbroch ures
Ġreven ue
Ġh ood
Ġth ai
Ġst ones
Ġport ra
Ġban ners
Ġbaix as
Ġconserv ation
Ġthreat s
p p
p ell
Ġt eto
Ġf ell
Ġbr un
Ġob tenha
wh ich
Ġvol vo
uss eldorf
Ġeconom ics
ank a
Ġconj untos
Ġdeb t
Ġconsegu iu
Ġprotect ive
sem pre
Ġdesej ar
Ġcorru pÃ§Ã£o
Ġfen Ã´m
Ġsumm ary
Ġshado w
Ġelder ly
ĠparaÃŃ so
Ġmicrow ave
g ost
i ation
Ġre ap
Ġem blem
Ġpro let
Ġest end
Ġk as
Ġwh irl
Ġcar bo
Ġdis curso
ass ist
Ġmar x
Ġz urique
Ġencontr amos
ÃŃt ica
Ġhol ds
Ġevery where
Ġdesenvolv idos
Ġemb ed
Ġquestion na
Ġlou v
Ġcro atia
Ġsuggest ed
Ġrein for
Ġreplac ed
Ġinject ion
u ch
Ġp us
is Ã©s
it able
ro be
Ġcar olina
Ġout standing
par ole
Ġbar ras
Ġx i
Ġz a
endo za
Ġvo or
Ġsuper mer
Ġaplic ado
Ġdirect ors
Ġinstal ados
Ġdisp ens
gra Ã§as
Ġpromot ions
Ġsof istic
ĠeconÃ´m icos
Ġpisc inas
Ġefet u
Ã¢nt ico
sol ic
Ġvoc abul
ĠeconÃ³m ico
abl anca
Ġetiqu eta
ĠnÃ¡ poles
Ġinhabit ants
Ġc ena
ad ing
Ġh l
Ġh ers
Ġto alhas
ut as
Ġar ter
Ġab ast
Ġinform ar
Ġoper ar
Ġneigh bour
Ġreput ation
a ero
l ab
Ġd h
Ġs ick
Ġpar ecem
Ġse afood
Ġk ra
Ġle af
Ġgr id
Ġver ona
Ġserv o
Ġra b
Ġcr on
Ġmost rou
Ġint ro
Ġsuper market
Ġcham ados
Ġbi ological
col or
Ġcaracter es
Ġpersonaliz ada
Ġmeteor olÃ³gica
Ġbis hop
Ġaument ando
Ġfronte ira
Ġdelet ed
doc um
Ġether net
Ġyel p
g ests
r il
Ġal imento
ort hy
ver ty
ud ad
ang ai
Ġmar gar
Ġvis ibilidade
Ġair line
Ġfun chal
Ġli ked
Ġlug gage
Ġsl ots
Ġenvi ou
Ġgame post
Ġcy l
bor ough
Ġreturn s
Ġmos es
Ġfirm ware
Ġantig as
Ġpregn ant
p esso
Ġa ri
Ġr urais
Ġk ne
ob s
Ġel Ã©ct
Ġsub scrib
Ġjo hann
Ġchar ger
Ġpat ri
Ġexist s
Ġsug gests
Ġsubs id
Ġexcept ional
Ġatac ado
Ġurb ano
Ġreemb ol
s che
Ġe cos
Ġde i
ri ed
Ġal iexpress
Ġver ified
Ġform ar
Ġnear est
Ġfac es
Ã³r dia
Ġdisc ret
Ġmus lim
Ġfeel ings
Ġconfer Ãªncias
Ġdifficult y
Ġestat ÃŃstica
Ġsuggest ing
Ġhip er
Ġintelig entes
pers on
Ġcorrespond Ãªncia
categ oria
ĠÃ¢ng ulo
Ġpatro cin
Ġstatist ical
a ud
v ant
Ġt ÃŃtulos
Ġm ong
od er
oc he
Ġat rav
Ġtr ump
Ġsc ul
ys is
lo ja
Ġsens ores
Ġmodern as
sk i
Ġmand ar
Ġali en
Ġexpos ed
Ġexcurs Ãµes
y ard
Ġen for
ay sia
Ġper th
Ġgr ass
ai os
Ġspec ify
Ġref ers
Ġclass ificados
Ġsent imentos
Ġfri ed
comp anh
Ġcheck ing
Ġsac red
Ġarmazen ados
Ġdedic ada
Ġcabe Ã§as
Ġmaintain ing
Ġmig ration
Ġfrigor ÃŃfico
Ġjude us
b ased
c ino
Ġ ion
Ġp b
en agem
Ġl az
ot al
Ġal ban
Ġap Ã³st
Ġab a
Ġdis abled
Ġmon ter
Ġsel ecÃ§Ã£o
Ġjun ior
Ġpublic ar
Ġapresent adas
Ġperform ing
Ġdou tr
Ġexplic ar
Ġreput aÃ§Ã£o
Ġwallpap er
c d
s ch
Ġt ire
Ġs ut
Ġg ib
Ãª me
ans a
Ġport e
Ġche ese
Ã¢n icas
Ġlo op
Ġprof undo
ari edade
Ġglob e
Ġbat teries
Ġengine ers
Ġpens ion
Ġcuid ar
Ġd usseldorf
Ġf s
ed uc
Ġv et
il ed
ra id
Ġcon qu
Ġso fia
pos to
Ġz agreb
Ġpal ermo
Ġtw ice
Ġcer Ã¢mica
Ġopt ar
its u
Ġneg ro
Ġimp Ã©rio
Ġrealiz a
Ġfacil ity
Ġassoci ada
Ġcorr er
Ġdry er
Ġintens idade
Ġpil ot
Ġdescrib e
Ġdestru iÃ§Ã£o
Ġalgor ith
conn ect
Ġque br
Ġk on
per f
Ġcont Ãªm
Ġent us
ult ural
Ġprov edor
Ġmelhor ias
Ġchar ging
Ġpap Ã©is
Ġhouse hold
with out
Ġresid ential
Ġce iling
Ġchin elos
vas cular
Ġrefl ection
Ġfurn ished
ĠsÃ© culos
Ġannivers ary
b ank
ar ity
Ġin vol
Ġh ano
Ġal inh
Ġsu ic
ag ne
ass a
ord ers
ish ment
Ġra Ã§a
Ġinv ers
Ġtw enty
Ã¡s ia
Ġsou ght
Ġassoci adas
Ġconvers ation
Ġsubst ances
see ing
Ġdam ages
Ġprior idade
Ġcp u
Ġdestac am
Ġautomot ive
i amente
on ato
Ġh ath
im enta
ec raft
Ġem issÃ£o
iss on
Ġserv ido
ff e
Ġconf ess
ie val
Ġdev o
Ġconv enc
Ġoc idente
Ġimp ulsion
Ġcall ing
Ġenc ora
Ġpet ro
Ġdiret iva
Ġrepresent ed
Ġdescri pt
Ġabs ence
Ġacab ou
Ġtaip ei
Ġschol ars
Ġp our
Ġo ven
Ġm w
Ġh in
Ġv otos
um n
Ġad er
ĠestÃ¡ dio
Ġir rig
ins cre
Ġtur ns
Ġscre ens
Ġcob r
Ġcrist Ã£
Ġvar ies
cal cul
Ġacredit a
Ġconclus ion
Ġjord an
Ġp ine
Ġs itting
em e
de velop
Ġme ant
Ġfl ood
Ġsm ile
Ġspecial ist
Ġcast ell
ĠcomeÃ§ aram
Ġconce pÃ§Ã£o
Ġcoloc ado
Ġclub s
Ġsav ings
Ġinteress antes
Ġut ens
Ġrf id
Ġtempl ates
Ġinstitut ional
aci Ã³n
Ġcasc ais
a verage
s hop
Ġl d
Ġl v
Ġl ump
ac ho
Ġfr ust
Ġad am
Ġcan s
Ġsp oke
ual a
Ġgr en
po ints
Ġob es
Ġte or
Ġvis ibility
Ġnov idades
Ġorgan ismo
Ġlim pa
itar ian
Ġstay ing
Ġfut uros
Ġeffect iveness
Ġadequ ate
Ġsaud Ã¡veis
Ġabsol ute
Ġultra pass
alugu el
Ġrodo vi
Ġnerv os
Ġtrig ger
g reg
Ġ io
Ġin ches
Ġou Ã§a
Ġag ir
Ġag reg
Ġint est
Ġcontro les
Ġlar anja
hel or
ĠeconÃ³m ica
Ġimprov ements
b ai
Ġm ante
Ġin ev
Ġu g
Ġre aÃ§Ã£o
Ġse o
oc al
the less
Ġgu il
Ġpo verty
me et
Ġcompl ain
Ġins pe
Ġmot oc
Ġsom bra
Ġcustom s
Ġprest ar
Ġdeclar ation
Ġcontract s
Ġmaravilhos a
Ġran king
Ġoffic ers
c Ã£o
f p
Ġt t
Ġm end
Ġl ite
oc ial
ens as
Ġmon st
Ġla id
ph y
Ġdi Ã¡rias
istem as
Ġeas iest
Ġvill ages
Ġestud ante
Ġpag o
Ġdeix ando
Ġmass ive
Ġdetermin ada
Ġye ah
Ġinterval o
Ġadul to
Ġd p
ar os
al ter
Ġin ex
Ġw aves
Ġpar as
Ġcon cluded
ul man
Ġes clar
Ġhel lo
Ġinv ite
Ġpal mas
Ġsur prise
Ġplan ear
jo hn
ash i
cu o
Ġsufici entes
Ġcarry ing
Ġsect ions
Ġelabor aÃ§Ã£o
Ġagr ÃŃcolas
Ġabsolut amente
ĠanalÃŃt icos
Ġcil ind
d isc
g ado
h om
in de
Ġs od
Ġf x
Ġen abling
Ġmar inha
ide al
Ġco al
Ġsc r
Ġint ent
Ġgar age
Ġenerg Ã©tica
Ġcu ri
Ġrepresent aÃ§Ã£o
more over
Ġclos est
Ġprest aÃ§Ã£o
Ġinclus ion
Ġpreval ence
obrig ado
Ġeliz abeth
i Ã¡
Ġf ome
Ġk its
op Ã§Ãµes
our se
Ġent endimento
Ġcor aÃ§Ãµes
Ġpol ish
Ġaqu elas
Ġcat ch
Ġsens it
ink i
ĠÃ³ culos
Ġpersonal ity
Ġadequ adas
Ġje ho
Ġmig r
Ġtranspar Ãªncia
Ġisol amento
Ġstri ke
Ġov os
Ġhaird ryer
Ġcouch surfing
p ic
y ang
er ie
Ġp isa
Ġqu Ã£o
ut er
Ġme ets
Ġfil ip
Ġinf ring
tim o
Ġpriv ativa
Ġtest im
Ġpermit ido
Ġsuport ar
Ġexecut ado
Ġbig ger
bour g
Ġdoll ars
m unic
u ries
it ate
ig e
ĠÃ© tica
Ġtr iste
Ġam ounts
ass y
Ġbar re
Ġintern os
Ã¢n io
Ġimport aÃ§Ã£o
Ġmo Ã§
tem per
Ġpronunci ada
Ġcontempor Ã¢nea
wal k
ĠlÃ³g ica
a um
b il
h ora
m ade
v ai
Ġex ced
ch ron
Ġne o
Ġam a
Ġco imbra
Ġplan ned
has a
Ġdisc os
Ġarm ed
Ġregul atory
Ġbelie ved
part icip
Ġsusp ensÃ£o
Ġassign ed
Ġstim ul
s am
y ear
it ary
Ġb act
Ġl utar
Ġper e
Ġun able
Ġcan aria
Ġmar it
aliz e
pr ises
Ġx angai
Ġapro fund
Ġmant ido
Ġacom oda
Ġkitchen ette
Ġrob ot
ĠelÃ©tr icos
Ġe z
Ġe ag
Ġf da
ic ing
Ã§ ulman
Ã© dio
ÃŃ o
Ġon going
Ġes con
Ġim Ã³vel
Ġna val
ans as
Ġcompl icaÃ§Ãµes
ios os
Ġencontr adas
Ġdisc re
Ġmerc y
Ġedit ing
bus es
Ġeg gs
Ġoptim al
prim eiro
Ġacab ar
mod elo
ĠcrÃŃt icas
Ġreduc es
Ġweld ing
Ġmercador ias
s pa
Ġc Ã³r
Ġf are
im burgo
Ġhe x
ell ed
Ġbl usa
Ġmed ieval
view ed
Ġol ÃŃmp
Ġpet rol
Ġpag a
Ġveget ables
ser Ã¡
Ġpric ing
Ġadvent ures
Ġmys tery
phot o
Ġagr ÃŃcola
Ġmoz illa
Ġnorue ga
l is
it Ã¡rias
Ġy ield
Ġex cesso
Ġcar p
Ġsh ield
gu eira
Ġsho ot
Ġinc Ãªn
Ġpoder Ãł
Ġelev aÃ§Ã£o
Ġrecomend amos
Ġdiscuss ed
Ġster oid
Ġconstit ut
Ġlob by
Ġoblig ations
b rar
Ġg ale
ec edor
con ce
Ġag ed
Ġz omb
Ġbre ach
Ġleg ÃŃtim
Ġdesenvolv ida
Ġintegr ity
ended ores
Ġquant idades
Ġic ons
Ġconstitu iÃ§Ã£o
ogrÃ¡f ico
quest ions
Ġnik on
s istema
Ġy amaha
Ġk ha
ta wa
Ġfo am
Ġdel ight
pect ed
Ġsearch ing
Ġshe ets
Ġmor adores
Ġinfl amm
Ġexclus ively
Ġenjoy ed
Ġdecid iu
Ã¨ re
Ġdura ble
Ġguid ance
Ġcolum bia
Ġcomand os
Ġconvent ional
Ġdinamar ca
u zzi
he jiang
ent ro
Ġh ors
Ġfr ames
Ġar row
se ille
Ġnot ification
Ġro hs
va h
Ġdif f
Ġgen etic
Ġmo isÃ©s
Ġmat ar
Ġcham ar
Ġcir Ãºr
book s
Ġcour tyard
Ġsus hi
Ġsepar aÃ§Ã£o
Ġdra wn
Ġlabor ator
Ġrepar os
Ġpad re
Ġsequ Ãªncia
Ġora cle
Ġantiv irus
Ġresc ue
Ġb ik
Ġpar to
Ġna vio
Ġab er
Ġro cha
ast ro
Ġass et
Ġte eth
Ġprogram mes
fl ix
Ġfund ing
Ġdetermin adas
ester day
Ġsud den
final mente
Ġenvol ve
Ġurb ana
b ad
s ing
Ġp Ã¡ss
Ġs q
est ud
Ġand orra
Ġre ag
ch in
Ġap ostas
gl as
Ġpay ing
Ġestar Ã£o
ĠrÃ¡p idas
iment ary
Ġexclus ivos
Ġje ito
Ġcrit Ã©rio
Ġrole play
Ġincr ÃŃveis
Ġsomew hat
Ġorganis ations
c us
f our
m iss
Ġw ins
im agens
ul aÃ§Ãµes
Ġst am
Ġper cept
Ġdis ciples
Ġfl ange
Ġcol he
Ġmu Ã§ulman
Ġtrans c
Ġbl ouse
Ġbas il
Ġfol ding
cri e
Ġsens ors
Ġmov iment
Ġstat ements
Ġsun ny
Ġaltern ativas
Ġpropos als
Ġanswer ed
Ġdestru ction
pod er
Ġcuidados amente
jac ulaÃ§Ã£o
Ġaceit amos
ĠtÃ©rm ica
Ġbiod ivers
Ġanc est
h ill
s om
Ġb n
Ġal ianÃ§a
Ġrel atively
Ġcor al
Ã¢n s
Ġtur istas
Ġadv oc
lin ks
Ġnor ma
ĠlanÃ§ ar
Ġcompat ÃŃveis
Ġsyn th
Ġtan que
ĠvÃ¡l ido
Ġhen ri
ĠsÃŃmb olo
Ġentreprene urs
on ne
Ġb ura
et ime
Ġex po
Ġk or
Ġk an
Ġam o
Ġinter ven
Ġro lo
Ġcor pos
Ġsho oting
Ġoc or
Ġdom ÃŃnios
Ġprote ÃŃnas
Ġcare ful
Ġimpress ive
Ġord inary
Ġindepend Ãªncia
Ġperce pÃ§Ã£o
Ġclim Ã¡ticas
Ġinvolv es
Ġtow els
Ġreprodu ction
Ġbul k
Ġquadr ado
Ġbroch uras
Ġalp ha
Ġnurs ing
Ġm k
Ġm endoza
re fer
Ġg host
ow e
se y
Ġhe aling
Ġcol ch
Ġlu cas
Ġdev ot
Ġbas el
Ġadapt ador
Ġespanh ola
Ġmount ed
Ġdefinit ivamente
Ġconcre to
Ġbou levard
Ġconfid ential
Ġhua wei
Ġjudg ment
Ġinesquec ÃŃvel
Ġscul pt
g ame
Ġp itch
Ġn ou
ÃŃ mos
do es
bl ue
Ġtra cks
Ġaf raid
Ġmil ano
Ġpes quise
Ġcre ativity
Ã©r icas
Ġri queza
Ġalt ar
Ġelev ados
Ġtex ts
Ġmiss Ãµes
Ġenh anced
Ġfamiliar izar
Ġbanc Ã¡ria
Ġmatem Ã¡tica
Ġd d
Ġv ille
Ġse ats
Ġas king
Ġj ama
ho o
Ġk uala
con te
Ġcas ablanca
Ġfe b
Ġfin lÃ¢ndia
anc he
Ġnecess ita
Ġdec rease
Ġsuper vision
Ġland ing
Ġrepresent ante
bor o
Ġphil adelphia
Ġjud ge
Ġfest as
Ġmarri ed
Ġphen omen
Ġillust ration
Ġcarib e
Ġsurv ival
Ġappreci ate
Ġassass in
Ġchines a
Ġresta uraÃ§Ã£o
Ġpobre za
ĠesterÃ³ ides
l iv
u er
Ġe o
Ġh ond
ri mentos
ol hando
Ġyou n
Ġper das
Ġrel ativo
ian ces
Ġconf iabilidade
Ġprof eta
Ġseg mento
Ġcal ories
ath an
Ġsent imento
Ġens inar
Ġci udad
Ġtransfer red
Ġmess enger
Ġimplement ar
Ġput ting
Ġreach ing
Ġlay ers
Ġspeak ers
Ġimper me
Ġcient istas
Ġsurround ings
Ġnetwor king
Ġbrinqu edo
Ġcomerci antes
ĠvÃ¡ cuo
Ġolymp ic
igen ous
Ġsangu ÃŃne
Ã¢ns ito
m r
Ġd w
Ġo xy
Ġf ier
Ġb art
ra ge
og y
pro jet
Ġmen ino
Ġmor reu
rem ember
cle an
Ġmant endo
Ã³l ico
Ġflor ian
Ġdesenvol ve
Ġtranqu ila
Ġreflex Ã£o
Ġleon ardo
Ġconfir mar
child ren
Ġacquis ition
Ġfron tera
Ġwhirl pool
f az
f ish
p asse
x ido
Ġ erv
Ġc oca
Ġp ets
Ġf os
Ġcan n
Ġent ries
Ġi ot
Ġsh ares
Ġesp acial
ater n
Ġpri ests
Ġcent uries
Ġaut Ãªn
Ġcal Ã§a
Ġenc aix
Ġsaf ari
Ġbud d
inte gr
Ġgrad ually
Ġzo o
Ġminer aÃ§Ã£o
Ġcomplic ations
Ġbless ed
a a
g or
j ap
m c
Ġt p
Ġm sc
as k
al to
Ġl ent
ant is
ap o
ific adas
Ġprodu cers
Ġgu ias
Ġprov ence
Ġprocess ar
Ġfa Ã§o
Ġinstall shield
pes quise
Ġenter prises
Ġdetal he
ĠcÃ© us
Ġadapt ed
Ġproduz idos
alugu er
Ġreform a
Ġcontrib utions
Ġswe at
Ġterap ia
Ġstyl ish
g ov
ar ra
et t
Ġr ust
Ġab ertas
Ġwas n
Ġob tenÃ§Ã£o
pre m
Ġoper ates
Ġdesenvolv edores
Ġrom ania
ane amente
Ġbal anced
Ġindic ates
Ġhy brid
Ġjew s
dispon ÃŃvel
Ġestabelec ido
Ġentrev istas
Ġgate way
inf elizmente
Ġvictim s
b ic
p ages
an Ã¡lise
if fer
Ġap aix
ĠÃ© t
se us
Ġam iz
Ġinter views
Ġtra p
Ġsc ores
Ġgl am
ela ide
Ġcond ens
Ġsw f
Ġusu fru
Ġtal entos
itor al
Ġlat ter
Ġresid encial
Ġconc ert
Ġconfi Ã¡veis
Ġscen ario
Ġchemical s
r atos
x ia
Ġre iv
ec imentos
Ġat itude
Ġk os
Ġcont udo
Ġne gr
Ġar roz
Ġtr Ã¢nsito
Ġad ds
Ġcl ips
Ġle e
ok a
po o
Ġform ing
Ġmes as
Ġsens ibilidade
Ġcover ing
Ġslee ved
Ġpreocup aÃ§Ãµes
ĠprÃªm ios
Ġl our
ir y
Ġk ick
Ġser ial
Ġcont acte
Ġper pet
ha ust
Ġmar seille
bl oque
Ġbr ut
Ġcol oque
Ġver Ã¡
Ġport ion
Ġpass ing
Ġcomb ines
Ġdom ic
Ġsw ord
Ġatt itude
Ġcu rios
Ġcentral ly
Ġsing ular
col l
Ġweek ly
Ġfast est
Ġcort ar
Ġrich ard
Ġroll er
Ġexercis es
Ġsurg ical
Ġobl igation
Ġdiminu ir
g ian
i Ãªncia
Ġs sl
ro it
Ġg our
Ġre plic
Ġr endimento
Ġal v
Ġex presso
Ġpre views
pon ents
Ġfaz enda
Ġhol land
Ġbom bas
Ġveget ais
Ġclos ely
Ġbeh old
Ġapproach es
Ġexplic it
Ġajust Ã¡vel
quist Ã£o
Ġbudap este
Ġsugest Ã£o
Ġdece pÃ§Ã£o
Ġestrang eiro
Ġfacult y
Ġphilipp ines
Ġs ard
Ġf ases
Ġl ane
Ġg s
Ġon u
Ġcont raste
Ġmar gem
Ġesp uma
Ġco in
aliz ada
Ġpoder osa
Ġbra Ã§o
Ġide ais
Ġped al
Ġchild hood
cont rol
Ġfut uras
Ġrespect ivamente
Ġguard ar
Ġcarreg ador
Ġpud er
Ġinim igo
norm almente
Ġorgas mo
Ġindis pens
fei Ã§o
Ġbilba o
Ġreembol so
a io
p elo
Ġt ill
re quest
Ġu ber
Ġpar ada
Ã¡ teis
un er
Ġal ente
ap ia
port ugu
Ġcar gas
Ġcam ar
Ġz hejiang
ari ado
Ġhigh way
Ġke eps
Ġsou ls
Ġbase adas
Ġed imburgo
Ġsitu ada
Ġdisp ers
Ġcro Ã¡cia
Ġinstru ction
Ġtranspar ency
Ġcamb ogia
Ġempresar iais
Ġgross o
Ġalgor it
cÃ³p io
ĠcÃ¡ps ulas
princ ip
c ot
h amos
m ill
r ador
Ġt ay
Ġb iz
Ġw d
Ġr icos
Ġj on
ab ra
st ay
Ġfr uto
Ġsh ips
Ġgo i
Ġind igenous
cur rent
Ġtur ning
Ġquant os
Ġrepresent am
Ġbuy er
Ġwin ner
Ġlav agem
Ġirm Ã£
Ġcalcul ator
Ġharmon y
Ġras p
empres as
Ġsoph istic
ĠjÃ³ ias
Ġilleg al
Ġb rig
Ġnot ificaÃ§Ãµes
Ġinter ru
Ġconst rut
Ġgen es
be en
Ġchar m
Ġhuman as
Ġativ ar
Ġpast oral
Ġmilh Ã£o
Ġhospital ity
Ġperce ption
Ġdivert ido
Ġalar me
Ġdescre ve
Ġdrin king
Ġproport ion
Ġarter ial
Ġh pa
Ġv od
ri ve
Ã© gio
Ġal pes
ow ned
te ve
Ġun lock
ug al
Ġcam s
Ġarqu itect
Ġbra ga
Ġprom et
Ġassoci ations
Ġprepar ado
Ġcolor ado
Ġcast ro
Ġdra ft
Ġconect ado
Ġcaminh Ã£o
Ġbloque io
Ġepis Ã³dio
ÃŃcul a
s ou
Ġde form
om eter
et ta
Ġy ach
Ġch ill
ug a
Ġnot ar
Ġro te
Ġvis ÃŃvel
Ġpes co
Ġfer ries
Ġvari ar
Ġrigh te
Ġsubst ant
ling ton
Ġcommon ly
Ġexig em
Ġrevel a
Ġpeace ful
serv ices
Ġtransmit ir
Ġargum ent
k at
s anta
Ġt act
Ġd ns
Ġc isco
ter dam
ch u
op ro
ang ular
Ġel ig
Ġel ection
Ġfl ats
Ġver melh
Ġra ising
Ġmet as
Ġdi y
Ġcal le
bo y
Ġinte ira
Ġnatur almente
Ġtor res
Ġlet ra
Ġha ja
uc cino
Ġblog s
Ġimedi ato
Ġaprov ado
Ġjac uzzi
Ġantig uidade
Ġocas iÃµes
Ġprivile gi
Ġrepe ated
Ġfronte iras
Ġdestroy ed
Ġmoroc co
Ġucr Ã¢nia
Ġwhats app
k on
Ġt ome
ro ck
Ġv inte
Ġpar allel
do ba
Ġend ing
Ġsatisf ied
Ġintens ity
Ġscient ists
Ġdescrib es
Ġster oids
servi Ã§o
Ġmerg ul
Ġcabin et
Ġpia zza
Ġlegit imate
Ġmoist ure
Ġlump ur
g el
in vest
Ġar que
Ġtr in
Ġpre vis
Ġro les
Ġpol uiÃ§Ã£o
Ġval Ãªncia
Ġstud ying
Ġcert ifique
Ġpermit iu
Ġassist ente
Ġcombin ar
Ġmass agem
Ġrecomend ar
Ġbur berry
Ġhon ra
Ġmulti plic
ĠÃ³tim os
Ġcorrespond ente
Ġcorru ption
Ġchick en
Ġmarrak ech
Ġmiseric Ã³rdia
n Ãºm
Ġd well
Ġin adequ
Ġl ote
est one
Ġpar cial
Ġest resse
Ġac amp
Ġk ol
ch ange
Ġap ert
Ġdis par
Ġinter iores
Ãªn cio
Ġtra ce
ish i
Ġdel ivers
Ġgl ad
Ġdiv ing
Ġdiv ina
Ġfund ada
Ġtab elas
Ġhapp ening
Ã¡st ica
Ġcomplex os
Ġlimit ations
Ġsop a
Ã± o
Ġhun ting
Ġimpression ante
Ġnutri Ã§Ã£o
Ġgather ed
Ġfantas y
Ġpis os
ĠprÃ©m io
h ine
Ġa ar
ic ular
ic ie
Ġl ion
Ġl act
ul um
og ne
ill es
Ġad iÃ§Ã£o
ond as
Ġer as
Ġperson nel
Ġprecis ely
Ġmo od
Ġspecial ly
Ġmechan isms
Ġsolid arity
Ġaper feiÃ§o
Ġpear l
Ġenvel hecimento
c all
v it
Ġw ing
el et
od ia
ill ance
Ġpor Ã§Ã£o
Ġro ugh
Ġcol ours
Ġmod al
Ġz an
Ġsoc ks
Ġess ence
Ġestr adas
Ġtal ent
Ġanim aÃ§Ã£o
Ġexam ination
Ġselecion ado
Ġopportun idade
Ġmos qu
Ġpaper back
Ġdesenvol veu
aval iaÃ§Ãµes
Ġengen heiros
ogrÃ¡f icos
Ġdaqu eles
Ġspect acular
Ġvirgin ia
w ares
Ġt d
Ġt ib
Ġw ick
Ġh c
Ġfor ex
un icaÃ§Ãµes
Ġele iÃ§Ãµes
Ġencontr os
Ġsuper vis
Ġhol and
Ġste ak
Ġri p
of fer
Ġsignific ativo
Ġtreat y
Ġrelax ing
Ġrelax ation
Ã©n ia
Ġgi ant
Ġrestrict ions
Ġgm t
ĠhÃ´ tel
l ia
t ed
Ġa ter
Ġn antes
ut or
Ġst ut
Ġj azz
Ġpre cious
Ġmon ster
Ġsim ulaÃ§Ã£o
Ġaqu arium
Ġins ist
Ġgre et
Ġinvest idores
Ġsuppl ements
Ġgarant ido
Ġquestion Ã¡rio
Ġirm Ã£s
Ġreceb em
Ġfiz er
Ġartes an
Ġpert ence
Ġreflet em
Ġslow ly
Ġnaqu ele
lemb re
atul ations
Ġentit led
Ġt ese
Ġd igo
er te
at tra
Ġg sm
Ġent rou
Ġsup pos
Ġdesc an
Ġins ul
Ġmot o
Ġfre der
Ġcontin ente
Ġstart up
Ġlig ados
Ġdim in
Ġmonitor ar
Ġdiscuss ions
Ġcra ck
Ġpul ver
Ġlov es
Ġtun is
Ġperd ido
ĠcÃ¡l culo
Ġmetr Ã´
Ġheadquar ters
n ar
r id
re gar
Ġb ure
Ã§ ando
ra c
Ġse as
Ġpr Ã¡tico
Ġper tur
Ġab dom
ai k
Ġtrans vers
Ġger aÃ§Ãµes
Ġnecess arily
Ġutiliz am
Ġdesc art
Ġbel fast
be ing
Ġcult ivo
Ġspecial ty
Ġmud a
gas te
Ġprepar ing
Ġmem ories
col om
Ġcoloc ados
Ġmaster card
Ġtransl ate
Ġfeder ation
Ġcalcul ated
Ġbater ias
Ġsingap ura
gro up
Ġparan Ã¡
Ġdicion Ã¡rio
Ġpesco Ã§o
b ang
h ers
Ġd t
Ġc rop
Ġy u
og Ãªn
Ġcar pet
und ers
Ġob edi
Ġbl ade
Ġrec ru
Ġsc ott
gar a
Ġconsider ation
Ġindic aÃ§Ã£o
Ġclick s
Ġib eria
Ġarr ancar
Ġcic l
Ġwish es
Ġcade iras
Ġham pton
Ġcry pt
Ġextr as
categ ory
Ġvigil Ã¢ncia
v y
em ic
Ġth esis
pl ing
Ġar ising
ass ador
Ġmar sh
Ġpos ters
Ġcompet Ãªncia
Ġindic ator
Ġcontinu amente
Ġvirt uais
Ġcondu zir
Ġje ff
Ġsof rimento
Ġcelebr ation
Ġfail ed
Ġcitiz en
Ġjam ais
Ġdesnecess Ã¡rio
h Ã´
Ġt iff
Ġn estes
Ġl un
em s
ac les
Ġth row
Ġpara gu
Ġfr anÃ§ais
per a
Ġwh it
Ġab ras
Ġam d
con st
Ġsh irts
Ġbr ad
Ġco inc
ov es
Ġcond icion
Ġham ilton
Ġrout ine
Ġreve al
clud es
Ġinj ury
opin iÃµes
Ġcardio vascular
h ard
he alth
Ġf on
Ġl entes
Ġre wards
iz antes
gu est
ak en
Ġsoc ied
lo ve
Ġpriv adas
Ġban ner
Ġprot agon
Ġeng ines
Ġfal ou
Ġtorn aram
Ġindic ador
Ġha viam
Ġprop Ãµe
Ġdever iam
Ġcum pr
att an
Ġefica zes
Ġlibert y
Ġemoc ional
Ġgenu ine
scre en
c ode
en contra
Ġn h
ig an
th ree
Ġch an
Ġrel ief
pro gr
Ġrece ives
Ġdev idamente
Ġgener ations
Ġmal aysia
ung st
Ġcontinu am
Ġbreak ing
Ġdecor ated
Ġpergunt ar
Ġoptim ally
Ġquad ros
Ġexpand ir
Ġpok i
Ġrid ing
encontr ar
Ġbacter ia
Ġdesativ ar
i ri
y un
Ġc ens
Ġf aixas
Ġal ice
Ġle ban
Ãº do
Ġhe ath
act ory
Ġsim ulation
Ġpass am
Ġpriv ados
Ġmer ely
Ġpot enciais
inst ead
ĠeconÃ´m icas
Ġfunction ing
Ġjew ish
Ġdipl om
Ġapaix on
a jud
f ase
v ista
Ġa esthet
Ġt Ãªx
Ġm atur
Ġg anho
ur ados
Ġj usto
Ġter me
Ġind ire
Ġmas k
Ġperm itted
Ġmat riz
Ġlar ga
Ġris ing
Ġcop iar
Ġtor rent
Ġkey words
Ġpast or
Ġfix aÃ§Ã£o
Ġconsult ation
Ġtransl ated
Ġchat ting
Ġpromot ional
Ġalmo f
ĠfÃŃs icas
Ġrenov aÃ§Ã£o
quest ion
Ġot tawa
Ġescolh ido
Ġhospit als
Ġdiscut ir
Ġhels inki
Ġbrigh ton
tg art
ĠdiscÃŃp ulos
Ġjeho vah
k ins
Ġp istas
ar c
an co
Ġb ungal
Ġl on
oc as
iz amos
vi an
ang le
Ġfl esh
Ġbl end
Ġint uit
Ġess Ãªncia
Ġlu cr
Ġpoder es
Ã¢m icas
Ġinte gra
ÃŃl ica
cent ro
Ġpack ed
Ġwhe els
Ġgrav ar
Ġfeed ing
Ġatl as
lar ge
Ġacredit ar
Ġassum ir
Ġotim izar
ĠsÃŃ ria
Ġenvol ver
Ġhospit ais
Ġretir ar
Ġades Ã£o
p ur
Ġin com
Ġh ug
Ġre act
Ġth under
Ġy ang
Ġcar valho
Ġfo z
Ġmet all
Ġca Ã§a
Ġnecess ariamente
Ġconv ite
cur r
Ġinvest ors
Ġapresent ada
Ã´n icas
Ġtecn olÃ³gica
Ġnatural ly
Ġresid entes
Ġdesem p
ĠlanÃ§ ou
Ġzo over
Ġsustent Ã¡veis
Ġarchitect ural
Ġexce ed
Ġemoc ion
Ġsupre me
Ġsurve illance
Ġdisappoint ments
b urn
b row
en ia
Ġqu is
Ġr ings
Ġse asons
Ġst ras
iz ante
Ġch or
Ġout er
Ġmar g
Ġcr us
Ġrestaur ar
Ġref in
Ġadap tar
Ġbrows ing
Ġconvert ed
Ġdisap pear
envi ar
Ġrepe at
ĠfantÃ¡st ico
Ġfle et
Ġt g
Ġw ise
Ġh onda
ec idos
Ġis la
Ġprodu ces
Ġx ia
Ġwork flow
ath y
Ġcult ures
Ġperf uraÃ§Ã£o
Ġcost as
Ġrepresent ation
Ġpersonaliz adas
Ġinov adoras
Ġsecret Ã¡rio
Ġvaria Ã§Ã£o
Ġconsci ousness
Ġcolet ar
Ġesqu ecer
Ġdivul gar
Ġpratic ar
Ġmonum ent
every thing
Ġhen ry
Ġfavour ite
g ostas
Ġt enta
Ġf atos
Ġb p
Ġad elaide
con ven
ian as
ici Ãªncia
Ġrece ip
Ġnet flix
Ġpos ter
Ġeng age
Ġgra in
Ġhost ed
Ġtour nament
ĠrÃ¡p idos
Ġmanufact ured
Ġcorre to
pass agem
Ġado ption
Ġocorr Ãªncia
Ġconstit ution
Ġmencion ado
Ġdemocra cy
Ġdiagnost ic
f ica
l ie
m ina
Ġb rav
Ġres ili
Ġdes erto
Ġcomp ost
Ġpl ot
Ġro ots
Ġprodu cer
Ġsa ul
Ġsc al
Ġcomm od
Ġmo q
Ġprote ge
Ġconn ector
Ġcolor ful
Ġord ens
Ġpais agens
Ġinstant ly
mic ros
caf Ã©
ĠmoÃ§ ambique
Ġm ural
al tern
Ġw an
Ġan k
Ġex haust
Ġap el
Ġch est
Ġpl ain
Ġwor st
Ġproduct ive
els on
ph il
Ġseg redo
be aut
Ġleg s
Ġed iÃ§Ãµes
Ġcompet ent
Ġexec ute
Ġregul amentos
Ġlab s
Ġintrodu zir
Ġmort o
Ġconfl icts
Ã³t ico
Ġaprend izado
ĠcientÃŃf ico
Ġdiminu iÃ§Ã£o
Ġreconhe ce
Ġcaval o
Ġneut ral
m ans
p iz
p ous
s aint
in ete
Ġs Ã©rio
Ġl p
el ve
Ġan jo
Ġan jos
ol in
ÃŃ dio
ag ena
ho ven
Ġcomp ass
ob il
Ġpre defin
Ġwor se
Ġqual ificaÃ§Ã£o
Ġver des
iss a
Ġlo yal
Ġhum id
Ġinvest ir
Ġcour ts
Ġren owned
Ġaddress ed
Ġpromo ve
Ġcompart ilhe
Ġado Ã§Ã£o
Ġsatisf azer
Ġoptim izar
Ġmarc ador
Ġcen Ã¡rios
stand ard
priv ate
aprove ite
f lex
y st
Ġt elh
Ġp Ã¡
Ġp ux
ad er
Ġl ixo
im as
ot Ã¡
Ġper eira
Ġcar os
Ġind on
Ġprim as
Ġfac ed
Ġmont ar
Ġgovern ance
Ġtransm itted
ester ol
Ġba ÃŃa
Ġdemonst rate
Ġremain ed
Ġcharl otte
ĠmÃºlti plos
Ġsuplem entos
Ġsight seeing
instru Ã§Ãµes
Ġc ess
at us
Ġb end
Ġb Ãªn
Ġre posiÃ§Ã£o
ur ning
Ġdo entes
Ġdo ces
ce pts
Ġpre venir
Ġpart ilha
par is
Ġcap ability
Ġmed ir
Ġpal ha
Ġproject os
Ġsens ÃŃvel
Ġsuppl ied
Ġmov es
Ġobs c
Ġsil Ãªncio
Ġcorre Ã§Ã£o
Ġstop ped
Ġstrong er
Ġsyn c
Ġrenov ated
Ġreduz ida
Ġcanad ian
Ġparam eter
Ġleit ores
Ġbow l
Ġpreench er
ĠmunicÃŃp ios
class ificaÃ§Ã£o
Ġcamis eta
Ġware house
mÃ¡qu ina
Ġc ave
is ion
Ġb ios
Ġl omb
Ġh ast
Ġex ames
Ġk az
ric idade
Ġgro wn
Ġamb assador
Ġmor adia
fa el
cle ar
ĠcÃ¢m eras
Ġsolic itado
Ġstop s
Ġmort alidade
Ġpil oto
Ġextract ing
Ġolh ando
Ġinspe Ã§Ã£o
colom bia
m obile
p is
Ġo posiÃ§Ã£o
or ada
Ġw u
ing er
et ite
Ġes lov
Ġam p
all ow
Ġent es
Ġmar ie
Ġsc and
Ġsoc ket
Ġer g
Ġlu anda
Ġcab les
gar ia
Ġped est
Ġens aio
Ġtour ists
Ġcould n
Ġlos ing
Ġassist ant
Ġec uador
Ġcamp ismo
Ġdistribu idor
Ġappl ying
Ġadministr ator
Ġscen es
Ġaux iliar
conf ig
conf ira
regist re
Ġapos ta
b ath
Ġ idades
Ġd ive
es burg
Ġp se
Ġde ca
at ra
it ors
Ġre tenÃ§Ã£o
Ġque ens
Ġk ern
Ġcent res
Ġsal vo
Ġgar agem
Ġcomput ing
Ġgarant indo
Ġdetermin aÃ§Ã£o
Ġru im
Ġroad s
Ġrot ina
Ġevol u
Ġmig raÃ§Ã£o
Ġacid ente
Ġire mos
Ġpanor ama
Ġpharm ac
envi e
Ġarc ade
Ġemphas is
Ġselv agem
gradu ate
Ġanch or
Ġdescan so
Ġp g
Ġl il
ill ar
Ġcol unas
Ġbo ats
Ġinf ected
Ġoc ult
Ġcomplet as
Ġvers a
Ġassoc iaÃ§Ãµes
Ġorganiz ado
Ã³l icos
Ġsepar ados
Ġband eira
Ġsold ados
ĠsuperfÃŃ cies
Ġfis i
ĠcÃ©l ula
Ġbac helor
Ġsain te
ĠÃ³rg Ã£o
instal ar
a ke
o este
Ġl s
ed ly
Ġr ss
od el
Ġj ones
Ġac red
Ġch ose
Ġnot ÃŃcia
Ġmar s
Ġco ve
Ġcent rais
Ġrece ba
Ġcompar ado
ane ous
ĠmÃºs culos
Ġfall ing
Ġmagn ific
Ġmeasure ments
Ġlik es
Ġparad ig
Ġatlet as
Ġecos ystem
an ol
Ġda qui
Ġpr ato
Ġen ga
Ġper nas
Ġman us
res ults
ru a
Ġve jo
Ġrec ipe
Ġvis uais
Ġmil ho
Ġsm oke
car reg
Ġgar cinia
Ġret reat
Ġsl a
Ġconsum ida
Ġpou ca
Ġbol et
ĠprÃ© dio
Ġcertific ates
Ġnar row
Ġchap el
Ġlit ros
Ġmediterr Ã¢nea
Ġdescre ver
Ġdemocra cia
Ġthor ough
Ġfreel ancer
coun try
Ġstut tgart
x a
un fortunately
Ġar n
Ġent hus
Ġag ing
Ġpart ition
Ġrec all
Ġcompl imentary
Ġescol has
Ġimp ul
Ġtro uxe
Ġnorm ais
Ġwrit er
Ġill umin
Ġbrows ers
Ġsolicit aÃ§Ãµes
Ġwilliam s
Ġspir its
nenh uma
Ġenferm agem
f et
Ġc un
Ġto k
Ġna vios
Ġpl a
Ġgr Ã¡
co a
Ġrec rut
Ġajud ou
Ġeng agement
hip s
Ġfab ul
Ġig u
Ġgain ed
Ġtranqu ilo
Ġinfect ions
ĠÃ¡ra be
Ġhung ary
Ġspok en
Ġautentic aÃ§Ã£o
Ġseam less
Ġt ian
Ġc Ã´
Ġw iz
Ġan te
Ġar ma
Ġnot ting
Ġag ria
Ġinv o
Ġmens al
Ġviol ation
Ġexig Ãªncia
Ġmos co
Ġprotect ing
Ġdro ga
Ġfarm ers
Ġisol ated
Ġlemb re
ĠfÃ¡br icas
Ġcompartilh ado
Ġjapones a
g ard
o e
w agen
Ġd anÃ§
Ġc int
re ams
ag ues
Ġmar ble
Ġag gress
Ġi e
tr ata
Ġaut umn
ff aires
Ã¢n eas
Ġanal og
Ġcomb ater
Ġimp acts
Ġveloc idades
Ġdiret rizes
Ġveget able
Ġcontribu iÃ§Ãµes
Ġther m
Ġchap Ã©u
Ġadjust ment
Ġmonum entos
Ġexcurs Ã£o
Ġfif th
Ġanex o
fab ric
Ġparaf uso
c ass
Ġd ess
Ġd ip
Ġc erv
Ġe cl
ol n
pl at
Ġwe go
Ġpod endo
Ġro bus
Ġmar vel
ys ide
no ver
ne ys
Ġbus y
Ġgl en
Ġnum eros
Ġchar me
ten ho
Ġrealiz ou
Ġfornec endo
Ġperform ances
Ġesper ando
Ġprefer Ãªncia
Ġflor est
sp ot
ribut os
Ġwel coming
Ġrich mond
aval iaÃ§Ã£o
Ġepis ode
Ġpne us
Ġolive ira
gre en
Ġdeploy ment
Ġpropag anda
Ġtitan ium
pell ier
Ġagria ffaires
m und
Ġb ent
est on
Ġre per
Ġqu ote
pl ant
Ġun ic
Ġpart ÃŃculas
Ġca uca
Ġacc or
Ġpal co
Ġfer ment
Ġmake up
Ġleg acy
Ġred ire
Ġcoz inhar
Ġadapt aÃ§Ã£o
Ġstrong ly
Ġperce b
mod ern
Ġreconhec ido
Ġlad ies
Ġcopenh aga
Ġedu ardo
Ġempr Ã©st
Ġmarro cos
h ub
t endo
Ġ Ãªx
op es
Ġnot ified
Ġag ro
Ġtrans aÃ§Ã£o
la h
Ġsubst ance
Ġep ic
Ġdeclar ed
Ġloss es
Ġpreoc upar
Ġdestru ir
Ġdesper tar
Ġigual dade
additional ly
Ġitiner Ã¡rios
Ġattribut es
Ġdisclos ure
Ġpum ps
d c
s pe
y d
Ġp ura
or ca
Ġh ate
Ġse vent
Ġas tro
Ġk ob
Ġtr ilhas
Ġab us
ha ving
Ġman aus
Ġread ers
Ġeconom izar
Ġkey word
Ġautor izada
Ġperi Ã³d
Ġmol hado
Ġtradit ions
Ġconvid ado
Ġpud esse
Ġnutrit ional
Ġluc ro
Ġshap ed
Ġsimultane amente
Ġscot land
build ing
caracter ÃŃsticas
Ġbact Ã©rias
t ip
Ġt ira
Ġo vi
Ġl da
Ġg ato
Ġat om
Ġac aba
Ġdis orders
Ġmet ais
ari at
Ġdest aca
Ġgar ota
che m
Ġsin to
Ġfuncion am
Ġexem pl
Ġdet roit
Ġnor oeste
Ġmiss ions
Ġmort ality
Ġsold iers
Ġessential ly
Ġdark ness
Ġcoc o
Ġcanc ellation
Ġcoorden aÃ§Ã£o
b ella
s un
Ġv elhas
ÃŃ qu
Ġac ou
Ġk em
Ġres um
res earch
oun der
int on
Ġra iz
Ġaf ect
Ġint ensive
Ġvari ed
Ġtro car
sh ore
ilh Ã£o
Ġclub es
Ġefici entes
ĠfÃŃs icos
Ġpath s
Ġrecol ha
Ġeth ics
Ġsequ ence
Ġtiv emos
ĠjurÃŃd ica
proper ty
Ġrazo Ã¡vel
Ġnewspap er
Ġtatu agem
Ġdiscret ion
Ġsensit ivity
Ġoxy gen
Ġamiz ade
n ologia
r amos
Ġp ace
Ġf ei
Ġnot ifications
ure m
Ġmar car
Ġmar gin
az zo
Ġcor oa
Ġcap tain
Ġant al
Ġsee ks
Ġlim itaÃ§Ã£o
Ġeng aged
Ġfi quei
Ġorder ed
reg ard
Ġtro uble
Ġexpress a
Ġdese jam
Ġec oss
dis cipl
bor g
Ġplat inum
Ġpaul ista
Ġotim izaÃ§Ã£o
Ġsche me
Ġharm ful
Ġcampe onato
Ġtant as
Ġmetropolit an
Ġvess els
Ġingress os
nÃºm ero
f azer
m it
w orth
z ip
Ġb im
et z
Ġr ush
le e
un cia
ag os
um br
ver al
vi e
Ġab use
Ġsa il
ex cel
Ġcur t
Ġtw ist
Ġneg ra
Ġpublic ados
Ġgener ator
Ġvir am
Ġdecor ative
ĠsÃ©ri es
Ġterm ina
Ġpolit ics
Ġsett l
Ġalber t
Ġcompetit ivas
Ġhamb urgo
Ġtelecom unicaÃ§Ãµes
ĠmÃºlti plas
Ġluxemb urgo
en zo
Ġl us
ol or
Ġth om
oc l
Ġab enÃ§o
Ġmar e
Ġdel iber
Ġpass aram
Ġmult in
Ġcharacter ized
Ġclean er
Ġstruct ured
Ġfib ras
Ġconclu ÃŃdo
ĠdÃ³l ar
poss o
Ġposterior mente
Ġpatrim Ã³nio
ÃŃss imo
m ers
t ab
Ġs ized
ar te
Ġan gry
Ġr he
oc ation
do is
Ġpor no
Ġcl oth
Ġpl eno
Ġfl our
Ġposs ibly
Ġint ra
Ġpat ente
Ġret rie
Ġmemb r
Ġtom adas
Ġpas te
Ġsil enci
zo om
Ġband s
Ġrenov ado
Ġmonum ents
Ġpsych ological
Ġsain ts
Ġrefor Ã§ar
Ġilust raÃ§Ã£o
Ġwithdra w
Ġathlet es
Ġnegl ig
Ġsocied ades
n an
w ould
Ġl anka
Ġg oth
est ar
est im
Ġqu ito
ul ha
to ps
Ġar oma
vel and
Ġhe ter
Ġfe els
olog ist
Ġsy ria
Ġref uge
Ġwell ington
Ġsant uÃ¡rio
Ġcop ies
Ġpresent ations
Ġindic ar
Ġple ased
Ġcart agena
Ġdet ected
Ġglass es
Ġcel est
Ġextern as
Ġdorm it
Ġelimin aÃ§Ã£o
Ġbic ycle
Ġcelular es
Ġdesper t
Ġgd pr
intern ational
Ġcycl ing
b ral
d al
f air
Ġin jeÃ§Ã£o
Ġan na
Ġto oth
ol ulu
Ġun d
Ġun us
Ġun install
Ġpre lim
pr ice
ese j
Ġbut t
Ġcer im
Ġban ana
Ġajud ando
Ġdep ut
Ġnort he
Ġens aios
Ġmont pellier
Ġexce Ã§Ã£o
ĠsÃ³l ida
Ġconcorr Ãªncia
Ġqualit ative
Ġdout or
Ġhaz ard
Ġceleb raÃ§Ã£o
Ġmolec ular
Ġenri qu
ĠindÃŃg enas
j er
n unca
r ade
or p
Ġth ro
ter Ã§a
ip er
Ġman gas
Ġcol ar
olog ists
Ã¢n g
Ġval ent
Ġworld s
Ġri ad
Ġcaus ada
bus car
Ġempre gos
Ġhab its
Ġadm ission
bec ue
Ġrout er
Ġpsych ology
off ice
Ġpreval Ãªncia
Ġcater ing
Ġbub ble
g g
z ig
Ġn ano
ad vert
Ġh ans
Ġg are
im ag
Ġpar Ã¡g
Ġper do
Ġper curso
Ġun em
Ġhe bre
Ãªn fase
pr omo
Ġesc ritos
tra ck
Ġrealiz ed
Ġpou p
Ġlig e
Ġang els
Ġmotor ista
ann y
Ġexclus Ã£o
Ġimplement ing
Ġcomplex idade
Ġampl iar
Ġdeb aixo
Ġestabl ishing
Ġcelebr ate
Ġminer ais
Ġcandid ate
Ġbarb ara
Ġobst Ã¡culos
Ġpasseng er
Ġpsic ologia
ĠhÃ¡b itos
j amento
n ap
Ġc es
ic he
em ed
Ġg io
Ġre tal
ÃŃ zo
iz ou
ap es
ect ive
Ġcol a
Ġtec la
Ġir regular
Ġdef ens
Ġdem as
Ã©r icos
Ġhor Ã¡ria
Ġlev am
Ġhar ry
Ġmant enha
Ġsaf ely
Ġinvestig ate
Ġinstrum ental
Ġdez enas
Ġmoder ada
Ġcra fts
Ġnam ely
Ã³t icos
Ġky oto
Ġvenced or
Ġgabri el
Ġexcep cional
er ed
Ġm ata
Ġr end
Ġque ijo
Ġon tem
Ã³ cia
Ġat ributos
ob al
Ġmar in
Ġcas inos
Ġche l
Ġx ix
Ġger a
pres ent
Ġpo et
Ġdist ante
Ġhum ans
Ġplay station
Ġmal d
Ġfollow ers
Ġparticip ated
Ġparticip ating
Ġmus cles
Ġfornec emos
Ġbi oc
Ġgovern amentais
sh ort
Ġdou glas
Ġoriginal ly
Ġcoz y
Ġbab ys
Ġconsegu em
Ġinov ador
Ġmix ture
Ġimag in
trans l
Ġprev isto
Ġshap es
Ġbog otÃ¡
Ġemo Ã§Ãµes
v em
Ġp ing
re comenda
Ġh ai
Ġy ah
Ġdes gaste
ill on
the tic
ĠÃł qu
Ġbar cos
Ġprov ar
anc ho
inc oln
Ġinf ecÃ§Ãµes
Ġlin en
ound ed
Ġanim ation
Ġdr ill
Ġrev istas
Ġimm ig
Ġfire wall
Ġdeal ing
ĠprÃ© via
Ġtu as
Ġnar uto
Ġvic ente
Ġbis po
Ġwear ing
Ġocup aÃ§Ã£o
ÃŃc ito
Ġlen ovo
ĠcÃ³p ias
Ġstake holders
g m
k an
t els
Ġ Ãªnfase
es ia
Ġf omos
al ho
Ġpar cel
le os
st own
Ġk ent
Ġcur tain
man ia
Ġmay or
wh ite
Ġmill enn
Ġbol o
Ġfocus ing
Ġemp enh
Ġdry ing
bru ck
Ġbasic amente
Ġacomp an
Ġrevel ation
ĠavanÃ§ adas
Ġdistin ct
Ġrastre amento
Ġcondut a
ogram a
Ġimpos to
Ġiq a
sug er
Ġportf Ã³lio
Ġentus ias
in co
Ġs ous
Ġl enses
Ġv itor
Ġpr ide
Ġch ass
Ġco ven
Ġass ento
Ġcomm ons
Ġlu ÃŃs
Ġbre men
br ite
Ġpur ple
Ġmont ante
Ġexpress Ãµes
Ġadequ adamente
Ġapar eceu
Ġcontain ers
Ġcruz eiro
Ġaustral ian
Ġrar amente
Ġcore ia
Ġabsor Ã§Ã£o
Ġdesl ig
Ġsumm it
applic ation
Ġscr atch
Ġphenomen on
Ġa e
Ġs ak
Ġe va
Ġm v
Ġf itted
ad ays
Ġv ias
Ġcon vey
Ġser iam
Ġdes bloque
Ġad jac
Ġbr ass
Ġsem icon
ks wagen
Ġval idade
Ġmy th
Ġdev ast
Ġprinc esa
Ġtur bo
Ġtom ou
Ġobserv ation
Ġlimit ation
Ġinici ado
Ġprocur am
ĠestratÃ©g ico
Ġadministr adores
Ġdemand ing
Ġchalleng ing
Ġdaqu ele
Ġempreg ados
Ġconcorr entes
Ġcarte ira
ĠpÃ¡t io
Ġquestionna ire
c et
d ar
t uesday
Ġt ights
Ġe ix
Ġm ato
Ġb old
qu inta
Ġg anhos
if a
Ġdes enc
ment al
Ġout come
Ãªn ia
Ġcons ag
Ġplay ground
Ġbot tles
Ġace itam
Ġrot ary
Ġarr est
Ġhon olulu
sim ilar
Ġenvolv endo
Ġbair ros
Ġtranqu ilidade
Ġabra ham
Ġmoz ambique
Ġtras eira
Ġmexic an
Ġsofr er
Ġantib i
Ġenjo ying
Ġovi edo
g ir
h in
l ik
Ġp Ã¡s
on so
Ġe h
Ġn l
il der
ra b
Ġma z
Ġres et
av en
Ġi h
Ġsup ers
Ġgl oss
Ġmen inos
Ġcre w
Ġpubl isher
Ġfer reira
Ġtrad iÃ§Ãµes
duc ing
Ġed en
Ġmult idÃ£o
Ġvisit ante
Ġcho que
Ġdefin ida
Ġlast ing
Ġautor ais
Ġelev ator
Ġestabel ece
Ġpec ul
Ġconsequ Ãªncia
Ġreduz indo
Ġcandid ates
Ġextraord inary
Ġterap Ãªut
Ġsacerd otes
Ġanne x
Ġstret ch
plac ement
Ġgour met
Ġalente jo
g rav
os amente
Ġde du
as te
as ts
Ġn ela
Ġl b
em ail
ec k
ur anÃ§a
and y
ap ple
fe it
Ġlu f
Ġfind ings
Ġprim arily
Ġret urning
Ġintegr ate
Ġquart z
Ġpens Ãµes
Ġru ins
Ġimm un
Ġintrodu ce
Ġgost am
Ġvaria Ã§Ãµes
Ġexpand ed
Ġaument ou
Ġsusp ension
Ġnegoc iaÃ§Ãµes
Ġanunci ou
del iver
Ġcompens ation
Ġenf at
Ġtreas ure
Ġfoss em
Ġgul f
ĠcÃŃr culo
j unto
n c
Ġf om
it el
Ġcom ece
Ġr p
Ġis le
Ġen velop
Ġac ids
vi ol
Ãº p
Ãº ltim
Ġman e
Ġro y
Ġsh ore
ador ia
pro ject
Ġcr m
Ġact ors
Ġdesc ritos
Ġcolor ido
Ġimm ers
respon ded
Ġflex ÃŃveis
esc re
Ġdiscuss Ãµes
Ġcand y
Ġfront al
Ġod m
Ġprofund amente
Ġcompartilh amento
Ġdesl umbr
Ġsag rada
Ġcomerci alizaÃ§Ã£o
Ġcircul ation
Ġemir ados
Ġrol amento
Ġetiqu etas
contin ue
euro pe
Ġgad get
g old
j on
j ogo
u pe
at al
Ġto l
Ġpar e
Ġy ell
Ġtr il
igh th
Ġfl ora
Ġint ention
Ġsuper visÃ£o
des fr
Ġpap ers
Ġelect ed
ils on
Ġpost os
Ġwi i
Ġlab els
Ġhab itaÃ§Ã£o
Ġcollect ions
board s
Ġinstru Ã§Ã£o
ĠclÃŃn ico
Ġlevant amento
ĠÃŃcon es
b ir
f ot
h on
j ara
p ain
x os
Ġe jaculaÃ§Ã£o
Ġf ria
Ġf usÃ£o
at able
ent r
Ġh ÃŃ
ut ic
Ġal mas
Ġcomp ostos
Ġpl ena
Ġcan Ã§Ã£o
Ġcomplet ion
Ġcond om
Ġrem uner
Ġexam in
ĠÃºn icas
ĠcÃ¢m aras
Ġcomplex ity
Ġexplor ing
Ġtrabalh ou
Ġavi ation
Ġsolid ariedade
Ġmut ual
Ġhero es
Ġlub rific
b id
s ens
Ġd ict
Ġo w
Ġde pression
Ġh ind
Ġqu int
Ġque ix
Ġwh is
Ġtr on
Ġdis cer
ans k
ang ers
Ġpesso almente
Ġger ir
Ġsal z
Ġfin o
Ġgod s
Ġexp enses
Ġland s
Ġflor estas
Ġselect ing
Ġmanh attan
Ġmatch ing
ĠromÃ¢nt ico
ĠdÃŃ vida
Ġschedul ed
he ld
Ġn ich
Ġpar es
Ġnot iced
ast ing
our os
ades h
ge ois
Ġpres erve
Ġsal on
tod a
des car
Ġintegr ar
Ġcontinu ing
Ġconsult as
Ġparcer ias
Ġrelax amento
Ġoptim ize
Ġoptim ization
Ġcheg ando
qual ity
Ġles Ãµes
Ġimpact os
Ġara bia
trans fer
Ġtin y
Ġtarget s
Ġprestig ious
ĠsÃŃmb olos
Ġauditor ia
Ġaparth otel
c it
o va
u Ã¡rios
Ġt ension
Ġc ute
Ġm ich
ed it
ob jet
Ġsp ending
Ġob teve
ick ing
Ġche ca
Ġsc roll
Ġra io
cer tain
Ġacc redit
Ġlong as
Ġfir me
Ġajud arÃ¡
Ġdesenvolv idas
Ġident ifying
Ġfut on
Ġpress ione
Ġking ston
Ġq atar
Ġarch ip
Ġmedic ines
Ġcou rage
Ġinvestig ar
bu ilt
Ġht tp
pers onal
Ġrig a
Ġcomprim idos
Ġillust rations
Ġaceler aÃ§Ã£o
Ġvind os
Ġgord uras
observ aÃ§Ã£o
Ġproveni entes
Ġmosco vo
k al
m id
s y
Ġc trip
Ġm ora
Ġv encer
et he
Ġth irty
Ġad ri
ach ing
aliz a
min ha
Ġher anÃ§a
Ġmult il
Ġfa ke
Ġhy gi
Ġcontr ary
Ġevent brite
Ġcus co
Ġconstitu em
Ġtow ers
Ġinicial mente
Ġsleep ing
Ġmall orca
espec ificaÃ§Ãµes
Ġbenefici ar
Ġhi king
Ġbrasile iras
stud ents
Ġvatic an
Ġjulg amento
vac ation
Ġatrav ess
Ġcolhe ita
Ġbure au
f x
f ec
l av
Ġs ights
el ing
Ġr on
Ġy esterday
Ã³ metros
Ġpr osse
Ġen qu
Ġres ulta
az es
por ters
Ġprov edores
ie u
Ġsal am
Ġespec ificar
me an
Ġfind s
be y
Ġclass ification
Ġwar ri
Ġsent idos
Ġorganiz ational
Ġvir gem
Ġinstall ations
Ġimpro ves
Ġnight ly
eder lands
Ġalem Ã£
Ġcontribu i
Ġtag ged
Ġinstant aneamente
Ġferro vi
Ġsacrif ice
Ġile gal
Ġaze ite
cook ies
Ġocor rem
j Ã£o
m ist
v ari
Ġp enh
st op
Ġat ores
Ġad orar
Ġab d
Ġag greg
Ġso y
Ġpol Ã´nia
Ġequ ador
Ġnas h
Ġfic ando
Ġfot Ã³g
Ġfi Ã©is
cri ar
Ġsens ÃŃveis
Ġrom ano
Ġgarant ias
Ġtelef ones
Ġboard s
Ġterrit Ã³rios
Ġexce ption
Ġfamos os
Ġforum s
Ġchron o
Ġrit ual
Ġfrag ment
Ġbour geois
Ġtradem arks
Ġgastron omia
Ġsovi et
Ġestad ual
Ġtorne io
Ġacolhed or
Ġdoutr ina
Ġreceip t
n ovo
Ġp ano
Ġl iable
Ġv istos
Ġbe ver
Ġar d
ci um
Ġcl en
Ġcan eta
Ġdev il
Ġinv itation
Ġsegu ido
Ġinte iramente
val e
Ġri viera
Ġpopular ity
Ġdeter ior
Ġsignific ativas
ĠÃºn icos
Ġrepresent ing
Ġbon n
Ġje ans
Ġvoss as
Ġfing ering
Ġdistribut or
Ġemit ido
Ġeter na
ĠhÃŃ br
u ÃŃ
Ġs Ã¡
or ks
re posta
Ġf b
Ġf athers
ac esso
ÃŃ rus
Ġno kia
ci almente
Ġpl ast
ros e
Ġsa x
Ġdire Ã§Ãµes
int y
Ġmy ers
Ġins ight
restaur ant
Ġrest or
Ġcost ume
met hod
Ġder ram
Ġveget al
Ġsaud i
Ġox ig
Ġfortal ecer
pÃ¡g inas
Ġpip es
Ġrang ing
adv ant
Ġpulse ira
Ġrecycl ing
Ġilim itado
c ano
g at
g ou
v ote
w id
in ent
Ġc tr
er ol
Ġde mo
Ġn s
Ġh ose
ia o
Ġen du
Ġch amb
for est
Ġout comes
Ġco ins
Ġcri ativo
Ġprov in
Ġthere of
Ġlim itar
Ġapresent ando
Ġapresent amos
Ġsent ar
Ġlev antar
Ã³l icas
Ġsand y
Ġeffici ently
fre qu
Ġpanor amic
Ġbelong s
Ġinscre va
grand e
Ġdirec to
Ġmultim edia
Ġvatic ano
Ġbrook lyn
Ġerv as
suger imos
j og
l em
t c
t an
in ia
Ġan xi
ac ia
Ġst ir
Ġmar cel
fer as
Ġi x
Ġcor romp
pos ition
Ġcam el
Ġbra ke
Ġmal Ã¡sia
Ġatt ended
Ġred irect
Ġhy pot
Ġib er
Ġwood s
ĠestratÃ©g ica
Ġcollect ing
Ġbrit ain
Ġlov ing
Ġmur der
Ġdiscipl ina
Ġrenew able
Ġhond uras
Ġelig ible
attra ctions
e ur
f m
j in
s ite
ar r
Ġm ou
Ġf oster
it ivos
ac er
Ġk v
Ġar ise
Ġcl am
Ġcol leg
ign on
Ġdist ances
Ġins uf
Ġorgan ismos
Ġfic aram
Ġdr illing
with in
Ġwal es
ann i
Ġprop Ã³sitos
Ġder am
Ġmedic ation
Ġrar ely
ĠmÃ£ es
ofer ecemos
Ã©n io
Ġelimin ate
Ġalex ander
Ġemploy ed
Ġvolunt Ã¡rios
Ġku wait
Ġgeor gia
Ġeurop car
Ġcaps ules
Ġencry ption
Ġofic ina
compr ar
Ġjohann esburg
Ġmarit ime
j ing
l ay
t rop
in th
en ne
Ġm osa
Ġde pressÃ£o
Ġl anÃ§a
Ġv igo
Ġg ly
Ġre ign
Ġbe am
th ansa
Ġres gate
ob i
Ġpre ju
Ġle an
bl o
Ġsegu idores
Ġchar ts
Ġmat rix
Ġshe ep
ÃŃl ico
Ġdefin idos
Ġpopular idade
Ġdet ector
Ġcapt ura
Ġscan ning
cert ifique
Ãºr gu
ĠclÃ¡ss ica
Ġtant os
Ġpront os
Ġepid emi
Ġsobreviv Ãªncia
b ay
i ere
p it
Ġc x
Ġp st
Ġp ista
Ġm ba
ad ir
Ġcom ent
Ġj aqu
Ġat or
Ġgu in
Ġserv ant
Ġmy r
Ġpriv ativo
Ġneg ativo
Ġdevelop ments
Ġmarket place
Ġsw ing
Ã¡f ico
Ġstock ings
Ġappe al
cons ult
Ġsav es
bol in
Ġdatab ases
Ġaliment ares
Ġreduz ido
Ġadjust ed
Ġtoy ota
Ġave iro
Ġinvol ve
c ou
Ġf ountain
ra fos
Ġse es
and os
op ia
de en
Ġle ak
Ġgr Ã£os
Ġmar ta
Ġsem an
Ġesc Ã³cia
Ġsub ir
Ġwhere as
Ġho j
Ġcheck ed
Ġcard iff
Ġmostrar am
Ġsepar ado
Ġsuc ceed
Ġcou ples
Ġven ue
Ġill ness
Ġeleg antes
Ġinicial izaÃ§Ã£o
Ġenvolv imento
char est
Ġreprodu zir
iff el
Ġrod ri
Ġjornal istas
Ġsimultane ously
Ġinterf aces
Ġsanct uary
Ġhers elf
Ġstras bourg
g ico
Ġf ounder
ac redit
Ġfor got
Ġper n
Ġcl Ã¡
Ġro c
Ġmin ecraft
Ġbar rier
Ġmed idor
Ġdesc ul
Ġfre ely
Ġshould er
Ġdig a
Ġsil k
Ġmass as
Ġlabor atÃ³rios
Ġpromot es
Ġruss a
Ġhung ria
Ġrevers e
Ġphotograph s
Ġcurric ulum
brow se
d ica
o ir
r oss
Ġm och
Ġus p
ch air
ip se
ere z
Ġab ilities
Ġtra ct
Ġbr u
ach es
ru z
Ġsol ely
Ġdist Ã¢ncias
Ġcoun sel
Ġsil ence
Ġbreak s
Ġbelie f
Ġempre endedor
Ġdemonst rated
Ġsurf aces
Ġdesej ado
Ġimedi ata
Ġcoord ination
Ġcry pto
Ġnasc ido
Ġgarra fas
Ġalde ias
sec ond
Ġinterc Ã¢m
Ġesco va
Ġnotting ham
f Ã³r
Ġde press
em bal
ÃŃ as
Ġna z
Ġun author
Ġall erg
Ġco ated
Ġbus h
Ġer ic
ibil ities
Ġconsider adas
Ġdin Ã¢mico
Ġinstall ing
Ġlat ino
Ġdrop box
Ġslee ve
Ġdetect ar
Ġcontribut ed
Ġfd star
natur al
Ġsurpres a
Ġeag le
Ġindon Ã©sia
m ount
m aking
p ros
Ġo ils
ar ca
Ġe k
is ch
Ġf p
Ġw s
Ġw ap
Ġl emon
um er
Ġat m
Ġat tain
Ġk s
Ġfr ost
Ġfr ase
Ġfr uta
Ġper deu
se is
Ġcor ners
Ġreg us
ana ir
Ġwhere ver
Ġge ographical
Ġcontinu idade
Ġbelie ves
Ġreach es
Ġcalcul ate
Ġjac ob
Ġharmon ia
Ġpopul aÃ§Ãµes
Ġtelecom munic
Ġlub ric
Ġgn u
Ġantecip adamente
vere ign
Ġjama ica
micros oft
w ish
Ġp add
Ġm ista
Ġn z
ent h
am pton
ol ia
Ġres urre
Ġfl Ã³r
Ġfe iras
por n
ex curs
Ġcab elos
Ġtur ÃŃsticas
Ġpat t
Ã´n icos
Ġlocaliz aÃ§Ãµes
Ġfa ult
aut or
Ġspecial ists
Ġber mud
Ġreceber am
Ġclos ing
Ġofficial s
Ġproporcion ando
Ġeth nic
Ġpatrim Ã´nio
Ġtroubles ho
aloj amento
Ġbracel et
Ġredire cion
Ġlige iramente
z el
Ġc ec
Ġf ach
Ġv otes
Ġr idge
Ġfor ests
Ġma quia
ag eiro
st ate
Ġch lor
Ġcl iff
Ġpl ates
Ġco vid
Ġra ÃŃzes
Ġbot an
Ġhol es
Ġstr ange
Ġarm Ã¡rio
Ġelet ricidade
Ġgrad ualmente
Ġphys i
Ġven ha
Ġinstitu cional
Ġdraw ings
Ġcaminh adas
Ġdispos al
fun Ã§Ãµes
Ġentrev ist
Ġinitial ly
Ġavan Ã§o
Ġwo ol
acab ana
d ados
j un
s ize
t ech
y r
Ġr pm
Ġbe ir
Ġit a
Ġro cks
Ġme x
Ġcol her
ich i
Ġprov as
Ġdef ence
Ġtw elve
Ġpriv il
Ġeduc acional
Ġlight weight
Ġenvi ada
Ġrele ases
Ġcru el
Ġsepar ated
Ġcorpor ativa
Ġfocus es
Ġmist er
Ġatra ente
Ġlc ds
Ġdoct rine
Ġincorpor ated
Ġlemb ra
sm all
Ġasseg ura
Ġportugues es
Ġvitam ins
Ġsymb ols
roz en
Ġya hoo
Ġsophistic ated
curr ently
k ov
l am
z an
Ġs Ã©r
Ġm ath
Ġl isa
Ġto led
Ġfor sk
Ġque ima
ob ject
Ġcar tr
Ġsp ell
Ġsh ine
Ġla ur
Ġcri adas
Ġentre tanto
rib ed
rib le
Ġprom essa
Ġsant ander
Ġrespons abilidades
ret urn
Ġcaus ando
Ġoriginal mente
Ġdepend ent
Ġput s
Ġrot aÃ§Ã£o
Ġinov adora
Ġemp ilh
Ġclim at
Ġrevel aÃ§Ã£o
Ġorient ed
Ġroll ing
Ġdut ies
Ġestabelec idos
Ġplanej ar
Ġhamb Ãºrgu
Ġast m
Ġbusc ando
Ġtextil e
Ġmagnific ent
l ond
t ente
Ġd ick
Ġp ty
Ġm ack
Ġf ina
ad min
Ġl incoln
im i
Ġac cepts
Ġk rak
Ġor n
res ol
pr us
Ġfre ight
Ġeas ter
Ġactiv ely
Ġdetermin ation
Ġindividual mente
Ġcompat ibility
over view
Ġrevel ou
Ã³t ica
ev entos
Ġcompetit ivo
Ġspot ify
Ġamarillas colombia
iel ds
oter apia
Ġemot ions
ĠinÃºm eros
Ġandr Ã©
soft ware
Ġflut u
Ġacamp amento
b enef
y u
es k
es ome
Ġn esses
em ony
Ġcom emor
Ġr in
Ġma Ã§
um s
Ġcl ay
ine a
Ġfl ops
Ġant ic
Ġbo om
atur day
Ġsuper ar
Ġclass ical
Ġcompar ing
fl u
Ġemb assy
Ġold est
Ġrecomend Ã¡vel
Ġemerg ing
ĠplÃ¡st icos
Ġcandid ato
Ġasseg ur
Ġrecip es
Ġarab ic
may be
Ġcorros ion
Ġtestoster ona
Ġabast ecimento
b in
v pn
Ġp ie
Ġm ama
Ġin oc
qu eira
Ġl indo
ur ities
pl ast
and ro
Ġdes p
Ġbr ill
Ġso vereign
Ġvis ando
Ġra ios
Ġcri ativa
Ġfin ishing
Ġmot ors
Ġresult ar
Ġdevelop s
Ġbre t
Ġproject or
Ġtom a
ham pton
Ġgarant em
Ġindivid ually
Ġless on
Ġimm une
Ġmid i
Ġarmaz Ã©m
Ġpurch ases
Ġappl iances
Ġrevel ar
Ġdeath s
Ġbrit Ã¢nica
Ġcolet ados
Ġrefriger aÃ§Ã£o
cap acidade
Ġadolesc ents
ĠsÃ³l ido
Ġhelic Ã³p
ĠflÃ³r ida
h ada
l ogo
Ġa wa
Ġp ab
Ġs hed
ou red
Ġto t
ec ei
Ġdo ze
Ġst ew
Ġst ood
Ġen roll
Ġch airs
Ġcont abilidade
Ġna zar
Ġcl are
Ġmais on
tr yside
vis ite
Ġbar becue
ja h
Ġcontro vers
Ġir ish
Ġdev idas
Ġvari am
Ġpublic ada
Ġimpl ica
Ġcurr ÃŃculo
Ġtre k
Ġarch ives
Ġdeliver ing
Ġfriends hip
Ġcompat ibilidade
Ġobtain ing
Ġsyn chron
Ġcalcul ation
och ina
Ġcompr ador
Ġchamp ion
Ġclin ic
Ġwild life
Ġdiscipl ine
Ġpref ect
Ġposicion amento
ĠcardÃŃ aca
Ġacknow led
Ġpertur b
m ul
n ings
Ġe iffel
an Ã§o
al on
Ġn er
ou x
il st
Ġg rip
ur ador
Ġr hy
per u
op t
Ġwe igh
Ġco er
Ġgu i
Ġra fael
Ã¢n eos
Ġbu f
Ġseg mentos
Ġinc re
Ġsign als
cont inu
Ġquer y
Ġinstall er
Ġprefer enciais
Ġtext ure
Ġship ment
Ġsyn thetic
Ġorient ation
Ġatra ir
Ġatribu ÃŃda
Ġreligios os
Ġpeters burgo
Ġproceed ings
Ġluck y
Ġflorian Ã³polis
Ġs sel
Ġin cons
qu ÃŃm
Ġl ido
Ġto x
Ġr ational
Ġen via
gr ades
ater ais
ex am
Ġdec ade
Ġprim Ã¡ria
Ġed ward
Ġfacil ita
Ġson ic
Ġexped iÃ§Ã£o
Ġtub es
Ġsint ra
Ġreconhec ida
Ġcompr ida
Ġflux os
Ġapropri ados
ĠclÃŃn icos
Ġcorru pt
rich t
Ġvitam inas
Ġperigos as
Ġaceler ar
Ġvibr ador
Ġket tle
Ġric ardo
Ġblo om
Ġtemp est
Ġneighbour hood
Ġluf thansa
Ġyell ochina
m ens
o on
s ha
Ġb inary
Ġsu av
Ġest ando
Ġbe a
ial s
Ġinter ag
Ġqual idades
Ġsm ell
ĠmÃ© tr
Ġsou the
Ġespecial izaÃ§Ã£o
Ġfar ming
Ġvir uses
ham mad
Ġfran co
Ġcoloc aÃ§Ã£o
Ġpron ounce
Ġbol onha
Ġorient aÃ§Ãµes
Ġphen q
ĠcÃ¡l cio
Ġhelic op
Ġanonym ous
Ġbermud as
k ir
Ġd arÃ¡
Ġs ib
Ġf ob
il as
Ġg av
Ġqu iz
Ġr Ã³t
Ġk ansas
Ġcar vÃ£o
Ġout s
ind hoven
Ġcompl aint
Ġfol he
Ġsuper b
Ġprot etor
Ġrem odel
Ġgener ating
Ġclass room
Ġrespons abil
Ġfund ament
Ġcontact os
Ġcontinu ously
uro u
Ġsubst Ã¢ncia
vent ura
Ġsun rise
Ġinflu enced
Ġacont ecendo
Ġmund iais
Ġaccept able
Ġhid rat
Ġposit ivos
ĠavanÃ§ ar
Ġvib rant
Ġnav y
Ġbord a
Ġut c
Ġvoc al
Ġpartnership s
Ġattem pts
Ġdram a
adv anced
Ġcriptogra fia
Ġpere gr
i ria
Ġa qi
id en
id ed
Ġto e
im agem
Ġst om
Ġst atic
Ġcomp ete
Ġim aging
te xt
Ġall a
Ġcons iga
Ġso ja
Ġart ÃŃstica
Ġwork er
Ġins ulation
Ġover looking
Ġtur ÃŃstica
Ġaplic adas
Ġmat t
Ġped e
ik o
Ġed reams
Ġtal ks
app y
su as
Ġciv is
Ġacid entes
Ġsimul ator
Ġoccas ions
Ġapreci ar
dri ve
follow ing
Ġdee ply
Ġmans ion
Ġadhes ive
inscre va
desfr ute
t iv
Ġd up
as i
Ġb inding
om Ã©tr
un ited
ag rad
Ġper ca
Ġim pre
se veral
de ar
ell es
Ġind esej
ph an
Ġexperi entes
Ġcer emony
Ġinclu ÃŃdas
Ġprecis amente
Ġeng ra
Ġfix ados
Ġgal Ã¡
Ġvend ido
Ġfig uras
Ġconsist ente
Ġaim ing
Ġachie ving
Ġmix er
Ġflu ores
Ġvas cular
Ġhoriz on
pack aging
Ġjournal ists
Ġlif etime
ĠparÃ¢met ro
esper o
Ġreligios as
Ġvegan as
instal aÃ§Ã£o
Ġinaug uraÃ§Ã£o
Ġket one
Ġaffili ates
ĠmÃ¡s cara
companh ias
k ers
r ome
Ġa ver
Ġt ough
Ġc ss
er no
Ġw ond
Ġr hod
Ġr pg
oss a
res ist
aliz ados
Ġup coming
fe atures
Ġpass port
Ġbel le
Ġstr at
Ġrem ot
Ġcomun hÃ£o
Ġpac ÃŃfico
Ġlev es
Ġsil ent
Ġesper o
Ġps i
Ġsatis feito
Ġdeb ates
Ġevol ine
Ġreun ir
Ġdeclar aÃ§Ãµes
Ġesqu ema
Ġtap as
Ġexhib itions
Ġdil ig
ĠlÃŃqu idos
Ġjurisd iction
Ġenfor cement
conte Ãºdo
r c
r un
s us
Ġc og
Ġo ro
is cipl
id ents
Ġpro xy
ig as
Ġat raÃ§Ã£o
th on
Ġen z
art en
Ġfl ame
Ġass urance
Ġbl vd
Ġrec us
ov ed
Ġra c
Ġsim on
Ġpo eira
Ġfic tion
Ġvol kswagen
Ġped iu
Ġmic he
Ġemb ro
Ġdisp ute
Ġband e
Ġcrist Ã£o
Ġjorn ais
Ġvolt ou
Ġgain s
Ġtarget ed
Ġacredit am
Ġslee ves
Ġrib e
Ġinfin ite
show ing
pher ic
Ġcorros Ã£o
Ġprohib ited
ĠpÃ¡s coa
b ig
r ina
Ġt ender
Ġp ins
Ġl ente
Ġg orge
Ġre ly
iv en
Ġal as
if iable
Ġhot eis
Ġcar idade
Ġgr ants
ras burgo
Ġtri als
ry lic
Ġfin ancing
Ġdesc ans
Ġresult ando
Ġaplic ados
Ġmain land
Ġgre w
Ġcoun tryside
Ġelect ions
Ġdownload ing
Ġphotos hop
Ġconfer ences
Ġmart ins
Ġbord Ã©us
Ġbis hops
Ġpreserv aÃ§Ã£o
Ġexter iores
Ġinteract ions
Ġserious ly
hou ve
Ġrestrict ed
ĠlÃ¢mp adas
Ġsubmet idos
Ġnewslet ters
Ġdirec Ã§Ã£o
Ġabri u
Ġgin Ã¡s
Ġcosmet ics
Ġestiv esse
gru po
Ġmotorcy cle
Ġt ungst
Ġl ille
Ġcon quer
ac ta
Ġen clos
og ene
Ġman n
pon s
Ġsol v
Ġintern as
Ġlo ft
Ġsal to
ici ous
Ġlu cia
Ġinn oc
Ã´n ios
Ġsin ta
Ġcu jos
Ġge ographic
Ġsepar ation
Ġmag ia
Ġmag ical
Ġfra cas
Ġvest idos
Ġrefl ected
Ġbord ers
Ġcarreg ando
Ġperspect ivas
Ġquil Ã³metros
Ġcompress Ã£o
Ġspect rum
Ġvall arta
Ġhes ite
Ġdout orado
Ġhem is
Ġurugu ay
Ġanabol ic
Ġembed ded
Ġleban on
c adores
l ib
t m
Ġs z
Ġre charge
im age
Ġal fa
Ġas ks
Ġest abil
Ġcan yon
Ġver ification
Ġsol ved
Ġx ii
Ġbu charest
Ġcompl em
Ġcur tas
Ġcli ques
tim ore
Ġbra ck
Ġchar ity
Ġlocaliz ar
cri Ã§Ãµes
Ġdeus es
Ġtele vis
ĠÃ³ leos
Ġpot ato
Ġlev Ã¡
Ġtam p
Ġpast as
Ġconnect ivity
Ġexig ir
Ġstrength ening
Ã³t ipo
Ġht c
sm art
mont on
Ġdispos to
Ġimpr esso
Ġmotiv aÃ§Ã£o
Ġdirig ir
Ġpaint ed
Ġcontribut ing
Ġviz inhos
Ġans iedade
Ġkore an
Ġtestoster one
Ġkern el
Ġclen but
Ġssel dorf
d ifer
p illar
Ġd res
al ex
at ically
it ivo
Ġb ai
Ġb ach
Ġand ares
Ġre ef
Ġcon ector
ig raÃ§Ã£o
Ġal me
ter r
Ġj peg
ab e
ab y
con sequ
cl oud
Ġinter discipl
Ġbr us
Ġcor agem
we h
Ġloc ate
Ġsol ucion
Ġsol teiro
Ġtri ple
Ġdur Ã¡vel
Ġpoder emos
Ġmer ece
Ġtest ado
Ġestr anho
Ġtotal idade
ala jara
oft en
Ġtub ulaÃ§Ã£o
Ġprogress ive
ĠÃŃnd ices
Ġgab inete
Ġbiciclet as
Ġrecept or
Ġsubsequ ent
Ġanfitri Ã£o
Ġinterrupt or
Ġrasp berry
Ġanxi ety
Ġtoled o
Ġt we
Ġt amb
Ġp ng
Ġs f
Ġo de
Ġe indhoven
it adas
Ġw ings
Ġh ak
Ġv emos
est aÃ§Ã£o
Ġre produt
Ġr n
Ġr ÃŃo
Ġal iv
and e
Ġcar acas
bl a
ard ia
Ġbr ick
Ġsob ress
Ġext in
Ġoper am
Ġcal cular
fr iday
Ġdifer enci
Ġrest ante
Ġrest ring
Ġge ogrÃ¡fica
la w
Ġdemand as
ĠcrÃŃt ico
Ġradi ation
Ġsurv ive
Ġvaz io
Ġcass ino
Ġtradu zir
introdu Ã§Ã£o
Ġcrow d
Ġimperme Ã¡vel
c idade
t urn
Ġc w
am az
Ġg og
Ġg atos
Ġg Ã©n
Ġst abil
Ġch ate
te k
ast richt
Ġqual ities
Ġviag ogo
Ġvari eties
Ã¢m icos
Ġcaus ados
Ġpost ing
Ġacess ibilidade
Ġtit les
Ġinov aÃ§Ãµes
Ġmist Ã©rio
ĠcientÃŃf icos
Ġcompress ion
Ġafet ar
Ġvulner able
Ġreligios a
Ġcaval os
Ġauthentic ation
owe en
Ġt us
Ġp ira
Ġs ket
os idade
Ġn ia
ac io
Ġpara b
Ġfor ne
Ġtr am
ere i
de z
Ġter esa
Ġesp ada
Ġmod ificaÃ§Ã£o
Ġcas ais
Ġmus icais
Ġadicion ada
Ġwi en
Ġlic enÃ§as
Ġliber al
Ġconsist ing
Ġmagn et
Ġperce ive
Ġrain bow
Ġvalid aÃ§Ã£o
Ġry anair
Ġlif ting
Ġcompens aÃ§Ã£o
Ġexcess ive
ĠfantÃ¡st ica
Ġsobrev iver
Ġkilomet res
Ġnin ja
break fast
Ġji ang
mest rado
profess ional
Ġvare jo
Ġunus ual
b ird
f an
f Ã¡
x ias
Ġo asis
Ġv ela
Ġg c
ag i
Ġcont am
Ġpre viamente
Ġle ver
Ġcol ogne
Ġinst Ã¢ncia
ĠestÃ¡ gios
Ġaf eta
Ġcal cium
Ġvari ations
Ġaccess ed
Ġaval iados
Ġprojet ados
Ġri v
ÃŃf ica
Ġbran ches
Ġaltern atives
Ġcand le
cheap est
Ġconcent rar
Ġconver g
Ġterrit ories
Ġhun ter
Ġevid Ãªncias
Ġdign idade
Ġfidel idade
Ġward robe
Ġespir ituais
Ġarth ur
c ir
f old
h abil
t icos
z ing
Ġd ica
in clui
Ġb ust
Ġn ue
et tes
Ġj vc
Ġk ath
ver ifique
Ġwh ist
Ġcomp acto
ha w
Ġqual ificados
Ġgu ess
ca fe
Ġdel gada
Ġpa usa
fe aturing
Ġpass ada
Ġcer ro
red or
Ġret ention
Ġtor que
vers ion
ung en
Ġcombin ado
ape utic
Ġestim ul
Ġseem ed
Ġground s
Ġvent ure
Ġtan ks
Ã´met ro
Ġcomplement ar
Ġoppos ition
Ġdign ity
Ġowners hip
Ġpromoc ionais
Ġlavand aria
Ġhors es
Ġyoun ger
Ġpecul iar
c ult
d av
h ima
r ator
t ua
t otal
u ber
at l
ri am
ec l
ac ar
Ġque ira
Ġest rasburgo
st ainless
Ġac Ãºst
Ġbr at
Ġform ado
Ġutiliz amos
Ġvo ices
ÃŃs mo
Ġrem ark
che t
Ġcle veland
Ġsing er
Ġhy att
Ġarch ae
Ġanalys es
Ġrespect ivos
Ġcorrespon de
Ġsubm ission
Ġdura bilidade
Ġbehavi our
Ġaprim or
fac il
Ġautonom ia
Ġtrim estre
Ġrecicl agem
Ġcyl inder
c ob
t ou
Ġt iles
Ġs ie
Ġf us
Ġf ighter
om on
ur r
Ġtr ick
the w
Ġmar gens
par ece
Ġbl ank
Ġsc rip
Ġz inc
Ġz ones
pre vious
Ġseg ments
ex em
Ġbet h
Ġcab ine
Ġcontin ent
Ġfavor ites
Ġsw ift
Ġsegur as
Ġfut ura
Ġspeed s
Ġenc am
Ġpens a
Ġpen ins
Ġprem ises
esc rit
Ġpromot ed
qual idade
Ġmunicipal ities
Ġeth ical
Ġrecip iente
Ġbloque ar
urre iÃ§Ã£o
Ġnotur na
Ġacred ito
j ado
k k
p he
Ġc ib
Ġc och
Ġm f
Ġw p
Ġl ung
Ġh k
Ġh ert
Ġh urt
ÃŃ vio
Ġj ess
Ġj ak
pl ed
Ġna il
ug es
Ġcam inhar
Ġsub way
Ġsec agem
Ġmater n
Ġlog os
ÃŃd ias
Ġcru c
Ġsubst an
Ġcy prus
Ġcharacter istic
ser ve
Ġtransl ator
Ġphys ics
Ġatl Ã¢ntico
Ġadm issÃ£o
Ġdesaf i
Ġconsci ente
Ġmarc aÃ§Ã£o
host el
Ġobt ido
pack age
near by
Ġsecund Ã¡rios
reserv ation
Ġweak ness
keep ing
Ġencourag ed
empres a
Ġlicens ed
Ġacknow ledge
ĠfenÃ´m eno
perf ect
Ġutens ÃŃlios
princip ais
Ġmaquia gem
Ġembro ider
d m
m Ã£o
t ap
Ġd y
Ġn elson
Ġin compl
Ġl Ã£
Ġan Ã©is
pl astic
Ġk ay
Ġap ag
Ġsp at
Ġinform al
Ġpe as
Ġtim ber
Ġbl anca
Ġrec orr
ita ine
Ġacc idental
tra ils
Ġher Ã³i
Ġvari ation
Ġstay s
ator iamente
Ġtransport ar
Ġinternational ly
Ġrest ored
Ġglob o
unt as
Ġaz ur
Ġsam uel
Ġrot terdam
Ġattra ction
Ġobrig atÃ³rio
Ġfeder aÃ§Ã£o
Ġperce be
hy dr
Ġextr ato
Ġsuffer ed
pad arias
Ġsacerd ote
Ġile g
Ġpep per
Ġsne akers
Ġaber deen
Ġcoven ant
c ente
om an
Ġn urem
Ġw er
Ġqu i
ig ue
Ġest Ã©tica
Ã³ b
ast as
art igo
Ġent ende
ai i
Ġob ama
Ġserv ants
Ġz ap
Ġcr ash
Ġprodut or
Ġact or
Ġpass ap
erg ia
Ġdef ines
Ġsk ate
Ġcop acabana
Ġha iti
Ġpens ando
Ġwind sor
Ġder ived
Ġvirt ually
Ġjud a
Ġadapt ation
Ġconsci ous
Ġavis os
Ġhosped ar
Ġscen arios
Ġcontribut es
Ġmalici ous
Ġpredomin ant
d an
i Ã³n
m ember
Ġt ile
er on
Ġe ps
Ġl r
Ġv inda
Ġg w
Ġre abil
Ġfr idge
Ġfr ases
Ġdis close
Ġbr unch
Ġinform ado
pr ing
Ġhas h
Ġcr an
Ġant icip
Ġthere by
Ġinv al
Ġchar ter
Ġdirect iva
Ġtest amento
Ġaval iado
Ġmac ed
Ġren al
Ġdestin at
Ġpadr on
Ġbol so
Ġfix o
cu is
Ġminer als
Ġestabelec idas
Ġobst acles
Ġlibert aÃ§Ã£o
Ġaffect s
bras il
Ġventil aÃ§Ã£o
Ġsurpr ising
Ġacou stic
f eld
l Ã©
p ix
v ic
in agem
Ġf ad
Ġb ov
Ġin equ
Ġw yn
Ã§ u
Ã§ adas
Ġv entos
Ġk om
Ġch eng
Ġserv em
Ġlu iz
Ġinc ub
Ġimport ar
Ġrece iver
Ġlong os
Ġri val
Ġpas o
Ġital ia
Ġmem Ã³rias
Ġec ological
Ġflor al
Ġcob rir
Ġsepar ately
Ġvend idos
Ġmec Ã¢nicos
Ġprotect s
Ġterrit orial
Ġtell ing
Ġster eo
Ġpossu ir
Ġreve als
Ġswed ish
Ġnaqu ela
Ġstrug gl
detail s
Ġnorthe ast
Ġyah weh
ĠintercÃ¢m bio
e ff
Ġt art
in fo
Ġm ould
is k
Ġde feitos
Ġf rozen
Ġl om
am en
ip a
te ira
ok u
Ġsim s
pre par
Ġequip as
Ġresult ed
Ġtest ament
Ġgra f
Ġfar inha
Ġcat s
Ġrest antes
Ġupd ating
Ġobject ivos
Ġtit Ã¢nio
Ġbol ÃŃ
eter min
Ġgas to
Ġmol de
Ġexib ida
Ġpul so
Ġcolet iva
Ġcommand s
Ġporn Ã´
Ġacol h
espec ial
Ġconfid encial
Ġeurop eias
elect ric
Ġdee per
Ġpione er
Ġfried rich
Ġprevis Ãµes
d rop
f at
m edi
Ġal le
Ġsu co
Ġac ne
Ġdes ires
se q
Ġinter vent
ass agem
Ġfil a
ian e
Ġcam elo
iss os
ex pected
Ġpra ise
Ġph d
Ġstr and
Ġprot oty
Ġdig ite
Ġdiv ino
Ġlev ado
Ã³l ogos
Ġinov adores
ĠespÃŃ ritos
Ġemp ower
Ġcatal ogue
Ġpotential ly
Ġoccur rence
pas so
Ġbright ness
compan ies
Ġdiamond s
ĠdomÃ©st icos
ĠsÃŃn tese
Ġpall et
Ġescon der
d entro
n ational
s af
Ġt rigo
Ġd g
in Ã¡rios
Ġm ere
Ġn r
ut os
Ġy an
Ã³ f
Ġch ato
Ġne on
Ġar du
ais s
Ġab af
pon t
ex cell
Ġprot ector
sel ha
Ġanim e
Ġassoci ate
Ġrep ent
Ġblack berry
zer ia
Ġoce ania
Ġmix ing
Ġflow s
Ġbrit Ã¢nico
Ġimag ination
Ġscen ery
ĠcrÃŃt icos
Ġfum adores
Ġidos as
Ġreclam aÃ§Ã£o
vant agens
ĠginÃ¡s io
c imento
c reat
d l
Ġc is
ic it
Ġu c
Ġque brar
Ġma astricht
ĠÃ© s
com ece
Ġmod ificaÃ§Ãµes
Ġla ugh
Ġca ught
Ġsoft wares
Ġcommun ion
Ġfab rico
Ġmac io
Ġpresent ing
Ġresid ent
Ġconj un
Ġefet ivamente
Ġbill und
Ġvib raÃ§Ã£o
pol ÃŃtica
Ġimag inar
trans port
Ġexplic ou
Ġcolom bo
Ġpreserv ation
Ġinscre ver
ĠtÃ©rm ico
Ġcosm Ã©ticos
Ġdescrit as
Ġtestim ony
u pon
v s
Ġm ÃŃdias
ess en
Ġal erts
Ġsu ff
ag ua
Ġch ol
Ġtr inta
mo on
we gian
Ġav iaÃ§Ã£o
Ġbu car
ĠprÃ³ximos veja
Ġdays weather
Ġbal timore
vers Ã£o
Ġcateg or
Ġcast el
Ġprop he
Ġsac rific
Ġcot id
tes es
Ġestat uto
Ġabsor ption
icl op
Ġfed ex
Ġenjo ys
Ġencomend as
Ġpromoc ional
Ġxclus ivo
Ġtay lor
Ġhazard ous
s endo
Ġp ly
Ġs lo
Ġin ib
Ġw m
qu Ãª
Ġv angu
il m
Ġpar c
Ġpar ado
ant h
Ġon tar
ip ur
Ġpl ural
Ġhe pat
Ġmar selha
Ġinform Ã¡tica
ong e
Ġconf iar
ici ente
Ġacc ident
Ġcond omin
red os
Ġunder ta
Ġconhe Ã§a
Ġrespe ita
rol ux
Ġconect ados
Ġvib ration
Ġpronunci ar
Ġaprove ite
cond iÃ§Ãµes
Ġchal eira
ĠdomÃ©st ico
Ġirrit ante
pac ote
Ġfich as
Ġrecar reg
Ġmultid iscipl
Ġtransvers al
ĠparÃ¡g rafo
a pl
c our
s iga
v Ã¡
Ġf its
Ġv ivos
ab o
Ġos car
te am
Ġam iga
Ġfl avor
tr Ãªs
Ġmet ad
Ġher Ã³is
che g
Ġol ha
Ġtom ando
Ġrefer ido
ential s
Ġrad ar
Ġrecomend aÃ§Ã£o
Ġcelebr ated
Ġbul garia
Ġdomin ican
Ġkn ight
Ġcolum bus
clud ing
Ġbelong ing
Ġbug s
Ġtoilet ries
Ġcongreg aÃ§Ã£o
Ġenorm ous
Ġinterven Ã§Ãµes
Ġbolet im
f le
l angu
Ġp avil
om al
ad uras
Ġw y
Ġv elhos
et ti
Ġj es
ci Ã³n
Ġpor cent
Ġnot ify
Ġmar king
Ġz inco
Ġcap ri
Ġdest ro
Ġaccess ibility
Ġview er
Ġclass ificado
ict ions
Ġpur s
Ġrespons es
mar ia
fa q
Ġexam ine
Ġrelacion amentos
Ġq r
Ġshare point
Ġtext ura
Ġarr ange
Ġmind s
Ġexib e
Ġmaxim izar
sim ply
Ġexpand ing
Ġlov ers
Ġdura bility
Ġboas ts
Ġestabelec ida
Ġacompanh ado
Ġni ke
Ġhighlight ed
Ġwikip Ã©dia
ĠtÃŃp ico
Ġtelem Ã³vel
Ġpeda Ã§o
Ġcarbo id
Ġnash ville
Ġdres den
Ġscrip ts
Ġontar io
b ill
f en
r ase
s aturday
Ġt ired
in ate
Ġp ills
ar us
al ong
Ġv enc
Ġem but
Ġag end
Ġbl anc
Ġgu inea
int el
Ġconf ident
Ġinc ident
pri me
Ġexperi encing
Ġpes ado
Ġaplic am
Ġend less
Ġenerg ias
Ġtecn olÃ³gico
Ġindic am
Ġben jam
Ġdemonst ra
Ġdeclar ou
Ġrelev ance
Ġalong side
Ġvalid ation
Ġkn itted
Ġcoast al
Ġaux ÃŃlio
mic ro
dec or
Ġearn ed
Ġceleb rar
Ġachiev ements
acess Ã³rios
Ġexplan ation
l ot
w omen
Ġm Ãº
Ġh ass
Ġv endo
Ġcon ci
oc king
un like
ist Ã£o
Ġen rich
Ġk ur
Ġne x
vi ra
Ġinform a
Ġinform e
Ġcor da
Ġpe ito
Ġev itam
Ġcas aco
Ġpol e
Ã¢n d
ese x
Ġpres o
ios as
Ã©s io
Ġday ton
Ġed monton
Ġparticip ante
Ġrefer entes
Ġrad iaÃ§Ã£o
Ġdestin ado
Ġsi ena
Ġelev ation
ĠhÃ³sped e
Ġguer re
Ã³t ese
Ġbul g
Ġlago a
Ġmediterr Ã¢neo
pi ece
Ġilust raÃ§Ãµes
Ġintu itive
Ġjackson ville
Ġnom inal
convers a
Ġguad alajara
ĠincÃªn dio
excel ente
d iz
s in
u ation
Ġd it
Ġd irt
Ġn Ã©
Ġin qui
Ġl x
ra h
Ġcon do
od ge
oc aÃ§Ã£o
Ġst em
Ġest eira
Ġdis aster
Ġbr l
Ġind iana
Ġsem ente
Ġserv iced
Ġup grades
Ġtec las
pre t
Ġdist ribute
Ġins u
Ġarqu iv
Ġprom ises
Ġrespons ibilities
Ġactiv ation
Ġsex uais
Ġatual izados
ĠaÃ© reo
Ġobserv aÃ§Ãµes
Ġsam ui
Ġgrav idade
mon itor
Ġbeb Ãªs
Ġchegar am
Ġrepl ica
Ġjoin ville
Ġreprodu z
Ġinfer no
Ġbarb ie
Ġpaint ings
accommod ation
Ġpak istan
gost aria
Ġcompost ela
Ã¢ng ulo
Ġn p
Ġn ag
Ġcom em
Ã¡ vamos
ac co
ir ar
ch os
Ġar ame
Ġle w
fer ram
Ġpart ial
ional mente
Ġind icaÃ§Ãµes
Ġvi eram
Ġsel o
tim a
Ġsm ar
Ġid Ãªn
Ġanal isa
Ġleg ends
Ġsens o
Ġativ aÃ§Ã£o
Ġexc it
Ġdra in
Ġmol ho
Ġpil g
Ġga ia
Ġconstit ute
Ġbuff alo
Ġembar que
Ġluc ros
custom ers
Ġwallpap ers
wr ite
Ġsecre ts
Ġsorr iso
Ġsnack s
Ġversat ile
ĠpÃ¡ss aros
y et
Ġd f
er ver
Ġp ied
Ġs j
al di
at enÃ§Ã£o
Ġb angu
om ot
Ġin just
Ġin take
Ġh unt
Ġg ates
ri ers
et on
ac ons
Ġal am
Ġno ble
Ġne pal
Ġcar lo
Ġbar n
Ġcr om
Ġdist Ãºr
wh atever
Ġmot hers
Ġvari edades
Ġtravel ler
Ġlib rar
Ġpoint ed
Ġwr ist
Ġdol ph
ĠgrÃ¡f ica
Ġtut or
Ġchem istry
encion ais
Ġcolle agues
Ġfum ante
Ġsurpr ised
Ġconceb ido
Ġsco oter
program as
Ġnavig ate
ĠmÃ¡r more
Ġgale Ã£o
a ire
r icos
Ġc ement
Ġn ose
Ġin iciais
Ġre vision
Ġes fera
ost ar
Ġman or
Ġaut Ã´n
Ġprov ed
Ġpass es
Ġmen us
Ġcal ma
Ġsou za
Ġcoll ins
Ġregist rado
cent ral
Ġig uais
Ġexpress ar
Ġq c
produ Ã§Ã£o
Ġfort emente
ĠhistÃ³r icas
Ġsen Ã£o
Ġjoin ing
Ġram o
Ġtail ored
Ġapropri ada
Ġdestac ar
Ġagu ard
Ġsuced ida
Ġintu ito
hum an
Ġthr one
Ġcosmet ic
Ġdefe at
Ġpeda Ã§os
Ġkara oke
Ġrodovi Ã¡rio
Ġartesan ato
Ġwiz ard
ĠhambÃºrgu eres
Ġp k
Ġs na
Ġh il
Ġh its
oc idade
Ġat ua
ip her
Ġtr ic
Ġyour s
com endo
Ġtra g
Ġinst rut
Ġsol ares
Ġval ves
ital ia
Ġlim pos
Ġleg ally
Ġpat ent
Ġeduc acionais
Ġpon der
rag on
Ġfort une
Ġabr ange
Ġmund os
Ġinnov ations
Ġsecret aria
Ġcra w
Ġmec Ã¢nico
Ġminim izar
Ġalmo Ã§ar
Ġton er
Ġmand atory
Ġdiam antes
Ġinser Ã§Ã£o
Ġpreserv ed
iling ual
Ġsinc er
Ġadvis e
mot or
Ġcomit Ã©
Ġportra it
Ġhano i
Ġtelh ado
Ġeix os
Ġprosse gu
Ġresurre ction
Ġclenbut erol
w inter
Ġp imenta
or ini
it ra
Ġcont enta
Ġdes erve
Ġes g
Ġar ra
Ġpor sche
Ġpre g
ts burgh
az e
Ġdist ra
air lines
Ġlar go
Ġprojet or
Ġconsider able
Ġwater fall
Ġtal ento
Ġprofess ion
Ġchr is
Ġbal anÃ§o
Ġenc iclop
Ġci ente
Ġstat s
Ġpract ition
Ġorg Ã¢nico
Ġdesem pre
Ġviaj ante
Ġdimens ional
Ġlemb r
Ġaux ili
Ġsai u
Ġtast ing
Ġenorm es
Ġsemicon du
w o
Ġd ame
Ġp ond
Ġm ature
Ġv iana
Ġre im
Ġth ir
Ġpro claim
Ġus os
Ġres ide
Ġtr ono
ob a
op o
Ġinter aÃ§Ãµes
Ġtra jet
Ġsh im
Ġind emn
gh an
Ġcontact ing
Ġstat ue
Ġconvers as
Ã¡st ico
Ġregard s
Ġben Ã©
Ġavi Ãµes
ÃŃg io
Ġhip Ã³tese
ĠespaÃ§os o
ĠfÃ³r uns
Ġbroch ura
design ed
Ġnutri entes
Ġgather ing
sex ta
Ġdelet ion
perg unta
Ġstrict ly
Ġpedag Ã³g
Ġsubsid iar
Ġbasil ica
Ġchass is
b ie
v ila
Ġt ac
Ġd ys
Ġb iss
ad ar
ro up
id al
Ġre bo
im ente
im pro
Ã¡ rea
un idade
and ong
Ġpre ca
Ġman kind
Ġout let
az ar
Ġqual ification
Ġport Ã¡teis
Ġfe at
pro vid
Ġx in
Ġsub terr
Ġprof issÃ£o
Ġperm ita
Ġbase ia
Ġhor ror
Ġcham ou
Ġintegr ados
Ġresearch er
Ġsignific ance
Ġgovern ed
Ġsac ramento
Ġorg ans
Ġrecomend ados
Ġdecl ine
Ġdeal er
Ġdistribu ir
Ġsure ly
Ġdemonst raÃ§Ã£o
Ġspeak s
Ġgb p
Ġhip ert
Ġaw esome
Ġtan z
Ġfamos as
Ġpert in
Ġcidad ania
Ġoccup ation
Ġaa a
Ġcater pillar
Ġced ar
aplic aÃ§Ã£o
Ġescolhe u
Ġsalam anca
j ando
r ato
u is
Ġm its
Ġv ing
am an
ÃŃ culos
st an
Ġk rist
Ġgr ate
pro p
Ġbar reira
Ġcap p
Ġart work
ph is
Ġbel ize
Ġpartic les
Ġprom ised
gar ian
Ġcost ura
Ġrepres entar
Ġcompet ente
Ġcompet ence
Ġpont es
Ġglobal ly
dom ingo
ĠmÃ©d icas
Ġfort una
med ia
Ġgast os
Ġrepar o
ĠclÃ¡ss icos
ÃŃss ima
ĠvÃŃtim a
Ġmultifun cional
Ġlaborator ies
pous adas
Ġkrak ow
m ary
t weet
v anni
Ġa riz
Ġt ido
Ġs es
or ros
Ġe os
Ġin er
Ġl ips
Ġcon go
Ġex porter
Ġne ur
ific ou
Ġche iro
Ġant Ã³nio
Ġint it
Ġimport ed
Ġbel Ã©m
Ġmer id
Ġneg ativos
Ġhom enagem
Ġimp ec
Ġfund ador
Ġjud Ã¡
cam ps
Ġmort al
Ġvas os
Ġautocar ros
Ġkn ife
ĠeconÃ³m icos
Ġscen ic
Ġfech amento
Ġcolum ns
Ġextre ma
Ġlam ps
Ġorgas m
ĠteÃ³r ico
Ġdour ado
artic le
Ġnutric ional
Ġsham poo
Ġlent amente
ĠÃªx ito
Ġwond ers
b out
c Ã§Ã£o
c Ã§Ãµes
f oto
g ent
g il
h adas
s ar
s unday
Ġa ro
Ġo it
Ġb ones
Ġan ger
et ics
Ġth m
oc i
Ġj ub
ch ang
Ġun e
her o
pon ent
Ġass ert
Ġvis ÃŃveis
erv ille
Ġequ ality
ugh ters
Ġcal a
Ġajud e
Ġamb ul
adr Ã£o
Ġgre go
Ġprojet ar
ron es
Ġmodel ing
Ġcolor ed
Ġwhe at
Ġaz er
Ġbab ies
Ġexig entes
Ġprest adores
seg uranÃ§a
Ġrelev Ã¢ncia
Ġbegin ners
Ġregular es
Ġdivid ido
spec ifications
Ġrefor Ã§o
Ġexcurs ions
Ġgam bling
Ġbless ing
Ġmetabol ismo
hÃ´ tels
b ilhe
n r
n ius
s ant
Ġp ÃŃl
Ġm og
Ġde do
Ġan ot
am el
Ġr w
Ġse quer
oc us
Ġro uge
our cing
ina Ã§Ãµes
gu in
Ġcons ec
Ġcor o
pe qu
Ġso ap
Ġob ed
Ġmet als
Ġpes ados
Ġtur in
Ġevery body
Ġpublic ly
eng ine
Ġconsum ing
Ġconfig ured
Ġsouth ampton
Ġtransm iss
Ġconcer ts
Ġconsegu inte
Ġwel com
Ġsurf ing
Ġcad ast
cert ific
Ġabra Ã£o
Ġpopul ations
Ġexplos Ã£o
Ġdesconhec ida
never theless
Ġnev ada
Ġimmig ration
aiss ance
f ale
n u
n orth
as a
Ġthe ft
Ġl ud
Ġen gr
Ġman gueira
Ġbar ro
Ġpol Ã³nia
Ġmed ina
Ġdesign ated
Ġinclu ÃŃda
Ġvers us
Ġfal am
Ġdiv ide
ger man
Ġol iv
Ġfabric ados
Ġbenef icial
Ġresist entes
Ġviol ent
Ġsalv os
Ġliber aÃ§Ã£o
Ġguer ras
Ġbad en
Ġles Ã£o
Ġextrem idade
Ġload s
Ġimag inaÃ§Ã£o
Ġanalis ados
Ġgast ar
ĠquÃŃm icas
Ġmotiv ation
Ġescolh endo
Ġira q
introdu ction
Ġmerch and
deliver y
j ul
q ing
z l
Ġs ip
on ut
Ġde but
re view
Ġn ost
Ġpar ecia
ig re
Ġal av
Ġfr atern
Ġtr ilha
Ġim ers
Ġnot ificado
Ġco il
Ġmod ification
Ġpe er
Ġsa iling
anc ement
Ġcer ts
Ġaccess ory
load ing
Ġatt or
uf a
Ġlig ada
pes o
Ġcorre ia
Ġorg ulhos
Ġnor wegian
Ġpul mon
Ġprev ents
serv ice
Ġproteg idos
Ġreflet ir
bet ween
hist or
Ġcorrel ation
Ġrank ed
wed nesday
econom ic
Ġinns bruck
som ente
Ġrestor ation
Ġrhy th
Ġpenins ula
h ados
v idos
Ġt ie
er ias
Ġp hn
Ġp anda
Ġf rota
Ġb ers
Ġb ene
Ã§ ou
Ġg amb
est Ã£o
ter mos
Ġma us
Ġat e
Ġnot ices
Ġcas ca
Ġpa u
Ġsal Ã¡rio
Ġbus cam
Ġer p
Ġwork out
Ġgen Ã©tica
Ġfir ms
Ġbel oved
ena ult
Ġregist ar
Ġtor r
la ke
Ġgard a
Ġwall et
dis p
Ġcomunic ado
Ġtermin ou
uc ho
Ġju iz
tros pect
Ã¡b ado
Ġvinc ent
Ġhang zhou
Ġrang es
Ġlor enzo
Ġespect ro
Ġintermedi ate
Ġalexand ria
Ġconstruct ed
Ġafili ados
Ġunem ploy
embal agem
cuis ines
excell ent
Ġcarboid ratos
c od
Ġo re
Ġin esper
ec ch
Ġal an
Ġac rylic
Ġk um
Ġdes igual
ud ia
Ġun expected
Ã§a o
Ġass ust
Ġesc apar
ero x
Ġfic ha
Ġwell s
Ġjun tas
eng en
Ġfal e
Ġtom ado
Ġactiv ate
Ġactiv ated
Ġpress ing
Ġchrist church
Ġwal ks
ÃŃd ios
Ġescrit uras
Ġposition ing
ĠplÃ¡st ica
Ġenvolv idas
Ġimpression antes
Ġevid Ãªncia
Ġcitizens hip
Ġfog Ã£o
Ġaconselh amento
Ġinvis ible
Ġofic inas
Ġplen amente
Ġrey k
Ġbranc os
beaut iful
Ġaccor hotels
d essa
j amos
n als
r ene
w iki
Ġf Ãªme
Ġu h
ol ta
Ġda wn
Ġat ende
Ġres ume
Ġper if
gu i
Ġche cks
Ġany time
Ġlu ke
Ġdur ad
Ġaqu a
Ġfol d
Ġsab ores
Ġregist rada
cont ato
Ġprote ins
Ġprepar ados
Ġsac ram
Ġoferec idas
Ġsoci eties
Ġtent ou
Ġhid rom
Ġcic los
Ġhall oween
Ġincorpor ate
Ġalber gue
Ġmur cia
Ġvulner abilidade
Ġasc end
Ġberg en
Ġsecund Ã¡rio
ĠvÃ¡lv ulas
Ġweap on
Ġsiem ens
Ġmanif estaÃ§Ãµes
Ġsimplic idade
jap an
Ġdemas iado
Ġpavil ion
a velmente
c aixa
e ing
Ġt ong
Ġo vel
it amos
Ġb ong
Ġl end
Ġl ust
Ã§ amos
Ġv ÃŃn
ol f
Ġse Ã§Ãµes
Ġda ughters
Ġj ol
iz ations
Ġk ab
Ġab ol
tr esses
Ġca ver
Ġprof ound
Ġacc idents
Ġcer ve
Ġref use
car r
jo an
Ġret ire
ict ed
Ġsex ualmente
Ġmor ada
Ġpopular izada
Ġpet it
Ġder mat
Ġce bu
Ġden unci
Ġic eland
Ġmid st
Ġcabe Ã§al
Ġther apeutic
bul k
Ġanunci ar
Ġrib eira
Ġadvers e
sor ry
Ġretorn ar
bab y
Ġatras o
mand u
ambu co
Ġcarto on
Ġboliv ia
ĠapÃ³st olos
Ġpatt aya
Ġtroublesho oting
l ace
v ÃŃde
Ġa ub
Ġt ack
Ġo le
Ġre actions
ec as
ac ha
Ġad visor
Ġdis comfort
cl aro
Ġall ah
tr at
Ġsem inar
Ġcri am
Ġele iÃ§Ã£o
Ġequ ity
Ġsub mar
Ġint imate
ital ian
Ġfol k
Ġget away
fr anÃ§ais
Ġcontrol ado
Ġdiv erg
Ġingl esa
Ġpi et
Ġfew er
Ġexclus ivas
Ġinici ou
Ġpropos e
Ġabord agens
Ġcai u
Ġisl amic
Ġran ch
Ġadvis ed
amer ican
Ġdecorr entes
Ġarrang ements
Ġfilip inas
Ġreiv indic
Ġtrin idad
unders tand
Ġheath row
Ġsettl ement
d Ã£
f onte
l c
in ÃŃcio
os ph
Ġm ik
Ġf f
Ġn j
Ġn isso
Ġin hib
est ra
Ġre habil
im pl
Ġth ess
Ġst roll
Ġest o
Ġno bre
Ġk le
ap i
ill er
Ġcl ipe
Ġnew port
Ġta hoe
Ġwork place
cul a
Ġlog s
Ã³n us
Ġquant as
Ġautor izados
Ġcres ceu
Ġrap idez
Ġdedic aÃ§Ã£o
Ġconsist ency
Ġenvolv ido
Ġsaud ita
Ġplug ins
Ġexplic aÃ§Ã£o
Ġpossibil ita
through out
Ġdelici oso
Ġapost les
Ġvil nius
Ġreflet e
Ġcomplic ated
Ġcapit Ã£o
Ġberg amo
Ġcongreg ation
Ġsurve ys
Ġbutter fly
Ġsau ce
Ġrg b
Ġrefug iados
promo Ã§Ãµes
Ġencam inh
Ġporcent agem
j es
l ion
t ick
v ens
Ġt ier
Ġt elas
Ġc g
Ġc ag
Ġp enc
Ġu b
Ġdo d
Ġj ag
Ġor th
Ġcan Ã§Ãµes
Ġnot urn
Ġro ver
Ġent emente
ord em
ub ishi
ys ter
Ġcur va
Ġher ze
Ġprecis as
Ġanal Ã³g
Ġdem ol
Ġphot ogra
Ġfal so
Ġorig ins
Ġelect rolux
Ġunder lying
Ġsl oven
Ġadicion ados
Ġbi otec
Ġexpress ly
Ġexpress amente
Ġsenh as
Ġorg Ã¢nicos
Ġcreat ures
Ġinflu ences
Ġtable au
ÃŃg ado
Ġali ados
Ġdiam ante
Ġswitch es
Ġconclus Ãµes
Ġsor ry
Ġdomain s
ĠlÃ¢m ina
Ġembar c
Ġgig ante
Ġpalest ras
Ġventil ation
proc ure
Ġabund Ã¢ncia
ĠÃ³pt ica
Ġfestiv als
Ġstro ke
iffer ent
b ola
c ana
f ra
h c
Ġde er
Ġf one
Ġf ÃŃgado
Ġn ing
il ham
Ġem pir
Ġdo z
ul ose
and as
Ġres fri
ta ils
pe Ã§as
iss an
Ġx s
Ġesc av
Ġgl ac
comm er
Ġorig ens
ger almente
Ġedit ed
Ġfa Ã§am
Ġfuncion ando
Ġmodel agem
Ġremo ving
Ġgovern or
Ġq ing
Ġcin em
Ġaccording ly
Ġsepar ada
Ġauthor ization
Ġperman ently
Ġcompre ende
Ġconnect s
Ġestrut ural
Ġvirt ude
Ġguar ulhos
Ġrespe itar
Ġoptim ized
Ġactual izaÃ§Ã£o
Ġga ul
bro ok
Ġcomport amentos
fun ction
Ġsurg iu
ĠaÃ§ ores
sub m
Ġpair s
Ġurg ent
Ġcondut or
num ber
Ġcogn itive
Ġhort a
Ġvolunte ers
Ġhygi ene
Ġstom ach
Ġphn om
j ana
s amsung
y ers
Ġc ds
ad ed
Ġl ec
Ġu d
Ġem per
Ġr umo
Ġbe an
Ġus ou
Ġwh ilst
port ugal
Ġdis order
Ġcol Ã´nia
ĠÃ¡ cidos
Ġmes qu
Ġlu vas
Ġresult antes
da o
Ġhuman itarian
Ġatual izada
Ġlig ue
Ġcy cles
Ġlivre mente
ĠlÃ¡ bios
Ġcross ing
Ġcontempor Ã¢neo
Ġbis pos
Ġchain s
Ġiron ing
Ġlan zar
sup pl
atis f
dig ital
Ġreemb ols
nenh um
Ġcobr anÃ§a
Ġbarre iras
Ġsudden ly
Ġaesthet ic
Ġconci erge
Ġlibrar ies
c ter
j ob
r ank
y i
Ġp og
Ġin compat
ap ura
de al
Ġro pe
co ffee
Ġsa vi
ma xim
vocÃª s
Ġhol ders
af one
Ġbat tles
Ġconse q
Ġsand wich
Ġju ven
Ġestim ate
Ġmist akes
Ġrelax ed
Ġmaxim ize
Ġintens o
Ġbul let
Ġdomin icana
Ġaument am
Ġdrag Ã£o
Ġcidad Ã£o
procur ando
ĠjurÃŃd ico
Ġcair ns
encontr amos
Ġbrinc ar
Ġvess el
Ġmathemat ics
gov ina
Ġtiff any
Ġcelest ial
Ġcondomin ium
Ġariz ona
n or
Ġ Ã³s
Ġp w
an he
Ġb av
am ine
em p
Ġpar Ã¡
ut ed
Ġal ug
Ġpor men
Ġun ified
Ġam antes
Ġi w
Ġinst ances
ff y
Ġfaz ia
Ġlo an
Ġnas ce
Ġgar otas
Ġjo an
Ġjun ta
Ġleg umes
Ġlar n
Ġlog ical
ĠsÃ³ dio
other apy
ribu iÃ§Ã£o
Ġfuncion ais
ba hasa
Ġlev arÃ¡
col oque
Ġpron ta
Ġdistribu ÃŃdos
Ġcontribu em
Ġarchitect s
Ġbang l
Ġhun ger
ĠclÃŃn icas
Ġvibr ante
Ġunif orme
Ġabund ant
Ġrecre ational
Ġcorrel aÃ§Ã£o
priv acy
Ġouv idos
Ġcher ry
Ġbackpack ers
Ġalgorith m
Ġloyal ty
Ġoxig Ãªnio
Ġpab lo
g ive
k or
m m
s istemas
u as
Ġc ure
Ġe ly
Ġf itting
Ġn ode
Ġg and
ri ad
im al
ac esse
Ġy og
Ġres in
Ġpor cel
Ġle Ã³n
Ġcar b
Ġdis able
all a
Ġcor fu
Ġfil tra
Ġgu ys
Ġpol onÃªs
Ġprocess ados
min ube
Ġconv encionais
Ġlist ings
Ġjo e
Ġautom obile
Ġmat thew
Ġdifferent i
Ġwould n
Ġoffer ings
Ġcost umes
Ġcontinu ou
Ġmill s
Ã³l ogo
Ġru pt
Ġdepart ments
Ġcomplex as
Ġcus h
Ġfat ty
Ġgol pe
cu id
Ġexport s
Ġgost ou
Ġcorr idas
Ġtend em
Ġreceb emos
Ġfair y
fol k
Ġdesfr ut
Ġajust es
interest ed
Ġbibliotec as
Ġgig antes
Ġsuns hine
Ġprestig e
Ġencer rar
Ġimobili Ã¡ria
Ġlegit im
Ġtall inn
Ġmicrof one
Ġhb f
Ġarquitect ura
offer ing
Ġemocion ante
Ġtelecommunic ations
Ġwelcom ed
Ġlanzar ote
n est
Ġt ende
Ġp est
or il
Ġe ve
Ġf Ã³s
Ġl ace
Ġg Ã©
Ġr ato
Ġy ard
Ġal ph
ÃŃ metro
Ġda ÃŃ
Ġex aust
st ick
Ġac on
Ġac Ã§Ãµes
Ġk un
to e
Ġar b
Ġad iante
Ġhe ated
Ġgr ama
ign ano
Ġloc als
Ġcri pt
Ġtri un
Ġespec ificado
Ġgl oves
Ġconst antes
Ġconv enÃ§Ãµes
Ġplay back
Ġdu o
Ġgra b
Ġgre enh
Ġconstru Ã§Ãµes
Ġsant orini
Ġdiret ores
Ġcob erta
Ġfix a
Ġconveni ently
Ġvac c
Ġexplor ation
Ġestim ular
Ġben ed
Ġpergunt ou
Ġrecol he
Ġacredit amos
Ġregr esso
Ġsurg ir
Ġannoun cement
Ġlandsc apes
Ġhorm one
mant enha
Ġsemin Ã¡rio
Ġadvertis ements
intern et
Ġsched ules
Ġefect u
Ġemo Ã§Ã£o
Ġcilind ro
Ġhypot hes
fÃ³r um
Ġdup lex
Ġforne Ã§a
g is
h un
p ec
Ġp f
Ġp ib
Ġe ug
Ġin box
Ġv amp
Ġto ps
Ġg ut
ec oque
Ġcon clude
Ġr aro
Ġy os
Ġsu ited
ag na
Ġj ay
ap se
Ġcont ou
Ġcont idos
Ġhe al
con gr
Ġinter essa
Ġi ec
Ġsh ade
Ġfil has
Ġform am
Ġsem estre
Ġte ar
Ġposs e
Ġbar rel
ĠestÃ¡ s
ph ys
Ġbus bud
Ġpal azzo
Ġrespon de
Ġsegu em
Ġsent em
Ġcert ificar
uf eira
Ġpot ter
Ġenc ycl
Ġpens o
Ġobserv ado
Ġexecut ivos
Ġapo ia
Ġaff irm
Ġlt da
Ġacont ecimentos
Ġsatisf y
Ġconsegu imos
Ġmulti player
Ġsuperf icial
Ġvegetarian as
Ġcant os
Ġconcept ual
ĠcientÃŃf icas
Ġemiss or
Ġevid ente
Ġestre ita
Ġsacrif ÃŃcio
Ġretr ato
Ġsara h
shop ping
Ġrecru it
Ġsevent h
Ġsouthe ast
Ġhert z
Ġherze govina
d ess
d ham
p ul
z on
Ġd ren
Ġc k
Ġe ph
ing ly
Ġdo ha
Ġse q
Ġma pe
if ilm
um i
Ã³ xido
ib o
ind ade
ber ts
Ġcri aturas
fe ature
Ġoff shore
Ġdec re
Ġbas in
Ġlim Ã£o
Ġaccess ing
Ġsocial ist
Ġfar ms
Ġri m
cont role
Ġexpress ions
Ġaccommod ate
Ġbag gage
Ġfix es
Ġtermin ais
Ġmaj est
Ġguard ados
Ġexig ido
cr oss
Ġavoid ing
Ġintens a
Ġconsequ ence
Ġfiz emos
gues ia
Ġcollabor ative
Ġelectr Ã³nico
Ġsupl ement
Ġguitar ra
Ġsemin Ã¡rios
Ġhes itate
Ġjurisd iÃ§Ã£o
Ġavan Ã§os
Ġsebast ian
Ġsatan Ã¡s
Ġomb ro
Ġbrill iant
Ġbangu ecoque
d ll
s n
y ards
Ġp ell
al m
Ġn essas
Ġw ilson
ri u
Ġre util
ra z
ol er
Ġno body
Ġbe ans
Ġcomp ounds
Ġle il
Ġtra y
Ġver n
Ġmu hammad
ca o
Ġger ador
Ġprof etas
Ġseg redos
itu iÃ§Ã£o
Ġfind er
Ġdesen har
Ġet i
Ġrem ed
Ġgener ic
duc es
Ġdesenvolv edor
Ġlog ging
Ġtom b
fl or
Ġtro jan
Ġsus cept
su le
Ġcard i
Ġdestin y
Ġec ho
Ġdescob ertas
Ġband as
bel ie
Ġposition ed
Ġreceb endo
Ġprevent ing
Ġlarg ely
Ġrenew al
Ġhack ers
ih ad
Ġincid Ãªncia
Ġconvenc ional
Ġhidrom assagem
Ġt ies
Ġc ing
as tery
Ġf uma
al ways
Ġb res
Ġb amb
Ġb ella
Ġw ider
Ġh ut
Ġest Ã´m
st ed
Ġch ak
Ġar Ã¡
Ġab c
con form
ang an
Ġconf ira
Ġca ut
Ġsho e
Ġvi ra
Ġnecess itam
Ġvol at
ena id
Ġlocal idade
Ġtom Ã©
Ġindic ando
Ġmem phis
Ġcaf es
Ġpersonaliz aÃ§Ã£o
Ġacad Ã©m
Ġadministr ativa
Ġcomprom issos
Ġefet iva
Ġinvolv ement
Ġload ed
Ġamarillas peru
Ġsor v
Ġafric ana
Ġvulner ability
enter mine
Ġgon z
Ġpuzz les
depend ing
Ġdescobri u
Ġrazo Ã¡veis
Ġdecorr er
Ġcombina Ã§Ãµes
Ġsimplic ity
ĠmuÃ§ulman os
Ġcann ab
Ġmosqu ito
Ġcicl ismo
Ġimpul so
Ġgio vanni
Ġpern ambuco
Ġprefect ure
f res
l on
r Ã©
r ical
Ġd ha
Ġs az
an za
he y
Ġb bc
Ġl ak
Ġv oto
il eno
Ġand rew
iv id
pon ente
Ġconf eder
Ġencontr Ã¡
Ġdef ects
Ġjun ction
Ġmal a
Ġlar eira
Ġcontrol a
Ġorganiz acional
Ġsex ually
Ġappro x
Ġpc b
Ġesper amos
Ġindic ating
Ġhy p
Ġpast el
Ġtransform ed
Ġarr ast
Ġtiver em
Ġcompos ite
noss as
Ġsof rem
Ġhabit at
Ġhabit ual
Ġformul Ã¡rios
Ġcompr adores
Ġlag una
rÃ³ i
poss ui
public ado
Ġinsert ed
Ġappoint ment
Ġinaug ur
equip amento
Ġrecolh idos
desenvolv imento
pesso as
Ġinev it
transl ation
Ġacompan ham
Ġjaqu eta
Ġunauthor ized
b ano
d im
j s
l ou
p Ã§Ãµes
r m
s ystem
Ġa eros
Ġs is
Ġn ederlands
if ax
Ġj erez
Ġpr ud
and es
Ġser p
Ġch ess
per ia
Ġsp ider
Ġmar ÃŃa
Ġz im
Ġsec urities
ira ble
bo ats
Ġneed le
Ġprecis ava
Ġmaior ca
aut o
Ġdefin idas
Ġgame play
Ġrad isson
Ġtransfer Ãªncias
Ġsport ing
Ġjud ici
Ġsn ork
Ġinteress adas
Ġsyn drome
Ġrob ots
Ġessential s
Ġobt ida
Ġkill ing
Ġlit urg
Ġrepar ar
Ġpassword s
Ġpanor Ã¢mica
Ġress urreiÃ§Ã£o
Ġadot ar
Ġacrescent ou
Ġtum or
Ġmetabol ic
techn ical
Ġsurpreend ente
Ġachiev ement
Ġenciclop Ã©dia
d icas
g irl
r ors
s ocial
in ian
Ġo vo
Ġb ento
Ġw ax
id orm
il aÃ§Ã£o
Ġg ur
st ill
Ġbe verage
Ġos sos
ip zig
Ġdis charge
con ect
av o
Ġfe ast
ov Ã¡
pro jeto
Ġmelhor ando
Ġpoder osos
Ġeng aging
Ġprojet ada
Ġbi ology
Ġrad ius
Ġimpress oras
Ġnight life
Ġapp art
Ġamong st
Ġfire place
Ġrespond ed
ĠalcanÃ§ ado
Ã¢nt ica
Ġvene zia
Ġroll s
Ġenh ancing
Ġtun nel
Ġbah Ã¡
Ġdivert ida
Ġcem it
Ġreconstru Ã§Ã£o
ĠmÃ¡g ico
Ġench imento
writ ten
Ġved aÃ§Ã£o
Ġdioc ese
Ġchurras co
Ġxia omi
Ġinterag ir
b ito
Ġp unch
Ġf uso
Ġb ing
Ġn ude
Ġw ides
Ġh oc
ac ot
ver m
og ical
Ġman use
Ġbl an
Ġserv os
Ġra cional
Ġger min
Ġsal do
quer o
Ġsub seq
Ġbec k
Ġdep Ã³sitos
Ġsent ence
Ġwest in
Ġtv s
Ġjour nals
Ġscreen ing
Ġjud ah
Ġguer r
Ġdol or
Ġreconhec idos
Ġoh io
Ġmys ter
Ġaudi Ãªncia
Ġmaravil has
Ġavent uras
Ġtribun ais
Ġdescobri rem
Ġfulfill ed
ĠesterÃ³ ide
lah oma
Ġforgot ten
Ġreabil itaÃ§Ã£o
Ġprophe ts
ĠarÃ¡ bia
x is
Ġt Ã©n
on n
Ġm amm
Ġto ken
est ado
ac ity
oc om
do ors
and ex
Ġch and
per to
vel ocidade
Ġpre para
Ġam ort
Ġcor redor
Ġsa ÃŃdas
Ġz um
Ġval idity
Ġvia ja
Ġext raÃ§Ã£o
ex ist
Ġcur ve
Ġjog ando
Ġcal de
Ġdesign ing
ene gro
Ġhand y
fl ower
Ġcaus ado
Ġfuncion Ã¡rio
Ġbat man
Ã³n icas
Ġdou b
ĠmÃºs culo
Ġorg Ã¢nica
Ġbath tub
Ġgal way
Ġpois on
Ġbab ylon
Ġrecord er
Ġrot ation
Ġcheg am
Ġfair ly
trans m
ĠespaÃ§os os
Ġdivert ir
Ġress usc
Ġfantas ia
situ ated
Ġbranc as
Ġgrate ful
c idades
h appy
j um
y p
Ġd ior
ad Ã©l
Ġh f
Ġh ud
Ġv inha
Ġand re
Ã³ cio
Ġmar bella
Ġass ent
Ġob viamente
ĠestÃ¡ vamos
Ġmed itaÃ§Ã£o
Ġger main
gl obal
Ġprof its
Ġess encialmente
Ġret ard
Ġnort on
Ġtorn Ã¡
Ġplac ing
Ġindic ation
Ġsouth west
Ġhead phones
Ġdepart amentos
Ġminist ros
Ġproced er
Ġdam as
Ġinici antes
Ġrecommend ation
Ġkitch enaid
Ġminim ize
Ġsufici entemente
Ġcontract ors
Ġpropriet ary
Ġbear ings
Ġtraff icking
Ġsag rado
Ġultim ately
Ġcott ages
Ġcock tail
ĠmÃ¡g ica
ĠhidrÃ¡ul ica
ĠhidrÃ¡ul ico
Ġdissert aÃ§Ã£o
Ġkra bi
ĠclÃ¡ us
Ġhelicop ter
Ġintervent ions
Ġbiss au
c f
t ell
t one
Ġde bit
Ġb Ã³nus
Ġw oven
ro yal
Ġh end
Ġh pe
ol id
Ġcon de
Ġth al
Ġpro clam
Ġy o
Ġda va
ci ano
Ġim igr
op a
Ġcons el
Ġgo zo
Ġass inal
Ġup grad
Ġgl ow
iro u
Ġpal ais
Ġcompan heiros
Ġgover ning
Ġperf eiÃ§Ã£o
Ġip v
Ġmor ro
Ġear s
Ġapar entemente
Ġexpect ativa
Ġrap ids
Ġindepend ently
inst it
Ġmicro phone
Ġdistribu idores
Ġprest es
Ġexport ador
Ġcell ular
vid ia
Ġbill ing
Ġassess ed
Ġvic ino
Ġimposs ibilidade
Ġpreserv ar
Ġcoc onut
Ġautonom ous
ĠsÃŃn drome
aloj amentos
Ġquantit ative
imar Ã£es
Ġconqu ista
gir ls
Ġremark able
m ach
Ġd iox
an ish
Ġde vi
Ġf id
Ġb are
om ena
ic ate
Ġw v
em in
Ġse ul
Ġex alt
Ġbe au
Ġac as
Ġor t
Ġap is
Ġar uba
Ġtr Ã¡fico
Ġper me
Ġhe p
Ġro los
Ġrel ie
par ab
Ġdel la
ile y
Ġfin n
Ġsub jet
Ġdist intas
Ġeng rav
Ġregist rados
Ġrom ana
Ġativ as
Ġindic ados
Ġang ol
Ġder rot
Ġconce ption
Ġaz ores
Ġminist ers
Ġdedic ados
Ġrecogn ised
Ġtrack er
pol uiÃ§Ã£o
Ġagrad ecer
Ġcatal un
Ġsd k
aw i
Ġgd p
Ġtes ouro
Ġdelic ate
Ġaffili ate
Ġtig er
Ġpursu ant
Ġseleccion e
calcul ador
Ġcolleg es
Ġnia gara
c b
c Ã¢m
h ong
i q
m orning
t ele
u ous
he ll
at in
Ġl ix
Ġl ava
Ã¡ cias
Ġr b
Ġex pon
ab et
Ġap ocal
Ġdes ist
Ġro berto
Ġmar ques
ru ck
pr ices
Ġz end
Ġmed itation
Ġdist o
Ġvo am
Ġref Ãº
fr ench
Ġdom ing
Ġident ificados
ĠÃ³ dio
Ġativ amente
Ġdeter mina
Ġren nes
Ġresid ual
Ġcorre ction
Ġtransform a
respon s
Ġconect ividade
ĠelÃ©tr icas
Ġdress es
Ġcontroll ing
Ġobt Ã©m
Ġcant on
Ġcorrespond entes
Ġnutri ents
Ġfisc ais
ĠsÃŃt ios
Ġimpos ed
Ġwil der
Ġdiscrimin ation
ĠcÃ³r doba
Ġpercept ÃŃvel
Ġmich igan
ĠestÃ´m ago
m ess
p ela
u Ã©m
w y
Ġp x
Ġin icia
Ġre organ
Ġre install
Ġr al
Ġal mer
Ġac esse
Ġdes pre
Ġcar av
Ġab b
ast es
Ġmon astery
Ġra bat
Ġav ast
Ġdel ine
Ġsal va
fe ed
Ġer os
Ġpass ages
Ġins ol
Ġinv entÃ¡rio
quis ite
Ġneg ativa
Ã³r cio
Ġste phen
Ġsl iding
Ġsing ing
ann on
Ġdestin ados
Ġregul aÃ§Ã£o
fo ot
Ġrecon st
Ġfran ch
lin ed
Ġsatis feitos
Ġic l
Ġcresc endo
yl ene
Ġrelax ante
Ġliter almente
hel lo
Ġcapt urar
Ġreceb imento
Ġmission ary
Ġviv endo
Ġexperim ents
Ġsusp ended
Ġatribu ÃŃdo
Ġprivile ged
Ġharm less
ĠcarÃ¡ cter
Ġsuced ido
Ġasi Ã¡tica
Ġspons ors
Ġdash board
Ġincentiv ar
Ġyach t
Ġenthus ias
Ġctr l
ĠgÃ©n ero
Ġthess alon
a os
i ya
p ict
v ill
Ġ ente
Ġt enh
Ġd ul
Ġp estic
Ġs ind
Ġb ist
Ġin complete
ro ws
Ġl ula
ec idas
Ġal bu
Ġle Ã£o
Ġbr no
ew are
ff s
ja vik
Ġgl uc
arch y
ning uÃ©m
Ġvol te
Ġfar ia
Ġwater front
Ġcat ania
Ġrom anos
Ġanim ated
Ġelev adas
ĠlanÃ§ ada
Ġdedic ation
hol der
Ġoptim um
cal i
Ġarri ving
Ġpropos to
Ġproduz ida
Ġjack pot
Ġmarc adores
Ã³t ipos
Ġengen heiro
Ġham mer
ĠsuÃŃ te
Ġnegoc i
Ġadolesc ente
Ġbak er
Ġsort ed
Ġcampe Ã£o
Ġpray ers
Ġhob by
Ġtob acco
Ġvine yard
Ġbrid ges
Ġreject ed
Ġpertenc em
want ed
Ġmug gy
mÃ© todos
Ġsupermer cado
Ġsynth esis
Ġcolch Ãµes
Ġguin Ã©
Ġbulg Ã¡ria
adÃ©l fia
f est
m em
m emb
n t
s ay
v ania
Ġd adas
Ġf itt
Ġb eng
Ġl endo
Ġv ault
Ġand amento
Ġk de
per form
Ġim igraÃ§Ã£o
res id
ish es
Ġmon key
Ġph rase
Ġfol ders
Ġlike wise
Ġher m
Ġfre io
Ġbre w
Ġcho p
Ġarm adas
Ġmach u
Ġeconom ical
Ġassist indo
met al
Ġobserv atory
Ġcob erto
Ġcoloc ando
Ġaff ection
ush i
Ġconsist Ãªncia
Ġliter ally
Ġcomprom eter
Ġunit Ã¡rio
Ġcompetit ividade
Ġax ial
Ġchamp agne
Ġgradu ates
pap el
Ġbak ery
mond ay
Ġft p
Ġcapit ais
dist Ã¢ncia
Ġtoler Ã¢ncia
ĠdomÃ©st ica
Ġrespir atory
depend endo
Ġinterval os
Ġdesapar ecer
Ġmerch ant
Ġabdom inal
Ġdesemp enh
Ġerg onom
Ġalme ida
Ġpurs ue
f el
n ature
t ando
Ġp ose
Ġp anc
Ġe cts
Ġf Ã£
om ic
ic io
ro tas
ing a
em aker
Ġas ide
Ġon d
Ġon s
Ġad idas
Ġpl c
Ġter emos
Ġsh andong
Ġbr est
Ġinform ou
Ġfil adÃ©lfia
Ġsa ke
Ġnew ton
Ġra par
Ġcr enÃ§a
ps y
Ġer rada
Ġutil ities
Ġsign ing
Ġdu plos
Ġjun gle
Ġbre ed
ua Ã§u
Ġdesenvolv endo
Ġtom ate
Ġrest art
Ġpay s
Ã³n icos
Ġcast ing
Ġsul f
Ġtempor al
Ġanaly st
Ġmi ke
Ġhospital idade
Ġobt idas
Ġcompr idas
Ġacid ental
Ġmachin ing
Ġestabelec imentos
Ġextre mo
Ġdram atic
Ġbrilh antes
Ġencar reg
Ġcere bral
Ġmexic ana
Ġteles cope
accommod aties
ĠprÃ©m ios
Ġobvious ly
Ġrecomp ensa
Ġdepos its
Ġcapp uccino
b res
s yn
z ano
Ġt ic
Ġd ure
Ġd ome
Ġs x
as er
al in
Ġn ativos
Ġw ag
Ġis abel
Ġest amp
st at
Ġat uar
Ġac o
ch am
Ġcomp ound
Ġcan o
Ġle u
Ġme ados
Ġsh rine
Ġte at
Ġlo ire
Ġbu ilder
ex p
ici ar
Ġinf il
Ġbro ker
Ġrem ota
Ã©r g
Ġgre l
Ġcommun ist
Ġcu jas
Ġorganiz ada
ĠsÃ³ cio
Ġfabric s
Ġsignific ativos
Ġmul house
Ġcard inal
Ġhead set
Ġsepar adamente
Ġmicro ondas
add y
Ġfat igue
Ġben idorm
ned y
Ġrock y
Ġtend s
Ġtu rim
Ġproporcion am
Ġalb ufeira
Ġpint uras
Ġfum ar
Ġrol amentos
Ġtoler ance
Ġtras eiro
Ġproib ido
mult i
stad t
Ġvocabul ary
Ġmandar in
Ġparab Ã©ns
Ġpassap orte
Ġinval id
n ada
Ġt ing
Ġm ild
Ġf g
qu el
el ly
Ġcom ecei
ac ao
Ġj en
Ġfr ango
Ġdes emb
se par
Ġnot Ã¡vel
Ġinter l
Ġinter ativo
ang ue
Ġmar inho
Ġag en
Ġag il
ain ed
Ġmod em
ne g
Ġdist or
ene gal
Ġfic amos
Ġperm issÃµes
Ġdep ender
Ġident ifiable
Ġmus h
Ġrefer idos
Ġfa una
Ġrep ente
Ġnome ado
Ġexc ited
Ġexecut ed
Ġevent ualmente
Ġperman entemente
Ġfra ude
Ġposit ivas
Ġescre va
Ġdesfr ute
Ġelement ary
Ġreligios o
Ġasi Ã¡tico
apr enda
Ġdevol uÃ§Ã£o
Ġbungal ows
certific ate
Ġreyk javik
Ġdoz ens
p ia
s r
u ana
Ġt ard
Ġc antar
Ġde volv
as p
Ġf erv
am or
il oche
et ts
ul ia
Ġex cluded
Ã³ leo
Ġk aw
for a
Ġar ist
de iro
art works
Ġpart idos
Ġter rible
Ġsh r
ros a
we bs
Ġvi i
pre ad
Ġsup rimentos
Ġli Ã§Ãµes
Ġdi Ã¡rios
ino is
bo at
Ġsystem atic
ÃŃt es
cul as
Ġste ering
Ġdias clima
Ġtro ops
Ġexecut iva
rodu cts
Ġrecomend ada
Ġbon itas
Ġphys ically
Ġflo ating
Ġconver ting
Ġcul min
Ġconect a
Ġmad ison
Ġreceb idos
ÃŃg ios
Ã¶ r
Ġprofund as
Ġcomprim ido
pod em
Ġreflect s
Ġmosc ou
Ġasc ensÃ£o
Ġretir ada
Ġdesconhec ido
Ġconcess Ã£o
Ġconcess ion
Ġnewspap ers
Ġanth rop
ajud a
ĠdanÃ§ ar
Ġgadget s
Ġcondom ÃŃnio
Ġmista ke
Ġbret anha
Ġevitam ins
parab Ã©ns
j unte
m am
s har
s pring
t z
w at
Ġs eda
ar f
he art
ent u
Ġin und
qu are
Ġcom ics
Ġre aÃ§Ãµes
ol Ã¡
ia c
Ġem s
Ġr ick
Ġy ok
Ġus ern
Ġap agar
Ġar sen
ire mos
Ġbl ues
Ġnew er
Ġcri ativas
Ġsk f
Ġens ina
Ġmap uto
Ġpot encialmente
Ġtro pas
su ite
Ġhard cover
Ġgest ores
Ġdecor ados
Ġprem iere
Ġbrand ing
Ġmight y
mu ch
Ġofficial ly
Ġnar iz
Ġoficial mente
Ġvic inity
quar ta
Ġau ction
Ġah med
Ġcampe Ãµes
Ġphilip pe
Ġmanip ulaÃ§Ã£o
Ġbog ota
Ġwithdra wal
Ġdiscrimin aÃ§Ã£o
sum mer
Ġabaix ar
dav id
f one
w au
Ġt ed
Ġc enas
Ġf ps
Ġf atura
it iva
Ġn b
Ġn ass
el ier
Ġu f
ac Ã§Ã£o
Ġda v
Ġest oril
Ġk han
Ġser emos
Ġes mag
Ġcar ls
Ġab uso
Ġtra uma
Ġcam pon
Ġgu imarÃ£es
Ġmon sters
Ġmon cler
Ġsc rap
Ġca Ã§
Ġtri es
Ġmed iÃ§Ãµes
Ġpers ever
Ġdist urb
Ġint end
rar ed
Ġempres Ã¡rios
be ach
Ġrequ iring
Ġleg almente
Ġconstru ÃŃdos
Ġdiv or
Ġtreat ing
Ġexport ar
Ġcum ul
Ġcrist ian
Ġcic at
Ġbang al
Ġisol ado
anal ysis
Ġvot aÃ§Ã£o
Ġoccup ied
Ġautonom y
Ġinterfer ence
Ġbasket ball
Ġimobili Ã¡rio
Ġnegoti ations
Ġfascin ating
Ġfraud ul
Ġinher it
Ġmaur it
Ġdevot ed
Ġalgorit mo
Ġdiscer n
w on
in depend
Ġc ep
Ġs ult
an ema
Ġn es
ent i
ro la
qu Ãªs
Ġu i
Ġv t
ri um
Ġdo ente
Ġal ertas
ag ra
Ġj usta
Ġen zy
Ġes got
Ġtr it
Ġpre feit
Ġass entos
Ġrec usar
Ġmet ab
ne apolis
quer que
Ġcur sor
Ġdi ant
Ġaqu Ã¡ticos
Ġexperi ente
ath on
Ġreserv ado
Ġcle ans
Ġperf ection
Ġorganiz ing
Ġmuse o
Ġmant Ãªm
Ġacess Ã³rio
Ġmonitor izaÃ§Ã£o
Ġconj unta
Ġperman ecem
Ġbelie vers
Ġarmazen adas
Ġmagn Ã©sio
Ġton gue
Ġsha ft
dist ance
Ġphilos oph
Ġdescar ga
custom er
was her
Ġxvi ii
Ġmonet ary
dou ble
mean while
Ġslo va
Ġmyster ious
c ry
c cion
m ass
m onte
r ick
Ġa in
Ġd ort
Ġp inc
Ġp ilha
on na
Ġe book
Ġre trospect
et to
Ġr v
Ġr ost
Ġr enault
ist or
st aff
Ġac et
Ġser en
Ġna ils
Ġun pre
Ġsp here
Ġnot re
bl ock
Ġfl ix
gu er
Ġco elho
Ġop ponent
Ġcap sule
ras es
Ġger ados
me iras
Ġweb cams
man ufact
orn os
Ġph osph
Ġsel va
tra ins
car bon
Ġescol ares
Ġpublic ou
Ġfal antes
Ġexpl ÃŃcito
Ġregist radas
Ġlocaliz adas
Ġrefer ring
aut om
Ġenvi ando
Ġenc ob
sh irt
Ġcorre ios
Ġgest or
Ġrede fin
Ġaz ule
Ġcoz inhas
Ġmak ers
Ġdesempen har
Ġinvestig ated
Ġanaly zes
Ġguard ian
Ġcut s
Ġbeb Ã©
Ġcul p
Ġtow el
download ing
Ġcup s
Ġswitch ing
Ġclaim ed
Ġtraz endo
categ orias
Ġdiscipl inas
Ġvil am
Ġclip es
Ġolymp us
Ġkid ney
Ġduro bolin
Ġchef es
Ġcorromp ido
Ġmyr tle
Ġcartr idge
m ate
p cion
r uss
v ado
Ġ ria
en ergy
Ġe au
ic ul
Ġv ence
Ã© ter
Ġr enas
Ġr ides
Ġbe ast
and s
Ġch f
Ġdes ast
Ġun ir
op her
Ġcar ries
Ġsp ra
Ġag ar
Ġsh ades
we ek
Ġmod ificada
pr Ã³
Ġconf usÃ£o
Ġcr Ã´nica
Ġpres cription
Ġger ado
hos ped
Ġtechn icians
Ġpat io
Ġvel as
Ġanim ados
Ġlight ning
Ġplac ement
Ġbi ologia
Ġcurr encies
Ġenvironment ally
sc ore
Ġcres ce
sp anish
Ġteach ings
Ġmagn es
Ġstra in
Ġfarm Ã¡cia
Ġdescon tra
Ġcolet adas
cop ic
aqu eles
Ġdiet ary
Ġinfant is
Ġcanc un
Ġpharm acy
recomm ended
reserv as
christ mas
Ġparaf usos
Ġrivers ide
Ġsincron izaÃ§Ã£o
Ġdespert ador
Ġribe irÃ£o
Ġnurem berg
Ġgaul le
g ie
u ke
Ġt Ãºn
Ġc imento
Ġo rel
ar el
Ġm ing
Ġm our
Ġm peg
at an
Ġl iÃ§Ã£o
Ġu z
Ġg is
Ġy am
th ursday
Ġk no
Ġes f
Ġun wanted
Ġpre vail
Ġdis rupt
Ġinter romp
Ġsh out
ach us
ak h
Ġev apor
Ġhotels see
Ġra ces
pa ul
Ġdi odo
car as
Ġjo ints
ron ic
isc op
Ġcob ra
Ġtermin ation
Ġemp ur
Ġescrit or
Ġabord ar
Ġvas to
Ġrod rigo
Ġassin aturas
Ġresp iraÃ§Ã£o
Ġbarb ados
Ġconstit utes
Ġheaven ly
Ġpy ram
Ġoak land
Ġbalcon ies
Ġsemin ars
Ġacceler ation
ĠacadÃªm ica
Ġpublish ers
Ġzh ong
Ġmate us
Ġpatr ick
Ġcomplain ts
Ġsod ium
Ġgorge ous
c ape
d ie
h all
v ou
Ġa ix
Ġp ue
Ġe i
Ġb g
Ġb v
ur ban
Ġdo aÃ§Ã£o
Ġpro ches
Ġno Ã§Ã£o
st yle
Ġbe e
th ren
Ġk ap
Ġk hz
og l
Ġper p
Ġper de
com ponents
gu ei
Ġinform ativo
Ġass ured
ak s
Ġla us
Ġesc ur
Ġcr ush
Ġlo ose
Ġsal om
Ġequ ally
ari ans
Ġir Ã£
[...]
