#version: 0.2 - Trained by `huggingface/tokenizers`
Ġ a
Ġ d
Ġ t
e s
e r
i n
č Ċ
e n
Ġ p
o r
o n
a r
Ġ c
o s
Ġ s
a n
i s
Ġ e
Ġ o
Ġd e
a s
h e
r e
a l
a t
i t
Ġ m
Ġ f
o m
i c
a d
en t
Ġt he
Ġ n
Ġ in
r o
e l
q u
Ġ b
Ã £
Ġ w
o u
Ġa n
Ã£ o
Ã §
e d
i on
a m
i d
i l
Ġo f
in g
Ġt o
Ġ u
e m
Ġan d
Ġ C
Ġ S
Ġ l
r i
Ġ v
es t
Ġc om
r a
e c
o t
Ġ h
Ġ qu
o l
e t
i m
Ã ¡
Ã ©
Ġ P
Ġ A
Ġp ar
Ġ re
i a
Ġe m
u r
u t
s t
a c
Ġ M
i v
Ã§ Ã£o
Ġc on
Ġd o
l e
Ġ g
Ġt h
Ġu m
es s
i r
Ġ B
Ġpar a
u l
Ġp ro
i g
Ġ T
Ġqu e
o d
an t
Ġf or
o c
Ġ y
u n
Ġs e
Ã Ń
Ġ (
at ion
is t
Ġy ou
d o
Ġ R
Ġ E
u s
Ġ D
Ġ H
Ġ I
â Ģ
Ġ r
t er
Ġd a
Ġa s
Ġ is
a g
Ã ª
Ġ F
or t
Ġ L
er s
Ġ 1
Ġa l
a Ã§Ã£o
u m
Ġ 2
Ã ³
c e
v e
Ġ on
Ġs u
i f
a b
it h
Ġ G
a is
ent e
Ġe x
ad e
o w
i z
Ġ est
p l
Ġ -
ad o
a y
Ã µ
Ġw ith
Ġn o
c h
Ãµ es
Ġa t
a p
v er
Ġ N
s e
Ġum a
Ġb e
an d
ec t
c t
l y
Ġ or
Ġs t
Ġ os
Ġ Ã©
p er
Ġ O
Ġ en
Ġp r
h er
h o
c i
Ġ W
Ġ V
Ã§ Ãµes
ent o
o g
on t
Ġs er
ot el
id ade
0 0
Ġth at
u d
ad os
en d
il l
it y
f or
Ġcon t
os t
ad a
Ġf r
v el
Ġa p
en s
ar t
ic a
o p
e g
Ġa c
d u
Ġ it
o b
Ġr es
os s
i p
Ġd es
Ġa re
Ġ J
Ġu s
h t
e w
i o
. .
Ġ Ã
p ort
Ġp or
Ġp er
T he
r an
Ġ j
Ġ U
Ġ es
Ġcom p
Ġyou r
Ġn a
a in
oc Ãª
Ġ âĢ
Ġw h
i al
Ġfr om
a k
i es
Ġ im
Ã¡ ri
at e
as t
u g
d e
h a
for m
Ġo u
e ar
i b
n c
e i
Ġp od
Ġn Ã£o
0 1
i re
a v
Ġb y
Ġm ais
Ġp re
ĠI n
u al
u st
an do
Ġa r
in e
o k
it e
Ġc an
v i
Ġd is
or es
Ġt em
a i
t o
ar d
Ġ 3
Ġa b
iv e
ul t
it o
u re
m ent
Ġv ocÃª
Ġc l
Ġ k
Ġw e
Ġ K
ig ht
n d
Ġa d
Ġn ot
c om
ou r
Ġc h
Ġpar t
s o
Ġd os
or e
al l
n t
Ġp l
u b
r es
c l
p t
Ã º
f er
a ve
Ġcom o
a z
Ġ he
as s
l d
in d
Ġo ut
t h
Ġ ent
nc ia
ĠH otel
r u
ĠS t
Ġth is
an g
er e
p o
Ã§ a
u ra
id e
id o
ion s
ic o
o v
ic e
am ento
o ok
Ġ2 01
Ġm an
if ic
c ess
ag e
Ġw ill
el l
ant e
am ente
ar e
a Ã§Ãµes
Ġin ter
Ġs h
Ġa o
r os
ĠÃ ł
on g
Ġal l
in a
Ã© m
om e
Ġa m
a il
âĢ Ļ
Ġse u
Ġp el
Ġm e
er t
ou t
c o
ĠC h
Ġt ra
Ġ 4
p e
un d
ac h
at ed
id a
ion al
Ġh ave
as e
ab le
ig n
est a
Ġt er
Ġa g
ent es
r am
qu e
p on
or d
Ãª ncia
ic h
i an
Ã© is
Ġs ob
Ġsu a
p ec
r as
Ġqu al
ic al
ad as
or k
ac k
Ã§ o
in t
g u
Ġ 5
r at
Ġin form
Ġl e
Ġre l
r ess
Ġw as
ad or
Ġe l
ac t
at er
el h
Ã ¢
ran s
Ġto d
ot Ã©is
ation s
Ġpod e
er v
r y
Ġ ro
Ġo b
ĠA l
Ġcon s
âĢ Ŀ
Ġsob re
ad es
I n
f f
re e
en ce
iv o
am b
T h
il e
m o
on e
Ġc ar
.. .
l o
m ente
Ġd as
Ġm u
b er
u e
Ġ "
Ġv er
Ġo ur
u p
ou s
Ġs Ã£o
Ġn oss
t her
Ġs o
Ġpro du
an ce
Ġfor m
e x
ĠC om
r ar
r ic
Ġc ol
ag em
ant es
Ġas s
g e
ar k
ess o
is s
ac e
Ġre g
Ġre c
i as
Ġl oc
p os
ĠâĢ ĵ
ri m
Ġwh ich
i k
Ġm od
t e
ĠP ro
Ġa v
Ġf l
ar a
al iz
Ġc or
ent s
ent os
im ento
Ġe v
Ġin st
Ġf o
Ġu n
ak e
Ġs em
) .
is h
esta ur
d it
Ġt rans
im e
Ġin cl
ou nt
Ġp oss
ri g
id ades
Ġh as
b l
Ġh otel
Ġm ore
C om
' s
Ã³ s
e z
Ġg o
ic k
ic as
Ã¡ri o
in do
Ġen c
Ġd if
Ġp e
n e
pl ic
am e
t a
Ġest Ã¡
j a
ĠU n
ing s
x im
ĠD e
ar y
Ġf az
ĠR e
ou ld
Ġm in
Ġd ire
Ġt r
ul ar
on d
ol og
at a
Ġo p
ĠâĢ ľ
) ,
m er
c a
Ġa ut
os e
Ġv is
Ġin t
Ġs ol
Ġ 6
or a
v is
en c
ÃŃ vel
Q u
Ġc o
Ġm elh
Ġcon f
amb Ã©m
es e
ic os
or n
w n
Ã¡ri os
Ġ &
her e
u ro
ter n
d ut
A l
f t
ve is
Ġg r
Ġpro v
il iz
ĠT he
id os
Ġc as
Ġes c
Ã³ ri
Ġser v
Ġn e
Ġ Y
am os
v ol
Ã§ os
ei ro
c is
or s
Ġf e
b al
ant o
ĠA r
ai x
Ġal so
i Ã§Ã£o
it os
Ġthe ir
Ġs a
p res
i e
Ġ 7
Ġent re
Ġb ut
Ġon e
ei ra
n g
Ġfo i
Ġp esso
at iv
y s
Ġt ambÃ©m
ic es
Ġ1 9
ec h
Ġo ther
Ġim p
g ram
re at
Ġm es
em b
Ġit s
Ġ |
Ġu p
ri v
on s
Ġpro cess
S e
ri b
ec e
Ãª s
i x
per i
ub l
Ġw ork
Ġno v
a us
Ġt ime
he c
Ġ 8
Ġan y
r it
am p
l ine
en do
ig h
Ġse us
Ġ Ã¡
Ġm et
Ġpr Ã³
qu er
Ġm as
p ar
Ġc ri
Ġs p
m in
ct ion
Ġab out
Ġu se
Ġf un
iv ers
Ġenc ont
I t
Ġin d
Ġc ent
Ġal g
ar i
Ġm ost
ight s
O s
ĠE st
Ġc ap
n ow
ist a
Ġn os
Ġe le
ĠHotel s
e b
or y
an c
E st
A s
j ect
Ã¡ t
ri p
ĠE x
c re
Ġ1 0
Ġtod os
it ies
Ã ´
ĠM ar
Ġpr es
Ġp ers
Ġ2 00
Ġpro dut
p ri
ĠP l
Ġe qu
ĠP ort
il d
ec ess
pec ial
t al
Ġsu b
er g
Ġn ew
Ġ /
e p
vi ew
A d
il h
Ã§ as
Ġv ia
ant s
in k
Ġthe y
is e
m a
in al
p re
Ã¡ vel
er n
i os
Ġfaz er
g an
it a
Ġ 9
Th is
Ġu t
l es
Ġa f
j et
d er
in o
Ġ Z
er al
el y
y st
Ġg u
c on
at es
p or
ation al
oc k
ar es
en as
Ġtra bal
p an
H otÃ©is
i ra
em ent
Ġs im
Ġpro f
ol l
it u
Ġcom pl
Ġmu ito
Ġn ecess
Ġt e
Ġd ist
ist em
Ġp ass
ĠA p
est e
W e
f e
Ġex t
Ġse g
o y
p h
ic i
Ġ ess
Ġ ra
Ġres ult
en h
ĠC l
at ur
w e
em os
l l
p a
Ġp ol
Ġsu as
Ġn um
Ġw ho
Ġpel o
ra v
Ġthe m
or ld
ad ores
Ġmelh or
Ġv al
Ġc he
Ġut iliz
l and
iv er
Ġpro gram
Ġm ar
Ġa ct
Ġim port
Ġm ed
w s
Ġth ere
r en
a x
Ġre ce
p ect
ik e
Ġp o
Ġar t
or m
c ul
ug h
Ġprodu ct
Ġd ur
Ġinform ation
Ġf il
Ġn as
ĠR es
Ġy ear
id as
ow er
Ġan t
Ġtem po
m an
un do
Ġs ec
Ġv ez
per at
al s
yst em
n ci
an a
i ro
Ġcon st
Ġc am
ĠÃ º
et s
Ġpel a
at o
Ġcl i
Ġex peri
w ay
w are
Ġ 0
ÃŃ t
p ro
Ġde l
Ġ er
bl em
Ġde v
Ġth an
Ġb us
r on
s s
Ġb et
u x
Ã¡ l
ĠS h
ĠA m
Ġh is
Ġc ur
Ġser vi
Ġk m
Ġl iv
ver y
ĠC on
Ġwh en
Ġp h
Ġk now
Y ou
Ġsu p
ab il
Ġs el
m it
Ġne ed
vol v
b o
it es
Ġm ay
Ġs oc
ou nd
Ġre al
it al
Ġequ ip
Ġpers on
ag ens
i ed
ot os
an Ã§a
Ġp rim
im a
Ġb l
qu is
ar m
Ġof f
ĠA ir
1 0
ia is
v en
e f
Ġd ados
Ġpro blem
ĠM an
I f
Ġb est
Ġdes c
Ġm en
Ġs et
Ġin f
Ġb ar
Ġ X
ĠA d
Ġcont ro
Ġinter n
ib le
H otel
ro ugh
W h
2 0
ĠS e
er c
Ġon ly
Ã© s
u c
Ġw ere
Ġa j
ect ion
ÃŃ n
Ġn ear
ir os
op le
rig ht
id ent
r al
iv os
Ġat Ã©
Ġv o
Ġar qu
Ġl ong
c el
Ġa qu
ĠE s
Ġj og
ĠE uro
ci p
E S
Ġ if
Ġincl ud
ag es
ment s
u do
Ġf ind
id er
Ġwe b
E m
Ġres pon
Ġin v
Ġd ata
Ġc ust
Ġf am
Ġpod em
Ġest e
Ġpart ic
n olog
Ġd i
E R
at h
Ġv i
Ġs al
ĠA n
in ha
w o
ÃŃ ci
Ġcompl et
an o
Ġin s
Ġqual quer
V ocÃª
ou se
ubl ic
ÃŃ s
Ġres erv
Ġh otÃ©is
Ġd ia
Ġ2 0
ir st
Ġhe l
P ara
Ġb ec
ol d
c or
5 0
ĠC ar
ra ct
ic s
Ġp es
Ġb ook
an s
Ġa os
Ġo ver
a f
Ġac c
Ġpod er
Ã© ri
il y
ĠprÃ³ xim
ĠP ar
ÃŃ veis
in ess
ic ion
ur s
Ġc re
Ġs ite
in h
ac ion
p ed
el a
Ġout ros
Ġde f
it ar
el s
Ġf ic
ĠT h
Ġth rough
r ist
ur n
ain t
Ġpe ople
ang e
Ġu nd
Ġb u
Ġs ome
Ġdis pon
ra z
vel op
c ion
Ġgr and
Ġqu ando
at her
m os
Ġh um
Ġor gan
Ġpr in
Ã© d
ĠB e
i que
Ġb o
ot h
if e
Ġm ai
Ġbe en
Ġdes ign
ail able
in s
Ġb em
Ġ ir
Ġincl u
Ġinform aÃ§Ãµes
Ġm y
Ġ Q
l t
Ġo per
o ve
he d
Ġp ort
Ġl ike
Ġs ign
Ġse gu
Ġfor n
Ġg ro
00 0
n er
ĠS u
i Ã§Ãµes
ĠF l
du c
ear ch
Ġcomp an
en ci
Ġan os
m e
ĠF ran
in es
Ġd est
Ġpre cis
k s
Ġof er
Ġaj ud
ĠG u
P ro
un s
ĠC ent
Ġg l
Ġsu ch
Ġth ese
Ġhel p
r om
Ġs istem
ĠT rip
nci as
Ġus ed
ĠP h
t on
Ġh igh
ur g
Ġr estaur
Ġc ert
Ġem pres
Ġcom m
it ed
ex t
Ġw ell
ow n
Ġwh at
el o
i er
Ġs ystem
ec er
a ir
Ġpro t
Ġnoss o
Ã© t
Ġpesso as
Ġdes en
Ġm ater
am entos
f ul
Ġst ud
ib il
Ġre m
ĠB ar
Ġmes mo
ĠIn tern
al e
Ġj ust
ĠU S
ig o
r ad
pt ion
Ġre qu
ĠS p
Ġv ari
Ġse e
i or
Ġencont rar
ĠB l
Ġest Ã£o
re d
ĠL e
es c
Ġ +
ĠI s
at ing
Ġ Qu
ĠE l
Ġin to
Ġn eg
o j
g em
r ica
Ġdif fer
it s
I N
ug u
ul o
Ġw orld
un ic
p art
Ġf irst
p ress
Ġdif er
ut ion
Ġap enas
z a
O N
Ġe very
ĠN ew
Ġl a
ar am
Ġf ac
indo ws
ut e
Ġpr om
ent al
our s
Ġw ay
Ġh ist
aus e
le x
Ã¡ g
ou g
vis or
t y
Ġ1 2
Ġa plic
Ġ i
ĠC ont
Ġh ow
Ġat t
A R
A N
Ġund er
ot e
Ġb r
ar g
Ġ1 5
N o
Ã¡ s
l ish
Ġg et
ar ia
Ġm ap
Ġtem perat
Ġp op
ver n
Ġm ake
Ġf ree
u a
Ġf ile
em ber
Ġmai or
Ġg en
ac ional
un t
ĠG o
Ġver y
E x
Ġl ist
Ġe ff
lo ad
Ġform a
Ġw here
ark et
Ġde velop
iz aÃ§Ã£o
e y
E N
p end
2 01
Ġ right
Ġl im
Ġcom e
Ġs om
for e
âĢ ľ
it as
as h
Ad visor
Ġ .
l a
Ã¡ri a
ind a
ĠÃł s
Ġcont in
we en
Ġe u
it ion
Ġis so
s ite
ĠL a
Ġde m
at os
Ġes pecial
O R
view s
en a
Ġcon c
Ġre t
d a
Ġaf ter
Ġcomp ut
Ġp ont
c um
ic t
Ġc ada
Ġp os
Ġon de
Ġp riv
Ġs c
n ing
oll ow
Ġav ailable
Ġt ip
Ġv ol
Ġ1 8
Ġm undo
ft ware
in as
Ġon line
Ġre f
Ġ ide
iv a
Ġtr ad
Ġa ir
ĠC ol
al ia
Â °
Ġbet ween
Ãª ncias
i Ã£o
Ġp a
iz e
com m
u Ã§Ã£o
Ġv ers
p s
Ġan al
A T
av or
Ġb el
Ġgo od
ras il
v a
Ġtrabal ho
as ed
Ġac cess
ĠW indows
Ġprodut os
ro und
Ġesc ol
ĠC o
v ent
Ġm ot
Ġ201 7
1 2
od os
Ġt wo
Ġpl an
ĠP a
ĠA nd
F or
Ġl ug
ri a
ĠEuro pe
ĠE ng
Ġh er
Ã³ g
Ġad d
Ġm ade
Ġs m
Ġsh ould
av a
end er
Ġe t
ĠG r
at ure
ĠE m
Ġfl ights
Ġs ur
Ġaut om
Ġh ad
ĠS an
Ġyear s
pl o
Ġman y
Ġdo wn
ul l
3 0
ur es
Ġmin ut
ook ing
Ġprov id
Ġw ant
Ġv ida
ent a
O S
Ġp ublic
Ġg ar
Ġh Ã¡
Ġt ech
S t
ĠO r
Ġc ount
ad r
Ġnoss os
el d
om s
re a
ĠA g
Ã¢ ncia
1 1
pl es
Ġtod as
ĠJ an
Ġ >
D e
re as
ac ter
Ġhotel s
iss ion
v ers
Ġloc al
i ent
du st
Ġpart e
Ġprin cip
rav Ã©s
u z
Ġdiffer ent
Ġqual idade
re m
ĠB r
b e
Ãª m
us s
Ġf in
p en
Ġpl ay
us e
Ġcon d
on a
Ġsh ow
Ġalg um
re g
Ġcon hec
t en
g l
Ġw ould
Ġen d
O n
Ġb ase
ab or
Ġb an
Ġ [
Ġt est
Ġ3 0
Ġcom b
Ġqu art
end a
ĠS er
ist as
ĠA c
Ã ī
ĠR estaur
ĠTrip Advisor
Ġm ont
Ġen g
Ġf ollow
Ġcons ider
l et
ĠT ra
h ip
Hotel s
Ġe con
ĠC ity
Ġdo cum
Ġda y
ĠC as
Ġpro c
o ol
Ġqu est
i am
1 9
Ġap res
Ġser Ã¡
ÃŃ st
I S
gu a
al th
Ġc al
Ġcust om
Ġpes quis
Ġg er
ĠN ov
Ġt orn
ent ar
Ġgrand e
Ġf er
Ġde t
ĠH e
oc i
d ade
Ġfor am
am es
Ã¢ m
pec ific
Ġf avor
ĠI m
Ġre aliz
Ġ1 00
Ġdire ct
ÃŃ l
o od
Ġd u
en g
is mo
e ver
Ġarqu ivo
h ar
Ġc idade
t le
Ġmater ial
at ch
re t
Ġ ident
Ġam b
Ġat ravÃ©s
ĠP r
Ġev en
od o
r ut
Ġn ow
Ġb ro
el e
Ã© c
Ġest a
Ġl eg
A S
Ġa inda
Ġf al
Ġe as
ĠC an
Ġconst ru
Ġdesen volv
u f
p le
Ġh or
in ho
Ġst ay
Ġproduct s
Ġen erg
an Ã§
Ġes p
P or
ost a
Ġnoss a
Ġserv ice
og ra
Ġpa ÃŃs
dit ion
Ġs k
Ġqu er
Ġ Â
Ġsistem a
ar ch
n ess
Ġsup port
at ive
Ġt ake
t ing
Ġs itu
Ġdis c
Ã³ri a
Ġpartic ip
Ġo wn
at ic
E D
ĠS ant
Ãº mer
Ġinv est
h es
a h
Ġap plic
ri end
i um
Ġc ab
ou th
Ġto do
Ġde ve
ic ial
A L
Ġpro jet
Ġreg ist
Ġex ist
Ġvia gem
emb ro
Ġb ack
Ġt y
Ġt ec
R estaur
ar s
Ġservi Ã§os
Ġs pe
raz il
Ġd ias
ĠM in
Ġc ult
ir m
Ġrespon s
Ġ $
Ġel es
Ġop en
Ġweb site
R e
port e
Ġc r
Ġs ent
ci al
ar Ã¡
po is
H ow
ce pt
iv id
Ġmelh ores
Ġto tal
Ġper to
Ġh om
N Ã£o
Ġl ife
is c
pos it
Ġso ftware
l ess
Ġo pt
ĠD es
ri es
Ġv ai
ĠB rasil
Ġs ab
Ġman ual
A t
Ġdur ante
Ġch ild
Ġj Ã¡
he iro
Ġs in
Ġc at
Ġpart ir
ur ch
Ġcontro l
pl y
Ġre fer
Ġg reat
ĠA t
ĠF or
im es
Ġbus iness
Ġof fer
Ġfac il
et y
du ct
ac es
ĠprÃ³xim os
ard s
Ġm om
l as
Ġm arket
c il
Ġp ed
ect ed
an Ã§as
et e
Ġor ig
Ġ1 6
am a
ak ing
el f
c er
Ã¡ veis
b le
it or
w ork
Ã³ri o
Ġm a
ĠR io
Ġth en
ica Ã§Ãµes
c k
ĠT er
Ã³ r
Ġm il
Ġe f
al k
i ar
Ġpo int
Ġc aus
Ġav alia
Ã´ n
Ġm Ã©d
Ġ1 1
ir as
Ã³ ci
is m
Ġwith out
Ġsoc ial
I C
o f
Ġloc aliz
Ġus u
Ġen s
ot o
Ġh and
Ġinst al
Ġp Ã¡g
Ġpe qu
Ġprodut o
Ġ â
Ġg ra
ig os
Ġvi ew
c es
Ġ1 4
un g
ess e
ĠP al
ĠG od
Ġpro per
Ġp al
Ġvo os
C on
Ġus ing
rib u
Ġh ere
Ġpl ace
Ġst art
Ġth ose
ĠE n
Ġ2 4
Ġex pl
Ġint eg
ur anÃ§a
ĠP ol
Ã¡ri as
urs os
ort e
Ġm Ã¡
Ġbec ause
Com o
n a
et a
ual iz
Ġvis it
er y
Ġe ach
at or
Ġtra vel
Ġo c
T here
i ente
Ġpro ject
Ãº bl
v ir
l ed
ĠDe us
Ġf ut
Ġcol l
ur al
ĠP ark
Ġass im
g et
Ġcli entes
Ġh im
Ġs ame
ĠJ o
Ġper f
A nd
ĠBe ach
ĠAr t
C l
Ġb aix
Ġact iv
s c
Ġqual ity
ĠB razil
Ġf re
Ġn Ã³s
Ġall ow
i eld
ĠprÃ³ pri
Ġcons um
a ut
oug h
Ġserv ices
Ġcas a
Â º
Ġc ity
ĠCh ina
ĠS Ã£o
atur al
Ġc ho
ĠUn ivers
hec k
Ġse arch
Ġm on
il le
enc y
1 5
rat u
Ġar m
Ġorgan iz
Ġest ab
T o
Ġ x
Ġout ras
od e
ĠW h
ter s
Ġvez es
Ġper form
u es
Ġor der
v al
est s
im entos
e j
C h
ab ric
Ġs Ã³
at ivo
Ġf Ã¡
Ġes pec
Ġservi Ã§o
Ġdo es
og o
R es
ĠA b
ri r
ĠA s
Ġcl ass
cl us
ĠF ree
r ada
Ġalg uns
ÃŃci o
Ġfun cion
p r
Ġaqu i
Ġf inal
ort h
1 8
ir t
le ase
Ġd iz
ĠC al
Ġd ig
1 6
A n
Ã¡ p
g a
Ġm ust
g ar
ĠâĢ Ķ
1 4
Ġag ain
ĠP re
Ġhum an
Ġp at
ĠP er
Ġv el
Ã´ m
Al l
ad y
ug al
Ġm ult
ĠÃº lt
ĠO n
ol e
ot her
Ġgo vern
' t
et h
Ġl it
Ġac esso
r ent
Ġse ja
Ġf ound
Ã© r
ĠV al
Ġr est
Ġl ink
or do
ativ a
Ġin cre
ific aÃ§Ã£o
Ġ '
Ġm at
Ġus o
is a
ru ct
Ġcon n
o x
i u
Ġant es
f ort
Ġm erc
Ġan o
ac idade
ÃŃ f
Ġre du
Ġpesquis a
ol id
ĠS al
ra Ã§Ã£o
Ġb en
ĠJan eiro
Ġp ou
od y
ar ge
Ġp ost
Ġbe fore
ay s
Ġag ora
Est e
Ġwith in
Ġc ost
Ġd om
Ġs he
ol a
g o
ang u
Ġsu per
E C
port un
Ġsem pre
2 5
m ail
agem ent
I T
Ġ1 3
Ġr is
Ġre pres
Ġm ov
ĠR eg
h os
ĠIn n
Ġb re
Ġext ens
r ado
r ation
Ġpre Ã§os
Ġprof ess
in ing
ho p
Ġt rat
gl Ãªs
Ġap ro
n ica
Ġnum ber
U S
Ġ2 5
ĠS erv
Ġdo is
E L
Ġc er
Ġp ower
Ġt udo
Ġn Ãºmer
am s
em ente
ĠIn st
c ar
ÃŃ d
Ġ201 9
h as
Ġforn ec
Ġt en
ĠC or
Ġap p
Ġrequ ire
e ja
ĠA mer
v es
Ġda ys
en Ã§a
Ġde ter
ĠR o
Ġpro pri
Ġgro up
Ġin dust
ÃŃ de
Ġim pl
Ġc le
Ġ z
ĠS a
Ġet c
Ġc art
or ies
Ġan im
Ġf und
Ġap art
Ġcont act
ĠÃ ģ
Ġempres a
Ġc u
iss Ã£o
ĠV i
Ġinclud ing
O M
Ġex em
e k
m s
enc es
Ġdifer entes
Ġw ater
Ġcomp et
Ġst and
og le
Ġ1 7
A C
om b
an k
Ġre views
Ġg ru
Ġf act
ort o
ak es
ĠEng lish
Ġus ar
Ġdef in
Ġperson al
Ġde c
Ġoff ers
Ġeff ect
Ġap pro
es us
T odos
ĠA ss
Ġin c
Ġat iv
Ġprov ide
un to
2 4
Ġc ould
Ġcomp ar
p ing
Ġob jet
Ġpop ular
Ġle ad
Ġ5 0
ed i
et er
as on
ord ing
or ia
Ġexperi ence
min ist
Ġe duc
Ġneg Ã³ci
Ġle v
Ġdur ing
Ġare a
ĠPort ugal
iz ed
Ġseg uranÃ§a
if y
Ġmen os
Ġa um
ĠUn ited
Ġle vel
Ã³ri os
el ho
Ãº de
Ġpres ent
Ġsign ific
ap t
ont e
way s
F l
Ġad v
Ġsa id
ĠT V
ul a
Ġinst all
U m
Ġbe ing
Ġqu ais
ob al
Ġrel aÃ§Ã£o
1 3
de qu
end ed
Ã³ d
Ġer a
ol s
ed ade
ud e
Ġc all
Ġposs ÃŃvel
Ġre d
ur y
a u
ĠA nt
Ġper mit
p ut
ĠG er
Ġpr ess
i qu
Ġg eral
ĠV er
ur as
W ith
Ġcon se
Ġgar ant
Ġdown load
Ġex c
Ġp ot
6 0
Ġout ro
Ġt om
im os
am an
ĠC am
Ġm us
im o
Ġper m
ain s
s erv
Ġprocess o
Ĥ ¬
Ġm ud
en se
Ġn ome
Ġm ant
ol Ã³g
uf act
ĠAir port
A D
A M
ĠM ic
P l
ĠÃ¡ gua
ost o
ir d
at s
ĠAp art
vir on
M as
Ġt Ãªm
ĠI t
ical ly
ĠD ire
S h
r um
Ġc ir
Ġlug ar
Ġass oci
Ġapres ent
as se
A p
Ġg ratu
oc idade
Ġes per
Ġdes de
Ġal ta
ail s
Ġcompan y
Ġ201 6
ĠÃ¡ rea
it ch
Ġd iv
Ġpor que
Ġcas o
Ġap Ã³s
Ġtip o
ro p
n ico
ĠPa ulo
dit ions
Ġac ordo
Ġcontin u
Ġp ap
on es
Ġl ight
ual ly
Ġa Ã©
Ã¡t ica
p ens
en o
Ġt ax
Ġche ap
e Ãº
d ay
Ġb ot
an n
b r
Ġr Ã¡p
Ġs pecial
qu anto
Ġs ens
et work
Ġind ic
ver t
Ġnov o
ĠG l
Ġd ent
Ġp ra
Ġs ites
if ied
Ġl ig
Ġde pois
ĠM ed
Ġsm all
ut ions
abil idade
Ġmont h
Ġcont ra
Ġind ivid
A Y
U R
z e
ar o
Ġwh ile
Ġdis posit
Ġen vi
Ġofer ece
Ġben ef
Ġexperi Ãªncia
ul her
. âĢĿ
b urg
Ġab le
C ont
Wh en
ĠGo ogle
ibil idade
ist s
Ġs at
h am
u ais
Ġof ert
Ġme io
Ġposs ible
Ġad icion
om a
esc ri
Ġecon om
ĠPl ay
Ġtemperat ura
Ġhe alth
ĠCh rist
c ia
Ġrel acion
ĠAl l
ĠW est
ura Ã§Ã£o
ĠnÃºmer o
Ġcor re
Ġfollow ing
en Ã§Ã£o
Ġl ast
ide o
ĠU s
ĠpÃ¡g ina
Ġpre par
Ġspe ed
Ġse x
Ġpr ices
ĠPar is
an e
Ġsec ond
1 7
Ġm ain
Ġto p
Ġn atural
atur es
Ġal t
Ġpel os
Ġ Ã³
Ġd ivers
Ġb oth
is hed
ĠJ esus
Ġb as
8 0
Â ®
âĢ ¦
u i
Ġde ix
ist o
id es
Ġfic ar
Ġp Ãºbl
ook ies
Ġm emb
Ġex ec
Ġo l
ĠN o
and a
Ġtemperat ure
nolog y
Ġro om
ĠW eb
Ġimport ant
Ġa dequ
os a
ap e
Ġ19 9
Ġre com
Ġmod ern
abil ity
ter ior
2 00
Ġes pa
Ġprim eiro
Ġdesenvolv imento
Ġk e
Ġimp ro
Ġest ud
ne y
ur ity
H e
comm od
Ġchild ren
amp le
ch ool
ro w
ĠC at
Ġel a
Ġa round
Ġvel ocidade
E M
U ma
Ġg iv
Ġcont eÃº
t s
E u
Ġf otos
u k
y m
il ity
Ġest ar
Ã¡ f
pl ay
Ġexem plo
Ġcont a
Ġinclu indo
Ġcent ro
he ap
ap a
Ġs l
el ec
ill a
I D
r ito
ĠD ec
Ġmu ch
ĠfÃ¡ cil
Ġbu ild
b y
Ġh av
Ġp ag
n et
A K
E T
viron ment
âĢĿ ,
st and
ĠRestaur ants
ul ho
Ġprincip al
E nt
Ġl ear
Ãº s
oj e
Ġt Ã©c
Ġprogram a
ĠA ut
Ġcont ent
h or
Ġre ad
Ġmod el
Ġpartic ular
Ġv e
Ġfl ight
Ġminut os
E s
ĠQ ual
om en
2 2
Ġex press
Ġp age
) :
Ġacc ount
Ġcon v
ĠI tal
Ġavalia Ã§Ãµes
ĠL ond
el es
Ġjog o
ord s
Ġe d
Ġres earch
Ġp ac
Ġd on
ĠW e
ĠM od
ir it
Ġt al
Ġf abric
Ġf riend
ÃŃl ia
Ġn orm
Ġquart os
D es
b it
ĠS k
Ġpro p
ĠIn d
il o
ra g
ub e
Ġ201 8
E n
Ġcond iÃ§Ãµes
Ġd in
ou d
Ġl ook
Ġconf ig
A r
as ter
Ġp ast
I P
al a
ic an
Ġme u
Wh at
Ġac om
Ġel ect
Ġal ter
t ed
ĠR ec
Ġtr Ãªs
Ġpol ÃŃt
I s
Ġh ome
ĠW i
Ġf ull
Ġcome Ã§
Ġth ree
ĠG en
Ġs pecific
ĠS ol
B ut
Ġdu as
Ã³ n
Ġdispon ÃŃvel
ĠC ons
Ġver dade
Ã£ os
Ġf oc
ativ os
em ents
ud io
port s
ĠP art
vis Ã£o
il i
ĠH otÃ©is
Ġin de
os p
Ġrepres ent
Ġex per
Ġsegu int
er op
ĠB u
er to
A P
c os
Ġc are
Ġh ost
Ġqu ant
ĠL is
ĠCom m
Ġpont o
i Ãµes
Ġm ilh
Ġinf l
er a
c as
Ġcomb in
Ġt imes
Ġop in
pan h
Ġch am
et ro
Ġsh all
Ġfer ram
4 0
Ġse ver
ĠI N
Ġloc ated
Ġprodu Ã§Ã£o
ĠM ont
Ġdispon ÃŃveis
Ġsim ples
Ġh ap
o os
ĠP C
Ġstud y
m m
ent ial
Ã³ l
ĠIn form
ĠIntern et
L oc
ĠO s
Ġdevelop ment
N a
Ġn ÃŃvel
ĠB us
Ġde pend
c le
aix o
Ġimp ress
Ġob ject
Ġdire t
Ġac ess
i ous
2 3
b ook
res c
Ġpre Ã§o
E le
id ence
Ġest re
Ġtec nolog
ri ve
Qu ando
ed e
ĠRes ort
Ġcount ry
D o
Ġch ange
Ġprim eira
Ġg ame
Ġmap a
est Ã£o
o ver
b on
ific ar
Ġ4 0
ĠT rans
ot s
le y
cul o
ĠM a
Ġdeter min
Ġide al
Ġex pect
n ers
ufact ur
Ġf a
ent Ã¡rios
aix a
Ġb om
Ġmin ha
Ġl og
l ing
e e
ĠH ome
ĠS c
Ġcri anÃ§as
Ġrestaur antes
im ent
F ind
Ġa ch
Ġent Ã£o
i od
ual mente
ĠaÃ© reas
qu i
nc ont
re et
Ġmerc ado
R O
on st
Ġth ings
Ġdis so
Ġus er
ez a
" ,
F i
Ġn ame
Ġcons ult
Ġempres as
Ġcon ditions
Ġaut or
Ġ il
ĠIn t
d om
j o
ĠY ou
Ġal ways
" .
Ġt el
is as
ĠM il
end e
Ġt re
Ġmom ento
l os
Ġc Ã©
Ġdent ro
v ed
ic le
ĠEst ados
Ġde cis
Est a
Ġl o
Ġv ÃŃde
i entes
ĠS ec
Ġl ib
um a
acion ais
an ha
Ġsu g
Ġpal av
ÃŃ m
Ġap ar
Ġd este
âĢĿ .
Ġcl ick
v ille
in os
Ġc our
ĠS up
ĠA ng
ĠM use
Ġsel ec
. ,
n os
Ġch ar
p es
ĠO ut
Ġpr ice
it aÃ§Ã£o
O ur
Ġmu itos
Ġeas y
Ġm ob
Ġl ove
Ġp ay
Ġan other
ri pt
Ġnov a
Ġm ach
Ġem b
Ġresult ados
th ing
Ġresult s
ro om
Ġme et
Ġch ang
Ġproblem as
Ġp ract
Ġtem por
ri al
Ġre comm
ĠGr and
c ed
Ġprecis a
Ġt ab
Ġres p
e el
S T
Ġm ulher
Ġhor as
er d
Ġd id
ĠA f
Ġinform aÃ§Ã£o
Ġm al
Ġob t
fe ito
Ġde tal
ag o
Ġst at
Ġtrans fer
Ġpesso a
et o
Ġcom un
w ard
j oy
ĠS outh
Ġf im
Ġres ol
Ġb ased
Ġm ens
ĠSt ates
ĠTra vel
aman ho
Ġass ist
um e
AY AK
er ve
ul ation
Ġcur rent
o ft
ĠF il
Ġter ra
ul aÃ§Ã£o
g re
Ġm or
er o
Ġess e
Ġh ard
Ġajud ar
Ġalgum as
Ġtod a
Ġf ew
ogra ph
Ġsub st
ĠB o
Ã¡t is
Ġc ase
ĠP ra
Ġun ivers
Ġfil es
ĠS w
ect or
Ġt ar
ĠH ost
R ec
Ġapplic ation
olid ay
ĠIntern ational
Ġsa Ãºde
Ġfo od
us h
im in
ĠM ac
U s
Ġob ter
ĠnegÃ³ci os
Ġeng ine
Ġap r
und a
Ġorig inal
j e
A c
Ã¡l ise
Ġprojet o
Ġval or
Ġres ist
ĠM on
Ġen quanto
er ing
ro id
Ġd ess
P h
t he
ÃŃ p
ĠH ouse
Ġmu itas
ĠJ un
Ġn ature
Ã³ p
Ã ¼
Ġhe art
at ely
Ġc el
ur ar
Ġdes em
ĠSant a
pl oy
ou n
ig a
Ġb at
ĠA ust
Ġb ed
ĠconteÃº do
Ġit em
Ġcat eg
y n
Ġex cel
e or
Ġprofess ional
Ġbet ter
Ġb ody
ĠM o
Ġl ow
ent emente
u Ã§Ãµes
un ci
r ing
Ġob serv
Ġa way
Ġtech n
g ens
r or
Ġmod o
Ġst ill
ver age
led ge
ĠD is
s w
Ġperm ite
Ġprodu ction
f ic
g ress
h od
ĠâĢ ĺ
The y
Ġcomput er
Ġgen er
ĠA v
M ais
Ġam ong
Ġmot or
ĠP ara
- -
Ġp ens
Ġen vironment
Ġtrans port
anc es
r il
Ġliv ros
ibil ity
at ura
ce iros
I ON
Ġm aint
Ġcom er
Ġimport ante
ĠIs land
2 1
s h
Ġfre qu
Ġcri ar
ativ as
. "
Ġre le
Ġt ext
Ġvi ol
Ġp adr
Ġdis se
Ġinter est
Ġper ÃŃ
ac y
o per
Ġfam ily
Ġcomput ador
ĠM e
Ġt ur
ĠW orld
Ġad minist
Ġgl obal
co ver
Ġofer ec
Ġt ro
as es
Ġpro te
op e
ÃŃ do
Ġposs a
I L
Ġw ind
enh or
ĠM al
at as
âĢ ¢
o int
Ġimpl ement
Ġs ay
Ġcol oc
Ġenerg ia
g in
Ġcon ven
Ġper g
ĠCom p
and s
enci al
Ġcre ate
it ive
ir l
Ġrec ursos
Ġagain st
Ġnov os
Ġr en
Ġde cor
ĠB est
ic y
um in
Ġm Ãºs
r ong
in ter
f ace
Ġindivid ual
Ġn etwork
Ġin glÃªs
Ġl et
ĠD o
Ġ201 5
Ġis s
Ġus ers
Ġp ack
Ġsin ce
ia Ã§Ã£o
Ġc amp
Ã©ri as
own load
Ġcomp on
ĠpaÃŃs es
ast ic
ain ed
I M
Ġfe atures
Ġdev ice
ot a
th ers
il a
y d
Ġ6 0
Ã¡ st
Ġ2 2
Ġd er
Ġqu ick
Ġbook s
Ġlong o
f ast
ĠP riv
Ġp ri
ĠE U
ĠY ork
ĠD el
Ġex clus
Ġwe ather
iv as
t ar
ĠG re
qu ina
ours es
Ġro oms
M an
Ġe dit
Ġg re
Ġdig ital
os o
angu age
Ġv Ã¡rios
Ġ201 2
gu e
a w
ĠPort o
Ġp ur
Ġno ite
erop orto
I m
id s
Ġâ Ĥ¬
Ġc ookies
Ġcon vers
il ar
at ro
ĠT o
Ġre de
v o
Ã¡l ia
Ġse par
Ġ2 3
ĠK ing
Restaur antes
Ġap o
Ġc heck
Ġd r
Ġke ep
Ġfe el
Ġess a
S earch
Ġminut es
l he
re ady
ut o
Ġth ink
ific ation
ĠUn idos
Ġnecess ary
ÃŃst icas
Ġgru po
Ġl ess
b a
ys is
Ġbar atos
inh as
Ġrel ated
ĠF re
ĠB ooking
Ġty pe
ĠEurope an
Ġele v
Ġacc ording
ĠP e
ĠO ff
al ly
Ġmaior ia
Ġm ass
Al Ã©m
Ġperform ance
Ġd esta
ent ly
ĠPro gram
2 8
Ã¢ n
ri o
Ġ2 1
on y
Ġg ive
cess o
2 6
EN T
Ġadd ress
n ot
cre en
L e
one y
Ġchar acter
Fl ights
ip s
Ġmet hod
Ġpl ant
2 7
u v
ov o
Ġdire ito
Ġcon j
ĠT em
Ġc ard
Ãº st
od a
ro l
Ġm em
Ġdist Ã¢ncia
ĠGer man
Ġu r
ĠC ap
iv al
Ġ201 4
es a
Ġcom fort
Ġt rip
Ġc in
at Ã³rio
Ġex p
Ġm ag
Ġtrans form
Ġpou co
Ġent anto
Ġem ail
elh ores
P S
re am
Ġl ista
eg et
p id
ĠS aint
Ġor d
Ġsever al
u el
f o
Ġunder stand
c ional
Ġl arge
Ġh ouse
Ġpre fer
Ġpoder Ã¡
Ġo ld
Ġde d
Ã© g
Ġout ra
Ġproblem a
Ġsu c
Ġh ora
Ġl he
Ġman agement
og os
Ġusu Ã¡rios
Ġbu y
Ġm ic
ĠV is
ĠL oc
Ġt our
Ġnecess Ã¡rio
h n
est er
Ġsu st
A b
As s
Ġl ado
Ġv ento
Ġman eira
Ġselec ion
Ġs endo
Ġarqu ivos
b or
ak fast
iz ar
Ġinter ess
ad ia
y l
et r
Ġlug ares
ill ion
ex to
Ġs ing
Ġper man
P re
Ġres pect
ing u
Ġc op
ĠT ur
Ġme as
Ġsat is
Ġcar acter
Ġcount ries
Ġev ent
Ġh oje
Ġal ready
Ġn ight
Ġgro w
ĠT e
Ġrecom end
Ġn ext
ĠC ast
In form
Ġh ours
Ġal Ã©m
Ġbe aut
ogra f
Ġare as
Ġhe ad
Ġcar ro
Ġintern ational
ĠB er
Ġex ample
Ġreserv a
Ġprovid es
B est
Ġt Ã£o
9 9
Ġc rit
ĠE d
i ers
Ġs ido
Ġc ob
ĠTh is
Ġn enh
Ġme ans
N Ã³s
ĠI I
en e
ast e
Ġab s
f eira
Ġdel iver
A f
Ġvers Ã£o
Ġt reat
j am
Ġn este
qu es
un ch
Ġcomp rar
ard en
Ġusu Ã¡rio
Ġsh ort
ĠP an
Ġ id
Ġc ourses
ĠM y
ĠNov a
7 0
Ġs w
ĠG ro
r oss
Ġbo a
Ġup d
B us
1 00
ĠAnd roid
Ġte am
Ġespec ÃŃf
pen ho
peri or
O L
ent as
ĠPort ugu
ĠB el
Ãª n
he t
l in
ib us
z ir
Ġcontro le
il t
Ġper iod
ere Ã§o
Ġnov as
E ncont
Ġl ux
com e
ĠperÃŃ odo
ĠJ ap
ra el
im ens
Ġcompan ies
Ġe ar
ĠS o
ĠT or
Restaur ants
Ġ201 3
R E
Ġna ve
Ġrece ber
Ġcon ce
ĠB re
Ġest ava
Ġconc ern
Ġwork s
Ġpl aces
C ar
Ġcomm un
Ġprincip ais
cul os
ĠSer vi
f l
Ġen joy
ent ion
Ġrec on
Ġpo is
Ġf ica
ĠPro duct
Ġl ive
Ġa ce
uc k
Ġre view
Ġt urn
Ġl uz
Ġest udo
T ra
Ġinclud e
ĠEs c
Ġapp ear
Ġajud a
How ever
Ġth ird
ĠD E
olog ia
is ing
all s
ĠM ore
Ġmarket ing
M ore
Ġf ix
Ġpro xim
Ġperson aliz
B e
Ġm ess
Ġv Ã¡rias
Ġl arg
Ġneed s
Ġs on
Ġdesc ob
if ica
Ġ2 8
G u
ĠB ay
r ados
Ġco isas
A g
Ġf ield
ĠR ent
Ġmon itor
D is
Ġb al
ĠS m
n o
ĠR el
Ġcol or
en os
in ation
Ġr un
ĠUnivers ity
Ġdev em
a ff
m as
ur ing
Ġcent ral
ÃŃn io
V er
pos iÃ§Ã£o
et al
ib a
Ġser Ã£o
Ġarm az
Ġ2 7
id or
Ġnum a
in ce
Ġ ig
for d
ra w
Ġwork ing
c ent
ĠT ech
dit ional
A o
vi ous
Ġpesso ais
Ġs ac
O T
n ibus
Ġexec ut
V oos
Ġt it
Ġknow ledge
Ġac commod
Ġliv re
Ġg rav
Ġcustom ers
ian Ã§a
Ġl ic
C as
ro du
Ġtech nology
Ġext ra
Ġloc ais
rib ut
ĠV en
ont o
Ġamb iente
Ġs Ã©ri
ip o
Ġtra in
Ġn em
ĠS ul
ĠIn ter
Ġaut hor
Ġcomp re
an os
D F
Ġinfl u
Ġcor po
Ġk ey
Ġpur pos
U n
Ġd ar
Ġcour se
Ġst ep
ot t
ac a
ill s
Ġl and
Ġor g
Ġcap acidade
Th ese
Ġtecnolog ia
3 5
u per
ĠS enhor
ace book
ou ch
Ġac ont
Ġperf ect
Ġr ad
if ul
Ġpont os
I A
ian o
P ort
Ġespa Ã§o
y le
Ġprovid ed
2 9
Ġm o
Ġcomp lex
Ġop portun
ÃŃ da
ĠJ ul
Ġan Ã¡lise
Ġsub ject
v est
ĠCas a
ci o
Ġproc ed
Ġcert ain
Ġt ick
er ia
our ces
it ation
ian a
Ġdire itos
Ġcl ose
Ġinde pend
Ġsu f
rat eg
Ġcap ital
S o
T em
ri ed
ers on
Ġ2 6
Ġde al
Ġmes es
Ġr ange
ĠK AYAK
Ġhom em
Ġab rir
Ġlit tle
Ġm Ã©t
Ġam pl
O b
Ġest iver
Ġre port
f r
Ġbel ie
id ente
Ġestre las
Ġim m
int a
Ġt ry
ac to
oc a
Ġsec urity
ur t
Ġdes ej
Se e
Ġph otos
Ġfam ÃŃlia
Th ings
Ġloc ation
Ġsistem as
Ġqu em
u ri
ou l
4 5
Ġb ran
en n
le o
Ġc reat
ĠCent er
id d
Ġm Ã£o
Ġl ooking
ed ores
Ġsystem s
ĠP ric
ĠS im
Ġqu anto
Ġdesem penho
Ġw he
get her
ric t
Ġto gether
ĠH ot
ed or
.. ..
S O
Ġlear n
Ã ĩ
s elf
Ġenerg y
Ġde cl
ĠBl ack
Ġgen eral
Ġnoss as
Ġbel ow
am ent
ĠN orth
cel ona
I V
Ġhist Ã³ria
ĠB ro
Ġn on
Ġop Ã§Ãµes
ĠR ed
ad amente
ĠprÃ³xim o
l ines
Ġab aixo
Ġcho ose
Ġtrabal h
Ġinvest ig
ul as
ĠC ab
Com p
Ġw alk
m b
Ġcor aÃ§Ã£o
j or
iv es
Ġa ff
as c
Ġsup pl
Ġt iver
Ġdocum ent
Ġproblem s
Ġproper ty
ĠG al
ĠOn line
an as
ĠT r
Ġquest ion
le g
Ã¢ ne
Ġk ind
ĠFran ce
Ġp ut
Ġw ar
Ġco z
Ġra z
Ġag o
aliz aÃ§Ã£o
Ġequip ment
Ġdisposit ivo
' ll
Ġal c
olog y
ou nc
Ġl inha
ĠI nc
og n
Ġjog os
Ġcli ente
Ġcomp art
ĠÃ¡ reas
Ã© rica
cl u
r is
el as
Ġgrand es
Ġmed ic
P ass
k ing
un ca
ĠH ol
Ġg an
ĠIs rael
Ġ #
Ġtip os
h Ã£
ur os
Ġseg undo
Ġcom unic
ÃŃci os
Ġcle ar
Ġo cor
Ġm ight
Ġir Ã¡
Ġten ha
O ut
ist ic
Ġcont ato
Ġin ici
id ge
ĠC rist
Ġquart o
eth ing
ĠI P
ĠP ower
Ġconf irm
Ġr u
oug ht
ĠB ook
Ġvers ion
it am
Ġcap az
Ġvia j
7 5
Ġsatis f
Ġde part
Â »
Ġtod ay
Ġval ue
Ġsab er
Ġbec ome
9 0
Ġreg ul
af Ã©
ĠDes ign
g est
bo a
ĠD i
Ã ĥ
ĠS oc
ĠServ ice
Ġmonth s
Ġu nt
ruct ure
s el
ĠM en
Ġc resc
em in
y pe
Ġv ideo
Ġest rut
Ġla w
ĠN ational
Ġra pid
Ġpap el
Ġtrans porte
l i
Ġv ista
our ce
s ide
ĠEl ect
ĠS ystem
om an
I F
Ġex ig
Ġim agens
Ġconse gu
ĠLond on
er ed
ing ton
Ġtrat amento
un a
ag er
ol o
Ġde ver
Ġg ost
ros oft
Ġarmaz en
Ġs end
Ġfut ure
Ġforn ecer
Ġoc c
Ġat ualiz
Ġus ando
Ġim agem
Ġsuc cess
Ġfic heiro
Ġs ize
D escri
ĠB ed
Ġcu id
Ġs chool
if t
Ġstud ents
Ġrel ig
Ġwe ek
Ġam or
Ġvari ous
Ġf ar
6 5
Ġj an
Ġfor a
ell ent
ĠVi ew
... +
l er
b ack
ĠBar celona
Ġconhec imento
Ġobjet ivo
Ãĥ O
ĠC ount
j ust
rat Ã©g
ĠMuse um
ci ent
Ġnorm al
Ġutiliz aÃ§Ã£o
is ed
n ov
Ġad apt
Ġpres ente
ĠM ay
ian s
Ġsu re
Ġreg ard
Ġcomm unic
g n
et ros
Ġest im
Ġr at
Ġo thers
ire d
Ġl ÃŃ
nd ia
Ġres pe
ador a
Ġreg iÃ£o
Ġret urn
ĠH D
om es
he l
ĠSt reet
ul es
Ġb lo
Ã³s ped
ĠDire ct
f a
ag ing
Ã¡t icas
N oss
Ġf at
Ġded ic
Ġre mo
t as
Ġmus ic
Ġrequ est
Ġsom ething
Ġp lease
Ġrestaur ants
Ġanal ysis
Ġleg al
ch a
Af ter
ific ado
s on
Ġs i
Ġfin an
ĠP res
ĠL ED
av am
Ġativ idades
he m
Ġl anÃ§
Ġp an
ĠâĢ º
ĠH ar
Ġcap ac
anc ed
âĢ ĵ
Ġl ot
Ġter min
Ġreal ly
ĠH igh
Ġseguint es
Ġsp ace
M ost
Ġa Ã§o
Ġche g
Ġvia gens
Ġh Ã³sped
Ġactiv ities
Ġo portun
Ġas pect
Ġj our
Ġdirect ly
inh os
ĠF in
Ġopt ions
i ents
Ġm m
Ġ201 0
ra y
Ġpriv ate
Ġconstru Ã§Ã£o
ĠO p
Ġcam po
Ġal tern
Ġright s
l im
Ġf our
Ġf lex
Ġallow s
Ġintern et
ĠCent ral
Ġm aking
ĠN e
Ġp ain
Ġper fe
Ġem pre
E ss
Ġn esta
Ã¡ b
ĠSt ation
ĠM ap
ĠBus iness
Ġdet ails
ab a
Ġb ig
Ġcon form
Ġnave g
3 2
Ġprot eg
C D
al i
Ġb i
Ġw omen
Ġlocaliz aÃ§Ã£o
Ġequip e
Ġaplic ativo
Ġcustom er
at t
Ġo perat
ĠS il
Ġpel as
ĠC amp
Ġw rit
um p
Ġsu perior
ĠmÃ¡ xim
Ġmilh Ãµes
ri ver
Ġst ate
Ġmod elo
ĠO b
id ores
eg o
Ġter mos
ĠSu ites
Ġindust ry
Ã© l
ĠM ach
Ġto o
Ġre p
art h
C heap
Ġc idades
Ġan sw
ĠM ais
Ġpod emos
Ġmes ma
Ġd ue
ilh os
Ġaplic aÃ§Ã£o
Ġsol uÃ§Ãµes
in ar
ad s
Ġunt il
Ġconf ianÃ§a
el ine
Ġst or
pan ha
P ar
is er
Ġat ual
Ġknow n
Ġpadr Ã£o
Ġfam il
Ġexcel ente
Ġp raz
Ġofert a
ra ft
ost as
il idade
ĠM or
ĠF acebook
Ġv ir
p Ã§Ã£o
ĠvÃŃde o
iv ed
Ġrel ations
at ory
ens Ã£o
ĠF er
ĠEuro pa
Ġex tern
Ġne ver
Ġbot Ã£o
Ġtempor ada
âĢ Ķ
Ġad dition
Ġ201 1
qu ip
ater ial
Ġlim it
res pon
Ġmost rar
Ġcle an
Ã¡t ico
Ġpro por
Ġcan not
Ġsol uÃ§Ã£o
Ġvis itar
Ġt anto
Ġp ubl
Ġdist ribu
o id
ĠD ist
ĠL at
r er
ĠFran cis
Ġof ten
ic les
ission ais
iz ation
ĠRe p
Ġsa f
Ġest ado
Ġcomm on
ru z
ÃŃt ulo
ĠL as
ain ing
Ġinst rum
ĠPro f
Ġman ufactur
Ġsol utions
Ġvo o
Ã³ veis
id ro
ur ther
Ġpropri edade
p ir
ĠT op
k e
b an
Ġ2 9
Ġreg ion
adr id
v ia
ĠC op
Ġl ine
ĠD om
ĠN ot
Ġfoc us
Ġpar cer
Ġm ark
Ġtem os
Ġ8 0
3 3
ult s
ĠLis boa
Ġl at
ĠtÃ©c n
ĠSt ate
Ġconn ect
â Ħ
iss ional
T R
Ġgu ests
Ġt inha
ied ade
Ġem ploy
A part
ĠS P
Ġcer ca
Ġpesso al
itch en
$ $
Ġac cept
Ġcons ist
po ol
Ġab ove
Ġv irt
Ġest adia
z er
Is so
Ġdem onst
Ġcall ed
Ġdis p
Ġcl os
Ġmulher es
A B
or ar
B y
is on
ra b
ch ange
Ġsh are
iz ado
ak en
ĠmÃ©d ia
in c
Ġpart ners
ĠCh urch
Ġind Ãºst
Ġens ure
Ġ ÃŃ
Ġsem ana
Ġrequire d
ĠS et
r ated
ĠJo hn
M S
Ġferram entas
Ġcon dition
Ġpart ner
Ġas k
Ad d
e ase
Ġph ys
ic ional
Ġl anguage
Ġj ov
Ġn unca
m ark
ĠA P
Ġseg unda
osp ital
Ġal oj
Ġrecomm end
A v
U se
Ġt ru
H Ã¡
ĠEx t
a Ã§a
Ġp urch
Ġ4 8
Ġart igo
ĠFl or
Ġus ado
Ġg ames
u ch
Ġt ais
I R
ut a
Ġs ide
ĠF am
um b
Ġus ados
Ġperg unt
V i
Ġa ud
at form
ade ira
Ġmemb ers
ĠhÃ³sped es
t ies
ar ante
N ot
Ġcre ated
t il
C ons
it er
Ġs us
ĠV ol
ag s
Ġdisc uss
Ġdetal hes
Ġrele v
Ġh ig
w ards
Ġbeaut iful
Ġa verage
ĠMic rosoft
ĠRe views
Ġdis play
Ġcomplet e
Ġpr est
ĠAm Ã©rica
V eja
Ġa im
al u
ĠM ag
Ġj unt
Ġmant er
qu are
p y
Ġsim ilar
IN G
Ġfriend s
ĠS eg
C o
Ġma jor
om as
ĠSh ow
ĠF ort
ĠÃºlt ima
en ha
Ġim ages
ata form
Ġf ol
ist ics
oy al
Ġgratu ito
Ġreserv as
Ġfil m
ĠS A
ĠPh otos
Ġrel ax
Ġevery thing
is es
Ġon ce
Ġs il
E ng
Ġf ul
ur so
un ta
Ġcent er
Ġ isto
er m
Ġre ach
fe itos
Ġde als
Ġf ra
ĠW ith
Ġconc ent
Ġris k
Ġchang es
ou ble
ĠD ata
ĠrÃ¡p ido
Ġpri or
ion e
Ġco ver
em a
if icaÃ§Ãµes
Ġdec id
h ouse
Ġpr Ã©
âĦ ¢
Ġm akes
Ġef ici
u it
y t
Ġr om
Ġmach ine
ĠGro up
T od
Ġin ov
ed er
Ġl ater
Ġgiv en
ĠSp ain
Ġdin heiro
k a
ĠT our
eg a
ĠB an
Ġsol ution
Ġgr Ã¡tis
ran g
Ãº nci
Ġam ount
Ġsol ic
ĠAd d
Ġbe ach
Ġter Ã¡
Ġto ols
Ġg estÃ£o
ert a
Ġf Ã©rias
Ġre ason
Ġprof issionais
Ġa pl
a it
v io
Ġd am
Ġbe gin
ĠsÃ©ri e
O ne
Ġestab elec
Ġproxim idades
und ial
Ġm ist
ĠL ake
A m
olog ical
O r
o om
vis ion
bo x
Ġsing le
Ġter ms
Ġbut ton
ĠcÃ© u
ĠL ux
Ġh ab
Ġhav ing
ri Ã§Ã£o
Ġst rateg
ĠL u
Ġte ach
Ġapplic ations
oc ar
Ġf ace
ĠPh il
Ġeff ici
ĠD ig
ĠprÃ³pri o
Ġ3 5
Ġnecess idades
ĠM adrid
Ġconj unto
S P
Ġsu porte
ped ia
H E
I I
Ġescol her
ĠV ill
Ġan n
ĠA ug
Ġtel ef
Ġs um
as ing
Ġpre cip
Ġprogram as
i Ãªncia
Ġest ratÃ©g
Ġc ities
ĠAmer ican
h ou
Ġf lo
ĠP ed
Ġofert as
Ġesc rit
it ect
ĠmÃ¡ quina
Ġle ast
Ġatt ract
ĠE ast
ĠB en
oc ity
ĠQual ity
Ġsel ect
Ġris co
im as
Ġfe ito
Ġach ie
Ġmic ro
Ġin cor
Ġbe b
ci ence
u ar
Ġest es
Ġcli que
Ġs pec
Ġc ha
ĠL ord
ĠItal y
Ġt end
Ġsal a
ĠS ur
Ġofer ecer
Ġcoll ect
Ã³d igo
Ġres id
bo ard
Ġautom atic
Ġfr ont
Ġhom ens
ug ar
icion ado
i j
Ġst rong
Ġde z
e Ã§a
ec imento
ei x
ĠL os
Ġpart s
Ġalg o
r Ã¡s
Ġinst it
Ġescol ha
Ġparcer ia
ot es
ĠU p
Ġim age
Ġ200 9
Ã©ri o
ĠSu per
ĠServ ices
et ers
ĠV ers
Ġeas ily
Ġbuild ing
Ġpalav ras
ro u
ub ro
S er
Ġper ce
Ġac ima
Ġp i
Ġin g
Ġrece ive
Ġhist ory
Ġpequ eno
Ġv eget
Ġc ou
Ġqu atro
N ew
st ru
Ġintern acional
Ġmater iais
' re
d io
ĠUS B
Ġf el
ĠA N
ith er
Ġc aixa
ĠM us
ei as
ĠAl em
U T
ĠÃº nico
Ġ9 0
Ġfin ance
Ġrespon d
Ġdesign ed
im ate
Ġcor respon
Ġtra ining
Ġstand ard
Ġdiz er
y a
it ude
ĠW ar
Ġcont ribu
Ġcompart ilh
el ect
ĠO ne
Ġinstal aÃ§Ã£o
Ġincre ase
ĠO pt
Ġfun ct
ĠÂ «
ust om
Ġsal v
Ġn ational
m et
Ġb ra
Ġle ft
Ġob rig
Ġforn ece
P r
G et
Ġdesen vol
! !
ant a
Ã³ t
ĠG ar
ĠEx pedia
ĠE duc
Ġpr int
al ity
Ġex ib
Ġprof issional
ul os
Ġavalia Ã§Ã£o
Ġde b
Ġyou ng
U N
Ġt amanho
ĠC a
ut enÃ§Ã£o
ir es
pan ish
n es
ĠP or
it ional
Ġmaterial s
t d
do or
ĠPro v
Ġm oney
I G
Ġm im
Ġbo x
Ġin nov
Ġu pon
Ġv end
Ġcel eb
Ġreg ular
ĠM ount
ilh as
ĠH P
Ġprot ection
ĠInform ation
ĠW ater
in i
Ġs ess
he iros
id ity
ĠS pa
act ion
3 6
M elhores
Ġfun Ã§Ã£o
Ġre un
Ġb ath
Ġess es
Ġbaix o
ĠBrazil ian
ren g
Ġacom od
ic amente
Ġdis s
Ex pl
Ġgo ing
Encont re
Ġgu ard
Ġal un
Ġop Ã§Ã£o
ĠCent re
Ġcom mit
ug ht
Ġnew s
ÃŃst ica
oc ol
ĠFrancis co
M A
Ġrem ov
Ġm illion
ĠS ite
Ġcam inho
Ġbl og
Ġpoint s
Ġcir c
Ġexpect ed
ĠQ ue
Ġag e
ĠEs panha
ed ades
ro g
Ġopt im
Ġgroup s
ren ch
Ġs op
O D
Ġg e
ran ge
reng th
Ġt ent
ĠH ist
ab y
po int
Ġal ong
Ġc ut
ĠJun e
Ġst op
ul g
Ã³ m
Ġco isa
Ġcompan h
Ġt ela
ĠH er
Ġvari edade
Ġsignific ant
4 8
C E
ĠTravel ocity
ĠS l
Ġal to
und red
ĠE v
Ġent er
rat o
en z
B l
ed a
ing o
Ġaccommod ation
est re
ol f
ĠB at
ĠD escri
Ġat rÃ¡s
Ġdiret amente
ĠEst ado
Ġsign ifica
Ġpre t
Ġcas os
M u
, âĢĿ
ĠCh ar
ĠpolÃŃt ica
al f
Ġcomp at
Ġadequ ado
Ġc m
Ent Ã£o
Ã ±
ĠI gre
Ġexc ellent
Ġliv ing
Ġcom entÃ¡rios
ĠEs p
Ġcomp rom
ĠIn dust
ort s
ĠAmer ica
ĠS ch
Ġinst itu
Ġty pes
l ation
er am
Ġc iv
Ġst ation
ĠÃº nica
ron ic
Ġalgum a
st ar
Ġmelhor ar
5 5
Ġprote Ã§Ã£o
ĠG old
Ġmar ca
Ġgu arante
l ig
es quis
Ġde g
iv ely
b our
Ġsim ple
Ġv enda
Ġp s
Ġbr ing
r Ã¡f
Ã³ vel
c he
Ġf it
Ġinst ru
Ġimp act
ĠprÃ³pri a
Ġvis ualiz
Ġpra ia
E G
Ġw ords
Q ual
Ġe y
Ġw atch
Ġautom at
Ġdisposit ivos
ĠM art
ant ar
ĠmÃºs ica
Ġin ÃŃcio
ra p
iv amente
Ġcaus a
a ver
Ġtechn ical
ĠIt Ã¡lia
sel ves
c ost
Ġext rem
Ġn ut
at ab
ĠHost el
Ġfr ente
ar ian
ĠP ap
Ġwh ole
Ġ5 00
Ġrece b
Ġrecon hec
7 8
Ġp ais
Ġf ot
Ġdifer ente
ĠH um
ĠpÃºbl ico
Ġo il
Ġfacil ities
3 8
z es
Ġr ate
t ime
Ġlocaliz ado
O C
ĠJ ogos
Ġin it
ÃŃ g
fic ult
Ġh undred
ÃŃ rito
ĠJ et
Ġm ind
Ġ200 8
Ġgarant ir
Ġf ast
ĠS ex
Ġ7 0
fer ence
Ġev ol
ad em
in ed
Ġprom o
ĠrÃ¡p ida
Ġa vi
ĠR uss
Ġent rar
ĠC art
Ġbro ws
Ġst ock
Ġam igos
Ġgr ad
P er
ĠF r
Ġme an
Ġquest ions
Ġd rive
Ġvol ta
ĠO l
ho od
Ġreal mente
U L
u le
Ġ3 1
Ġche gar
Ġwe ight
ĠPro dut
Ġwhe ther
ow ing
Ġpro gress
Ġsu cesso
Ġef et
ĠInst it
ograf ia
il ha
Ġst aff
Ġtar if
Ġb on
Ġcont r
Ġinter ior
Ġ4 5
Ġess as
Ġdevelop ed
O P
Ġest ilo
N Âº
ĠN et
an i
ĠB as
Ġmin im
Ġp Ã©
ak er
Ġpre vent
r adas
Ġe c
Ġlink s
Ã¢ nt
Ġman utenÃ§Ã£o
Ġele g
Ġmob ile
Ġp isc
e Ã§Ã£o
ĠindÃºst ria
T S
es h
Ġinclu i
ĠRe al
Ġrapid amente
E les
ĠO f
Ġb ast
ĠE le
Ġch all
h ib
Ġin volv
Ġ19 8
ĠPro t
Ġmemb ros
On line
en er
ec ast
Ġdif ficult
Ġ idade
Ġcon ect
Ġd imens
land s
Ġap pl
Ġdev ido
Ġcust o
Ġcomfort able
Ġto ol
Ġl abor
ĠT el
Ġcomp os
Ġar ch
Ġreserv ar
Ġre pro
Ġprodu z
Ġpes o
Ġalc anÃ§
ure d
P lease
ĠT rad
oc iaÃ§Ã£o
at ors
rim ento
Ġtrabal har
ĠO ct
ob re
Ġv est
ol ic
ĠD r
ĠMan agement
Ġquant idade
en Ã§as
Ġfut uro
Ġanim ais
ÃŃ du
av es
Ġun ique
Ġag re
Ġdev ices
Ġsoc i
Ġcommun ity
in st
Ġs ho
Ġresult ado
a im
Ġc rim
riend ly
ard im
Ġex am
3 4
S im
u ary
am ental
Ġcult ura
l ight
ic ar
at amente
Ġconf ort
Ġprot ect
Th at
ish ing
C ursos
c ast
el ig
m ar
Ġan Ãºnci
201 7
ĠP u
Ġre pl
Ġb il
ĠP DF
pan y
Ġecon Ã´m
Ġeduc ation
ĠM ot
ĠRe ino
ĠGen eral
ĠF eb
Ġrec ogn
ĠC heap
Ġdes af
Ġpos ition
Ġimpro ve
Ġtreat ment
ĠG ames
Ã ¤
Ġd riv
ĠT w
Ġdecl ar
0 5
ĠH oliday
pt ember
Ġco oper
Ġcent re
Pass agens
Ġd one
hop ping
Ġad ditional
ĠP ack
eg as
Ġped ido
Ġj o
rib ution
es ar
Ġv aria
Ġpl ataform
V is
ech an
Ġsh ar
ĠCrist o
m ost
Ã ģ
Ġf ÃŃs
se g
Ġm Ãªs
Ġgru pos
M e
Ġwh y
ĠHe alth
Ġsp irit
Ġenvi ar
ĠL ib
ess a
Ġs creen
ĠS ing
Ġc ul
Ġt exto
Ġrec ord
L E
ĠJap an
Ġev alu
Ġh old
ĠM erc
ĠF e
Ġdes f
Ġutiliz ar
Ġf ilhos
Ġent ire
Ġcart Ã£o
Ġex erc
w ire
ĠJul y
Ġp ict
Ġcomplet amente
er ra
ed s
Ġcult ural
un ho
d ll
g ent
ĠWh ite
Ġhist or
Ġadd ed
ant ic
Ġev ents
Ġu lt
ĠB al
ĠD ay
ĠM os
h ing
Ġa ction
Ġfacil mente
ĠGerman y
ĠSup pl
Ġst rength
az a
Ġser ies
acion amento
Ġpos it
Ġmet eor
Ġfun ction
ĠFran Ã§a
ĠI l
Ġcor por
Ġt ell
Ġl ik
ĠPric eline
m ing
Ġa st
ir am
Ġat ra
Vi ew
ĠN Ã£o
ĠK ong
Ġgovern ment
Ġprojet os
ĠI r
Ġen volv
M ar
ĠM aster
ia b
Ġsm art
Ġc and
S C
Ġinclud ed
ĠEU A
Ġev entos
ro oms
ĠAug ust
c an
Ġm ec
Ġn ada
Ġinclud es
Ġdis cover
Ġent rada
Ġc ores
Ġhig her
Ġposs ui
ĠIgre ja
el come
Ġpol it
Ġcoz inha
ac o
ĠV illa
ĠC anc
Ġcas es
Ġcho ice
Ġest aÃ§Ã£o
o i
A G
b ra
ĠD V
ĠL ight
or ias
iv ity
Ġnature za
el os
ĠKing dom
Ã¡st ico
3 1
Ġextens Ã£o
D ownload
ob ile
Ġmet al
Ġdist ance
wo od
E sc
Ġint ens
Ġtorn ar
b all
re dit
ow s
Ġqu ase
Ġ200 7
ĠÃ ´
v ing
Ġa do
or ial
Ġc ame
ag a
Ġsk y
Ġma xim
ĠT own
Ġpe Ã§as
Ġrelations hip
ĠC ert
enc iais
Ġespec iais
Expl ore
t ings
av ing
Ġw ide
Ġ *
ĠC ard
Ġen ough
iz ada
Ġvis ual
Ġmet ros
Ġrat io
ĠA C
ist er
Ġespecial ly
Ġav oid
F ree
et te
Ġint rodu
Ġpro pos
Ġst eel
Ġconf idence
u aÃ§Ã£o
Ġcomunic aÃ§Ã£o
Ġc a
iv idade
le ep
oc h
Ġd ate
ams ung
Ġmed ia
ĠCent ro
te is
Ġag rad
ber g
Ġcap t
Ass im
Ãµ e
Ġfinan cial
Ġre v
Ġso f
em entos
Ġse jam
ĠH ong
Ġinter pre
r and
Ġf urther
Ġcom um
B ook
ĠP at
Ġt ele
ĠR oyal
r ate
Ã© n
ec Ã§Ã£o
Ġsom ente
b re
ĠC he
ĠPortugu ese
S S
ĠE nt
Ġsh ip
Ġtrad itional
T M
il es
Ġpag amento
ĠS panish
Ġform at
ĠpÃ¡g inas
3 7
Ġy et
Ġev itar
Ġproject s
Rec om
S a
ib iliz
Ġl ay
Ġcontin ue
4 4
i en
Ġquick ly
Ġs ound
Ġapart ment
Ġm iss
Ġextens ion
os ped
ol as
ru ary
T ambÃ©m
ĠM as
r ant
r us
Ġro t
Ġc ell
Ġc afÃ©
ĠL ive
ob er
Ġes for
Ġtrans m
Ġcom es
E F
Ġpl atform
Ġl Ã¡
Ġv Ã£o
ĠT a
as so
Ġre vel
enc ia
ĠHot wire
ĠL o
Ġ200 0
ĠAp ple
ĠB ud
at al
og rÃ¡f
Ġpropor cion
ĠDig ital
ĠR em
Ġperfe ita
en ess
ĠÃ´ nibus
Y our
e iras
ell a
Ġprom ot
ff ee
Ġbl ock
Ġcorre ct
k t
ĠC idade
ter y
u an
il s
ha i
Ġmens agem
3 9
os co
De pois
F rom
og ue
Ġab ord
Ġcar reg
Ġem erg
Ġnecess idade
P ack
Ġprocess ing
Ġfuncion Ã¡rios
ol es
Ġcre dit
et imes
Ġcresc imento
Ġex port
ÃŃt ica
Ġferram enta
Ġapr ender
it ter
Ġaj ust
Ġindust rial
Ġlevel s
Ġp ovo
ĠcomeÃ§ ar
c y
if est
Ġac ab
ĠSe ptember
Ġpro ud
Ġproc ura
Ġus es
ĠSt ar
Ġt ub
ĠD av
ĠRo ad
Ġcont em
Ġnenh um
ver ter
b ol
ian ce
P od
Ġim edi
Ġpel e
Ġaloj amento
ĠG ra
Ġter rit
Ġsoc iais
d es
Ġdif ÃŃ
Ġac qu
Ġresp osta
Ġel imin
Ġalun os
f rica
Ġe feito
Ġb Ã¡s
Ġr ent
Ġcol abor
ĠBre akfast
Ġor ient
Ġrestaur ant
ĠRent als
V C
b n
Ġapro xim
r ade
Ġpol icy
Ġpequ ena
Ġapo io
ĠOff ice
orn ec
Ġrec uper
Ġpalav ra
Ġpl ano
ĠIntern acional
Ġvari ety
Ġan g
we et
E l
ĠC ur
Ġe feitos
Ġmodel os
f in
Ġn ÃŃveis
ĠSt ud
Ġger enci
ĠS earch
Ġperf il
on ia
Ġde les
ĠRes erv
ĠUn ido
ĠF rench
ond er
Ġmen u
Ġcomplet o
Ġconf l
Ġorg ulho
Ġda ily
Ġav anÃ§
Ġrequire ments
O fer
ve z
Ġve ÃŃ
ĠSt ock
Ġaum entar
Ġwh ite
ĠUn ion
iz ados
ĠGrand e
Eng lish
Ġprocess os
Ġactiv ity
ĠAlem anha
Ġcorrespon d
ro ll
Ġcri aÃ§Ã£o
Ġend ereÃ§o
Ġfor Ã§a
Ġsug gest
M P
ĠW ork
ad ing
Ġin icial
Ġcom bo
Ġh arm
if ique
Ġreserv ations
Ġre vol
Ġitem s
st er
A qui
Ġv ac
ific ados
iz es
Ġsuf ici
M apa
ĠU N
val ho
Ġsaf ety
E P
H igh
Ġsitu aÃ§Ã£o
Ġt aken
Ġo ption
end imento
Ġac ross
R eg
P al
Ġajud Ã¡
ĠCl ub
Ġthrough out
ĠAf rica
ed o
unic ip
Ġd en
ol ha
Ġres ources
Ġdocum entos
Ġgl ass
H ere
is o
Ġban ho
Ġt ÃŃtulo
Ġp en
Ġcomun idade
. )
ug ares
Ġpl ac
Ġproper ties
ativ amente
Ġter ceiros
Ġd ry
Ġfor ecast
Ġp le
ĠA eroporto
ĠP R
le ar
ag ed
Ġref l
Ġtax a
Ġs ym
Ġcon cept
Ġshow s
atab ase
ri ption
Ġc ause
Ġpre vious
Ġprogram s
Ġh on
vel mente
th ough
Ġconst ant
Ġsk in
Ġt aking
ar em
as ons
Ġmess age
Ġtit le
ĠQu art
Ġd uraÃ§Ã£o
Ġf ive
ĠR ock
Ġinter esse
ĠFl ash
ĠUnivers idade
Ġcin co
Ġt ran
Ġe ver
Ġits elf
in er
Ġm ol
Ġvol ume
ĠM B
ĠAust ral
Ġest as
ĠM el
Ġpart es
9 5
Ġespecial mente
u va
ĠC D
Ġp ages
ĠS ub
Ġbus ca
Ġdesc rib
Ġrespe ito
Ġem p
Ġtotal mente
Ġfe ed
Ġl oss
Ġimport antes
ĠAn al
Ġsegu ida
Ġcont Ã©m
ĠCl oud
Ġsel f
Ġe uro
Ġpar ceiros
Ġ3 00
Ġcl oud
Ġsab e
ĠlÃŃ der
h ol
Ġprov a
Ġjour ney
C H
Ġf ant
Ġt able
ĠJ er
Ã©t ica
ip e
Ġel etr
Ġorgan izaÃ§Ã£o
Ġconstru ction
ous es
ĠMar ia
ĠN acional
Ġappro ach
C O
et as
ric ult
er cis
ĠM P
ĠÃº til
ĠÃ³ t
Ġcaracter ÃŃsticas
ĠA ct
Ġc y
Ġch at
Ġw arm
Ġad vert
Ġdet ail
Ġseguint e
E X
ĠM arket
Ġconst itu
Ġcomplet ely
it amente
Ġestrut ura
â Ĥ¬
Ġam ost
ĠÃģ frica
ens ion
Ġaqu eles
) ;
P art
Ġt or
Ġrelacion ados
Ġf ib
Ġbu ilt
ĠC our
Ġpre oc
Ġel Ã©t
In st
ĠR oma
Ġ6 4
ĠFl ights
g ing
Ġway s
ĠB ack
ĠC O
Ġsup ply
Ġavi Ã£o
Ġex ce
ug e
ĠFeb ruary
Ġde ath
Ġform aÃ§Ã£o
ill ed
ost os
at Ã³rios
ĠA z
Ġ3 2
Ġmade ira
ĠSer ver
Ġsal e
Ġlib er
j ud
ĠAr m
Ġt este
ĠF orm
ĠAt l
Ġj ud
ĠAm ar
Ġm er
ran do
Ġdest in
ash ion
. [
ĠCol or
Ġinstall ation
Ġconse qu
6 4
S c
ĠH ow
ĠIn glÃªs
Ġant i
Ġf ez
st erd
Ġpoder ia
Ġcl aro
Ġgovern o
ÃŃd os
Ġtom ar
Ġjov ens
bn b
5 00
mo Ã§o
Ġtar de
ric os
ĠCl ass
Ġir m
Ġopportun ity
T rans
Ġr ar
ĠS chool
um o
d en
L a
Ġg as
Ġcomp ra
Ġbr and
Ġsuper f
id ad
n al
Ġm ac
Ġv idro
if f
o o
ece u
Ġoper ation
Ġquais quer
ce iro
Ġcor r
i ores
Ġman hÃ£
Ġsol d
Ġesc re
Ġto wn
ĠC oll
ĠM ex
Ġj ob
az er
Ġal iment
iv ing
Ġapl icaÃ§Ãµes
Ġs and
Ġat enÃ§Ã£o
Ġencont ra
Ġe at
Al g
ĠB ang
ĠD ownload
ĠL and
Ġpre m
Ġtick ets
Ã£ e
Ġse em
am ic
und os
Ġc ort
Ġsu port
Ġinstall ed
Ġsel ected
Ġfavor ite
Ã ¨
Ġf ig
Ar t
Ġn acional
ĠGre en
Ġc ic
Ġw in
Ġanal is
Ġt w
ĠOr bit
Ġp asse
ĠO pen
Ġlong er
ab ly
Ġrece ived
C heck
M od
Ġd Ã¡
end ing
Ġcur so
ĠI f
S he
ok e
Ġincl us
Ġrespons ible
ĠLis bon
ec a
Ġh air
Ġth ing
Ġse a
Ġal ugu
ec ut
ĠFran k
ĠOp Ã§Ãµes
g round
ĠIn s
ĠProduct s
panh ol
ĠI SO
Ġbe h
ĠPr ice
ĠL y
oss o
Ġtelef one
Ġf ly
ia ble
ĠJ e
6 8
Ġrestaur ante
Ġpropri et
Ġstat us
n y
Ġse ason
ĠJ os
ert ura
aix ar
i ang
ĠR iver
ĠL td
Ġgrow th
ĠAc cess
orn ing
ĠOr gan
ĠP ass
00 1
ĠS amsung
ĠR ob
ven Ã§Ã£o
Ã³r ico
Ġphys ical
Ġser ia
du Ã§Ã£o
Ã¡ ss
Ġproc ur
h an
Ġt as
ĠB ra
Ġapart amento
Ãĩ ÃĥO
Ġmar c
Ġb ag
Ġpart y
Ġm ÃŃn
ed ia
ĠApart ments
ĠN or
Ġyour self
ador as
Ġph one
ov a
olÃ³g icas
Ġs ou
Ġum idade
ĠSoc ial
ire ct
Ġap ply
A nt
Ġf arm
ric as
Ġcol et
Ġel as
rar y
Ġsem elh
k y
Ġro up
ĠAng eles
s ites
Ġm ix
ĠB rit
Ġpr Ã¡tica
Ġc Ã³digo
Ġm ount
Ġsu it
ĠSo ftware
ĠOrbit z
ul s
Ġexpl or
Ġiss ues
T A
Ġest amos
ĠO ver
ĠD a
Ġpr on
Ġfl u
ÃŃ c
ĠE con
ĠV ia
Ġalt ura
Ġs Ã©
ed eral
st o
Ġport ugu
Ġredu z
Ġfa ith
Ġt are
ĠB y
Ġar te
ĠnegÃ³ci o
M ap
Ġne igh
0 7
Ġform ato
Ġdem and
Ġfil ho
Ġmult i
Ġassoci ated
Ġconcern ing
M y
ĠM aterial
Ġcent enas
in ary
Ġport a
Ġfo ot
T ER
Ã ¶
Ġhe av
Ġequip amento
Ġbelie ve
P R
Ġs urg
ĠE g
ab les
Ġtru e
Ġa Ã§Ã£o
an ia
ĠR ome
z o
Ġt akes
qu ia
Ġvis Ã£o
Ġart igos
f ield
ide os
Ġinclu em
ĠWest ern
ĠLond res
Ġsust ent
Ġro le
Ġess ential
mer cial
Ġview s
Ġth ought
Ġfor te
ĠR om
Ġbl ack
ĠS anto
Ġmai ores
Ġpos iÃ§Ã£o
Ġs ays
Ġpo ol
Ġhum idity
Ġhap pen
Ġim ag
Ġdocum ento
ir th
ĠJet cost
ain less
Ġespa Ã§os
C an
Ġle ve
Ġpergunt as
Ġper t
Ġrealiz ar
Ġconn ection
iam i
Ġdescob rir
ill ing
H ome
c hed
Ġl ei
ĠF ire
ĠC ro
Ġar riv
ĠUS A
Ġc ient
Ġm ort
iz a
Ġapres enta
Ġcost s
ĠServi Ã§os
Ġt alk
ĠMar ch
Ġf ech
ec k
ĠG arden
ĠOct ober
g er
Ġm echan
Ġto ok
ĠM at
end s
eng th
S u
t im
ay a
ĠUS D
c ont
Ġcon ex
Ġj unto
Ã¢ ncias
Sh ow
Ġc it
r ings
Ġtech nolog
d as
Ġc ast
Ġint elig
ĠJan uary
ĠRestaur antes
Ġing red
Ġev ento
ĠApart ment
Ġapr end
Ġfamil iar
os os
Pro c
Ġve h
Ġstor age
ĠM u
Ġeconom ic
ĠB ut
Ġsegu ir
Ph one
Ġqu iser
Ġst ructure
Ġcons ci
Ġdispon ibiliz
Ġestud os
Ġacess Ã³rios
Ã¢ ndia
i et
en ance
Ġex plic
Ġ- -
Ġen h
Ġpisc ina
Ġf ato
ĠAm sterd
ĠSt e
Ġdesenvol ver
Ġw ish
ĠU m
Ġk itchen
N ow
Ã³ri as
Ġhow ever
Ġpopular es
idd le
v ida
ĠServi Ã§o
Ġex ercis
ci pl
ĠCal if
Ġimm edi
Ġblo od
Ġhundred s
P ode
Ã¢ mer
Ġoff icial
Ġre duc
ĠM ult
Ġconsider ed
Ġus a
Ġsoc iedade
Ġrespons Ã¡vel
Ġm use
Ġcont ract
Ġad ult
Ġatt ack
Ġpay ment
Ġ1 50
Ġst yle
ĠEst e
ĠC ri
Ġl ab
Ġl av
Ġautomat ically
Ġs ave
Ġl ÃŃn
Ġdes eja
ĠT ype
Ġf iz
op h
abil idades
Ġcomplet a
ĠH el
per t
Ã¡l ogo
Ġliv ro
Ġplay er
Ġdocum ents
Ġcoll ection
ĠG eor
Ġcab eÃ§a
un e
ĠL og
Ġp ec
ĠW ik
Ġexist e
ĠP rim
Ġadv ant
Ġpot ential
Ġrecomm ended
Ġc um
Ġn uv
ĠM ad
Ġstud ies
Ġcompar aÃ§Ã£o
0 6
T E
re l
ĠGu est
Ġeffect s
olÃ³g ica
4 9
qu inas
Ġvis ita
Ġart icle
Ġw all
Ġg ast
ĠAut om
Ġdess a
ĠL in
ĠAr ch
ĠO F
Ġban co
Ġsitu ation
Descri Ã§Ã£o
L et
Ġs ector
Ġes pecific
ĠTrip Online
Ġe ither
Ġmed ida
Ġequip amentos
ĠOpt ions
: :
ĠÃ ¢
e ks
ut h
ag ue
P C
Ġcont ains
Ġaut ocar
ox id
0 8
Ġex istem
Ġfe ver
ĠDec ember
ĠR ad
Ġpraz o
Ġleg is
Ġcon vert
gu Ã©m
ĠCom issÃ£o
Ġmod els
Ġfund amental
b ia
ĠT est
Ġesper ado
Ġc ru
Ġper cent
Ġro b
Ġtrans mit
Ġpreoc up
or g
Ġro ta
ĠBl ue
ĠCas ino
Ġautomatic amente
ip le
Ġcam a
fer Ãªncia
ell o
Ġquest Ã£o
az on
rig er
Ġfuncion amento
ĠSt eel
R A
ĠT om
C ol
ĠW ord
Ġtre in
Ġren ov
Ġpurpos e
Ġval ores
ĠCan ada
ir ar
ĠvÃŃde os
Ġme us
Ġro ut
Ġfl or
S p
Ġd ivid
et es
Ġsa fe
Ġ ill
Ġs un
Ġst ar
Ġs ource
ĠSt ore
ĠEx press
istem a
Ġful ly
ĠS un
Ġj ur
Ġg ot
Ġintern acionais
Ġlear ning
Ġl er
Ġv iv
ia go
Ġprocess es
Ġa Ã§Ãµes
ĠS am
ĠT ime
Ġanal y
J o
S ome
Ġset or
b um
Ġv em
Ġn or
Ġw ord
Ġex terior
ĠN ow
ular es
Ġcur s
Ġpresent ed
Ġem bal
Ġg irl
ill as
Ġpap er
ĠT ec
ĠL eg
Ġpermit ir
Ġcapac ity
ĠN a
ĠÃ ī
ativ es
Ġpract ice
ĠC ong
ounc il
pr ise
Ġregard ing
b ar
i Ã§a
est in
Ġst ore
Ġc rist
ĠT ipo
Ġpres enÃ§a
Ġer ro
0 2
4 6
O ther
ĠI D
elh os
ĠSt and
ĠPu erto
Ġair port
4 7
en ing
ĠÂ »
Ġlig aÃ§Ã£o
Ġneed ed
Re ad
u Ã¡rio
Ġter m
ec em
ĠP ont
Ġeffect ive
ĠmÃ¡xim o
ĠtÃ©cn icas
Ġform ul
Ġg al
Ġpro b
ĠU r
ĠMan ual
Ġmed idas
G o
ĠH is
Ġoperat ing
Ġm atch
ĠN eg
enh am
C at
Ġh ospital
Ġutiliz e
Ġpat ients
Ġd ro
Ġser ve
Ġdeix ar
Ġc ode
Ġm i
ĠComm ission
Ġmeet ing
Ġsubst itu
Ġexp and
Ġoportun idade
Ġcor ret
Ġcurrent ly
4 2
Ġconhec er
ĠRestaur ant
Ġcop y
in Ã¡ria
Ġab ility
Ġativ idade
e es
ĠAg oda
E la
ĠF ornec
pa ir
Ġ> >
I B
k i
ĠE quip
ib li
Ġco ord
Ġcam inh
ĠA M
ac hed
ĠSe e
ĠmÃ©t odo
Ġbrows er
r ite
Ġcal cul
Ġrefer Ãªncia
Ġpequ enas
I sto
e ad
w ord
Ġf onte
ĠC i
r ico
Ġb ater
Ġpass ado
Ġrece be
Ag ora
Ġstep s
Ġan terior
Ġle ave
Ġpe ace
os se
Ġf ire
Ġf irm
Ġk ing
Ġform as
ch es
ear n
Ġlit er
ĠPa ul
Ġsuperf ÃŃci
Ġu nc
S em
Ġb and
Ġcons ent
Ġkm h
ĠGr Ã¡tis
Ġis ol
Ġlux o
Ġpurpos es
Ġsoci ety
ĠG ran
Ġcont ext
cl ud
Ã¢n ia
ĠCanc el
en volv
Ġas seg
ĠM iami
Ġver ificar
ĠMan ager
Ġgarant ia
Ġh osped
ĠD u
Ġro ute
ĠTer ra
ic on
ĠW ash
p ap
anc y
T op
Ġde w
ĠCh in
Ġval id
Ġvol t
Ġord em
Ġupd ate
Ġs ell
Ġe p
Ġw ood
Ġconc ord
Ġcab elo
Ġdesf rut
Ġ =
oj as
Ġeduc aÃ§Ã£o
Ġat ing
Ġjog ar
o z
ĠP en
Ġest at
Ġor valho
ph one
Ġadicion ais
Ġmil es
g ed
it ais
Ġm ove
ĠA B
Ġg ama
ĠL im
ch o
gu as
ĠCom o
Ġcust os
i ence
ĠL ast
ĠQual idade
I nt
Ġlat est
am ar
Ġbas ic
enci es
Ġcand id
S A
S D
Ġsim ply
h old
it ions
Ġcontinu ar
ograph y
Ġentre ga
Ġgu ide
Ġaplic ativos
201 6
ĠCons elho
in qu
om os
Ġwe eks
Ġinstal aÃ§Ãµes
Ġl emb
ĠA D
Ġaum ento
re ira
ĠH or
c ÃŃp
Ġt ut
ÃŃ a
ap s
Ġbran co
od ge
Ġal most
ĠÃ ĵ
Ġtra ck
Ġrec entes
ĠMan ufactur
T rip
Ġd orm
Ġpass ar
Ġexper im
Ġl ower
ĠV ideo
Ġbook ing
A ir
Ġout side
Ġsent ido
oxid Ã¡vel
w ith
Ġm orte
Ġv ig
ĠP oint
Ġs int
Ġw id
ĠMin ist
Ġcult ure
Th en
vent ion
Ġpropri edades
Ġprin cÃŃp
Ġfal ar
ĠF ile
T C
c ording
t es
Ġh y
Ġcon duct
vern o
Ġorig in
Ġhab it
o h
ĠpolÃŃt icas
8 8
I nc
Ġfe ature
Ġinstru Ã§Ãµes
Ġpers pect
pri ate
Ġed if
ou ver
c am
ĠPl us
Ġnov amente
6 9
Ġhav ia
Ġabs ol
Ġl ogo
Ġass ess
ĠS i
Ġpr atos
Ġsem anas
Ġte ve
Ġfabric ante
Dis pon
Ġb anc
Ġd Ãº
Ġsearch es
k now
Ġa z
Ġol hos
ĠBer lin
Ġarmazen amento
Ġd atabase
Ġh ot
ĠvocÃª s
Ġun idade
Ġb it
Ġsec ret
Ã©d ito
Ġestab lish
Ġpress ure
ÃŃdu os
ĠC ON
Ġcommunic ation
Ġcr oss
Ġs ection
Ġincor por
v as
Ġcont ain
Ã³s ito
Ġthere fore
Ġpress Ã£o
Ġcar ros
Ġposs ibil
Ġfaz em
Ġt ouch
Ġs ul
oss a
Ġnenh uma
Ġocc ur
Ġth ous
f ig
Ġin fer
ru pt
ĠEn erg
Ġre quis
Ġarch itect
ĠdifÃŃ cil
ire less
Ġid i
P ress
in aÃ§Ã£o
Ġm ission
ĠRe ad
ĠTech nology
Ġciv il
w ide
Ġse en
Ġj ulho
Ġac redit
ĠCom put
7 7
ĠS he
ĠS em
Ġide ia
Ãºbl ica
Ġdr ink
U M
Ġv ar
ĠSal v
L L
ĠC ond
ast a
Ġnot e
ĠÃºlt imos
b io
i ado
% .
C A
it ary
ĠA qu
ĠE UR
ĠCan ad
ĠSa Ãºde
Ġm and
vi e
ful ly
Ġred es
Ġv ivo
ast re
Ġplataform a
C OM
Ġman age
ep h
ĠAp ril
ĠNov ember
Ġpolit ical
ĠT HE
oc o
Ġ200 6
Cl ique
v ido
Ġa eroporto
Ġpart ida
Ġdam age
e iros
Ġd esse
Ġcan cel
Ġcl oth
Ġbl owing
ĠV ocÃª
ĠÃ į
Ġrec ent
C al
Ġcheap est
Ġs cient
Ġfal ta
Ġlev ar
Ġadicion ar
ĠD en
pl os
ĠCom par
ĠCat eg
ĠL ou
Ġpre v
Ġthem selves
Ġdest ru
Ġtrans par
ĠprÃ³xim a
ÃŃci as
AT ION
Ġbre ak
Ġv ib
ĠP op
ĠM c
il os
Ġch ance
Ġten ho
Ġfever eiro
D A
ĠB ath
ell ow
Ġlist ed
ri z
ĠAr gent
ĠJo Ã£o
Ġfe ita
B u
m es
S Ã£o
ĠP RO
Ã©ri a
Ġmaint ain
av al
0 3
I O
ĠC ustom
ĠJ ack
Ġaccess ories
ic ana
ree ze
Ġfun cional
Ġsimples mente
F oi
ed d
Ġl ack
Ã© ci
w h
Ġint ell
Ġdi ante
ĠM em
enc ion
ict ion
Ġpac ientes
Ġopin iÃµes
Ġsop ra
Ġmod e
ĠG e
Ġser ver
6 6
d f
ĠK ey
ĠSp irit
Ġi Phone
C P
Ġl inhas
Ġqu ad
ĠAp p
Ġest ou
arm os
Ġmeas ure
ĠF un
Ġsegu ro
ĠEurope ia
et ails
ĠPer u
Ġear ly
W here
Ġm undial
ĠC osta
Ġest acionamento
0 4
Ġat mos
Ġad just
ail ability
icion ar
ĠDV D
as y
ĠP erson
Ġex change
Ġresist Ãªncia
Ġd ouble
ĠT ool
al idade
Ġv ant
ĠY our
Tod as
ĠC E
ĠS on
ch ave
Ġset tings
Ġmens agens
d os
ĠS quare
Ġmat ter
Cont act
ĠCount y
ĠSuppl iers
Ġautocar ro
Ġde p
Ġper da
nd ereÃ§o
Ġins ide
P e
ĠF riendly
Ġus ually
Al ugu
uz z
Ġpurch ase
N este
is ation
Ġbast ante
Ġal guÃ©m
Ġinterpre t
Ġm ember
Q U
ĠV ista
ĠCom pany
ĠAd minist
on om
ub a
ĠPl an
Ġd raw
Ġt endo
ĠP rem
Ġrespon der
b i
Ġsom etimes
Ġopin iÃ£o
m elho
Ġutiliz ado
Ġtax as
Ġes qu
Ġposs o
Ġf amos
Ġfun Ã§Ãµes
Ġconsum o
ĠT ick
Av ailable
Ġconfort Ã¡vel
ĠC ruz
ĠE r
ĠD ub
Ġredu zir
ĠC ouncil
ang ue
ura Ã§Ãµes
Ġtorn a
Ġstart ed
Q ue
Ġf ail
ĠC ult
ei os
Ġso on
Ġdest ino
air ro
ow ers
ĠtÃ©c nica
re ad
am o
Ġre asons
ÃŃ cia
eb ol
Ġsk ills
Cl ick
Ġgiv es
Ġw ent
est as
Ġj orn
Ġposs u
Ġmom ent
pool ing
m ore
Ġcri anÃ§a
Ġmult iple
Ġex pos
ĠO ce
Ġj ardim
Ġcombo io
g es
x ico
ol is
Ġgre ater
Ġb ud
ru po
ubl in
T er
Ġv an
ĠN orte
Ġpriv acidade
Ġgeral mente
Ġmud anÃ§a
ĠPed ro
F ran
ĠM est
Ġfil t
Ġer ror
C ert
Ġstart ing
ĠB ol
Ġgr Ã¡f
Ġpol ic
G B
id Ã£o
ang er
Ġph ot
Ġquest Ãµes
Ġoffer ed
Ġnaveg ador
V A
Ġp ena
Ġv ul
ĠV ac
Comp are
ĠS E
ĠM un
enh aria
Ġoper aÃ§Ã£o
Es se
i us
al es
Ġtem per
Ã¡t icos
o on
or ed
ĠS T
Ġmaint enance
ĠM ark
Ġob ra
Ġins er
Tem po
Ġind iv
Ġide as
Ġspe ak
Ġpra y
Ġmag n
Ã£ s
Ġfil me
Ġef ica
al d
Ã¡ dio
Ġit ens
ib aba
ĠRe f
Ġfam ous
Ġty p
oun ter
0 9
l ished
Ġinter face
ĠO ur
w a
ed es
Ġun s
Ġhelp s
Ġeletr Ã´n
du z
Ġact ive
Ġre ady
enc ed
pan s
t iliz
ĠBl u
Ġcompon entes
ĠT odos
Ġr ates
ĠL CD
Ġp ath
ĠF ood
Ġviaj antes
Trip Advisor
her n
Ġass in
e a
ĠO per
ĠO rig
Ġmed ical
Ġpop ulaÃ§Ã£o
ete o
p ara
or f
Ġgro und
Ġplan e
Ġh our
ĠCont act
% )
Ġob ras
Ġval e
w ar
ou ra
ut s
ĠMin i
Ġimpress Ã£o
Ġer am
Ġincre asing
, "
Ġel ementos
ĠUn iÃ£o
Em b
il ton
ĠB ran
it ado
Ġprof ile
P ad
Ġser em
out ique
Ġserv idor
8 5
c s
w here
it et
ĠP ac
a o
Ġex act
Ġconf i
Ġdo ct
ĠB ah
ĠBr isa
Ġf ares
Ġd atas
Ġcompanh ias
Ġin oxidÃ¡vel
Ġtrans l
Ġcom port
ĠH y
ron om
N e
Ġdo ing
Ġr are
Ġsal es
ĠAustral ia
C L
D ur
f urt
q Ã¼
Ġc ot
Ġhe ar
Ġprovid ing
ÃŃl ias
Ġb ad
id el
ron ics
Ġmov imento
ĠRo om
Ġh oliday
Ġequip ped
Ġpop ulation
Ġaum ent
Ġcar pooling
Ġesp Ã©ci
Ġcon cre
ub ra
Ġfaz endo
ĠEst aÃ§Ã£o
Ġro ad
Ġw on
am m
ĠB or
um ent
Ġimp oss
Ġestud antes
Ġs ix
Ġsu je
Ap Ã³s
Most rar
Ġre quer
Ġt arg
Ġof icial
Ġbaix ar
Ġsust ain
em eteo
ĠP ay
ĠÃ© p
B el
Ġuse ful
Ã¢m ica
Ġalter aÃ§Ãµes
ĠP ost
Ġappro priate
Ġset embro
k ey
Ġfl ux
Ġcab o
es qu
Ġsub s
Ġsub mit
Ġsel ection
Ã©r cio
ĠG ame
Ġimport Ã¢ncia
Ġchall eng
Ġgu ia
Ġj unho
ĠPl aza
Ġapro v
6 7
A ut
Ġval ues
Ġtarif as
Ġl as
Ġliv es
Ġatt ention
Ġvirt ual
P oint
gu es
D esc
Ġact ual
ĠPal ace
ĠCont rol
Ġc Ã¢m
ĠF ac
Ġnum er
Ġmen or
Ġcombin aÃ§Ã£o
on o
Ã£ es
ĠH om
Ġra in
ĠAir bnb
Ġaut o
Ġprocess amento
R ece
ri e
ĠB i
Ġal imentos
Ġpr Ã¡ticas
ĠLa w
Ġdr ug
in n
Ġcons erv
Ġencontrar Ã¡
ĠP ublic
y ch
Ġde le
ĠAl b
Ġcateg oria
Ġmaxim um
C C
ve y
Ġst ory
ĠSec ret
Ġad m
Ġle is
ĠS D
C or
en ch
Ġm Ã£os
ĠO il
ĠJos Ã©
R L
ĠC A
um es
Ġiss ue
ar n
ĠE u
ĠL ong
On de
ĠVal ley
ĠW all
Ġ200 5
Ġb reeze
ĠM ain
Ġcompet it
ĠS at
4 3
j as
Ġ Â°
Ġm ig
Ġanim al
ĠB ox
Ġplay ers
Ġhuman os
ĠB ur
Ġadminist rat
Ã³ st
Ġk n
Ġjog adores
Ġbenef its
9 8
Ġide a
Ġdeg ree
ĠN ear
R el
r v
Ġg arden
Ġident ify
etal hes
ir amente
ve u
Ġpl ug
Ġinst ant
a ign
Ġ7 5
Ġ20 20
ĠÃ³ leo
ĠG all
Ġrespons abilidade
ĠprÃ³pri os
Inform aÃ§Ãµes
Ġpar ede
ific ada
Ġlead ing
ĠItal ian
% ,
ĠPro ject
Ġconven ient
Ġsufici ente
op s
omb ia
Ã¢ne o
Ġwrit ten
' m
Ã§ ar
ĠL ist
Ġpres ence
R io
Ġevery one
Ġsur round
Ġorig em
Ġenvironment al
Ġtick et
Ġd imin
ĠT amanho
cl es
ĠGl obal
unci ation
Ġp ul
Ġf all
ĠN etwork
ĠAir lines
Ġprincipal mente
b ers
Ġcl ar
ĠRep ublic
p et
Ġd river
al mente
est ival
ĠD on
nd ice
indo w
Ã´n ia
atura is
al ha
Ġp asso
Ġin com
ĠD oc
Ġrec ol
st on
Ġr ules
Ġinst ruct
orn o
Ġdivers as
L ugares
S eg
Ġw or
Ġfunct ions
ĠC re
Ġsex ual
r ador
Ġd ific
in ery
ĠT od
Ġpres erv
ĠSec urity
Ġd ial
Ġf ins
Ġhand s
id ar
Ġtr ade
Ġhigh ly
ĠN O
ĠJ ose
Ġd ress
ĠM er
Ġeste ja
ak a
rib ute
Ġredu ce
B ar
ilh ar
atur as
Ġbre akfast
Ã¢mer a
m l
Ġs av
ĠB a
ĠO N
ĠR et
Ġman ifest
Ġcompon ents
3 00
T ur
ĠF abric
Ġbe ha
ĠW ill
Ġorganiz ation
ĠGu ide
Ġair lines
Ġconform e
Ġp int
qu ir
Ġmethod s
b ro
Ġl ov
ĠV egas
Ġcontro ll
Ġj antar
Ġimp acto
Ġcli ents
ĠWash ington
f as
Ġn am
Ġen orm
Ġmost ra
We ather
Ġdetal h
ec es
Ġper der
Ġsur f
Ġtran qu
le e
iss Ãµes
Ġcr Ã©dito
Ġoc up
ĠAmsterd am
ĠEng ine
Ġelect ric
ĠE N
ĠZ oom
ĠWh at
ĠanÃºnci os
P ol
ĠD iv
Ġact ions
Ġdest es
un es
ĠL ab
Ġproper ly
T V
Ġper feito
ĠCh ic
Ġrelacion adas
Ġr ental
Ġd ura
Ġd ates
ĠS y
ĠNew s
ĠSm art
Ġefici Ãªncia
Ġcontem por
Ġf urn
r ome
Ġp aint
Ã© xico
ĠT im
ĠAl ibaba
Tra vel
H P
en na
h otel
ĠP esso
Ġre par
ĠG et
Ġpart ies
erc iais
Ġflo or
ar io
Ġcl aim
Ġsol ar
Ġoff ice
Ġn ar
Ġqu ite
Ġnot hing
Ġsa ud
Ġappl ied
ĠMot or
ĠM ember
Ġey es
Ġple as
E very
est rut
ĠL ove
Ġ200 3
Ġmanual s
Ġcham ado
ont es
ĠJ ust
Ġper d
Ġmanufactur er
Ġcurs os
C ent
ent Ã¡rio
Ġdis co
Ġnecess Ã¡rios
Ġvol tar
ĠMach ine
ĠO S
Ġpac ote
ĠA ven
Ġhap py
Ġdepart ure
Ġpar ece
Ġcon clu
ĠR os
Ġbec ame
Ġ _
Ġth us
ĠF und
Ġmin ist
4 1
Ġv ideos
Ġh id
Ġposs am
ĠWeb site
ĠalcanÃ§ ar
r itos
Ġhe ld
ĠS af
o que
Ġh alf
Ġins pir
Ġdisc ount
O B
b ased
Â ²
Ġt ri
Ġcas as
Ġreal idade
Ġsur face
ĠmÃ©d io
Ġcur ta
Ġport anto
Ġdecis ion
Ġcomer cial
ĠsÃ© culo
g s
Ġf Ã©
ĠH all
pon s
min ute
Ġcer to
Ġhard ware
Ġpubl ished
L C
ent ic
il he
velop ment
Ġsent ir
Ġjan eiro
Ġver Ã£o
Ġprecis o
Ġens ino
Ġlead ers
Ġv iver
pe za
Ġclick ing
em ento
Ġdistribu iÃ§Ã£o
Ġch arg
jet o
Ġmem Ã³ria
Ġgo al
Ġplan ej
Ġestab lished
ĠChrist ian
Ġdivers os
Ġdo enÃ§a
Ġag ricult
Qu ick
Ġh ope
Ġcar ry
Ġmeas ures
Ġch ann
ios o
Ġsec ure
ĠL G
ff ici
Ġinf o
Ġescol a
ĠEn ter
ĠDescri ption
ĠsuperfÃŃci e
ab ol
Ġpr atic
Ġrec ente
ĠRes ults
Ġconn ected
Ã©d io
Ġdeliver y
Ġprecip itaÃ§Ã£o
V I
Ġdis ease
Ġph oto
ĠT ours
us al
ei j
rat os
ĠC amb
ĠM elhores
Ġmar av
ĠFre emeteo
Ġampl a
ĠFam ily
Ġc ai
du ra
Ġbaix a
Ġed iÃ§Ã£o
Ġmud ar
Ġacom panh
Ġqu il
ĠV ir
Ġel ements
Ġcar bon
Com entÃ¡rios
is Ã£o
Ġbo ard
Ã¡g ina
Ġemb ora
Ġf ight
Ġw ine
ult ados
Ġ4 00
Ġoffer ing
h ab
v os
ĠF ederal
Ġabs or
u o
Ķ nibus
he ce
ĠR ental
Ġcl asse
Ġsom os
Ġorganiz aÃ§Ãµes
ĠDub ai
7 9
Ġt entar
Ġcon clus
Ġweb sites
ĠmÃ¡ quinas
Ġid eias
Ġprodu ced
ĠfÃ¡ b
Ġbas is
Ġs ong
ĠC y
Ġer ros
Ġmud anÃ§as
ĠA R
ĠI T
c in
Ġe arth
Ġpl Ã¡stico
Ġcond icionado
Ġcal or
Ġprofessional s
M C
k m
ro y
ide z
Ġl ength
ĠÃº teis
Ġoper aÃ§Ãµes
5 8
um ÃŃnio
ug g
Ent re
Ġdesfrut ar
Ġm orning
ĠS ony
Ġdecis Ã£o
d ia
Ġqu ente
ĠL iv
ĠMex ico
anc ing
Ġs n
Ġh ol
Ġwh ose
eix e
Ġv ill
Ġbe gan
Ġch urch
let t
ĠÃºlt imo
Ġpar am
ari amente
Ġnecess Ã¡ria
Ġalter ar
ĠArgent ina
Ã ł
Ġcar ried
Ġcert eza
Ġ$ $$
Ġbath room
pe ed
Ġjog ador
ĠProdut os
al t
Ġb ord
ĠS cience
ol esc
Ã© st
ĠD ia
Ġaf et
Ġâ Ĩ
R em
Ġbro ad
ou ro
Ġv oc
Ġres erve
ĠP ress
ĠEx cel
Ġmar cas
ĠM obile
ie f
Ġestab el
Ġdoes n
Ġbegin ning
at ar
ĠD ublin
Ġproteg er
ĠSing ap
ĠP i
Wh ile
Ac cording
Ess a
s ur
c m
ĠAir es
S E
and er
ib er
C ada
i ante
Ġlarg est
ĠProf ess
ĠE X
ĠE dit
Ġinit i
g as
ĠM b
Ġen f
Ġim per
O p
Ġest avam
unicip al
T r
Ġw oman
Ġtem pos
Ġexperi Ãªncias
ĠPol icy
Ġado pt
J Ã¡
ĠM Ã©xico
Ġg old
Ã¡t il
Ġger aÃ§Ã£o
Ġimedi atamente
Ġex pens
Ġ3 3
Ġposs ibilidade
Ġtorn ou
Ġv ert
ĠF u
ES T
Ġpriv acy
Ġdess es
Ġraz Ã£o
G en
N C
ĠC OM
ĠB ig
aliz ado
Ġexperi ences
Ch ina
Ġdom ÃŃnio
Ġinvolv ed
Ġs ense
Ġl ojas
Ġqu ÃŃm
Ġch arge
Ġconfig ur
Ġmin i
olÃ³g ico
Ġp az
ĠAm azon
ÃŃde o
Ã Ģ
Ã ĵ
ĠS pecial
Pro duct
ĠA lex
du ction
Ġfun do
Ġmot her
ĠPriv ate
e v
os h
Ġ3 8
ĠEcon om
os ter
H z
Ġb rasil
end ar
ĠAn n
it ing
ĠK ar
Ġdet ect
Ġtecnolog ias
Ġneigh bor
it Ã¡rio
ÃŃst icos
Ġsum mer
Ġm ente
ĠM ost
ĠI st
Ġparticip aÃ§Ã£o
Ġconex Ã£o
P N
ist e
Ġass um
Ġdur ation
S H
iqu es
ri f
Ġj u
ĠPr in
ĠP ron
ĠSt udio
ed om
Ġex pans
Le ia
r Ã¡
Ġ3 6
ĠMin ube
S ub
5 9
c ing
Ġv amos
Ġes quer
Ġcol ors
Est es
Ġapres entar
ĠD ados
Ġbar ato
Ġz ona
Ġcient ÃŃf
Ġrequis itos
ĠM ass
ĠNov o
ĠIm ages
Ġle it
ĠSp rings
S up
om et
ĠDe part
Ġgu est
Ġcre ation
Ġobt ain
Ġemploy ees
Ġdez embro
m ine
ur b
Ġat a
Ġes panhol
Ġremo ve
Ġw ear
Ġgra ph
Ġpot encial
Ġeffici ency
ĠCancel on
ree k
Ġimmedi ately
F aÃ§a
ter iores
Ġat ribu
Ã©c ia
ĠmÃ©t odos
Ġp ai
Ġconf orto
Descri ption
T P
g en
os as
Ġcom erciais
Ãº r
ific ate
O G
ĠC ha
Ġpequ enos
Ġtr ust
ĠBar b
ĠIm agens
Sh are
ĠTick ets
T emos
or o
Ġcom mercial
ĠB on
ĠSant iago
Ġcoloc ar
Ġecon Ã³m
ĠÃºlt imas
Ġs an
ĠN ice
Ġsh own
Ġil umin
ĠV ict
Ġdes l
Dur ante
n ect
Ġmot iv
Ġv ent
ci ples
Ġcl im
Ġth reat
Ġseg undos
Ġstand ards
ĠO ld
Ġexercis e
5 6
Ġtrad uÃ§Ã£o
Ġcoll abor
ĠPra ia
e ign
r ast
he ad
Ġout ubro
Ġrefer ence
Ġapro pri
Ġbenef ÃŃcios
Ġsuit able
em pt
Ġrel aÃ§Ãµes
Ġart icles
Ġcuid ados
Ġo x
Ã¢ nica
Ġfer ro
il ares
ag en
ĠSer ies
Ġinc r
Ġsuf fer
T rad
qu est
Ġche m
i ant
m ont
ĠM et
Ġrom Ã¢nt
Ġh aver
un ity
ĠH amb
Ġpre d
Ġ3 7
Ġcar ga
Ġtr uth
ĠSup port
c ks
Ã¡ cia
Ġon es
Ġposs ÃŃveis
Ġeconom ia
Ġvend as
m on
re u
ĠP esquis
ĠD C
Ġany thing
angu ages
j u
am er
In ter
Ġfam ÃŃlias
Ġinterest ed
Ġunderstand ing
Ġn orte
ra Ã§Ãµes
Ġint eiro
Ġdem ais
Ġsc en
ĠProgram a
ĠO ri
ĠW ood
ew ork
Ġnot ice
ang a
Ġdi am
ĠAc commod
x i
ĠIn de
ind er
Ġtra z
Ġoper ations
Pl aces
5 2
it ure
Ġte u
unt os
Ġelect ronic
ĠT ab
ĠH ill
Ġac com
Ġag ree
ĠFrank furt
m en
Ġs y
Ġ1 20
ĠEx pl
Ġlegis l
N ote
or ra
Ġo tim
Ġto wards
ĠF L
ous ly
Ġgre en
Ġrelev ant
ĠMos c
A re
U P
Ġb ol
Ġb irth
ran e
ĠU E
Ġpl astic
Ġlo ja
ript ease
S L
a ult
Ġd anos
id ed
m p
od es
Ġfor ce
Ġcent ury
yd ney
ĠEsp ÃŃrito
ĠT R
ĠMed iter
Ġbeha vi
ĠDav id
Ġt rib
Ġw orth
Ġv itam
ot al
Ġrel atÃ³rio
Ġansw ers
Ġd Ã©c
Ġs leep
Ġaut h
Ġhist Ã³rico
Ġv Ã¡l
Ġel abor
Ġfornec edor
an ks
Ġre ve
Ġmes a
ens a
Ġpor n
Ġdifer enÃ§a
Ġdem oc
ÃŃd as
v an
Ġm Ã£e
Ġw ait
Ġl ost
ĠB ru
ho ose
elh or
Ġconhec ido
Ġt rem
ic l
Ġth ough
Ġsome one
Ġincre ased
het es
Ġcorret amente
F e
Ġb aby
ĠS C
ĠCon st
Ġimpro v
ĠlÃŃn gua
ĠC H
ĠA rea
rig or
it ness
ĠS um
Ġcl ima
Ġun idades
Ġdest ac
Ġref ei
Ġreg ras
Ġpower ful
Ġb airro
ĠS n
ĠÃ¡ l
Ġlim ited
Ġapro ve
kt op
Ġrem ember
O W
Ġt on
Ġs outh
Ġre in
ĠU ma
ĠMil an
k en
r est
Ġparticip ar
i ental
w ise
Ġs hopping
Ġpass agens
Ġpos itive
Ġco ffee
ĠAss oci
Ġconfig uraÃ§Ãµes
ĠBu enos
t ra
ic ando
plic ation
Ġhim self
Ġfuncion a
ĠSalv ador
Ã Ķnibus
ĠC R
ĠP et
um n
ĠTer ms
is so
In s
Ġdire Ã§Ã£o
I X
n ia
ÃŃd ia
ĠS and
Ġg or
Ġrun ning
Ġbeh ind
c ol
ĠU K
Ġansw er
Ġb omb
ap p
Ġimport ance
7 6
t or
Ġav ailability
ĠMus ic
ĠC P
ew lett
Ġpadr Ãµes
Ġig re
v idas
Ġa leg
re al
ĠU se
Ġdispon ibilidade
Ġassist Ãªncia
ingu Ã©m
ar do
vi Ã¡ria
U D
Ġ ign
or row
Ġpou cos
Ġ200 4
Ã¢ne a
R om
S M
ĠP rom
ens ive
Ãº ss
burg o
Ġraz Ãµes
envolv imento
est ic
Ġgl ob
Ġpolic ies
5 1
U B
ad d
us a
ok er
Ġconsum ption
Pl ay
Ġm ention
Ġsel eÃ§Ã£o
Ġtest es
h ost
p are
Ġgan har
Ser vi
ĠHum an
Ġh abilidades
ĠH am
Ġreg ional
Ġinstal ar
Ġconv id
Ġfa Ã§a
ĠG reat
Ġab erto
ĠÂ ·
isc os
el er
ĠW atch
Ġman uais
ĠmÃ©d ico
ĠLat in
C am
e o
Ġmes mos
Ġnov embro
ĠSe a
Out ros
Ġdific ul
7 4
l ando
et ic
ĠM ess
Ġfil ter
Ġcreat ing
ibli ot
V ia
n am
z hou
Ġutiliz ando
ĠcomeÃ§ ou
Ġrefl ect
W ork
Ġc ade
Ġpar k
ĠH a
Ã©t ico
Ġachie ve
e al
Ġm ental
ic let
Ġcont exto
Ġutiliz ador
Ġadv anced
Ġrecomend aÃ§Ãµes
Ġp ick
Ġl ines
ĠL uc
Ġsa ÃŃda
Ġdel ic
Ġfact ors
Ġmem ory
Ġpict ures
Ġan unci
ĠB ag
ĠD estin
ch ester
Ġins p
R ed
le ge
ĠB ot
de u
Ġun it
Ġgood s
' ve
en ge
ĠA rab
Ġcomm and
ik i
ĠInt el
Ġempre g
Ġtrad icional
Ġamb os
Ġimpress ion
Ġperg unta
ĠCh ild
Ġaf irm
ĠPlay a
Ġcul inÃ¡ria
om in
Ġv os
ec ause
Ġam igo
Ġpass age
Ġutiliz ados
Ã³g io
Ġcateg ory
9 6
n ed
ĠDe f
AN D
Ġpain el
i i
og a
Ġdia gn
ĠVill age
Emb ora
Ġtarg et
ĠâĢ ¦
Ġwork ers
Ġst age
Ġhe at
Ġcamp aign
Ġcha ve
k ok
iz ing
B R
Ġm Ã³veis
Ġso ft
S ince
f re
ĠL ink
end as
g rade
w ords
Ġdo or
Ġbo as
ĠTor onto
Ġun to
Ġcol d
Ġdist ribution
_ _
Ġar ran
ĠPar l
Ġsecond s
F otos
Ġp Ã³s
ĠN av
Ġent ender
Ġesc ala
P a
Ġa udio
Ġex cept
ud es
Ġma io
Ġcompar ed
u iÃ§Ã£o
ig u
Al so
Ġthan ks
ĠMic ro
ĠPr int
ĠUs er
Ġexper t
Ġeuro pe
Ġt ua
Ġcom ing
Ãº ncia
Ġcomb ust
Ġparticip antes
Ġexist ing
Pack ard
f it
r ors
Ġd ark
Ġl ider
ĠE C
ĠJ ew
Ġclass es
Ġc res
ĠL ife
ap ter
Ġpr os
Ġav al
-- --
ĠHol y
ĠJer usal
Ġtechnolog ies
Ġc ry
Ġw elcome
Ġ5 5
ĠInd ia
Ġcontr Ã¡rio
Ġn aturais
ĠAc c
Ġpract ices
ĠAN D
j ar
ing ham
Ġhigh est
ĠAmar illas
Ġ1 000
Ġar g
ĠPriv acy
Ġe tern
ff ic
Ġnas c
Ġpromo Ã§Ãµes
Ġagrad Ã¡vel
Ġaproxim adamente
ĠAl ugu
Ġact ually
Ġset ting
Ġdiv ert
Ġd yn
Ġa ux
Ġap re
Ġprim eiros
Cas o
Ġefica z
f ect
k er
el ha
Ġb orn
Ġhap pens
ĠÃ©p oca
P D
Ġf ather
ĠB all
Ġr ich
Ġex posiÃ§Ã£o
Ġam ar
Ġro und
Ġhum ano
N ear
c ular
Ġfr anc
Ġpo or
ĠPar que
Ġpermit em
ĠTw itter
am in
ĠP o
pres ent
Ġlong a
T ake
iz za
ĠO ther
ĠV ila
Ġdiffer ence
s ia
ĠC le
ĠM Ã¡
Ġk g
air s
ĠMed ia
Ġindividual s
Ġcic lo
b s
Ġst ress
Ġinter act
ĠGl ass
Ġjan ela
ĠRep Ãºblica
il ing
ĠâĢ ¢
up s
Ġinf ra
icion ais
Ġmov ement
ĠChic ago
A V
ĠW omen
ip p
h i
Ġc ook
ĠC ir
ap ar
Qu art
Ã³r um
Ġprecip itation
Ġacomod aÃ§Ãµes
Ġbud get
O ver
j os
Ġt Ã³p
Ġs ect
Ġw onder
ĠS ydney
Ġcont ÃŃn
ĠcÃ© l
ber ry
Ġget ting
Ġconfig uraÃ§Ã£o
Ġask ed
Ġsa w
Ġmet ers
f ree
Ġw indow
Ġv in
Ġg ave
ĠD rive
Ġpor Ã©m
ĠDe velopment
ĠÃ¡ rv
Res pon
r ency
Ġre i
Ġre form
Ġsu its
pl a
c al
Ġde ep
Ġr ather
orn ia
Ġequ ival
ratu ito
ĠB R
ĠG rupo
ĠCanad Ã¡
. :
J ust
O f
y e
act ory
Ġscient ific
S te
ap as
Ġen com
ĠAut o
Ġrecommend ations
ĠR od
ĠSh are
ĠStand ard
U p
us ion
Ġbl ue
ĠtÃ©cn icos
in to
Ġc en
Ġm issÃ£o
ou ve
ĠL odge
Ġprodu ce
Ġpass os
Ġback ground
Ġwar rant
V ol
he im
Ġm encion
Ġf io
Ġse is
Ġdes enh
OR D
Ġregist ro
Ġfat ores
ĠS ho
ĠT ro
ĠT ru
Ġdesc ription
Ġrequ ires
Ġp Ã´
ag u
ĠG R
Ġad olesc
ĠCh amp
Ġcli ent
Ġlist ing
Ġappro xim
Ġguarante e
ed os
Com ments
Ġtrabal hos
Ġn esse
und ay
Des de
p at
ĠB ank
Ġencont ram
Ġban k
P L
E ndereÃ§o
is ion
ĠCh ile
Ġredu Ã§Ã£o
ĠpÃºbl ica
Ġhost els
Ġrar os
id ay
ir Ã¡
ont os
Ġacc ord
Ġal em
Ġal umÃŃnio
Ġgra Ã§as
Ãºss ia
ÃŃ b
ĠR ail
Ġat ualmente
ĠOver view
ĠR ot
Ġco ol
ĠSh ang
b ul
Ġf oto
Ġmar Ã§o
ĠAn im
oun ge
E ach
g io
H ewlett
y ing
um ber
Ġab ril
Com part
Ã©ri os
Ġcome Ã§a
vent ure
Ġdetail ed
re me
Ġus ada
ll a
Ġcham ada
Ġaff ect
T al
Ġv Ãª
aliz ar
Ġamost ra
P esquis
i ados
Ġpromo Ã§Ã£o
5 3
Ġbater ia
Ġp ud
ĠG eral
Ġworld wide
Ġopen ing
Ġmeteor olÃ³gicas
Ġtele visÃ£o
es es
Ġsitu ado
Ġinstitu iÃ§Ãµes
Ġaliment aÃ§Ã£o
m end
ĠA L
s k
Ġp df
Ġf rag
Ġto ld
Ġg Ã¡s
Ġ2 50
Ġexec uÃ§Ã£o
Ġm embro
ell ing
Ġmod er
Ġ200 2
Ġlong e
Ġstrateg y
Ġvul ner
E W
Ġde u
al ing
ur ance
ant os
ĠJ ud
ĠPl ace
ĠpÃºbl icos
Ġmass a
d ate
Ġn ice
ĠS of
Ġl ingu
Ġant ec
Ġfornec edores
w an
ac he
Ofer tas
Ġflux o
Ġre pair
ĠT O
ĠAnt on
Noss o
Ġv isto
Ġcl ub
ĠmÃ¡xim a
Ġc orte
ĠM ig
um s
ild ing
Ġpriv il
Ġpack age
Ġcom ida
Ġse qu
do be
Ġcl icando
ĠAd v
Inform ation
Ġl ed
iv idades
az ing
ĠY ear
Ġgu erra
ĠEduc ation
L o
u ed
Ġre ports
Ġel se
Ġmess ages
Ġinvestig aÃ§Ã£o
U E
ĠCab o
Ġoportun idades
B aixar
D on
Â ´
Ġex hib
Ġser ious
Ġm Ã³vel
ĠA G
Ġvisit ors
Ġinov aÃ§Ã£o
ĠChin ese
ĠS ale
Ġre b
Ġcon osco
Ġad icional
iss ions
per ty
Ġ3 4
Ġform s
pres a
Ġencont rados
D uring
Ġ ri
ĠEurope u
Ġinstit utions
Ġd or
Ġs ample
ot er
Ġob st
ĠestratÃ©g ia
Ġm eios
inqu edos
an has
ĠO c
Ġpoder Ã£o
Ġprecis am
, ...
Ġarqu itet
Ġrespon se
ĠP M
if er
amp a
Ġopportun ities
Ġfunct ional
F inal
l ets
Ġequ il
T H
Ġc os
Ġpar Ã¢m
us o
Ġcat al
M ic
Ġre for
ĠF ound
Ġst ars
There fore
eto oth
Sa iba
H ost
Â ª
Ġem it
ĠM etal
Ġver de
ĠPro cess
ĠPol ÃŃtica
Ġperform ed
Ġn acionais
ĠS ports
Ġst ream
N A
ĠH and
ont ade
Ġentre v
Ġplay ed
Ġdever Ã¡
M on
f ol
ĠJ ac
ĠGo od
ĠAs ia
Ġconform idade
Q L
Ġs oul
Ġqu adr
Ġreal ity
ÃŃn a
ĠBr and
j ac
us Ã£o
ĠSt riptease
nolog ia
l ar
Ġdefin it
a qu
Ġc ima
ĠM A
Ġfor eign
us es
ĠG B
Ġat ender
ĠEx c
Ġrealiz ado
Ġdescrib ed
Â ·
it ando
Ġre lease
ĠB outique
Ã¢ nico
ĠArt icle
ĠMen u
Ġt im
Ġdest ination
Ġrep et
Ġabord agem
5 4
Ġcon fer
ign ed
Ġextern al
Ġinnov ation
id ing
ÃŃ rus
aix as
Ġlim peza
Ġlas er
Ġac adem
ĠSt at
Ġsol id
Ġrespons ibility
ĠMil Ã£o
Ġlo ad
ĠT ele
Ġess encial
Ġhist Ã³
7 2
Ġd rop
Ġc ad
Ġf ase
ul y
ĠR ou
Ġtem a
Ġro ll
ĠOr lando
Ġtransfer Ãªncia
Ġpropriet Ã¡rio
Ġadvant age
r Ã¡lia
is co
Ġgratu itamente
Ġlik ely
h en
u as
Ġst ra
Ġbro ught
Ġestabelec imento
p ite
ĠG olf
Ġmod os
Ġgiv ing
ĠW ars
Ġcompartilh ar
7 1
G er
it zer
Ġcomp are
Ġou ro
Ġcam era
ĠD em
ĠO R
Ġ9 9
Ġregist er
Ġdedic ated
Ġliber dade
os ing
se e
Ġvo z
inh am
Ġresol ver
Ġattract ions
er ca
ĠP T
ĠD in
nd er
ot ing
ric k
Ġav ali
ĠLux ury
y pt
it an
ux e
Ġla ws
Cat eg
y ond
Ġn ames
Ġescol h
Ġfabric antes
mark s
Ġmec an
8 6
Ġsub sc
ici ous
U C
h ando
ic ip
ell ite
Ġref let
Ġhistor ical
B em
Ã į
Ġp eg
Ġcom uns
Ġcl ÃŃn
Ġdi et
Ġcaus ed
Ġred or
Ġbal ance
Ġs ports
Ġor Ã§
ĠJ ava
Ġch uva
Ġpat tern
r inho
Ġint ended
Ġcir cul
al ed
ĠN atural
ram a
Ġintern al
Ã¢m p
Ġsupport s
H D
o a
Ġc idad
Ġs angue
Ġcomp ras
Ġdis cipl
Ġfl ow
Ġconce ito
Alg uns
d ades
u ff
Ġviaj ar
Ġinfer ior
Ġinstruct ions
ĠC heck
ĠV eget
Ġcomp ress
S ol
ing er
im ming
ĠM ai
ident al
Ġprecis Ã£o
ĠGo vern
Ġrealiz ada
Ġanim als
Ġalt amente
C op
r ations
ĠA st
Ġle va
En quanto
ĠMount ain
ĠS ign
Ġcon g
ĠF rom
ĠG estÃ£o
Ġallow ed
ĠDist rict
m ed
Ġfr ut
Ġter ceiro
OS T
ĠIndust rial
Ġspirit ual
P G
ĠT re
Ġcri ado
ĠEst a
Ġdi rig
Ġshar ed
ĠfÃ¡b rica
Ġv ontade
ÃŃ Ã§a
pl ace
Ġhum ana
Ġident ificar
ĠInstit ute
K AYAK
it z
Ġtrad icionais
Ġsex o
Ġdro ps
Ġc ards
ĠC el
ig ation
Ġse Ã§Ã£o
Ġtravel ers
ic iais
ri er
Ġg est
Ġpi ece
ud os
Ġ4 2
Ġcuid ado
ĠS ize
ĠN ight
Ã©d ia
Ġfriend ly
en ed
Ġv ict
Ġest arÃ¡
Ġou vir
bl es
Ġpres entes
ax y
Ġguard a
n ecess
Ġcl in
rat a
Ġinvest ment
Ġcompl ement
Ġorganiz ations
ĠElect ronics
A Q
ĠP AR
G l
Ġdo enÃ§as
Ġ3 9
Ġun its
pro of
On ce
Ġesp ÃŃrito
T udo
ios a
Ġcur to
Ġplay ing
Ġspec ies
t i
Ġde cre
Ġm el
ĠSeg uranÃ§a
ĠPhil ips
Ġacomod aÃ§Ã£o
Ġformul Ã¡rio
ĠC iv
Ġl uta
co very
Ġcy cle
N os
ard a
Ġapplic able
ĠPres ident
ĠmÃŃn imo
ĠRes earch
ĠCam era
Ġhost el
Ġf ontes
ĠF ather
ĠL es
Ġna v
Ġcl Ã¡ss
Ġdevelop ing
Ġadult os
a ug
o ot
ĠR oman
ĠG irl
ric s
Ġpass eng
Ġobjet ivos
ĠJap Ã£o
o ff
Ġp il
ĠM undial
av ras
Ġch arm
ĠPlay er
at em
pt on
Ġresult ing
Ġquer em
ograph ic
ĠÂ ©
inter est
s a
Ġf ear
am ing
Ġg ent
Ġcont acto
ain ment
Ġpriv ado
ÃŃst ico
Ġresist ance
Ġaccord ance
E ven
Ġb urn
ol ina
Ġpar que
ĠM S
Ġinst ead
Ġur ban
ĠPric es
Quick ly
ĠB M
Ġrem ain
plo ad
Ġprocur ando
Ġ @
ĠC reat
Ġv inho
ĠM onte
ĠB it
ĠI C
Ġda qu
Ġatt empt
ĠF ull
ĠX box
Ġfeed back
Ġchalleng es
ix o
Ex t
re ams
Ġdes con
Ġad s
Ġdess as
S erv
ĠN ature
Ġprom over
Ġvisit antes
or as
Ġv eja
Ġfr esh
Ġdes port
plic ations
ĠX P
Ġaqu ele
201 5
Ġbot t
Ġoferec em
ĠM ax
ĠD ur
ES P
ES S
ĠÃ¢ mb
itzer land
es is
ĠC L
ĠCol ombia
Ġcharacter istics
Ġ Ã³r
ov ers
Ġfl at
Ġconst ante
ĠAt t
ĠTer mos
Ġnormal mente
Ġfamil ies
ĠDescri Ã§Ã£o
ĠBang kok
ĠFornec edores
Ġfor ward
ill o
Ġwh om
Ġam er
Ġcoll ected
Ġcheg ada
Ġaz ul
7 3
Ġt enham
Ġimplement ation
ĠCalif ornia
A ct
L earn
V al
Ġl es
ÃŃ amos
Ġf emin
Ġl ut
ĠMuse u
Ġdisp Ãµe
E A
ent y
Ġsu pl
ĠIs l
Ġaval iar
6 1
S an
Ġcom ment
Ġac ol
ĠIn fo
Ġaspect os
D el
f il
he ira
Ġn orth
ra ph
ĠA le
Ġcon verter
Ġs ter
ou b
ĠM ary
press Ã£o
ĠMod el
ĠPortugu Ãªs
Dispon ÃŃveis
Ġm Ãº
Ġre vest
ĠI b
Ġsol o
emb ros
Ġprom ote
Ġedif ÃŃcio
Ġv ou
Ġh yd
ĠP VC
Ġmas ter
ĠCo ast
Ġinstal ado
Ġdepend ing
Ġconsegu ir
Ġm ill
ĠN atal
art a
u ela
ĠT ax
Pro v
Ġapart amentos
Man y
ert s
Ġsa ir
Ġencont ro
uss els
irit ual
Ġvisualiz aÃ§Ãµes
Ġal one
ĠW ind
Ġag encies
Ġmat Ã©ria
yt ics
Ġgra Ã§a
ĠA ud
ost on
ĠIn f
ĠAust rÃ¡lia
Ġgener ation
ĠveÃŃ culo
Ġ 01
or que
Ġc able
Ġr ua
Ġ3 60
Ġrec urso
ĠA S
ok ing
ĠAr qu
Ġacont ece
B r
l ook
od idades
Ġst ruct
Ġ9 5
Ġcombin ation
ĠBer lim
Ġtrein amento
ĠHamb urg
Wh y
ĠconteÃº dos
Ġaspect s
Ġgerenci amento
Ġl iqu
Ġrem ote
ĠPa ÃŃs
Port anto
Cons ult
Ġeffici ent
Ġ %
or al
Ġpre to
Ġpre val
Ġprogram me
Ġespecial istas
ĠRuss ia
Ġexpens ive
Ġfranc Ãªs
T O
el p
her lands
Ġpe Ã§a
Ġdesc riÃ§Ã£o
Ġhor iz
Ġelect r
Ġbat tery
Ġl in
ĠF aro
Ġbe g
Ġinteg rated
Cas a
S m
ĠV ÃŃdeo
ĠInform aÃ§Ãµes
Ġobject ive
Ġchem ical
C ri
is mos
el iz
Ġsim pl
ph ones
Ġtrabalh adores
Ġinnov ative
Ġp et
Ġs inal
Ġh a
ĠG a
Ġ6 5
Ġapproxim ately
Ġpens ar
Ġinterest ing
Ġteach ing
O l
iv el
ira Ã§Ã£o
Ġtal vez
Ġveh icle
Ġembal agem
j i
ĠF air
Ġinit ial
D etalhes
d ent
Ġg osto
ten ha
An y
Ġa er
an ca
Ġin im
us ed
ter m
ĠVal ue
ament ais
Ġmean ing
ĠG ratuito
Ġap ps
part y
Ġeff ort
Ġcompet itive
Ab out
ĠveÃŃ culos
v indo
w est
ĠI orque
Ġpl ants
201 2
Ġsw itch
ĠVers ion
Ġagre ement
ar ter
Ġpar king
ĠF arm
Ġra il
Ġtry ing
Ġenh ance
ĠSt ay
Ġplan ning
Ġread ing
ĠespecÃŃf icos
P ost
Ġw rong
ĠC u
ut en
ĠE ncont
ert as
Ġdeliver ed
Ġrepl ac
ĠÃį ndia
ĠS istema
ob ili
Ġequip a
Ġinclu ir
Ġtec ido
ĠArt s
burg h
fer a
te e
Ġinteg ral
am i
ĠU lt
ĠGeor ge
ec ido
ĠW ell
ĠHotel Quickly
ended or
ĠLin ux
x x
ĠC ape
ce ed
Ġpass word
Ġnum bers
Ġparticular ly
Ġsay ing
ar Ã£o
Ġn omes
id i
ra k
abil ities
Ġbel eza
ĠAc adem
Ã´m bia
Ġlink ed
Ġobt ained
ribut ed
Ġsignificant ly
eph one
ed as
un te
Ġst reet
R ep
ic iclet
Ġb all
ĠF ut
Ġch Ã¡
ĠnÃºmer os
Ġdesaf ios
ĠT ri
Ġlist ados
Ġamb iental
ĠSa o
ĠBru x
E U
J et
at i
Ġl hes
ĠD O
ab led
ĠPro te
B M
it ut
ic ano
Ġdis pos
ell er
Ġchang ed
ĠS hop
iv eness
Ġ6 00
ĠCount ry
ĠlÃŃ qu
G S
Ġescrit Ã³rio
ĠBrit ish
Ġdorm ir
F C
em ale
enc er
ĠVer de
Ġann ounc
ĠM undo
Ġconven iente
Ġig ual
H S
v ar
ĠR en
Ġmach ines
Ġto que
Ġcom ments
ond a
ĠEx ecut
ĠCar los
Ġinteg r
F R
Ġneighbor hood
Ġn erv
il er
Ġsp ot
F un
ĠP eter
Ġis land
Ġap rim
ĠComp are
Ġportugu Ãªs
D ec
S ua
Ġs am
Ġreg iÃµes
Ġtr Ã¡s
Ġminim um
ĠJapan ese
p here
il ities
Ġinvest imento
Ġback up
Ġopen ed
ĠRuss ian
Ġefet uar
F OR
ĠA cess
do wn
ĠR a
ĠIn vest
Ġbel ong
Ġresp ostas
Ġcit iz
H oje
os en
ha el
Ġpre gn
Ġout door
Ġloc ations
ĠCar ib
Ġbenef it
ĠCi Ãªncias
6 2
ĠJ u
Ġoc as
Ap esar
Ġop pos
Ġhor Ã¡rio
Ġdom in
Ġadv ance
an y
ĠB ad
ĠL et
ve iro
if orm
Ġdes cre
Ġob lig
Ġbec omes
Ġrealiz aÃ§Ã£o
ĠCor por
Ġtas k
I nd
d i
Ġp un
Ġfilm es
T D
c op
â Ĩ
ar ily
Ġbe yond
Ġ4 4
ĠÃ¡ udio
ĠAv alia
ĠH en
ĠH im
ĠEm ir
Ġpag ar
Ġm Ã³d
Ġv s
ĠA dobe
ĠE arth
Ġmin ute
Ġfoc o
ĠCop enh
Ġdecid ed
d is
Ã§ am
ĠM otel
Ġex cess
ĠPl aces
Ġdiv ulg
Ġsens or
Ġexerc ÃŃcio
ĠÃ¢mb ito
Ġf osse
ol i
ĠL ag
ard ens
Ġinc ent
Tod ay
ĠVac ation
Ġl ar
Ġv it
Ġy e
ĠO t
Ġmu ita
ĠEx change
Ġdeter mine
Ġplac ed
K ey
Ġg ol
Ġmilh ares
Ġinflu ence
Ġ rio
it age
ag ers
ĠL ima
Ġen able
iab ility
Ġintell ig
] .
a ux
m at
Ġcom Ã©rcio
Ġpar ents
Ġab and
ri as
Ġv Ã³s
Ġcond iÃ§Ã£o
Ġident ificaÃ§Ã£o
work s
Ġpraz er
Ġt Ã©r
al moÃ§o
ce u
Ġac id
Ġdire ction
Ġquer o
Ġcertain ly
ĠeconÃ´m ico
P T
Ġvo ice
unic ÃŃp
D S
Ġ icon
Ġfr uit
ock s
Ġprof und
Ġhor Ã¡rios
Ġapresent aÃ§Ã£o
Ġgrow ing
ĠVen ez
ment os
nt own
Ġnecess Ã¡rias
ident ial
Ġport as
Ġin Ãºmer
Ġl ou
et or
Ã¡ c
ĠP L
ĠB ase
eg u
Ġsupport ed
Ġrele ased
ĠIndust ry
ĠdÃº vida
ffici ent
6 3
B ecause
eg an
Ġcel ular
Ġcondition ing
on as
qu ist
Ġcomp ens
ĠAl g
Ġfe itas
ĠCol Ã´mbia
ĠShang hai
hip s
AC T
Ġfrequ Ãªncia
ĠE M
ĠH ospital
Ġpass agem
olÃ³g icos
Ġesfor Ã§o
Ġgor dura
S al
Ġw rite
Ġl if
ĠK it
Ġman ufact
Ġgra u
EC T
Ġs or
Ġh ip
ĠM ill
Ġcont rato
Se u
Ġeven ing
Ġpan el
M ed
R I
d em
ist Ãªncia
ĠR ib
ĠAr te
Ġcam pos
Ġla unch
Ġexper iment
ĠPe qu
know n
L ink
ĠA th
Ġag osto
ĠmÃ©d icos
ĠWi Fi
ĠPriv acidade
bour ne
Ġpassage iros
9 7
n el
r Ã£
y o
Ġunivers al
l or
at Ã³ria
Ġl uc
ĠG ab
ĠRec om
ĠComm unity
Ã³l ica
Ġplant as
edd ing
Ã©t icos
Ġopin ion
ĠBo ard
Ġnetwork s
ĠEduc aÃ§Ã£o
Tur ismo
Ġvis ion
Al though
Por que
C re
L ast
Ġd ens
Ġm erg
Ġv on
ĠJ uan
ĠS M
ĠE dition
Ġprodu zir
Ġclass ificaÃ§Ã£o
k o
al o
Ġr iscos
ĠTh ings
Ġstud ent
Ġtest em
ĠInform aÃ§Ã£o
5 7
M ake
W S
Ġn inguÃ©m
ĠM ov
iz agem
ual izaÃ§Ã£o
Ġhealth y
Inform aÃ§Ã£o
ĠespecÃŃf ico
Ġh ar
ĠP S
ag ram
ĠCat al
Ġil ha
ic ed
ri an
Ġr ess
Ġsim ult
ĠBud ap
Ġrecuper aÃ§Ã£o
C hoose
Ġtorn o
F irst
en ho
Ġm l
Ġproc urar
ĠCour t
l ong
Ġm old
ĠC ookies
Qu er
Ġindivid uais
Ġol har
Ġpi eces
Ġc Ã³p
an z
Ġg ain
ĠL anguage
Ġit al
Ġinter ests
Ġass ociaÃ§Ã£o
Ġutiliz adores
Ġprepar ed
Ġpract ical
idd en
F am
w in
Ġf ish
se qu
Ġab ertura
pres as
ĠSk y
ĠO K
cion ais
Ġconstru ir
ĠDes envolvimento
ocol ate
Ġalugu er
Ġasseg urar
f m
Ġf ashion
ro le
Ġst e
Ġcont as
Ġur b
ĠVis Ã£o
ĠSystem s
Ġatual izaÃ§Ã£o
Ġroup as
ĠBran co
Ġc ruz
Ġe th
ion ar
im entar
st ract
ĠR Ãºssia
ĠE nc
Ġvol unt
Ġwant ed
ĠPre Ã§o
ĠÃģ sia
Ġgrad u
Ġseem s
Ġilumin aÃ§Ã£o
ĠB oston
ĠF ind
ain e
Ġsp a
ĠIm p
Ġmark ets
ĠVers Ã£o
H A
Ġe uros
Ã¡ n
ĠA T
ert os
201 8
Ġresol uÃ§Ã£o
C ur
ĠR ich
ĠE ss
ĠH o
emb ly
Pro dut
Ġexpl orar
Ġfield s
M in
b ec
Ã¡ cio
ran ce
Ġcert amente
Ġselecion e
Ġinici ar
Ġpict ure
Ġanalis ar
Ġt inham
ĠC C
ĠP ai
Ġus adas
Ġtec n
Ġarchitect ure
b and
us c
ĠAg ora
Ġeconom y
ĠFire f
Ġde ad
he ther
ific ations
Ġag Ãªncias
rig o
apt op
C ap
E uro
re land
ĠBel g
Ġstor ed
Ġtransm issÃ£o
ar reg
Ġal i
Ġset e
Ãªn io
ĠElect ric
ĠÃŃ ndice
l ers
l ike
ang o
Ġcar reira
aix e
Ġpres idente
Ġmonitor ing
s et
ens es
Al ta
Ġshow ed
Ġsepar ate
Ġvill age
T ube
r idge
ĠM O
ĠM adeira
Ġart es
ĠII I
Ġwarrant y
Ġs it
ĠE c
Th us
ĠMar ina
Ġsim ilares
ĠmÃºs icas
Ġwrit ing
eij ing
H O
m edi
Ġh uge
ce is
Ġter ror
In tern
P A
ul ate
ĠL uz
Ġev id
Ġrecebe u
ĠSingap ore
ibliot eca
ro ad
ĠV oos
Ġcover ed
Ġconfl ict
ĠH av
Ġper igos
ak ers
Ġmod es
Ġutiliz a
ĠHe ad
ĠPre fer
Ġdec ide
Ġwalk ing
Ġtare fas
ĠromÃ¢nt icos
Ġt iv
est ar
ĠL it
Ġother wise
Ġ200 1
vers e
IC A
Ġcompanh ia
at ers
Ġl anguages
Ġh ire
ac her
ĠBr ussels
Res erv
Ġremo ver
S ec
r ich
Ġe g
Ġ8 00
Ġsc ript
Ġbase ado
Ġbenef ici
Ġextrem amente
Ġdriv ers
ĠC ross
Ġcum pri
Ġap esar
Ġinv ent
ĠSant os
Ġautor idades
il ho
ĠF alls
ĠO m
ĠAl t
Ex istem
Ġmerc ados
ĠespecÃŃf icas
ĠF ern
ĠK itchen
Ġgo es
Ġfollow ed
Ġpan or
Ġindiv ÃŃduos
D ef
y ear
ĠS om
ĠB et
mo oth
It s
Bus iness
ĠBlu etooth
Ġig ualmente
ĠC up
ĠE p
Ġcomp r
Ġany one
ĠEng land
irm ingham
Ġfre edom
ĠVen ice
B A
Ġqu iet
ĠG mb
ho ps
Th rough
Ġvers Ãµes
Ġgar ante
ĠNet herlands
S om
Ġd icas
Ġf air
ĠF ine
Ġm ÃŃdia
ĠC ore
Ġtest s
ĠPal m
Ġinteg raÃ§Ã£o
Mu itas
or age
ar ies
he et
Ġth er
ĠL ic
Ġcan ais
ĠSw itzerland
Ġimplement aÃ§Ã£o
Ġupd ated
Ant es
ĠT ower
Ġal arm
ov en
ock et
Ġmil itary
Ġcare er
ĠProv ince
Ġabsol ut
ĠEnerg y
O pen
Ġmin has
ĠQu inta
Ġeas ier
Ġbeaut y
ĠÃĵ leo
Ġthous ands
S pecial
h ada
Ġs cience
ĠP os
Ġoper acional
ĠReg ist
Ġprepar ar
ro t
Ġst r
Ġj oint
Qu ais
ĠDestin ia
Ġs hop
Ġbe ar
Ġfe es
Ġref riger
ĠWh en
Ġcrit ical
ĠChar l
C amp
Ġs quare
ĠC it
ĠB is
Ġac resc
Ġcompat ÃŃvel
Ġde posit
Ġfor t
ĠR y
Ġen em
ĠU RL
Ã©r c
Ġadequ ada
Ġps ych
ond ay
Ġserv ed
ner o
ĠPra gue
Ġc Ã¢mera
ograf ias
ĠfÃŃs ica
Ġse i
ĠF ast
ĠV an
Ġautom Ã¡tica
ĠCong ress
ĠExpl or
Ġpol y
Ġfavor itos
Ġpast a
ĠGmb H
D ist
ĠP ad
ul ated
Ġal though
ĠMan chester
Ġmechan ism
h u
Ã© u
ĠR F
ly mp
Ġcar ne
Ġwork ed
ĠFl at
Ġobjet os
ili ares
Ġsalv ar
ĠNeg Ã³ci
il et
Ġg ather
Ãª ut
Ġen vol
ĠQu ick
Ġdesenvolv ido
Ã´m etros
I Z
ĠH Y
ĠV ery
Ġjunt amente
Ġsolic it
Ġjo in
Ġs ources
ĠS pecific
iz z
ĠK n
atur day
Ġcontro lo
ĠPart y
Ġsug er
Ġexclus ive
ĠGal axy
Ġtare fa
' ,
R S
Ġa ward
ĠP s
ĠB and
Ġse ven
ĠW in
anc ouver
Ġseg ura
Ġer rors
Ġcontin ua
is i
Ã§ Ãº
Ġest rada
Ġj ap
Ġcol eÃ§Ã£o
et ing
ant as
ab ul
Ġcar s
Ġnear by
ĠSu ÃŃÃ§a
ĠCont agem
Ġbr ilh
ĠMod elo
ĠProdut o
D E
E v
P ublic
ĠH ilton
Ġr ank
ĠCh at
ĠPh one
ĠPre to
Ġmodern o
Ġnuv em
ĠS av
Ġk il
AL L
Ġpron unciation
A A
Ġd ra
ĠT here
ĠO EM
Ġsuccess ful
Ġtut ors
Ġrel ation
Ġob s
ios os
ĠRes ultados
ĠT y
ĠDe v
Ġimp ed
cor r
ĠIsland s
Ġthink ing
Ġocc up
Ġarriv al
Ġfor Ã§as
elec om
Noss a
p ack
Ġp Ã³
Ġm g
ĠC in
ĠF OR
ow der
iz adas
Ġch osen
rat es
ĠHost els
Ġappear ance
ĠSur f
Ġrout es
ĠTod ay
ĠB il
ant ed
Ġab rang
ubl ado
ĠPower Point
Ġefici ente
Ġcomport amento
ĠT H
ĠE qu
Ġex clu
an al
he te
Ġl ose
Ġ4 7
Ġtrans lation
Ġverdade iro
Ġfit ness
Ġprova velmente
Ġm ut
ĠCom un
Ġlog in
Ġkind s
Ġaim s
8 9
F re
Ġtra ffic
Est Ã¡
ĠAp ps
Ġobject s
Ġobserv ed
Ġindepend ent
Ġsess Ã£o
Ġjorn al
Ġcom entÃ¡rio
ec endo
ĠL ine
um as
Ġpl aca
ub ber
aliz ation
ĠCol lege
ĠBu y
ĠLy on
ĠD etails
ap y
Ġposs ibility
Ġsitu aÃ§Ãµes
Ġf ine
Ġre put
ag re
ER S
ĠprÃ³pri as
ÃŃf ico
Ġtechn iques
ĠProt ection
TM L
Ġv ital
Ġh orm
ang zhou
Ad ditional
Ġlev ant
ĠAf ric
Ġo ce
Ġem ot
Ġrel iable
Ġel ement
Ġed ge
R o
Ġv istas
Ġserv idores
AN T
ĠCons ult
ĠInstit uto
ĠGall ery
ĠAnton io
8 2
ĠAm b
Ġinf ant
Ġesp iritual
Ġdid n
ĠDi ego
Ġschool s
Ġextrem ely
ĠF ar
ĠJ ulho
rim ir
ues day
Ġinclus ive
i ation
Ġw aste
ĠC ode
ĠP in
ud a
pap er
or r
int e
Ġint ro
Ġcas amento
Ġsus pens
Ġpret ende
ort os
Ġ4 6
Ġpa id
ĠTra bal
Ġdom ain
Ġsignific ativamente
Ġveget arian
Ġsemelh ante
Ġidi oma
Ġres ort
ire m
Est amos
Ġ0 7
Man ual
ĠanÃºnci o
ĠMu ito
Ġpossu em
8 4
P rim
w ell
on de
ĠC are
Ġav ent
Ġinf rast
Ġprecis ar
Ġfinan ci
Ġc ore
ri Ã§Ãµes
port es
Ġpre pare
Ġup per
ren e
Ġparticip ants
rag on
Gu ia
Ġcommit ment
Ġenorm e
Ġd ado
om ing
Ġre ais
ĠG PS
Ġreg ime
ĠSh ar
ĠCon stru
ĠSu ite
Ġpot Ãªncia
g ow
is her
Ġb anda
uk et
ĠPerson al
Ġs cre
ĠD ar
ag on
OR T
Ã¡b ado
Ġnuv ens
' .
m y
ĠD isc
ĠV I
Ġ4 9
Ġcons olid
Ġmod a
Ġobjet o
ĠDec or
Ġex atamente
Ġdire to
Ġprot ected
Ġtab ela
Ġrad io
Ġbil hetes
ĠEg ypt
ĠOce an
Ġdist in
Ġespecial izados
Ġauthor ities
Ġcompre h
es ides
id amente
Ġh osp
Ġpre visÃ£o
Ġs ap
Ġag entes
ĠlÃŃder es
Ġal ugar
ĠPh oto
Ġcal Ã§as
Ġdecor aÃ§Ã£o
Ġdiscount s
T e
Ġv ast
pl as
Est as
Ġfacil it
Ġpersonaliz ado
O K
Ġdef ici
Ġallow ing
Ġempre go
Ġquad ro
Ġexact ly
ĠparÃ¢m etros
T our
Ġc ro
Ġmed o
ĠSet embro
Ġcomprom isso
Ġcell s
Ġac eler
Ġad ot
ov os
ĠRe port
Ġdire ita
Ġfe itos
Ġesper a
Ã©l ite
ĠM r
Ġg osta
ĠT ar
Ġev ang
ĠRes idence
lt i
Ġdest roy
Ġref lex
Ġbro ch
Ġapart ments
Ġsav ed
y cl
ed nes
ĠEs pa
Ġaum enta
Ġlic enÃ§a
ic one
ul ations
ÃŃ ss
ras ile
Ġexpl ore
Ġacess ar
y right
Ġf ogo
Ġb right
ĠP ot
Ġdel a
B C
D ep
g ica
i ada
Ġw est
ĠB irmingham
ĠI reland
ĠF irst
Qu em
Ġjov em
Ġtas ks
Ġsustain able
s creen
Ġplan os
Ġbre ve
F orm
T unes
p ass
Ġ 00
un st
ĠF otos
Ġparticip ation
Ġprofess ores
Ġadv ice
Ġcommit ted
Ġprivil eg
Ġm id
ĠP ool
Ġre cip
Ġpre ench
ĠCh i
Ġoper ate
Ġpost s
Loc alizaÃ§Ã£o
ĠVen eza
Ġfel iz
4 00
or ado
Ġm is
Ġf rio
Ġg ram
Ġreg ions
Ġsl ow
Ġcooper ation
ĠRad io
Ġwonder ful
Ġoferec emos
Ġsmart phone
cel er
Ġw ants
ĠI S
ĠV ancouver
ific ial
Ġdire ta
las gow
Ġlead er
Ã¡st ica
Ġinteress es
Ġexecut ar
Ġb ur
ĠP age
ĠCom entÃ¡rios
Ġtr Ã¡f
Ġpers ons
Ġdecis Ãµes
ĠMo z
L ux
p i
r Ã©
en ities
Ġb ols
Ġan teriores
od Ã£o
ĠR ece
Ġst ates
Ġdos e
Ġout put
ĠlanÃ§ amento
Ġmanufactur ing
Inc l
in ais
Ġf i
Ġto po
ĠC er
ĠR am
Ġsc an
Des ign
Ġland sc
Ġdesej o
Ġmarav ilh
2 50
M L
Ġcont rat
Ġcomp rimento
Ġfic arÃ¡
Ġmot ivo
Ġmom entos
Cl ass
Ġespec ificaÃ§Ãµes
H L
Ġd ign
Ġd ream
el le
ĠR ol
Ġupd ates
Ġesfor Ã§os
Ġsym pt
ĠcÃ©l ulas
it iba
ĠFor um
Ġcreat ive
at on
Ġinclu ÃŃdo
8 00
M I
ĠS port
Ġh ouses
ect ive
ai ro
Ġesc rito
duc ed
Ġfornec idos
Ġpack aging
Ġconvers Ã£o
u ito
ĠH ard
ĠW he
ĠCom mit
Ġrec ently
ĠVi enna
ĠWill iam
ri x
Ġprop osta
Ġgost aria
Ġchall enge
X X
b ody
c raft
Ġ ib
ĠS ab
ig as
Ġpre jud
Ġver melho
ĠCon vers
Ġcomplet ed
Ġens in
Ġfabric aÃ§Ã£o
ĠPrem ium
ĠMig uel
O u
un ning
ĠV ivo
Ġab und
Ġent ry
rit ion
cre va
Ġident ific
C ON
Ġal co
Ġfut ebol
ĠApart amentos
Ġrevol ution
Ġincr ÃŃvel
k et
ĠS oci
Ġac ord
Ġcor rig
pre ci
Ġpesquis as
Ġcaus es
Ġacont ecer
Ġestabel ecer
Ġesquer da
M aterial
Ġd Ã³l
Ġcom ando
ĠH air
Ġat endimento
Ġcont ents
Ġman eiras
ph as
Ġcult iv
Ġdefin iÃ§Ã£o
Esc olha
8 7
B ed
k g
Ġform er
Ġprov en
ĠEm ail
Ġconsult a
Ġcomun idades
Ġindepend ente
ogrÃ¡f ica
O ff
Ġc iÃªncia
ĠM all
ram os
Ġsp end
Ġbar atas
Ġcre d
Ġescol as
Ġsitu ated
Ã´n ica
Ġlux ury
Ġb ens
od er
Ġst ations
ĠW alk
Ġcan al
Ġ4 1
Ġsc he
ĠCan on
Ġcr ÃŃt
Ġlocaliz ada
Ġinteg ration
ĠSw ed
ĠLou is
Ġigre ja
ednes day
on Ãªs
an cial
st e
ĠT ok
Ġdetermin ar
Ġterra ce
ĠorÃ§ amento
P res
ĠS ac
Ġl ate
ĠH ung
Ġad qui
Ġfl ash
Ġprofess or
Ġf uel
ĠS unday
Ġcon hece
Ġgo als
Ġpriv ada
Ġil ust
Ġterra Ã§o
ĠEquip ment
estrut ura
ĠRail way
ĠBrux elas
ĠL abor
Ġfr am
ĠIn gl
ĠRe view
rad u
Ġfin ish
Ġexper ts
ĠCast le
Ġbil hete
Ġleit ura
Ġrel atÃ³rios
Ġtorn ando
ify ing
Ġacom pan
Ġcomer ci
Ġrelig ious
Ġmist ura
ĠAven ue
ĠProfess ional
ĠFiref ox
om o
Ġre pe
Ġr ural
Ġst y
ies el
Ġam ea
ĠSe u
Ġpublic aÃ§Ã£o
ĠTer min
Ġtab let
Ġpasseng ers
a j
ĠL ago
ĠV in
Ġro d
ten Ã§Ã£o
On ly
Ġident idade
fort able
Ġcooper aÃ§Ã£o
Ġs ort
Ġs ons
Ġs abor
Ġb illion
Ġto w
ot as
ous adas
Ġempres ar
Ġexist Ãªncia
Ġassoci ados
ĠTech n
Ġcombust ÃŃvel
ĠP A
Ġg ran
Ġsol ve
fr ont
s p
Ġt ap
at u
ĠR ac
ĠF ram
Ġdiz endo
Ġcoord en
Ġparam eters
p al
Ĺ ı
Qu anto
Ġfic ou
Ġlist as
Ġexc urs
Ġapar Ãªncia
Ġvest ido
M es
Ġc ord
oc ia
ci ences
ĠV ar
Ġpl ans
ĠÂ £
Ġresol ution
Ġbuy ing
ĠMach inery
9 2
ĠAl ta
ĠPh uket
Ġpat ient
ĠResort s
ĠPan el
ĠprincÃŃp io
E E
Ġmed ium
Ġi Pad
Ġconhec ida
Ġfact ory
D P
Ġp ure
Ġp ne
Ġv ot
Ġsh ower
Ġbar ra
Ġbeb Ãª
Ġadvert ising
m ond
ĠC arm
Ġg ift
od ies
ÃŃ bl
Ġmet res
ract ions
Ġbed room
Ġvant agens
F S
g ia
Ġ river
Ġd il
Ġre visÃ£o
ĠM EN
ĠN ame
ok an
Ġcl icar
ĠK ore
Ġad vis
ĠAl ugar
201 4
ĠSil ver
Ġguarante ed
ĠPap er
8 3
F T
Ġa ware
ar c
Ã§ ado
hec imento
Ġte ams
ĠEm b
uk e
Ġchang ing
ĠLoc ation
ĠprincÃŃp ios
1 01
Ġg el
ce ira
ĠK e
mer ce
istem as
Ġins c
Ġi Tunes
Ġindust ri
Ġcommun ities
Ġaltern ativa
Ġclos ed
Ġvisualiz ar
EF A
ĠU tiliz
Ġch in
ĠLe ague
Ã´n io
ĠChrist mas
Ġroup a
ĠespÃ©ci es
ĠVeget arian
o is
ÃŃ cul
Ġhe ard
ej o
Ġnaveg aÃ§Ã£o
ĠFr iday
Gen eral
Ġf av
ĠB erg
Ġcert a
Ġregist ered
Pl an
ĠComm unic
Ġren ew
ĠGold en
ĠReserv as
M ont
ĠB ell
ĠB eijing
Ġart ic
Ġger ais
umin um
Ġcamp anha
Ġcloth ing
l hes
r ont
Ġm iddle
ap or
Ġcomp act
Ġcl imate
ĠPark ing
ĠtÃ©c nico
Ġcapaz es
Ġintelig ente
ĠS her
le v
Ġfor tal
Ġhe ight
plic aÃ§Ã£o
Ġsub m
Ġtest ing
Ġdefin ed
Ġatualiz aÃ§Ãµes
Ġmajor ity
P os
P et
re w
st al
form ance
Ġad ults
Ġsh ape
Ġprim ary
Ġsc ale
Ġmain ly
Ġatra Ã§Ãµes
L A
V E
Ġv iz
Ġpar ar
ĠM i
ĠM iddle
Ġfor ces
Ġrec entemente
Ġdest inos
Ġbuild ings
Ġproced ure
ĠS ER
Ġreport ed
Ġjunt os
ĠÃ³r g
D R
Ġn uc
ĠD A
erop ortos
v iv
ĠD ouble
ĠPro pri
Ġbusiness es
Ġinde x
ĠHist ory
ĠStud ies
cl os
Ġtip s
Ġace ita
ĠLat ina
L ist
p osta
ad ium
ĠO lymp
out hern
Ġserv ers
Ġdist rict
Ã´m ico
Im port
Ġaltern ative
G A
T ech
Ġe ight
al has
Ġm ent
Ġex plo
cl am
Ġcr is
Ġrecom enda
Ġpasse io
ĠVict oria
ed ing
Ġv az
ĠB ern
Ġsec o
Ġfic heiros
Ġpermit indo
Us ing
Noss os
W eb
ĠC ase
Ġal bum
Ġant igo
Ġinf ect
Pro gram
Ġcir cum
Ġapre ci
Ġaband on
l ado
u ction
iliz aÃ§Ã£o
St ock
Ġedit or
E B
ab e
ater ra
Ġeff orts
Ġexist entes
C ustom
S itu
ou rag
ĠS en
Ġre ached
Ġam azing
Ġconhec imentos
Ġsatisf aÃ§Ã£o
Ġship ping
t el
Ġd anger
est es
ul ado
ĠD an
Qu est
Ġdia b
Ġfeel ing
Ã³st ico
P an
Ġto ler
com ing
Ġass unto
ĠReg ion
Ġcolabor aÃ§Ã£o
9 4
Ġs enha
Ġw ireless
ĠM apa
Ġcon duz
Ġen vio
ĠSp ring
ĠGre ece
M ay
S elect
e ases
ĠI ll
Ġi OS
Ġdig itais
Ġexcel entes
Ġsw imming
Servi Ã§os
Ġinfrast ructure
B ack
ra is
ig ar
Ãª nt
ĠV el
AR T
Ġvers ions
Ġrespons Ã¡veis
Ġrepres enta
Ġedit ar
Ġec rÃ£
clud ing
D C
E quip
ĠM ulher
ĠG lasgow
ĠCom pl
Ġutiliz ada
aint ed
ĠsÃ³ l
Ġnumer ous
Ã§Ãº car
l ife
w ater
Ġfor get
un k
pl ate
Ġrec onst
ĠExt ension
Ġgirl s
R et
l ock
n ik
Ġro ck
Ġ8 5
AD E
ĠespecÃŃf ica
Ġescre ver
ĠmÃº lti
Ġb iciclet
ĠL i
ak s
Ġir Ã£o
Ġaprend izagem
Ġs mooth
ĠS ust
ĠD iam
pl it
ate ver
Ġeste ve
ĠRo oms
b ut
n s
Ġin aug
ĠR ights
art s
Ġpres c
Con f
ĠpÃºbl icas
Ġcharacter s
Ġinstitu iÃ§Ã£o
S elec
t em
Ġre covery
ĠD ez
und er
Ġsp aces
ĠEn vironment
Ġimpl ant
stand ing
Ġpac otes
ĠInt eg
Ġocor re
ĠBan co
ĠbÃ¡s ico
ĠManufactur ers
6 00
Y es
Ġdis cre
Ġrem ains
201 9
Ġident ity
Ġtur ÃŃsticos
Ġevalu ation
Ġconfi Ã¡vel
h ado
ĠT ai
Ġap ont
tern oon
Ġsp ect
ilh Ãµes
Ġpass a
Ġsin ais
Ġ199 9
Ġprint ing
Ġps ic
V enda
ri ers
ĠV all
du zir
ach ing
ĠCl ose
ason ic
ĠSex o
G ar
ĠE S
Ġ1 01
Ġest aÃ§Ãµes
ĠN Ã³s
Ġacc ur
Ġdisc ut
ĠAb out
Ġassist ance
Ġteach ers
Ġshar ing
h r
ĠC ry
Ġr ating
Ġcontrol ar
Ġjour nal
P op
r ÃŃc
Ġbar ata
Ġregist o
Ġem phas
ak i
Ġk ids
ang es
Ġconsider ado
Ãºmer o
rop ol
Ġreun iÃ£o
Ġreun iÃµes
c ars
ĠD eg
um ents
ĠK y
Ġch ain
Ġpos terior
Ġoc cas
yl on
Be fore
P ron
S ign
Ġp urs
ĠR oll
Ã³ leo
ren o
iam ent
ĠCompar ison
Ġsubmit ted
ru p
ĠInst agram
Ġevol uÃ§Ã£o
ro z
em ark
ĠN ik
ĠJ our
Ġprin ciples
ĠLe on
ird s
Ġnorm as
N as
ĠA ra
com o
pt h
Ġag ents
ativ ely
Ġir rit
Ġbr ings
Ġped ir
Ġbanc os
p ers
z inha
un al
ĠH on
Ġtrad ing
ĠAcc ount
g i
ĠF estival
Ġest er
ĠV o
elh as
ĠPro perty
ĠUnivers al
Ġproced imentos
p her
Ġcont ribute
Ġdes ire
ĠQu est
Ġcart Ãµes
Ġcut ting
Ġ idos
ĠP izza
It al
ĠAg re
Ġban heiro
ĠOut ubro
Ġviol ence
Ġcompre ensÃ£o
Ġproced ures
Ġvent il
Ġat ac
de al
ord er
urs day
Ġquil Ã´metros
ir ing
un o
ĠF R
ĠPl astic
Ġalt as
ĠMest rado
rane an
ĠS el
ĠP eters
Ġmet od
Ġport Ã¡til
Ġplan et
Ġexpress Ã£o
ĠDis play
Ġviol Ãªncia
Ġc Ã¡l
ĠR oc
ĠE nd
Ġj oy
vis o
emb le
Ġtrat a
ĠaÃ© rea
Ġocor rer
ĠFound ation
Ġfram ework
Ġo d
ul k
Ġsp ac
ĠRes ol
Ġgar ra
Ġopin ions
ĠFil ho
Ġveh icles
N esta
at re
ĠM ir
ĠT ag
ĠT her
Ġac ad
Ġexperi enced
Ġdom Ã©st
ĠMel bourne
Ġb reat
ĠS peed
Ġfor em
Ġr it
ĠN ar
ell ence
ian os
Ġsem i
Ġgl Ãº
Mas ter
Ġcompre ender
F il
S et
we ather
ĠSu a
Ġpublic idade
Ġengine ering
Ġclean ing
Ġjur is
N ota
c are
an ch
Ġg Ãª
ĠN uv
Ġsp ent
Ġlim po
Ġamb ientes
ĠInst ant
osp el
Ess es
Ġagre ed
ĠC ath
ri os
ri age
ĠF ashion
Ġal ma
Ġdef ault
Ġsitu ations
Ġsl ight
Ġconsci Ãªncia
Ġmention ed
M embros
S uper
on ial
âĢ ĳ
ĠF C
press ion
201 3
Ġirm Ã£os
Ġfurn iture
A qu
Ġsu gar
end Ã¡rio
Ġhigh light
ĠBr idge
Ġtop ic
ĠSaf ety
Ġcitiz ens
Ġp Ã©s
ri fic
og ar
Ġdis eases
Ġnot ÃŃcias
Ġcompl iance
Ġpass ou
ĠAd icionar
Ġdi pl
Ġsee k
Ġeng enharia
ĠCas as
Loc ated
het ic
Bel ow
ĠEngine ering
ĠHY IP
] ,
b ury
Ġt rop
Ġl idar
Ġcas al
Ġredu ction
Ġeleg ante
ĠRoyal ty
Ġe dition
ĠS ave
ĠL ista
ĠN ut
ĠV ale
ativ idade
Ġprepar ation
Ġsemelh antes
Ġt ree
Ġt aste
Ġad or
ps on
Ġdeix a
Ġspecific ations
D ata
G ra
n i
Ġs ed
as o
it Ã¡ria
qu ality
Ġv en
Ġap point
Ã³n ia
Ġconsult e
Ġey e
Ġst ainless
An other
8 1
atur ing
ugh ter
can ner
Ġconduct ed
ed y
ÃŃ ncia
ĠÃ ļ
rat ing
Ġrel Ã³gio
Ġver ify
Ġcrit eria
Ġsuppl ement
Ġconnect ing
ĠglÃº ten
qu et
ĠK h
ÃŃt io
Ġlib ert
Ġappear s
Ġfra ca
Ġheav y
b u
Ġd oub
Ġv ÃŃrus
Ã³ is
Ġremo Ã§Ã£o
Ġfel t
Ã ķ
Ġde ce
ad el
ir ma
Ġover all
Ġdef ine
Ġjust iÃ§a
ĠIm age
Ġdefin ir
Ġadminist raÃ§Ã£o
Ġelev ado
Ġinflu Ãªncia
Ġocor r
ĠQue en
S now
â ĸ
Ġab erta
urg ia
sh irt
Ġcrit Ã©rios
Ġsatisf action
Ġatmos phere
Ġand ar
ul aÃ§Ãµes
Ġr astre
ĠL ei
Ġext ract
Ġcall s
ĠCommit tee
n Ã£o
Ġm unicÃŃp
Ġpro vis
ĠH u
Ġfl ores
ie v
Ġprodut ividade
ĠCon f
ound s
Ġfrequ entemente
Ġterrit Ã³rio
Ġill ust
Ãķ ES
p as
ĠB lo
ĠR i
Ġdist ingu
Ġdimin u
Ġvert ical
9 1
S w
Ġimp ostos
ubl es
Ġneg ative
IS T
ĠLoc al
Ġcrim e
ĠS hopping
ol ar
ĠM id
Ġfe et
Ġelev ada
ĠelÃ©t rica
Ġep is
Alugu Ã©is
ĠExplor er
P Ã¡gina
ĠS H
se x
act ions
Ġown ers
Ġregist ration
Ġve io
Ġmor al
ĠColl ection
Ġingred ientes
Ġingred ients
ÃŃb rio
c one
Ġt ens
ĠS ens
ĠR ain
ĠRe v
Ġmus ical
Ġsuppl ier
ĠpÃ´ r
H er
Ġm ail
od ging
IN E
Ġcheap er
Ġrob ust
Ġs en
Ġr ÃŃg
ĠSt ainless
Ġman ip
ĠCl ick
ĠSu porte
Ġadicion ado
ĠAccess ories
G rand
t os
on ic
at in
ĠC Ã¢m
ot ic
ap ia
Ġman ner
Ġ0 6
Ġown er
Ġmal ware
Ġsuppl iers
M a
Ġd ut
ur ado
Ġme ia
ĠÃ¡ guas
Ġshow ing
Ġopt ional
Ġtro ca
Ġlic ense
in fo
en ef
an bul
Ġre vis
Ġem oc
ĠM ur
ap es
Ġtr uly
Ġimp r
Ġtrabal ha
ĠMed ic
ĠUs ed
Ġcloud s
D M
c ido
Ġt irar
it i
ic ia
vi ar
ĠCon fig
ĠBook ings
ĠDirect or
Ġstrateg ies
ĠChild ren
B razil
N S
ĠT un
ĠR C
and om
Ġpre ci
Ġav iso
Ġaccount s
Ġlook s
ĠBook s
Ġamost ras
Ġc ere
Ġth erm
ast ing
ĠCont in
Ġeduc ational
Ġauthor ity
ĠInc l
ĠAssoci ation
ĠT I
ĠEx peri
AT ED
ĠTec nologia
Desc ubra
A mer
m al
r d
Ġv ive
Ġsh ut
Ġle aving
Ġprov ider
Pro f
ĠDire ito
Ġdesaf io
c ons
u its
ĠC os
Ã³ via
ĠN ort
Ġna qu
ĠAg osto
Ġassoci ation
E d
ic idade
ĠB os
Ġ( ?
ĠR ap
Ġph arm
Ġbase ada
Ġclass ic
Ġf isc
ad i
Ġth ick
ĠB ill
ĠD ow
ag ar
Ġ1 10
ĠO d
av ia
Ġent ering
Ġaf ternoon
RE E
Ġinstrum entos
ĠRef riger
B o
J esus
ĠM ens
um entos
ĠU V
Ġter mo
Ġgeneral ly
s m
ĠP es
ors hip
Ġlarg er
ĠMarket ing
Ġarquitet ura
D irect
J ogos
Ġ rigor
Ġn et
ĠD ani
Ġun less
Ġ0 9
ĠSh ip
Ġph ase
Ã³d io
Ġlib rary
Ab aixo
W ell
Ġc af
Ġm ouse
il and
ĠM etro
rat is
Ġun iform
Ġant iga
Ġ0 8
Ġoferec endo
Ġsac rif
ĠTr ade
Ġrequest ed
ĠAP I
ĠCustom er
Mes mo
Ġf asc
ĠS ar
Ġv oss
ys canner
enh ora
Ġg ente
ĠW ay
ld er
Ġfix ed
Ġblo que
Ġheav en
Ġbehavi or
G reat
g nos
re ets
ro v
ust er
out s
ik a
Ġsp read
Ġche ia
Ġsec und
mail s
ĠMon itor
Ġmedic amentos
Ġdoct or
ĠF oot
ĠO fer
Ġdes per
ĠAl gar
Ġreg ress
iver y
Ġassoci ado
Ġverdade ira
Ġdepend endo
Ġcateg orias
Ġdisplay ed
Ġinstit ution
P riv
Ġt a
Ġt ras
ĠM ake
ĠV e
Ġent ert
Ġident ified
ĠFor est
ĠYou Tube
ĠFr ont
ĠHor iz
Ġa ulas
em ia
Ġr osto
ĠF al
Ġle ite
hed ral
red ores
ĠIm port
ĠestratÃ©g ias
Ġvig or
Ġchann els
D i
H is
P E
Ġfor est
Ġal imentar
og en
Ġreduc ed
Ġest ate
ĠO x
Ġac erca
Ġcomput adores
ÃŃm etros
ĠJun ho
ĠPres idente
Ġaud it
ĠLux emb
Ġsustent Ã¡vel
Ġimprov ement
1 50
eg al
Ġlead s
Ġsho ps
+ ]
G ood
W est
l ist
on ha
Ġb rasile
ra c
un as
Ġdest as
W hether
Ġf Ã³r
ĠA udio
ĠF ore
ĠK a
Ġalg or
ĠBe aut
Ġcompet ition
Ġru le
! âĢĿ
Ġh es
Ġat ivos
for ce
Ġap ost
ĠCon nect
Ġsur pre
ĠWe ather
Ġcombin ed
ĠTe am
Ġful f
Ġsaud Ã¡vel
ĠMÃ¡ quina
Ġcen Ã¡rio
? âĢĿ
D oc
ĠF M
ap py
Ġen ables
Ġ4 3
Ġund erg
Ġprop Ã³sito
oun ce
Ġsess ion
atem ala
g r
ĠN Âº
Ġk it
G E
Ġl azer
ĠW ild
ĠV PN
Ġj e
Ġdis posiÃ§Ã£o
Ġinter val
ĠRes erve
eld orf
Cont in
Ġmodern a
Ġstat ement
ĠPra ga
Ġtrabalh ando
ĠIl ha
ĠCiv il
ĠAle gre
ivel mente
Ġsimult ane
C R
ad ise
ĠW ine
ff et
Ġz ero
Ġinteress ante
Ġcob ertura
Ġdever ia
l ic
Ġs ets
Ġal de
az z
Ġform atos
Ġthem e
Ġdesign s
Ġmom ents
Ġflex ible
Ġs ede
ĠP ier
Ġcon dut
Ġfor g
all ed
Ġrec re
Ġmin er
ĠZ eal
Ġregist ry
ĠReg ional
Ã©rc ito
Ġin verno
ĠN ord
ĠSt art
ang ing
ĠDe b
ĠCur itiba
Ġw el
ĠF emin
Ã³ i
Ġmed iÃ§Ã£o
Ġret orn
Ġselecion ar
Ġinstrum ent
Ġata que
ĠAcess Ã³rios
Produt os
is ine
Ġn essa
Ġv idas
ĠA re
ĠT ex
ĠV il
og ia
Ġit iner
rad ar
St art
ĠEn s
Us ed
Ãªn is
Ä ģ
Ġf aixa
ion ais
ĠM iss
Ġg ets
ĠT able
Ġis n
Ġco ast
Ġalem Ã£o
ĠZeal and
ri ott
ab l
Ġst ores
ĠJ ames
io x
ĠCh ann
ĠAn a
Ex c
Ġbed s
Ġvisual izaÃ§Ã£o
ĠWik ip
ĠdÃ³l ares
p m
w orld
er es
he Ã§a
Ġpro ib
ĠF our
Ġtra zer
Ġover cast
Ġamb ient
Ġapar ecer
Ġvant agem
esqu ise
A pro
T om
ĠC and
av ar
ous ing
Ġbu urt
Ġprovid ers
Ġmont agem
Ġcaus ar
etr Ã³leo
Ġtarif a
Ġhistor ic
uts ch
ic ing
ĠC afÃ©
Ġh ouver
ĠT ail
Ġ7 2
Ġaqu ecimento
ĠfÃŃs ico
ĠÃ³t ima
Ġprob ably
ĠBM W
eliz mente
Ġd an
Ġt u
Ġp ad
ar ias
ĠU EFA
ĠCh rome
ĠCon vention
ĠSe v
Ġeste jam
At Ã©
Ġconse gue
Ġdetermin ado
II I
Ġcou ple
Ġjur ÃŃd
ĠVir gin
M elhor
S I
Ġt ail
Ġf en
Ġw inter
ri u
ĠP unta
vol ution
Ġdi eta
Ã³n io
ĠPop ular
Ġaleg ria
M ain
P rom
i est
Ġd out
Ġs now
ĠS ha
ĠP ict
Ġ( $
ĠD ut
pl ac
Ġmed iante
Ġdeix e
Ġdyn amic
á ¹
ĠS MS
Ġr Ã¡dio
ill er
Ġsh irt
ex e
Ġthan k
arg a
Ġleg ais
ĠOn de
ĠOut ros
ĠTor re
Ġthous and
Consult e
ri ef
Ġv enc
im ar
ĠA com
ig e
Ġal moÃ§o
um er
ob by
ib ar
Ġencont rado
Ġbar co
Ġdi Ã¡logo
Ch rist
Ġdecis ions
Ġevent ually
Ã¢mp ada
g ate
v ant
em s
co in
Ġne ut
ĠCon ference
Ãªm io
Ġcou ro
Vis it
N orm
Ġ 000
Ġf als
AR D
Ġaff ected
Ġult ra
ĠDepart ment
Ġa us
Ġh ouve
pl icaÃ§Ãµes
ip os
ĠEst udos
ĠMart in
H ave
S obre
Ġrece pÃ§Ã£o
Ġfal a
Ġextens ive
Ġtre es
Ã¢n icos
Ġclin ical
as a
ro b
ĠC able
ĠS ag
est o
Ġcon ver
Ġch Ã£o
Ġdesen ho
Ã³g ios
ĠOff icial
Un ivers
Ġacont eceu
ĠDom in
ĠWord Press
ĠAgre ement
l ink
Ġu pload
ĠC ant
ĠY es
Ġfac to
Ġace itar
Ġcheg ou
Ġproporcion a
Ġlab el
âĨ ĳ
A inda
at ia
ac i
Ġfr ame
ĠDe als
Ġmelhor ia
ĠPal ma
ĠGer ais
ĠMic hael
Ġestud ar
Ġtur ismo
Ġpartners hip
Ġating ir
Ġsint omas
Ġdep Ã³sito
Ġtyp ically
ĠIngl aterra
F ac
Ġpar ecer
ĠN Y
ĠAl i
Ġir on
ĠSol utions
Ġcha ir
r ine
Ġc od
Ġc ant
ĠF eder
Ġdel as
Ġdi Ã¡ria
Ġdef esa
ĠDom ingo
Ġaccept ed
h ow
Ġor aÃ§Ã£o
Ġpr onto
ĠW here
ip es
Ġdes ktop
raz y
Ġcontrol s
ĠMEN U
P M
Ġt ÃŃp
on i
Ġdo g
Ġst im
Ġenc ourag
Ġdesc onto
Ġdificul dades
Ġcumpri r
9 3
R ef
ĠB ras
ĠV IP
Ġdiffer ences
De ve
Ġaim ed
Mu ito
Ġconsent imento
o Ã§Ã£o
Ġa w
Ġm ir
ĠC lear
ĠM ol
Ġrefer red
Ġmil k
Ġlight ing
Ġpropos ed
Fam ily
D a
F er
or gan
ast s
Ġrel ativamente
ĠÃģ rea
Ġpac iente
B S
Ġc aval
ro up
ĠD am
ĠW il
Ġpl us
amb ique
AT A
Ġesper anÃ§a
Ġlegisl aÃ§Ã£o
ĠMosc ow
Ġsam ples
e u
j an
m od
ĠR O
Ġbus c
Ġsal as
ĠQu ando
Ġfer ry
ĠDirect ory
C art
p rim
Ġb ond
ĠS ud
Ġcont aining
Ġpol ice
ĠSol ar
Ġturn ed
ĠLand marks
H ist
ad ura
Ġcom odidades
Ġat uais
ĠÃ Ĺ
Ġ5 6
ĠCont ent
Ġspecific ally
Ġru as
Ġcorpor ate
W orld
r in
Ġf aster
ĠR S
ĠI V
ĠF a
Ġmin eral
Ġcri pt
Ġrefer e
Ġrest rict
Ġdom estic
Ġexclus ivo
ĠcÃ¢m bio
ĠInde x
ĠinÃºmer as
Ġd oll
Ġar r
Ġform ats
Ġra p
Ġpra ias
ĠBu ilding
Ġbeach es
ĠCloud s
Ġsympt oms
L ooking
ĠC orn
ĠJ ord
ĠK al
ĠMar Ã§o
Ã± a
Tal vez
ic ante
Ġcon ference
ĠG el
Ġme al
int age
Ġcons ists
Ġimport a
Ġsur v
Ġrealiz adas
Ġexist ence
Ġexpress ion
Ġstrateg ic
Ġcirc unst
Ġacqu ire
C I
est rado
ĠA V
Ġad es
Ġess enciais
inst al
Ġacqu ainted
l ier
or ca
Ġm eias
Ġw ife
Ġcon corr
Ġes pect
Ġlim ite
Ã¢m etro
Ã³r nia
ĠVi et
Ġmus cle
ĠPan asonic
ĠManufactur er
ĠtÃ©r m
is os
ĠH TML
Ġcri a
Ġprepar aÃ§Ã£o
ĠEnter prise
Ġjuris d
U tiliz
and os
Ġph en
Ġmen ores
Ġintern o
Re views
Ġesper ar
Ġsat Ã©lite
Ġextra ord
ĠMult i
Ġpleas ant
ĠCle an
Ġh it
ĠP az
ĠD ress
ĠL ORD
Ġcr ise
ĠMo on
ĠTool s
Ġlingu agem
z ech
Ġt ensÃ£o
in Ã¡rio
id Ãªncia
Ġfr es
Ġaf ford
ĠCon verter
Ġaplic ar
Ġdem anda
Ġautom Ã¡tico
Ġrest o
Ġgratu ita
Ġgratu itas
ĠUs uÃ¡rio
Ġautor idade
Ġrespond em
Ġcrim inal
Ġde ploy
ĠE vent
pan ies
Ġdifer enÃ§as
Ġparticip ate
enz hen
Ġf ert
ĠT al
ĠR E
ĠD ell
ĠZ el
Ġdel et
Ã¡l ises
Ġbl ess
Ġke pt
ĠChar les
Ġreconhec imento
Ġcompreh ensive
B L
l s
p ire
z as
Ġ ~
Ãª x
ĠL en
Ġle aves
Ġintern a
ĠAn o
Ġlig ado
ĠInd ian
Ġexpert ise
Ġib is
Ġindustri ais
ic er
Ġb io
Ġb alls
Ġap an
Ġinf in
Ġast ronom
Ġliqu id
in burgh
Ġf ios
il iar
im s
ĠM onday
Ġmet ade
ĠMar riott
Ġins ert
Ġsc ore
Ġgreat est
Ġmil it
Ġconfigur ation
Ġauth entic
W ho
l ov
ĠC F
ont al
Ġap preci
Ġhe ating
Ġposs ess
Ġfam iliares
Ġet iqu
Ġadvert is
Ġunc om
ĠespÃ©ci e
Ġcidad Ã£os
Ġw ild
ĠP ok
Ġcor ner
cul ino
Ġdev emos
Ġcur te
ĠEng enharia
erd Ã£o
Ġbed rooms
Ġpersonaliz ar
Ġproced imento
ĠgrÃ¡f icos
Ġpray er
ĠVenez uela
ocia Ã§Ãµes
1 20
T wo
m ento
Ġt iss
our g
Ġinter view
Ġver m
ons elh
Ġcri ou
old ing
be an
ĠAfric an
ĠAlgar ve
Ġc up
Ġde leg
Ġh i
ĠP ubl
ÃŃ nci
ik ing
Ġcent ros
con y
Ġconsum idores
ĠMont real
ĠMun ich
Ġtyp ical
F ig
Ġa le
ul dade
ag n
Ġres orts
ĠJ ogo
Ġqual it
Ġrelacion ado
ĠInd ones
Ġbat tle
Ġtele vision
Ġmount ain
Ġadvant ages
Pe ople
ĠNegÃ³ci os
k ra
r amento
ĠC S
ĠS now
ain do
ura is
aix Ã£o
Ġencont re
Ġrequ ests
Ġcateg ories
Ġsac erd
Ġaccommod ations
ĠOri ente
M T
z z
Ġtem as
Ġad mit
Ġ5 2
Ġequip ada
ĠGr Ã©cia
Ġconvers ion
ĠTem ple
Ġsac o
Ġprevious ly
ĠtrÃ¡f ego
B rasil
E dit
O UR
s er
ĠS QL
Ġum bre
Ġsu d
Ġfic am
ĠQuart o
ĠAtl antic
R C
on al
Ġc ounter
Ġn ublado
ĠI ber
ĠK B
Ġad vers
Ġart ificial
ĠGu ia
Ġappro ved
Reg ist
jud a
Ġdestin ations
Ġconcord a
L og
h aps
Ġn Âº
ĠS eb
ĠA ction
ch ain
Ġexpl os
irt ual
clud ed
ĠPesquis a
j iang
k in
ro te
ur ando
ve ja
Ġar re
Ġcor ru
ĠSa ud
Ap enas
Ġmeet ings
ĠSw iss
Apart ment
os c
it t
Ġf esta
ĠC reek
Ġas c
land a
uc ion
ĠBl og
Ġet apas
ĠOr der
Ġstart s
Ġincre d
Ġ199 8
Ġmo vie
M en
p ot
Ġa per
Ġs ight
ĠT rib
ĠT oy
un ched
ĠW ireless
Ġcons igo
Ġso il
ĠTrip s
Ġped idos
ÃŃdu o
Ġanaly z
Ġcarbon o
ĠIst anbul
f und
ect s
ly ing
aliz ed
Ġproduct ivity
unic aÃ§Ã£o
Ġ[ +]
ever eiro
Ġpresent ation
Ġselecion adas
Ġbig gest
Ġremov ed
A ÃĩÃĥO
D etails
re ct
Ã¡ r
Ġev idence
Ġarm as
Ġbeb idas
F ollow
ĠP ri
ut ers
Ġconstru ct
Ġfact or
Qual quer
Ġsuport a
Ġcris is
Ġo ito
Ġf ill
ĠB ab
ĠD I
Ġor al
Ġplan eta
Ġhuman idade
ĠFin ance
Add ress
W indows
f un
or et
or ge
Ġno ites
ĠAnt i
Ġ199 0
ĠMod ern
Ġann ual
Rom antic
il ia
Ġat end
Ġdis put
ng ulo
Ġbr ands
aman hos
Ġimpro ving
Ġtransport ation
Ġdriv ing
Ġplataform as
ĠD et
Ġcont ribut
Ġform al
Ġra ce
ĠLe eds
Ġped ra
Ġanaly ze
L ista
Ġd ando
Ġb ons
Ġv ÃŃt
Ġev il
cre dit
Ġte en
man hÃ£
ĠTem po
Ġbrasil eiro
C ome
F urther
R F
ĠB ou
ĠL ady
if ts
ha iland
ib ly
Ġour selves
ier ra
Ġtrad uz
Con stru
Ġdepend e
ĠFam ÃŃlia
osh iba
ĠMediter ranean
ul gar
Ġcomp osto
Ġpres ents
inh ar
Ġmus cular
Ġlet ter
Ġperman ente
ĠCa fe
Ġcompat ible
Ġorient aÃ§Ã£o
Ġreduc ing
M ant
c at
Ġb ound
ĠC ot
Ġl unch
ect ual
Ġst one
Ġst ories
Ad icionar
rav a
ĠTrans port
Ġmo eda
oura ge
Ġcircum st
in f
ac ular
ĠT otal
Ġsign s
Ġoperat ors
ĠFer ram
Ġevol ution
Ġbott om
B re
L im
Ġt ons
Ġl este
ĠE t
ĠD esc
Ġch ap
Ġvis a
Ġsee king
Ġsens aÃ§Ã£o
Ġtel ephone
Ġlic enci
Av alia
ĠFlor ida
L Y
Ġt i
ĠS ound
Ġl amp
ĠB aby
Ġ( "
Ġag rÃŃc
Ġinst ance
Ġant igos
ĠGu erra
ĠMa io
Ġlarg ura
Ġassin atura
Ġcade ia
N et
d ed
ag as
um ento
Ġch ocolate
Ġaqu ilo
Ġrem aining
Ġapo iar
Ġcin ema
Ġord ers
Ġdesej os
ĠLas er
Ġdeb ate
Ġrelationship s
Ġwid ely
uzz le
ĠJose ph
Ġcontempor ary
ĠS leep
Ġre cover
Ġcont ar
ob o
Ġrec ords
ys elf
Ġport al
ĠNov embro
Ġflo ors
Bl ack
Ġpais agem
Ġencont rada
Ġknow s
ier a
Ġindust ries
ĠcÃ³p ia
G re
H T
Â ©
Ġw itness
ĠAb u
viron ments
Ġrecol her
U A
n ic
ad ow
Ġ5 3
Th ank
Ġco ach
cre ver
Ġaplic Ã¡vel
Ġbro ther
Ġris ks
En joy
Sc ript
ĠCalif Ã³rnia
K e
c r
f ers
as p
Ġw alls
Ġfor tes
Ġr ise
ch uva
ĠN aÃ§Ãµes
ĠN umber
du le
Ġcan cer
Ġvari Ã¡veis
At ividades
Ġtrat ar
Ġfocus ed
Ġfol der
Ġachie ved
Ġmechan ical
Ġnam ed
ĠRental cars
Ġrefei Ã§Ã£o
F F
p ol
Ġs we
as tern
ĠU t
Se ja
Ġorgan ic
ĠAnal ytics
c ell
ĠC r
ra f
Ġcap abilities
Ġoff ices
Ġhelp ful
Ġcu ja
Ġalter aÃ§Ã£o
Ġstat istics
Ġfol ha
Ġsy nt
Ġstra ight
Ġadqui rir
ĠNuv ens
D ig
S Ã³
it ores
it Ã¡rios
ir us
Ġalg odÃ£o
Ġprof it
Ġpass ed
adr Ã£o
Ġcompar ison
ende u
ĠCast elo
ĠHel p
Ne ve
Ã ļ
Ġin j
Ġdes k
Ġcol eta
Ġliv ed
For am
Ġ[ -
pr int
Ġapresent am
Ġfrequ ency
Ġcommunic ations
ĠSil va
Ġrecogn ized
Pal avras
Ġexpans Ã£o
ĠGirl s
d s
ĠT u
ĠN ic
Ġes que
ear s
dequ ado
ĠAccommod ation
ĠSn ap
P P
w ick
in y
Ġs port
Ġac um
Ġcap able
Ġaccess ible
Ġminut o
ĠPart s
Ġder iv
Ġplant a
Co isas
Mu itos
Recom mend
Ġhappen ed
Bu y
Ġcres cer
Ġcook ie
ĠEmir ates
Ġumbre lla
Ã© us
ĠÃ© t
Ġman ager
Ġso fr
ĠCom er
ĠPh en
Ġi Book
ĠCol umb
ĠBr inquedos
Cas as
Proc ura
L S
h Ã£o
p rene
Ġh op
ĠA WS
ac as
ĠW al
Ġro ot
Ġesc al
Ġsub met
St ud
Ġacess ÃŃvel
ĠDis ney
Ġfot ografias
Ġexperim ental
y al
Ġa id
ur u
ĠR odo
ĠK en
Ġel emento
Ġreserv ation
Ġsur vey
ĠMest rados
ĠdÃ©c ada
Ġacadem ic
Ġ[- ]
ĠA y
Ġwith d
ĠSe at
Ġdef end
ĠReg ul
Ġfornec imento
ĠFlor ence
ĠMinist Ã©rio
Ġchann el
Ġdiagn Ã³stico
F ile
H oliday
y th
Ġth y
ĠT oul
Ġen fr
Ġsk i
Ġconsum er
ĠReg ulation
Ġcontinu ous
lim ited
Ġmanufactur ers
Ġsho es
Ġpec ado
Ġaccur ate
u veiro
Ġb orra
ĠM unicipal
oc os
ÃŃ ram
vel oper
co ol
Ġver ificaÃ§Ã£o
ĠAp plication
Ap p
ĠHist or
D I
ĠM inas
ĠV ida
ĠAl to
rit a
Ġcur rency
ĠAust ria
Ġclear ly
Ġconect ar
Ġdeclar aÃ§Ã£o
C he
Ġin put
if ies
ust ria
ber to
Ġmet eo
ios as
Ġimpro ved
Ġtre ated
Gu ests
ĠÃŃ cone
ĠEv ents
Alg umas
P erson
Ġd ied
Ġt Ã¡
ĠC iÃªncia
Ġre Ãº
âĢ ĺ
ĠO k
Ġte a
ans om
Ġmot ivos
ĠGen e
Ġpens amento
Ġcontribu ir
ĠLib rary
Ġnasc imento
f riendly
Ġd ie
ĠP E
ĠB ible
ĠT X
uns et
ĠCam po
ĠAng ola
Ġcomplex o
Op in
b ed
ot i
Ã¡ mos
un ately
cl ass
ura cy
eb ook
Ġ0 4
enci ar
ÃŃl io
olid ays
Cons ider
rog as
re o
Ġ5 4
ous ada
Ġfe e
Ġart istas
ĠLe ia
ĠDire itos
Ġtermin al
P ac
T ime
p cs
Ġa quis
it ada
Ġm unicipal
Ġsu ite
ĠOut look
Port ugu
Ġreturn ed
Ġevalu ate
Ġjob s
Ġgent le
O U
at to
Ġm yst
Ġb iblioteca
Ġb odies
Ġl ago
Ġv ender
ĠT it
ÃŃ culo
Ġ5 7
ous ness
Dis cover
ĠRefriger ator
g mail
Ġan cient
ĠC uba
Ġpar ceiro
ĠM and
ĠH ou
ĠG E
az ar
Ġne ve
Ġcam ada
Ġdesign er
Ġresearch ers
Ġunivers ity
Ġconven ience
Ġinstrum ento
hol m
ĠJerusal em
Ġaprim orar
z inho
Ġf um
ĠM ah
ĠB ac
ly wood
Ġen vironments
io v
Ġcent ers
Ess as
Ġfinance iros
Ġast ron
ĠLit tle
ĠDez embro
B ase
s em
w w
Ġs yn
it ou
od s
ĠR ose
Ġentre gue
perat ure
Ġhel ped
Ġbo ost
201 0
inst all
ĠComput er
ĠSoci ety
O h
Ġs ÃŃm
Ġm outh
ec o
ĠR ede
Ġser es
Ġcol our
Ġ8 8
Ġi Pod
Ġmilh as
Ġold er
Ġassess ment
it amos
Ġcom plic
ĠD ays
Ġdes ativ
Ġwe ap
Ġiss ued
Ġperman ecer
ĠJack son
Ġfuncional idade
ĠAdminist raÃ§Ã£o
Ġspac ious
ĠTex as
b el
om atic
ra ul
pl ica
ĠJ ardim
Ġcl ara
rig ado
Ġfaz Ãª
ÃŃn as
reg a
Ġcab e
Ġprojet ado
ĠMin ute
Pre Ã§o
Ġbra in
ĠAth ens
D ire
P ra
r ina
w ear
Â «
on ym
Ã§ ais
op ol
Ġbar s
Ġfuncion ar
Ġexem plos
Ġcorre io
Ġtour ist
Ġalc ance
Ġfail ure
H ot
Ġs ÃŃ
ĠS ou
Ġv ary
ĠM Ã©dio
Ġaut onom
Ġajud am
ĠGu atemala
ĠQu ad
Ġgener ated
Ġconsist e
Ġpleas ure
i at
ĠC M
oc al
ci es
az ine
Ġprogram aÃ§Ã£o
ĠApart amento
Proc urar
2 000
s en
ĠR ua
Ġest ran
ĠK ids
air es
Ġhand le
ĠSk yscanner
Ġconcern s
ĠTech nolog
!! !
Ġprem ium
Ġequil ÃŃbrio
Ġbeg ins
t rip
Ġp oll
ĠC all
Ġque b
Ã³ qu
pl ays
ru it
Ġinter medi
Ġvis ited
Us er
ĠeconÃ´m ica
Ġexperim entar
Ġperspect ive
" )
D r
h us
Ġd ining
Ġm it
ĠS IM
ĠS elect
ĠD atas
Ġter ia
ick s
201 1
Ġger ar
ĠCult ural
Rece ba
Ġlider anÃ§a
ĠÃ¡rv ores
F ull
ĠD ate
Ġter Ã£o
Ġint elect
uc he
Ġstud ied
Ġlim ites
Ġdiz em
ĠAv ailable
idel ines
ĠTai wan
ĠDow ntown
A cess
Ġs izes
ĠC ru
ec as
Ã¡ ter
ĠF ish
Ġaqu ece
let ter
Ġfinal ly
ĠVal encia
Ġtom ada
Ġspecial ized
ĠPap el
Ġfib ra
Ġstr ugg
V ers
Ġf ax
Ġn ights
Ġpro ceed
Ġyou th
de aux
Ġdia gnos
Ġi Stock
Ġcart a
Ġlev ou
ĠMap s
Ġeleg ant
ĠMost rar
F L
Ġdo ors
ĠT wo
Ġautom Ã³veis
At t
ĠVi ena
Ġmant Ã©m
Ġobject ives
ĠAf ter
Ġtransform aÃ§Ã£o
ĠTur key
Ġear n
ĠSm ith
Ġconnect ions
Ġestat ÃŃsticas
P erg
v in
Ġ riv
el ess
ĠB em
ĠH al
Ġr ated
act ive
Ġpers ist
Ġ0 2
Ġbec oming
Ã¢m ico
Ġvisit ing
IT E
Ġpack ages
ĠEsc ola
am ics
ot ion
ĠL ow
end ente
Ġval u
Ġrece iving
ĠGl uten
Ġenvi ado
Ġcompon ent
IV E
Ġestrut uras
1 000
C u
Ġest range
Ġou vido
urg o
Ġorganiz ed
ĠAss ociaÃ§Ã£o
ĠProgram s
Ġimpr ensa
Ġborra cha
H OR
Z one
ew ay
ind ic
Ġmes mas
Ġart ista
Ġcam as
Ġprincip le
Ġrealiz ados
Ġfound ed
Ġmov ing
Ġrelacion amento
Ġexig Ãªncias
ĠAvalia Ã§Ãµes
T ipo
W elcome
ent ed
st one
ĠB ÃŃbl
ch er
ĠO U
pos ed
Ġrece ita
ĠprÃ³xim as
Ġdepend s
Ġinstrum ents
yt ical
Ġcultura is
Ġalugu el
ĠVia gens
ĠBelg ium
N ov
s hip
v ula
Ġa Ã§Ãºcar
Ġc ump
Ġb acter
ur ich
ĠT reat
ĠK now
Ġad quir
Ġsp ring
ĠPort al
Ġbo at
Ġhelp ing
Ġleg it
Ac commod
ĠEd inburgh
asc ular
Ġrelev antes
Ġcaminh ada
Ġadopt ed
Ġt ag
er as
ĠB ols
ab iliz
Ġen fer
Ġman aged
Ġprov Ã¡vel
ivers Ã¡rio
Ġla unched
Ġef ect
clus ive
Ġgratu itos
Ġdivers idade
ĠOut door
Ġded os
Ġlabor atÃ³rio
Ġirm Ã£o
Compart ilhe
U nder
r antes
or ing
Ġb is
ĠM ission
ĠT ub
Ġ5 9
Ġup grade
anc er
ĠFran c
Ġcircumst ances
F E
o Ã§Ãµes
Ġc e
ir Ã£o
ĠB ody
cl ick
In f
Ġcol umn
pos ition
Ġpass ion
Ġart ists
Ġsoc io
Ġ18 0
ĠSal es
Ġconven iÃªncia
uri ous
Ġaud ience
ener ife
Ġconstant ly
Ġwarm s
Ġperspect iva
R ES
l og
id encial
Ġro l
Ġdu pla
Ġbran ca
Ġflex ÃŃvel
Ġtend Ãªncias
Ġterrit ory
Ġliter ature
ĠOrig inal
Ġlov ed
Ġrefei Ã§Ãµes
Ġmecan ismo
N enh
Ġd ada
is k
ĠP ia
ut ical
ĠE asy
Ġrel ativos
Ġart ist
Ġwhen ever
Ġconsider ar
Ġcat Ã¡logo
ĠAb ra
Ġcu jo
net ic
panh ia
Ġdrug s
ĠGovern ment
in cluding
Ġpar al
ĠF ic
Ġus am
At ravÃ©s
Ġmil itar
Res erve
Ġtax es
Ġparticular mente
Ġvegetarian os
Ġreconst ru
ri zes
ĠD un
pl an
Ġst reets
Ãº cle
Ãº dio
icion e
ten imento
Ġz one
oles ale
Cur rent
t rans
Ġd uro
or i
ĠC ott
ap point
ĠN on
ĠV est
Ġimp rimir
Ã´n us
Ġincre ases
ĠPe ople
ĠCap ital
J ap
z inhas
Ġt ried
Ġc overs
ĠN Ã¤
ind as
vol uÃ§Ã£o
Ġ9 8
Ġcontin ues
Ġdem ands
ĠÃģ gua
Ġdin Ã¢mica
ĠOs lo
ush i
ĠTe a
Ġgrav es
Ġlay er
Ġv asta
ass em
ĠAp ro
Ġsur pr
Ġmov imentos
Ġcompos iÃ§Ã£o
Ġantec ip
ĠBudap est
ĠSwed en
D B
u w
x ic
Ġd ano
Ġf illed
ĠS L
Ġnot urn
ack s
ÃŃt ulos
Ġhist Ã³rias
Ġadd ing
Ġapresent ado
Ġcare fully
Ġtab les
Ġresp ir
ĠPan ama
hem ical
ĠQuart os
f i
ar ina
Ġs orte
ĠS ap
aliz ada
Ġcor ros
Ã³g ica
ĠAss ist
ĠAv iv
Ġkn ew
Ġbrasil eira
ĠÃ¡l bum
ĠChamp ions
Ġm yself
ĠA k
ur re
ac os
ÃŃ ne
eb ra
ĠÃº n
rodu Ã§Ã£o
ĠUp date
Ġcatal og
E r
h ot
ĠL earn
Ġcont ained
ind ing
In glÃªs
Ġliv res
ĠSp ace
Ġapresent aÃ§Ãµes
Ġfiz eram
c f
Ġb ab
Ġ( âĢľ
pon ÃŃvel
Ġform ation
Ġserv ing
Ġcomplet os
ĠSu perior
Ġban ks
Ġens uring
IT Y
Ġcour t
Apart amento
Ġcoord in
ĠcontÃŃn ua
S ave
t udo
Ġp obre
Ġn estas
Ġv osso
ig en
ĠO ak
Ġwe ak
Ġnot a
ru ck
Ġ7 00
Ġins pect
Ġview ing
Res posta
Ġconcern ed
Ob tenha
P U
b orn
g rad
l ights
Ġre emb
ĠH els
Ġ5 1
AM ENT
Ġbat alha
Ġmedic ine
Ġcomprom et
Ġcontroll ed
Ġenf rent
Ġsect ors
Ġacad Ãªm
L ong
Ġd rag
es as
Ġp ovos
ĠT hailand
ĠF evereiro
Ġex ame
ĠV atic
amb a
Ġ19 80
ĠBah ia
ĠtÃ³p ico
Ġintellig ence
I ES
it is
ĠS K
oc ial
Ġpl ate
ĠLe vel
Ġtop ics
Ġtechn ique
Ġinici ativa
Â» .
Ġregul ations
ĠlanÃ§ ado
Ġperfe itamente
ĠAz ul
G od
am as
ĠP ic
Ġac celer
ĠSt yle
Ġutiliz adas
Ġident ification
Ġord en
Ãĩ ÃķES
ĠAutom atic
Ġdivid ed
Ġcollabor ation
Ġinfra estrutura
Ġbrilh ante
Ġin come
ĠS aturday
ĠR ico
Ġab road
ry er
Ġdirect or
Ġdetermin ed
Ġselecion ados
Ġtend Ãªncia
Final ly
% ),
Ġp etrÃ³leo
Ġs aving
est ed
Ġr ing
Ġpre c
ĠCh ron
Ã³s itos
Ġra w
Ġret ail
ĠPol and
Ġfinal mente
Ġsat ellite
Ġdimens Ã£o
Ġpromot ion
Ġdemoc ra
p age
Ġb oy
et os
Ġpro ve
Ġat u
Ġdes apar
ĠSt orage
ber gues
peri ores
Ġcert ificado
Ġprom ov
sh ot
Ġconce itos
ĠBro wn
Ġfol has
Ġimposs ible
ĠHom em
Ġstruct ures
Lux ury
Ġlandsc ape
Selec ione
h our
u um
ĠV it
Ġloc k
Ġcam isa
Pro t
Ġcustom ize
Ġsupport ing
Ġprop ag
ĠSc ot
Ġrecomend ado
Ġtiver am
Ġexam ples
Ġtransm ission
Ġdetalh adas
Ġaprove itar
n as
Ġb ought
ĠA Ã§o
ĠA ff
rib e
ĠGu ard
Es per
Ġconce b
Ger man
M or
y on
ĠC airo
ob s
Ġfollow s
Ġfinance ira
Ġdimens Ãµes
Ġlemb rar
Ġconcre te
ĠAcadem y
Ġannounc ed
Ġpregn ancy
S ur
g age
n ight
ra fo
ĠE L
if i
ard ins
amb ul
Ġcar Ã¡ter
ount ry
Est ou
ject ion
Ġbot tle
dom in
ĠEsc rit
Ġsubject s
ĠelÃ©t rico
x y
in et
Ġs ai
ĠS ciences
Ġpro vision
ĠF el
Ġcont am
Ġres ÃŃduos
vi os
Ġrel ativa
Ġver ifique
Ġcri ada
Ġcal ib
Ã¼ r
Ġocc urs
Ġsolic itar
Ġfoot ball
ĠFund aÃ§Ã£o
Quart o
Ġdescon hec
ĠExecut ive
d ong
Ġn ation
ĠS ide
im b
ĠB L
ĠR ica
Ġinter venÃ§Ã£o
Ġ5 8
Ġph ilos
ĠPre vious
ican os
Ġviol aÃ§Ã£o
Ġtro ubles
Ġflex ibilidade
Ġcolabor adores
Ġrecuper ar
ĠÃ³t imo
Ġcorr ida
Ġwait ing
Ġrevest imento
ĠDatas heet
O rig
y ou
ĠS obre
ĠT ol
ĠR u
âĢ º
ĠL ugares
ĠG as
Ġat ras
ĠW ednesday
Ġdes pite
Com par
Ġsa una
Ġdu plo
eng er
Ġcontinu ed
Ġrecord ed
Ġmiss ing
Ġplatform s
Mod el
ĠMinist ry
Ġdiab etes
Ġin gress
ĠI ron
ĠL or
Ãµ em
ĠV ic
xim aÃ§Ã£o
Ġ6 9
Ġany where
Ġdel ete
Ġover view
vent ura
Ġquer ia
Ġeffect ively
ĠSk i
ĠLu is
Ġspec ified
Ã©n s
Ġfant astic
Ġlav ar
ĠdÃº vidas
ĠNÃ¤ he
V amos
o perat
Ġd ram
in clu
Ġe ast
Ġf an
Ã§ ada
Ã© ia
ĠP ub
ĠB om
ĠN ations
Ġar redores
Ġinter c
Ġenc er
Ġset ores
Ġrepres ents
Ġbas es
Ġprote in
ĠBro ok
Ġtent ando
ĠAlex and
P RO
V ER
h at
Ġin hab
em or
ĠC zech
ec emos
ĠB og
Ġpro long
Ġfor th
ĠG on
vi amente
Ġnot es
Ġrec Ã©m
Ġequ al
ĠAmer icas
Ġdiscuss Ã£o
Ġsmart phones
Ġambient ais
Ġa x
Ġd ores
Ġt amanhos
in ity
Ġn ele
rat or
Ġlist en
Ġconsider ada
Ġfacil idade
Ġfund os
Ġintrodu z
Ġedif ÃŃcios
ĠgrÃ¡f ico
Ġphot ograph
ĠParl iament
ĠCarm en
B er
N ext
ĠB ali
ab el
Ġj ack
Ġche io
Ġach o
Ġmal ha
Ġmem or
Ġear lier
estre la
Ġconcept s
ĠMun ique
ĠTrabal ho
ĠiBook ed
G R
b ane
f s
est Ãµes
ĠD ol
ĠG ardens
cl aim
Ġam enities
ĠAl icante
ĠEst re
iver pool
Ġcu isine
ĠMed ical
ĠSk ype
Ġquant ity
Ġcob re
Ġperfect ly
ĠAdd ress
ĠEv ang
Recom ende
ĠIndones ia
F P
P oss
Ġf estival
Ġin do
Ġv inhos
ĠA o
ĠA dequado
ĠT oshiba
ter o
ĠN ossa
ĠV eja
Ġpre venÃ§Ã£o
ÃŃn ios
Ġport fol
Ġconstru ÃŃdo
200 8
Ġapo i
Ġconcent raÃ§Ã£o
Ġfot ografia
ĠSing le
rÃ¡ ul
ĠProte Ã§Ã£o
! )
S outh
i Ã©
Ġd rogas
Ġp iso
ĠD J
Ġnot as
Ġret orno
Ġfacil itar
AC K
Ġless ons
Ġproporcion ar
Ġintelig Ãªncia
Ġfuncional idades
P ower
on do
ĠB omb
ĠH omes
ĠN am
Ġcas h
itu iÃ§Ã£o
ĠCl iente
we ight
Ġequip es
ĠX X
oth ing
ĠHist Ã³ria
Ġfig ure
Ġexhib ition
C ity
Ġt ente
Ġp ior
Ġf ug
ĠH an
Ġtrans c
Ġmet ro
Ġbl ind
Ġneg ociaÃ§Ã£o
la h
200 9
Port ugal
ĠTel ef
Ġcopy right
Ġfilt ro
Ġata ques
Ġinim igos
Ġan Ã¡lises
ĠF actory
Ã³ nico
ific ador
ail y
Ġtra ils
ĠZ IP
Ġfin ished
ĠAb ril
Ġbre ad
Ã± ol
ĠKore a
ÃŃnci pe
A pr
v amos
ĠC ell
ĠS W
Ġest oque
ch ar
Ġst ri
Ġent idades
ian abol
Ġass ass
Ġposs ivelmente
ĠHe av
Ġexist ente
Ġprefer Ãªncias
Ġatualiz ar
Ġattack s
Jet radar
s ol
ĠS creen
ra gem
ĠP interest
Ġy ellow
ÃŃ r
ĠN orm
Ġaut ores
ĠZ o
ĠCon c
Ġsign ed
ĠCo oper
Ġtab lets
ĠPra Ã§a
Ġcontr ast
Ġharm on
Ġcorr ente
hold ers
ĠJerusal Ã©m
or ter
Ġc aixas
om eters
ĠB ear
Ġus age
dit os
ari um
Ġprim eiras
Ġreserv ados
ĠInst rum
ĠÃ³ pt
Ġaff ili
Ġestim aÃ§Ã£o
Ġcloth es
Ġapan har
Ġv eter
ĠB right
ĠT rat
Ġform ed
Ġmod ule
ix el
Ġ0 5
ĠTra in
je Ã§Ã£o
Ġnut ri
ĠCond iÃ§Ãµes
Ġplanej amento
ĠlÃŃqu ido
B D
M ult
P ap
Ġt um
es per
Ġf emale
Ġan s
ĠI M
Ġenc ounter
Ġgen u
Ġcomun icaÃ§Ãµes
Ġcru cial
Ġcos m
S aint
V ID
an Ã§o
ra in
Ġpro port
us ers
um ps
Ġch amp
Ã©r ito
Ġalt os
ĠIN FOR
Ã©l gica
oph y
B an
S k
Ġb oca
ĠV ag
ĠRe y
Ġgu itar
ĠTra ck
Ġoferec idos
Ġinteress ado
roll er
Ġindiv ÃŃduo
quir y
ĠtÃ³p icos
F O
h um
ĠS ara
if ier
ĠU PD
ĠCh iang
Ġcert ificaÃ§Ã£o
ĠLa ud
Ġcustom ized
uck land
Ġconfirm ed
ĠTour ism
Ġresid Ãªncia
war eness
ĠTok yo
b ud
t ion
Ã Ĭ
ĠC ook
Ġcert as
ĠHe art
Ġinvest imentos
Ġconn osco
Ġapresent ou
Ġconfig urar
Ġdiscuss ion
ĠFern ando
A ng
h al
Ġt an
iz er
Ġdis appoint
Com pl
Ġact s
IS A
ÃŃl ios
Ġprefer ences
Ġperman ent
ĠSm all
Ġtechnolog ical
Ġpint ura
Ġleaders hip
Ġesque Ã§a
M Ã¡
P ed
ĠS end
Ġj ulg
ear ning
Ġab ra
ater al
Ġanal ytical
Ġsever e
ÃŃm p
ĠAng el
Ġmor rer
Ġweek end
ĠcientÃŃf ica
ĠCath olic
in ado
ess ura
ĠE ar
ens o
Ġent ered
rat ic
ĠCom it
Ġoper acionais
Ġlig a
ĠTrans fer
Ġgener ate
Ġur g
Tra bal
% ).
? "
Ġp owder
Ġan ex
ul hos
de pend
Ġdefin ition
ĠBor deaux
Ġc ub
est erdÃ£o
ac ial
ul u
Ġac onselh
Ġpoder iam
ĠmÃ©d ica
Ph otos
Ġespecific amente
ĠÃ¡rv ore
Cre ate
A h
N ome
ĠC ost
ĠE R
ĠL ar
ĠL amp
Ġno ise
Ġper c
pec ificaÃ§Ãµes
ĠAr c
Ġconc ed
ces a
Ġsignific ativa
Ġcreat es
Ġrepro duÃ§Ã£o
ĠAtl anta
Ġsong s
ĠTermin al
Ġcircunst Ã¢ncias
Ġp ull
ad er
Ġthe ory
ol os
ĠM Ãºs
ir ty
ĠT s
ĠV ib
bal agem
Ġtrabal ham
Ġequip ados
Ġcert os
Ġadminist ration
Ġoferec ido
Ġdecid ir
ĠCateg ories
ĠPaÃŃs es
r ise
Ġt rial
Ġp ush
ĠR EC
ĠL A
vel y
ĠUn idas
Ġprom pt
Ġher o
Ġproject o
Ġgerenci ar
Ġsuje itos
Ġreve aled
I l
en ix
ic Ã¡cia
Ġb iod
ĠF ord
Ġsu ave
ĠAl m
Ġgr ade
Ġdisc rim
Ġinstit ut
ĠavanÃ§ ada
Ġdisponibiliz ados
A lo
t ons
Ġc raft
Ġan ual
ĠT weet
int endo
ĠAm or
ĠQ U
Ġsc hed
Ġcham adas
Loc ation
Ġautor izaÃ§Ã£o
ĠTur k
ĠHar bor
ĠJe an
Ġmill ions
Ġm ale
Ġ1 30
Th anks
ond as
erg y
Ġsab em
Ġenvi e
Ġdiret or
Ġdesem p
ĠeletrÃ´n icos
ĠDani el
Ġf est
ĠT A
ist an
ĠF lo
ĠG AM
Ġjust ice
Ġcomput ers
Ġanal ÃŃt
Ġkeep ing
Ġrecogn ition
ĠIr landa
Ġrev ista
Ġcarreg ar
Ġtalk ing
Ġatmos fera
Ġa ÃŃ
ot or
iv ar
Ġnot ificaÃ§Ã£o
all as
ĠCom b
Ġsub sequ
cor do
Ġcomb ining
Ġmov ed
Ġ199 6
ĠGen er
Ġgrav aÃ§Ã£o
Ġampl amente
Apart amentos
Ġescrit a
Ġvaria bles
G O
f al
o very
r ence
Ã¡ ps
Ġes pos
ub le
Ġserv ir
ĠCl ient
Ġpol eg
Ġweb cam
Ġbu ffet
Ġconhec idas
ĠArt es
Ġexpect ations
Ġvar anda
Ġsuffer ing
Ġavent ura
b ilidade
en burg
om i
Ġcom igo
ĠP lease
ĠT uesday
ĠR osa
ĠD anÃ§a
Ġest abilidade
Ġob vious
Ġvis ible
Ġcas ino
Ġhom es
Ġconv in
Ob ter
Ġwhe el
rog en
ĠCri anÃ§as
ĠParl amento
Pop ular
M B
V ery
w all
et ch
ĠD LL
ĠH ub
ĠH aw
Ġsu periores
Ġrece pt
Ġacc uracy
ĠTh ursday
AS S
Ġfornec em
ĠCat hedral
En ter
Ġheart s
Am ong
c ams
g al
p to
s or
Ġ ice
Ġo z
ĠB aix
ĠR h
ĠD ES
ĠL av
Ġar bit
all el
ĠCh ap
Ġesp et
Ġcho osing
Ġadequ ados
ĠDec lar
Ġmo edas
Ġflex ibility
ĠWars aw
Ġs weet
Ġb ilhÃµes
ĠC ay
Ġv indo
Ġent end
Ġro do
ĠPl ano
ĠCl ique
Ġinf ection
Ġwor ry
S uch
ĠS enhora
ĠP ho
Ġre ven
Ġg olf
Ġr uns
Ġst able
igh ter
20 20
Ġcert ificate
Ġtorn am
iqu ei
row se
Ġprop ostas
Ġson ho
Ġraz o
ĠOb serv
Ġfinance iro
Ġemerg Ãªncia
ĠGra ph
ĠMediter r
Ġhosp it
' d
N T
f all
m arket
t able
ec ia
ĠA viso
ers ey
Ã³ f
ĠG aut
Ġel et
Ġcons ole
Ġcar go
pos e
ret anto
Ac cess
ĠMas ters
Ġpossibil idades
Ġidi omas
Ġmeasure ment
Ġtestem un
E I
Ġ <
Ġst rict
Ġcont endo
âĢĿ )
Ġte acher
ĠCon ditions
Ġpesquis adores
Ġmaint ained
ĠVis it
Ġpropos al
Ġconclus Ã£o
Tour ism
Ġbiciclet a
N esse
t r
Ġ ic
Ġqu entes
Ġg ig
ĠD al
Ġtr end
Ġcap s
Ġseg uros
Ġfinal idade
Ġgraph ics
ĠmÃ³d ulo
Ġester Ã³
ĠHou ston
O pt
S l
re y
ic ians
ĠR ab
ch as
Ã¡st icos
Ġposit ions
Ġh idden
ĠM inh
ĠF ield
Ġest rang
ĠN i
ĠV ars
ach i
ress e
Ġsign al
St ar
ĠOr le
Ġtit ular
Ġrat ings
ĠDirect ive
Ġanterior mente
Ġpratic amente
ĠSum mer
Ġdoub t
ĠBÃŃbl ia
B O
Ġde fe
ĠS us
Ġh all
Ġpar edes
ist os
Ġdes ired
Ġare ia
ĠSt adium
Ġcap a
Ġresult ante
ĠMan age
ĠPol y
Ġshe l
ĠVer Ã£o
ĠTur quia
ĠlÃŃn guas
Jo hn
Seg undo
ĠAlugu Ã©is
Ġlin ear
ĠTechnolog ies
B et
e iramente
f ing
ra ck
ĠM other
ĠU kra
Ã¢ nc
Ġimp uls
Ġ0 3
acter ÃŃsticas
ĠMal ta
ĠTur ismo
Ġgrav idez
Ġpred ict
Ġacompan har
raul ic
F A
L ive
st ood
ac Ãªut
ĠT enerife
Ġou v
res h
Ġenc ant
Ġencont rou
ĠPl atform
Ġer rado
ĠBr is
Ã´n ico
Ġlocaliz ados
Ġfound ation
Ġsignific ado
Ġlig aÃ§Ãµes
Ġmodern os
iment aÃ§Ã£o
iab ilidade
Ġrent als
Ġcot aÃ§Ã£o
Ġsap atos
g ets
it udes
em on
ĠC ou
ter ies
ell i
Ġass ets
enc ing
ĠAd venture
Ġlim its
Ġeng lish
Ġquer emos
Ġmil ÃŃmetros
Ġcompon ente
Ġtransform ar
Ġmark ed
Ġreason able
Sup port
Ġexplo itation
Ġf ans
Ġn ative
Ġb ela
ĠP ain
ĠB ingo
ul se
Ġr andom
Ġfr ances
az e
ĠAl p
Ġtr ends
ĠEx port
ĠZ urich
Ġet apa
At ualmente
ĠUs ado
ĠFil ter
ĠLo ja
ĠBath room
Ġintell ectual
Ġacresc ent
Ġcorrig ir
Ġuncom fortable
L O
g os
Ãª nd
ĠL ot
og ram
ha us
Ġle itor
ĠAl c
Ġinv as
Ġsal t
Ġtest ed
Ġgra us
Ġsens itive
Ġassist ir
Ġlearn ed
Ġhabit antes
Ġiniti ative
Import ant
Ġastronom ical
Ġn it
Ġn ations
Ġw indows
ĠS or
ĠF ig
Ġsobre tudo
Ġatt end
IS S
Ġsin c
of ia
ĠGran ada
Ġentert ainment
H elp
ĠD yn
Ġcar riers
Ġ9 7
Ġdesc ontos
Ġaplic Ã¡veis
ĠDire t
Ġpag amentos
Ġcard ÃŃ
Ġsuccess fully
Ġreceb ido
â Ĺı
Ġc edo
Ġl ots
ol or
ult ural
Ġme at
Ġcar a
emb ers
Ġmet abol
ĠEs pecial
Ġpublic ation
Ġfacil idades
Ġconsum ers
Ġorganiz ar
Ġsmall er
ĠAut hor
erd ale
Ġlux u
ĠCreat ive
ĠfÃ³r m
P ay
b lo
s u
Ġt rig
Ġpr ost
Ġenc ourage
ari ous
Ġconst itut
Ġconsum e
UL T
Euro pe
S omos
m g
w ich
Ġde e
re bro
ĠC Ã³digo
ĠE ther
Ġal mo
ug s
Ġag ent
ĠUn it
ĠSh enzhen
ĠAm esterdÃ£o
Ġapl ica
ĠVill as
Ġexib iÃ§Ã£o
Ġlay out
ĠeletrÃ´n ico
ĠJour nal
Ġprovis ions
ĠToul ouse
m ary
Ġp etro
ot ipo
ĠP N
ĠH at
ĠL inha
ĠL iverpool
Ġst ated
ĠO range
ĠCon dition
ĠAir ways
Ġpublic ado
Por Ã©m
eix es
Ġexpans ion
Ġnav igation
ĠUPD ATED
Ġconvin ced
i jo
j unto
u ador
w ing
Ġo m
Ġw rote
em as
if fer
ĠG ol
Ġap par
Ġac eder
Ġ6 8
Ġnas ceu
Ġprot ocol
ĠSc an
ĠFil m
Ġcoloc a
Ġdifficult ies
ĠClass ic
Ġmanufact ure
B aixe
qu ear
Ġw ire
ĠC ort
ĠC aixa
ac ht
ess em
ter a
ĠF inal
Ġat ivo
ated ral
Ġprocess ed
Ã©ri e
Ġoper ational
ĠGo verno
Ġcho ices
Ġcorre ta
Ġsex ta
Ġacess ÃŃveis
ĠRob ert
ĠCarib bean
Ġm anga
ro c
Ġpar cial
ĠH yd
Ġr ide
ĠF REE
Ã³ nica
ab olic
ĠG i
Ġst ability
Ġinter vention
Ġrece ption
rom p
Ġtrad iÃ§Ã£o
ĠCo ffee
Ġfund s
Ġcompet Ãªncias
umin ium
Ġrad ical
Ġpubl ish
Ġexplor aÃ§Ã£o
ĠPoint s
Ġleis ure
Trad uÃ§Ã£o
g ada
it ution
Ġb rief
ess es
ĠR est
Ġst ick
Ġte us
Ġjog ado
ĠCas c
ĠInst all
Ġ199 7
Ġresol ve
Tr ilhas
Ġdificul dade
Ġinfant il
ĠVars Ã³via
D O
er ge
Ġcon cess
oc olo
ĠR A
ĠG O
Ġst ages
Ġres ource
Ġinter fer
Ġpont a
Ġdin ner
Ġprogress o
ĠEnt re
ĠEnt Ã£o
Ġliter atura
Ġauth ors
fit ri
T L
W ater
Ġs ch
Ġde pth
ĠT ext
ill ar
Ġ3 65
rist ol
EN S
Ġconsider aÃ§Ã£o
Ġexpl ain
ĠSol ic
Ġexpect ativas
Ġperman ece
Ob serv
Ġtrabalh amos
Ġcresc ente
Apart ments
Ġdimens ion
Ġprob abilidade
Ġclar amente
ĠPesso a
Ro oms
ĠMachinery Zone
C S
D et
f rom
Ġa ula
ĠP ag
ĠN OT
ĠV oo
Ġac know
ĠK o
ĠK at
Ġag enda
Ġind is
Ã¡l ias
Ġbro thers
Ġfal se
ĠSw itch
ĠBat tle
ĠStock holm
ĠArch itect
ĠEnerg ia
Ġfunctional ity
ĠgÃª nero
ĠGene va
i ene
Ġt rim
Ġp in
as k
ĠR iv
Ġex ped
Ġle ather
ĠPro jeto
Ġun known
Ġsem entes
ĠThe atre
Ġdesc ubra
Ġpost ed
Ġbre ast
Ġfornec ido
Ġol hada
Ġapar ece
Ġmob ili
ĠPac ific
ĠTechn ical
oret ical
ĠLaud erdale
v Ã£o
Ġp av
qu ete
ĠP ak
ĠA uckland
ĠH S
ĠH IV
Ġcont ribution
ei Ã§Ã£o
Ġam e
Ġne ither
Ġext ent
Ġseg ment
Ġend ere
Ġtest oster
Ġfavor ito
Ġobt idos
Ġaddress es
Or gan
Pr in
ĠUlt ra
B rand
re do
Ġw ave
ĠE co
ĠF ot
Ġcomp rov
Ġter ceira
Th ose
man n
Ġperson agens
Ġger encia
ualiz ar
Ġtemper aturas
Ġadolesc entes
C ast
S end
Ġm over
ĠS AP
ĠN ext
Ġes qui
Ġte oria
Ġche ga
ĠAn sw
ĠQu ant
ĠEm presa
ĠPal Ã¡cio
ĠMe eting
Ġsolic itaÃ§Ã£o
Ġhosped agens
inclu indo
C har
D Ãª
e Ã§Ãµes
Ġl ies
Ġh us
Ã¡ culos
Ġr esta
Ġam plo
Ġtra jeto
ari am
ĠMar co
Ġevery day
Ġ16 0
Ġindic ated
Ġconstant emente
Ġequival ente
Ġsche dule
Ġnuc lear
ĠSeb ast
Ġwithd raw
ĠBris bane
) "
b ility
en Ã§o
is f
Ġb ags
Ġan iversÃ¡rio
Ġv ic
Ġg ender
ĠR oss
ĠD river
ĠF Ã³rum
Ġcont ido
Ġdes necess
Ġwill ing
elh i
Ġinv ited
Ġrem oto
Ġconhec idos
Ġhand ling
Ġfrequ ent
Ġbon us
Ġantec ed
ĠOfer tas
ĠGaut eng
as co
qu ar
am Ã¡
Ġv ess
et t
Ġre ci
Ġth ou
ess as
ĠT ags
ĠF lex
ĠCom fort
arg o
Ġair craft
ĠTra ining
Ġbaix os
ĠÃģ ustria
Ġindic ate
ĠOs aka
ĠProf ile
aver a
Ġhon or
Pron Ãºncia
G eral
Ġp ump
it ados
ic he
Ġb ordo
id ents
ĠL aptop
ĠPro c
ron ze
Ġvol umes
ĠSer ra
Ġdirect ions
AC H
Ent retanto
Ġinteress ados
Pre visÃ£o
Ġrelax ar
Ġblock s
Ġvin cul
Ġfrut as
Ġfav our
B asta
S ex
h let
he ast
ic ais
Ġto ward
Ġwh atever
Com m
Ġ6 6
Ġmost ram
Ġprecis arÃ¡
Ġef icÃ¡cia
Ġz onas
ĠpolÃŃt ico
ĠHost al
Ġrelig ion
Ġenter prise
Ġdisponibiliz a
ste in
Ġc anto
ĠM E
iv ities
Ġpl enty
Ġnear ly
Ġinclu ÃŃdos
Ġmanual mente
ĠSo vi
ĠHer itage
Ġfamos o
Ġcontroll er
Ġelectr ical
ansom ware
P O
c ut
Ġl ub
Ġv Ãªm
ul f
Ġsu ites
Ġrel ativas
Ġ6 3
Ġ9 6
Ġdi Ã¡rio
ĠIm per
Ġverdade iramente
Ġrelig iÃ£o
Ġvac ation
J O
Ġa wareness
Ġp uri
ed oria
ĠS O
Ġl Ãª
et ies
Ġpart ilh
Ġam an
Ġun necess
Ġ6 2
Ġdist ribut
ĠhÃ¡ b
St and
Ġquart a
Ġbast a
Me u
ĠWork s
ĠEg ito
ĠAdv anced
radu ate
Ġaquis iÃ§Ã£o
! "
d ated
ri qu
ot te
ĠB Ã©lgica
Ġ( _
ab ad
Ġhe m
Ġter reno
Ġbus car
Ġprecis e
ĠInn ov
Loc alizado
Ġsug estÃµes
Ġfamos a
ĠreÃº ne
Ġs enhor
he i
Ġb rit
Ġof iciais
em i
Ã© ct
Ġcon ferÃªncia
ĠL ang
if un
ust o
Ġpl ana
Ġvis itas
Ġins urance
fort unately
Loc al
Ġbal cony
Ġmount ains
Ġarriv ed
ĠcÃ¢m ara
M al
z y
Ġcon quist
Ġse at
eg e
Ġpart ido
Ġinter aÃ§Ã£o
que za
Ġcar rinho
Ġesc ape
Ġra ise
ven ir
Ġlist s
Ġesp al
Ġcaus as
Ġens ures
Ã¢nt ico
Ġsubstitu iÃ§Ã£o
Ġimposs ÃŃvel
Ġstream ing
Ġfasc in
1 10
D V
Ġg all
se a
ho f
Ġro das
Ġass ume
Ġdesign ers
Ġexpl ica
Ġestiver em
ĠCert ificate
Rece ive
Ġimper ial
ĠclÃ¡ss ico
Ke ep
I EL
L emb
L ike
Ã Ĺ
Ġp Ã£o
Ġn urs
ĠP aint
ĠA h
Ġind ica
Ã´ s
AT E
Out ras
Ġdepart ment
Ġenvolv idos
ĠÃ³rg Ã£os
D id
b ow
Ġp air
em n
Ġpre ced
Ġab re
Ġk id
Ġk ill
ĠCo ol
ĠUs ers
Ġdivers e
AP ESP
ĠInt l
cast le
Cent ro
Ġastron Ã´mico
P DF
ĠR ay
Ġim obili
Ġinter action
Ġag ente
aliz e
Ġpos icion
Ġmont anhas
Ġactiv idades
uck y
Ġrad i
ĠFer ro
ĠCamb ridge
Ġstrugg le
D esta
L M
g raph
ĠS in
Ġcon vent
ĠI BM
Ġsu fficient
Ġ3 50
Ġprodu cing
Ġop ens
itu ais
ĠCar ro
ĠSp ot
be ads
Ġcorre l
IF A
Ġescrit Ã³rios
Ġenem ies
ĠZel Ã¢ndia
ĠBaix os
I K
S ug
T or
an es
Ġr ender
Ġpr ont
Ġdes pes
de fin
ĠAp r
ĠX V
ĠSu Ã©cia
Ġref und
Ġescol he
Ġrealiz e
ĠAt enas
Ã©r ico
Ġmov ies
Ġobject ivo
Ġcompos ition
ĠMerc ure
ifest yle
Ġtub o
Ġvalu able
C ond
M O
Ġf ator
il ed
ĠC AR
ig er
ist ical
ĠO ra
Ġcont rib
Ġk illed
Ġsh orter
Ġdel ay
Ġvo ar
Ġport o
Ġsend ing
Ġextern a
Ġconfort Ã¡veis
Cop yright
ĠCommunic ation
ĠS pe
ĠS ierra
Ġqu eda
ĠA plic
ac ity
ĠM estre
ĠL LC
Ġon das
Ġvi u
Ġir re
Ġconsum ir
Ġestre la
Ġunivers o
Ġaspect o
Ġsym bol
Ġlegis lation
Ġdesport o
ĠCorpor ation
Ġdanger ous
Ġtherm al
ĠShip ping
h ua
Ġc ock
Ġin her
ĠR ate
ĠD elhi
ĠO h
Ġen x
Ġen ch
Ġro yal
mer c
Ġfil os
af a
ote is
Ġtrad ition
Ġconsider a
Ġmerc ador
Ġapar ecem
Ġmeteor ologia
Ġexport aÃ§Ã£o
unicip ality
pap ers
Ġwood en
Ġsuje ito
ĠquÃŃm icos
Ġdistin ct
Alo j
Ġv ice
us so
ĠD icas
ĠCom unicaÃ§Ã£o
Ġdesc rito
Ġextern o
New s
ĠPack age
Ġpasse ios
Ġintro duced
. ;
F ood
U G
as m
ĠD S
ĠH ire
pl ates
ĠV irtual
Ġper ante
ific adas
Ġam ig
Ġ6 1
ativ ity
Ġequip ado
Ġset t
itor ia
Ġimmedi ate
ĠDepart amento
Ġdesenh os
ĠrÃŃg ido
Ġta ught
B ro
ac ho
ĠB ow
Ġad venture
int as
Ġrec ording
ond s
Ġcompl y
Ġund ert
ung al
Ġemb ar
Ġevalu ated
Ġcrist Ã£os
Ġfinanci amento
I AL
c ab
Ġs aindo
ch arge
ĠW inter
ĠPro jet
Ġinf ecÃ§Ã£o
Ġunder stood
ĠindÃºst rias
Ġfra ud
ĠIst ambul
Host els
G ames
W atch
Ġt Ãªnis
an ja
ut t
ĠT ela
ĠL l
ĠG reek
ĠJ a
Ġind irect
Ġgu er
con dition
ĠSh ower
Ġview ed
Res umo
ĠAs h
ĠIN ST
Ġposit ivo
esqu ec
Ġdefinit ely
f u
Ã ¸
Ġt ir
Ġin ner
el adas
ia h
ĠD imens
Ġal vo
Ġdis hes
Ġme als
Ġcar o
Ġcol una
Ġint im
Ġgl ory
Ġconstru ÃŃda
Ġregist ros
Ġpal est
ĠPer formance
Ġtext os
ĠmÃŃn ima
Ġencom enda
Ġobs erve
Ġempresar ial
C M
M il
b is
u Ã¡rios
y r
Ġc ogn
Ġw aters
ri el
Ġv ossa
im bra
ĠP el
ĠP ope
Ġem ails
ĠD own
ĠSt rateg
Ġun for
bl ed
Ġdel icious
ĠEs panhol
Ġcomplet ar
Ġcart as
ĠRec overy
Ġdesta que
Un ited
Ġdever Ã£o
Ġcapac idades
rel ated
Ġapropri ado
ĠBras ÃŃlia
S anta
l Ã¢ndia
Ġs ant
om y
Ġb ola
Ġw a
Ġse ed
ĠD est
ĠD og
ĠD ining
und ry
ĠestÃ¡ vel
Ġsp ray
Ġend s
Ġban heira
Ġexpl ained
US D
ĠWe ek
Ġtransform ation
Ġindepend entemente
Ġconcent ration
Ġdimens ions
ĠTa ip
Ġhear ing
Ġinsp ired
Ġunnecess ary
B as
S um
m ade
er mo
is dom
Ġin esquec
ĠA manhÃ£
ĠM elhor
oc us
ist ers
ĠG at
Ġhe ct
Ġpres ident
Ġfind ing
ath ers
Ġmanual ly
Ġpat rim
Ġfund amentais
rodu ction
Ġcommunic ate
Ġprest ig
ĠOrgan izaÃ§Ã£o
Ġsustent abilidade
ĠWik i
ĠLim ited
Ġcancel amento
Ġhid rÃ¡ul
Ġbomb a
Ġign or
9 00
C T
b us
Ġd ust
Ġre clam
st ers
ul to
ĠT imes
ĠD ragon
Ġat hlet
Ġpr ata
Ġent radas
vent ude
Ġfre qÃ¼
Ġden omin
H ouse
in Ã¡rios
re es
Ġf ell
ic ular
ĠP P
ĠA plicaÃ§Ãµes
le vel
ĠI ra
ĠThe y
perat ura
Ġcre am
ĠCont role
Ġcaus ing
Ġ14 0
Ġextens Ãµes
ĠperÃŃ odos
Ġauthor ized
fr ute
Ġvir us
Let ra
Ġ_ )
Ġ(_ ,
Ġthe oretical
Ġh abilidade
Ġj am
Ġentre prene
ari os
ĠPh ot
Ġtrad emark
Ġeng en
Ġdig it
ĠSal a
Ġcompar ar
Ġindic adores
Ġlic ens
ĠMerc edes
Ġexerc er
Fran ce
Ġaccom pan
3 75
e qu
Ġc em
ĠP om
ĠP oker
Ġum as
ÃŃ so
ade iras
Ġpr ison
ire mos
âĢĻ ,
out e
Ġrec icl
Ġext re
Ġspe ech
Ġgra ve
ĠInst al
Ã³p olis
Ġremov al
Ġincreasing ly
Ġequil ib
Def in
ĠVag inais
U IT
ĠS r
ĠN intendo
Ġcomp rim
ĠSk ip
Ġconsult ar
Ġtour ism
Ġreview ers
Ġrecogn ize
Ġsand als
Ġthought s
Su porte
Ġ_ ,
Ġtiss ue
Ġd Ã£o
it ute
Ġf og
ĠB elo
ĠH ua
ĠN ap
Ġpre domin
ĠPar adise
Ġorgan ize
Ġgra ce
aro om
Ġmo ist
IF I
Ġproduz ido
Ġintrodu Ã§Ã£o
Ġpert enc
Ġrail way
Ã¢nc er
c ase
w ei
Ġb ac
Ġto c
Ġl ounge
ĠP it
Ġem issÃµes
ĠR ES
ĠD ouro
Ġr enda
ĠSt one
Ġpass ando
Ġfil ha
Ġstud io
Ġget aroom
ĠRestaur ante
Ġdivers ity
Ġexig e
Ġprevent ion
Ġappl ies
wh ich
Ġdraw ing
Ġentrev ista
Ġcump rimento
id al
id ers
ĠS oft
ĠB ari
ĠH eb
art e
ĠAl f
Ġrec us
ĠGu ad
Ã³g ico
Ġshe et
Ġhap p
Ġaloj amentos
Ġcompos ed
ĠGuest house
Ġcot ton
Ġdivulg aÃ§Ã£o
iox id
ĠApro ximaÃ§Ã£o
M er
Ġc air
Ġb ares
ot ive
ĠT ouch
Ġr ubber
com es
ry pt
Ġdist ributed
Ġprecis amos
ĠCo ach
pecific aÃ§Ã£o
Ġvel ho
Ġdeix ou
Ġexcel Ãªncia
Ġlimit ado
Ġital iano
N O
c ore
u ce
el ry
Ġl os
ĠM ix
ĠB io
Ġ2 20
Ġon to
ĠMan ila
Ġgl or
Ġsc ope
Ġactiv idade
Ġapresent ados
Ġnaveg adores
Ġpret ty
ogrÃ¡f icas
Ġaprov aÃ§Ã£o
Ġdial ogue
Ġanalyz ed
ĠRodo viÃ¡ria
Ġenfr entar
C ab
F M
h and
k es
Ġt ours
Ġc ento
Ġl ights
ĠP ers
ĠP apa
ĠP Ã¡gina
ly n
Ġap pe
ĠCh al
Ġmelh ora
Ġesc ond
Ġentre tenimento
Ġmost ly
Ġaf irma
AS T
Cl oud
Ġfact s
ĠHar bour
umb ai
Ġperce ber
Ġconfl ito
Ġfech ado
ĠdÃ©c adas
host al
A mb
em por
ĠC rim
Ġna Ã§Ãµes
ional ly
amb er
Com pre
Ġprom oc
Ġfin ais
Ġped a
go ing
AD O
ĠSoc iedade
hem at
ĠOl iv
Ġbon ito
Ġtor ne
ĠBit coin
ĠTelef one
b ras
Ġp eixe
ĠT Ã©c
ĠE th
ĠD ual
ĠN ome
ĠK m
Ġaqu ela
ĠBl ock
Ġsc ene
ĠPr inter
Con vers
Ġmov ements
Cont udo
Ġbeb ida
Ġexib ido
Ġpromot ing
---- ----
Ġdispos iÃ§Ãµes
F in
Ġb ike
ĠI dent
ĠK el
Ġch ama
Ġinform ed
ĠY ellow
Ġ9 78
Ġdesc rit
Ġcert ified
Ġcome Ã§o
Ġrest ore
Ġimpress ora
Ãºst ria
Ġjan elas
Ġemploy ment
Ġexerc ÃŃcios
Ġtell s
Pod emos
ĠTom orrow
Ġrecol h
ĠTail Ã¢ndia
N ET
c Ã§Ã£o
Ġa head
Ġa eroportos
ĠC ho
ĠA ve
ĠM AN
ĠT ree
ĠE SO
end endo
ĠJ orge
Ġdire cion
Ad v
uc ar
Ġdirect amente
Ġinteg rado
AD OS
ĠMod elos
Ġajust e
7 00
D L
s uch
es ia
ĠP ens
ĠA er
Ġem pt
ul ed
ĠL TD
Ġent rance
ĠCh ang
IN T
ĠAg ricult
Ġbot Ãµes
ĠMe u
ĠBat tery
Ġconfl itos
Ġhon est
Ġpreocup aÃ§Ã£o
Go ogle
amar ca
Ġexpos ure
Ġtemper atures
ĠInfo hostal
L iv
j s
Ġpara f
ul ator
ig aÃ§Ã£o
Ġrel iability
ĠÃ¡ cido
Ġ9 00
Ġ12 5
Ġtravel lers
ĠAs ian
Ġrequire ment
Ġhost s
Ġmonitor amento
Ġpaint ing
__ __
Amer ican
U K
Ã ¥
Ġin ac
Ġen gan
Ġmen inas
ĠTh omas
Ġconsider ing
Ġstand s
Ġexc iting
Ġ199 5
ĠHol lywood
Ġorigin ais
Ġcharg es
ĠTru ck
ĠEncont re
ĠCopenh agen
ĠWhe el
Ġincred ible
S il
er ies
re iras
at ies
ab ling
og ados
Ġop cionais
Ġint enÃ§Ã£o
ĠMar io
Ġreserv es
Ġacc um
Ġneg oci
Ġenvi ados
Ġflor esta
ĠCE O
Key words
G ost
n is
o ples
Ġm ur
Ġf ique
Ġb er
Ã§ al
im edia
ĠM eter
ĠF ont
ĠF Ã¡b
Ġal ert
Ch ild
ĠTrans lation
Ġmob ilidade
ĠDel uxe
Ġclos er
ĠAnal ysis
ĠâĨ Ĵ
ĠTele visÃ£o
Ã³qu io
Ġame aÃ§a
L ED
P ark
f riend
h amos
p ower
v am
Ġb a
ĠC ut
ĠL ua
Ġso zinho
ĠCon n
Ġret ir
Ġsab ia
ĠpolÃŃt icos
ĠPAR A
Ġacol hed
Ġgarra fa
Ġinhab it
u ca
Ġd entes
ar as
Ġs ides
Ġto ilet
ĠS olid
cl er
Ad icione
Ġext ended
ĠGu ar
ĠmÃ©d ias
Ġconsum idor
Ġlit eral
sh ire
Ġprior ity
ĠTw in
Ġpercent age
Ġsustain ability
ĠInstant Ã¢neo
d ays
r ink
in ner
ap ed
ĠO u
ob res
ĠIn g
ĠK l
Ġent idade
ĠCom part
Ġcert ification
ty ard
ĠDes ktop
ĠOn ly
Ġlook ed
Ġtempor ary
Ġresist ente
ĠEv entos
Ġlabor atory
ĠLag os
p ost
Ġf oss
Ġin ex
ĠS cient
ĠH OT
ch t
Ġac us
Ġch uveiro
ace utical
Ġfil ters
Ġsegu e
Ġneg oti
br idge
Us ando
Ġexclus ivamente
Pre cis
Par is
ĠJohn son
Ġsuggest ions
ĠAccommod ations
Ġsupl emento
Ġf if
Ġn Ãºcle
Ġb ow
Ġqu inta
Ġrel ating
Al le
Ġprov oc
Ġaf ast
Ġrespon deu
Ġmont e
Ġmud ou
Ġke ys
Ã³l io
Ġworks hops
Ġbi om
ĠRem ote
ĠavanÃ§ ados
Ġglob ais
Ġpros pect
Ġcad astre
ĠmunicÃŃp io
Ġe ating
Ġre je
ĠB ulg
ĠD NA
ĠâĢ Ŀ
ĠTh at
Ġfood s
iction ary
Ġsurround ing
T ry
c ers
Ġth r
ĠT en
oc on
ĠR ue
Ġcomp ara
Ġch ines
Ġsh ot
Ġag ency
ix els
Ġra ised
ĠMan s
af ood
unt as
Ġescol ar
Res orts
Ġinici ativas
Ġconsist ent
ĠSeg unda
Ġbring ing
El ect
Ġfly ing
ĠOrig in
Ġadministrat ive
Ste p
ĠAnim al
Ġrit mo
Ġslight ly
I r
R oom
b ell
Ġan fitri
ĠC N
im al
ĠM G
ĠR ub
ard in
Ġgr anted
Ġmar riage
Ġsab edoria
Ġrespect ive
Ġmedic amento
B ooking
v nik
Ġd ance
in ch
Ã¡ culo
ĠG T
ap olis
Ġcri ando
Ġorgan is
Ġcal m
Ġsubst Ã¢ncias
Ġreconhec er
Ġsurg ery
Ġcandid atos
Ġincom pl
Ġpattern s
Pos ters
c est
i el
Ġin te
ĠP ast
Ġg one
Ġda ughter
ass a
Ġmod ified
Ġsa ia
Ã´ tel
Re uters
ribu iÃ§Ã£o
Ġperf is
Ġmat ters
Ġdec ades
Ġrecom pens
Ġmuse um
ĠPropri edades
ĠMulher es
ĠFoot ball
B ased
d on
r ub
z za
Ġp ig
ul um
Ġque im
oc co
ĠL um
av ra
our se
ici Ãªncia
Ġdi ariamente
Ã©t icas
Ġspe aking
Ġpri est
iser ic
Ġpurch ased
Ġconcord ou
ĠAB S
Ġvit Ã³ria
A z
N ever
Ġc row
ĠS elec
ir al
ĠB B
ĠB E
ĠB ord
ĠB ristol
Ġat let
ĠU so
Ġpod ia
Ġass untos
Ġfl owers
Ex iste
Ġarm s
Â» ,
ĠQue bec
Ġcarreg amento
ĠPi ece
atto o
Ġintelect ual
i h
il ly
Ġv Ã¡
Ġv apor
ec ida
ĠB urg
ĠD ream
Ġper haps
Ġro ub
ĠZ h
own ed
Ġbaix e
An al
ĠVal le
Ġcontact ar
Ġconvers ar
ĠBed room
ĠFin ancial
Co zinhas
ubro vnik
Ġamar elo
Som etimes
9 001
A com
B esides
F ort
a way
k el
r adores
Ġt ive
Ġp oker
re c
Ġm Ã¡g
Ġb Ã´nus
ĠS ong
ĠS ym
Ġl ift
Ġh ousing
ur ada
The ir
Ġapresent aram
ĠcÃ© rebro
Ġmuse us
Ġviv em
Ġclaim s
ĠeconÃ³m icas
emble ia
g ary
i amente
Ġc osta
ro ta
ĠP il
ag os
ĠL eb
Ġdes g
ov es
Ġform ula
Ġprot ecÃ§Ã£o
ĠVer melho
ĠAirport s
Ġinflu enci
Ġproteg ido
ĠFlor enÃ§a
ĠAdd ed
ĠdifÃŃ ceis
Ġconsequ ences
ÃĢ s
ĠPron unciation
ĠPho enix
D isc
M ac
V ac
et her
ĠD allas
ĠF ol
ĠJ ersey
Ġj ude
Ġro tas
Ġprin ter
Ġtotal ly
ĠPre visÃ£o
Ġcontact s
Ġ199 4
ĠPart e
ĠDo or
aw a
Ġdocument aÃ§Ã£o
Ġsus pend
ĠFe atures
Ġstrength en
Ġagricult ural
ĠRecom mend
Ġimped ir
ĠExperi ence
ĠUkra ine
Ġ ille
Ġl um
ĠP onte
Ġem pr
ĠE ll
ĠD er
Ġper igo
ĠU nder
ok en
Com b
Ġdi Ã¢metro
Ġvers at
Ġtrat amentos
Ġjo ined
Ġcapt ure
Ġsof Ã¡
Ġabsolut ely
Ġkil ometers
Ġendere Ã§os
E t
T odo
h ann
Ġde gre
ĠC ad
Ġh abil
Ġg ases
cl ar
Ġmin or
Ġpol ÃŃcia
Ġant ib
Ġdirect ed
OM E
Loc ate
Ġdecor ation
ĠLoc alizaÃ§Ã£o
Ġlux urious
Ġproxim idade
Ġhold ing
Ġoccur red
ÃŃcul as
y er
as ma
Ġf ederal
ĠD rop
Ġus Ã¡
ĠSt ra
Ġinter rupt
Ġmet a
oy a
Ġche fe
Ġfil ms
Ġsab emos
Ã³d igos
Ġexc eto
Ġcrit ic
ĠCamp inas
ĠAz ure
Ġconvid ados
Ġpeg ar
Ġabrang ente
Ġmir ror
ĠFranc Ãªs
B oth
D ent
T amanho
W ill
Ġd ÃŃ
Ġf ab
ĠA vi
ab eth
Ġent ities
ĠAp ost
ĠX L
Ġlist ening
ĠCo ver
ĠfÃ¡ ceis
Des pite
ĠRec ife
Ġperiod s
Ġace itaÃ§Ã£o
Ġconstitu i
ĠPay Pal
Ġdetalh ada
ĠÃ¡l cool
ĠSher aton
ĠHoriz onte
ĠSev ilha
Ġespos a
Ġhus band
J ogue
M o
p ell
ĠS EL
ĠB aixar
ĠE astern
Ġat iva
Ġbe ings
Ġ7 6
Ġpoder oso
ĠMin ister
ĠDes k
Ġunivers e
Ġfrequ ently
ĠMal aga
enn y
Ġgan hou
ĠHum anos
Ġrepl ace
ĠUr ugu
ĠAdminist ration
ĠPrem ier
ĠquÃŃm ica
Pesquis ar
Ġestrange iros
Ġp ill
Ġc av
id en
ut or
ist or
ĠN ÃĥO
Ġac ion
ip per
Ġserv es
Ġgl Ã³ria
De us
Ġperm ission
ĠAll Posters
Ab stract
Ġru ÃŃdo
Air bnb
Ġpossibil ities
Ġdrink s
Ġdiam eter
Ġaccom pl
ĠSeat tle
ĠOrle ans
Ġdegre es
b ing
u co
Ġt ags
ic ian
ĠM oney
ĠT an
ĠT ob
ĠR ound
ĠI ce
ĠL ook
Ã³ x
Ġen abled
ast ro
Ġwe alth
Ġtra v
Ġsee ing
Ġair ports
Ġconsider ados
Loc alizar
Ġconvers a
ENT S
ĠVis ual
Ġoperat or
Ġpurch asing
Ġachie v
Ġsound s
Ġjap onÃªs
Ġalco hol
ĠWikip edia
plac ement
Ġafford able
Ġmilit ares
N ova
S pecific
es p
Ġl y
Ġpro of
ĠR Ã¡dio
ĠE D
ag ne
ost ic
ult ura
ang dong
Ġinter ven
Ġass em
Ġrec or
Ġmod ificar
Ġ6 7
ĠCar reg
De vido
Ġnome adamente
Ġexclus iva
Ġdepart amento
ocol mo
ĠTrad uction
Ġconex Ãµes
Jo in
Ġhoriz ontal
Ġreplac ement
F r
Ġf ui
Ġf ishing
Ã© e
ĠD ianabol
ĠV egan
ĠK er
ric es
Ġreg ra
Ġmost rado
ĠMar rak
por ter
AN A
Ġespecial izado
ĠMont h
Ġexib ir
sur fing
D eixe
F ast
Ġb ul
ĠS EN
Ġh ack
ĠB elf
Ġab us
Ġvis its
Ġne uro
Ġperson agem
ĠCar l
ĠLe v
ĠAg ency
pr ice
Ġinc ap
Ġil im
ĠDel ta
Ġbox es
ĠCour se
Ġjud g
hab i
Ġgol fe
ĠP av
ur ras
st ad
ĠB ast
ĠE ST
ĠSt ep
Ġcri ados
Ġ9 2
Ġrepresent antes
Ġdiret Ã³rio
Ġdescob ri
ĠprÃ© vio
Ġemerg ency
Ġpen et
ĠAct ive
ĠBeaut y
I Q
qu ire
oc he
ĠF riend
Ġch ances
ĠCom ments
Ġaut entic
Al em
Ġgu idelines
Ġnas cer
Ġbr ilho
ĠPr ince
ĠFor ce
Ã³ci o
get table
Ġexpress ed
Ġestim ated
Ġpen al
Ġsurround ed
ĠJust iÃ§a
ĠPrin cip
Ġcircul aÃ§Ã£o
h ouses
Ġd ual
it ting
Ġb irds
Ġl ados
Ġest iv
Ġac quis
Ġam end
olog na
ĠY outh
Ġprof unda
Ġant ioxid
ES CO
Ġfal ha
Ġsk irt
Ġlig ar
fl ow
Ġrevol ucion
Ġsand Ã¡lias
ĠPac ote
Ġbord er
ĠFu j
Ġtiv esse
Ġamea Ã§as
ĠIll ust
A ce
M em
Ġt elecom
Ġs pons
Ġto car
ot ed
Ġfor ced
ÃŃ qu
ĠR ei
ĠN ote
ĠV A
In stru
Ġcompl aint
Ġexpl ains
ĠÃ³ b
ĠInt ell
Ġtro users
Ġdesl oc
ĠhistÃ³ ricos
Ġinsc riÃ§Ã£o
ĠPict ures
Ġaman hÃ£
M use
m outh
Ġd iesel
Ġf Ã£s
el i
ĠH oje
Ġun limited
ĠPl ant
Ġfac ing
Ġmap as
Ġespecial izada
Ġmont anha
ĠÂ ±
Ġexist ir
ĠAss embly
ĠAut or
Ġunivers idade
Ġimplement ed
Ġpret end
Ġcorrect ly
ĠTele vision
D est
d y
h l
Ġd ito
Ġt ast
re z
Ġqu arter
ĠP od
ĠB ak
Ġy ield
ĠD ark
ĠF ides
ch i
Ġcont rad
Ġdis k
ĠSt an
pe on
ach es
ĠY a
Ġvari Ã¡vel
be ing
Ġcomb ate
Ġlev ando
Ġtermin ar
Ġdam aged
Ġhosped agem
Ġestablish ment
T ec
Ġc adeira
Ġo h
Ġn eck
ec Ã§Ãµes
ĠP orn
ĠO st
Ġcont ratos
ult y
ĠK oh
Ġrel Ã³gios
ĠAl oj
ĠCom panhia
ĠPro duction
ĠBar ra
ĠAs us
Ġdefin ido
Fl ight
Ġtel em
ĠSur face
Ġguarante es
Ġcombo ios
ĠNa ples
ĠJava Script
ĠmÃ³d ulos
Ġaward ed
Ġvoss os
M E
y okan
Ġm Ã¡s
om ar
Ġw eld
Ġl ip
ĠA x
ĠL AN
Ġbe ber
Ġst ake
nd rome
âĢĻ .
Ġ8 9
Ġrece itas
Ġpos iÃ§Ãµes
Ġsur ge
Ġbase ados
Ġtest ar
Ġquer er
ĠJo in
Ġextens ions
Ġdownload ed
Ġconfirm aÃ§Ã£o
rab es
Ġprint ed
Ġcrim es
Ġmol ec
Ġpropriet Ã¡rios
Ġgast ronom
Ġquadr ados
r ass
Ġc Ã£es
Ġw edding
am pton
Ġpro hib
ĠD habi
Ġst rip
Ġag reg
Ġsp am
Ã¡l aga
Ġreserv ed
ĠGu angzhou
Ġtec idos
Ġdom ingo
Ġbenef ÃŃcio
ĠPan amÃ¡
ĠComput ador
Rel ated
Ġbroad cast
Compart ilhar
ĠComun idade
Ġbrasile iros
Ġaccompan ied
E nc
M us
Ġp owers
Ġp obres
Ġc Ã¢ncer
Ġw orship
Ã§ ados
ĠP etro
ĠA ge
ĠM umbai
ist ry
ĠI R
ĠF ant
Ġest ilos
ĠO uro
ai os
Ġmod ify
Ġ19 70
Ġcir urgia
ĠAust in
Ġsil ver
Ġsil icone
Ġfel izes
Ġocas iÃ£o
Ġalde ia
Ġw et
ĠP ir
ĠE mer
ĠI ran
Ġon da
ai k
ĠK ir
Ġpl en
ian as
Ġ9 4
Ġprof iles
Ġcur t
Ġsur ve
ĠCan nes
ÃŃde os
Ġtom orrow
Ġconv encer
ĠMa xim
Rec ent
Ġcorpor al
Ġpec ados
ĠSat ellite
ĠEns ino
ĠViet nam
ĠSolic itar
K S
c ard
f ei
r ante
Ġp aixÃ£o
Ġe pid
Ġb its
Ġex Ã©rcito
Ġst ret
Ġcomp osta
ros c
Ã¡g inas
Ġbro ken
Ġdownload s
ĠTem por
uri que
Ġplac as
Ġinser indo
ĠPesquis ar
Quart os
Prof ess
Apro ve
, ,
T ype
Ġd Ã©
il as
Ġre ject
Ġre action
Ġg in
ĠR ele
ĠG N
iz ando
de f
Ġdis plays
cl ude
Ġcol egas
Ġfaz emos
aus a
Ġ8 2
Ġsel v
Ġbl oco
ĠEm pire
ĠOr d
Ġped ag
Ġtravel ling
ĠAmer icana
Ġindic ators
Ġhouse hold
Ġlimit aÃ§Ãµes
Ġattract ive
ĠbÃ¡s ica
Ġtrack ing
Ġre ino
ĠR ing
ĠE P
ĠH T
ĠG ospel
Ġes portes
Ġar ray
ail ed
Ġrel at
Ġun w
Ġche f
ature d
ID ADE
Ġmach inery
Ġhead s
Ġappear ed
ĠBro ad
ĠTr ust
Ġdemonst rar
Pr int
Ġregular ly
Ġvaria ble
Ġposit iva
Ġacqu ired
Ã¨ s
Ġking dom
Ġsell ing
Ġfilt ros
Ġnar rat
Ġconclu ir
ĠRegul amento
Ġt ank
Ġm ang
Ġl amin
ĠP ent
ĠP ear
ĠD R
ĠL ex
ho e
ĠK iev
Ġsobre viv
Ġconf ront
ĠEuro p
ĠTh ese
ĠNov otel
Ġperm issÃ£o
Ġol ho
Ġapar elho
Ġrapid ly
Ġlater al
ĠPhil ipp
ĠBud get
Ġmuse ums
Ġinterpret aÃ§Ã£o
ĠSat an
clos ure
B I
B N
em an
ĠD oll
ĠW C
Ġpod es
ine y
ĠK im
Ġro de
Ġso fa
Ġass embly
Ġtrans iÃ§Ã£o
Ġbut tons
Ġcent r
Ġorgan isation
Ġatt ached
Ġcond en
Ġfornec idas
Ġdent re
Ġsug ere
IL L
Ġluz es
Ġwatch ing
Ġmec Ã¢nica
Ġfarm acÃªut
Sup pl
ĠInde pend
Respon ded
Intern ational
Further more
Ġunfor gettable
U V
V ideo
Ġs ÃŃtio
om er
ro be
qu Ã©rito
ÃŃ zes
Ġres idence
ind os
Ġter r
Ġag u
int ura
ĠMar ca
Ġval ve
Ġfornec ida
Ġdetermin ados
Ġpay ments
Ġrecon hece
ĠCON T
cin ia
Ġmaravilh oso
Ġpoleg adas
P ubl
c ur
Ġpar l
ul ada
ĠT Ã³quio
ĠE pson
Ġal uminum
per a
ĠBar atos
Ex cel
br id
Ġquant it
Ġunivers idades
ĠBas ic
Ġfib er
ĠhistÃ³ rica
Ġcong el
Situ ado
Ġdiagnos is
e ff
Ġs ente
ĠC ama
Ġv illa
ĠA ward
Ġter em
iss or
ĠEst acionamento
Ġcam inhos
Ġamb as
Ġrespect ively
Ġpain Ã©is
Ġjunt ar
ĠbÃ¡s icos
Ġgas olina
ĠSi em
ĠTim or
ĠSpecific ations
g y
Ġt un
ĠS emin
Ġem issions
ĠD ong
ĠF avor
Ġest ados
Ġfr uits
Ã©s ia
Ġpont uaÃ§Ã£o
Ġsitu a
Ġrelacion ada
Ġtransport es
ĠFornec edor
Ġcontain er
hotel s
Ġesquer do
Ġrepair s
ĠTrib unal
iÃ© ster
Ġdespes as
n ament
Ġf arÃ¡
ĠS int
Ġre ver
Ġre ct
ĠW ire
Ġag Ãªncia
Ġmod ules
ĠMar c
Ġsim plic
ĠAn Ã¡lise
Ġmap s
ĠGr Ã¡f
Ġobserv ar
Ġnut rit
Ġinspir ation
Ġanteced Ãªncia
: )
G P
h ome
m us
Ġs qu
ĠM ira
Ġch art
Ġ7 8
Ġbl ocos
Ġdet ecÃ§Ã£o
Ġtec lado
ĠCal gary
eter min
row ave
ĠcomeÃ§ ando
ĠSup ply
ĠDel ivery
Ġdocument ation
Ġcomunic ar
Ġfinance iras
Ġexce p
ĠNor way
Sem pre
ĠcontÃŃn uo
Ġprofund idade
ĠPeters burg
Ġweap ons
M ax
Ġs iga
ĠC apt
ĠS outhern
Ġv ag
ol ars
ĠP ant
oc l
ĠD riv
Ġat uaÃ§Ã£o
Ġter ras
Ġcons ecut
... "
ĠCom Ã©rcio
Ġreg ener
ĠAr ena
ph ia
Ġoff line
Ġoper ated
Ġcomb ine
Ã¡p oles
ĠChrist ians
ĠMa ur
Ph oto
Ġregul ament
Ġgost ar
Ġcontem pl
Ġelimin ar
ĠFac uldade
Ġiniti atives
Ġhect ares
A F
i Ãªncias
w eb
Ġs ins
Ġe go
ĠD ubrovnik
ort a
ĠG rav
ov aÃ§Ã£o
Ġtrans actions
Ġgr ant
Ġ8 4
Ġmar ido
Ġoper ador
Ġfal ando
Restaur ant
Res ultados
ĠSuppl ier
Ġdiscover ed
Ġtub os
Part icip
Ġcharg ed
Ġportfol io
ĠMÃºs ica
M at
b ios
m ission
w i
Ġ ida
Ġe lder
Ġin vis
ĠC Ã¢mera
ĠM eth
Ġpara graph
ĠT ip
ĠH ills
Ġas pir
ĠF AQ
rig a
ĠDe fin
Ġmet Ã¡l
ĠEst ocolmo
EL L
Ġappro val
200 7
Ġpersonaliz ados
ĠHol anda
ĠExt ra
Ġobrig aÃ§Ã£o
ĠDen ver
Respon se
ĠEspa Ã±ol
P at
l u
y p
it led
ĠC NC
Ġou vi
ĠestÃ¡ gio
Ġesc rav
ĠCont eÃº
ĠBrasil eira
Ġgreat ly
Ġresp et
Ġelev ador
Ġatualiz armos
Ġaccept ance
Add ed
Ġrelev ante
Ġobrig aÃ§Ãµes
Pod er
Ġjud icial
Int eg
Ġaus Ãªncia
R ob
S ob
f ly
m ad
Ġp ousadas
on na
ĠP oll
Ġex ata
Ġvis ite
Ġ7 9
ari edade
ĠAn avar
Ġproc ure
ĠIm m
Ġesp essura
ĠCal cul
Ġ199 2
ĠCat arina
Ġpens amentos
Ġdecor r
unch al
Ġson o
Ġescre veu
Gra Ã§as
ĠB ull
ĠW ho
ial ly
Ġim un
Ã¢ nd
Ġsol e
Ġart istic
Ġtravel ing
Ġtax i
âĢ¦ ]
ograph ical
Ġtur ÃŃstico
ĠLoc ated
Ġreceber Ã¡
Ġson hos
Ġbeh alf
ĠCompar ador
Op Ã§Ãµes
Ext ensÃ£o
Ġfacilit ate
f ix
Ġt es
in ete
Ġthe e
Ġw isdom
ing en
ĠC ana
Ġl odging
Ġcon ter
ch en
Ġar rive
iro u
ĠAg Ãªncia
Ġmat Ã©rias
Ġ199 3
Ġdiret os
ĠDoc ument
Ġeurope u
Ġmecan ismos
Post ed
P interest
p ur
u er
Ġt inta
Ġs ad
ĠM ater
ĠE very
ob i
Ġus ual
Ġcl ock
ĠPort a
Ġi ria
ash i
Ġdet ection
Ġmant Ãª
Ġtransfer ir
Ġult rap
Ġpermitir Ã¡
Ġacompanh amento
Product s
Ġox id
ĠDem oc
ĠPequ im
C oll
L ove
S ing
Ġc atch
il ind
ĠD etalhes
Ġknow ing
Ġdesc ont
ER T
Ġsm oking
Ġdisc ÃŃp
Ġcr ÃŃtica
Con heÃ§a
Ġindic ado
unci ar
ĠGre y
Ġfaith ful
Ġafirm ou
Pesquis as
Lo ja
ĠHav ana
âĸ º
Ġdut y
7 50
U X
u j
it Ã¡vel
ĠM T
ĠM esa
ĠL ock
ip t
Ġnot ed
Ġcons elho
Ġposs amos
ĠCar n
ins on
vent ures
Cl ose
Ġdiv is
Ġdiv isÃ£o
Ġenvi adas
ĠMac au
ĠGro ve
ĠFabric antes
ĠEdit or
ĠPrefer red
adel phia
D om
G H
f are
Ġc ooking
Ġv ila
ĠP ur
Ġpr at
Ġqual ified
Ġ8 1
Ad icionado
cul pt
Ġfal has
aut hor
Ġnorm ally
Ġselec cion
Ġcontribu iÃ§Ã£o
Servi Ã§o
Ġinteract ive
ĠFut ebol
Ġmetod ologia
E asy
d ryer
Ġf ec
ĠP Ãºbl
Ġcon duÃ§Ã£o
ul ados
Ġsu cess
ĠV isa
ick en
Ġint ense
ĠMan uel
Ġinv Ã©s
Ġover come
ĠLe ather
ĠTra il
Ġinteg rada
Ġrest riÃ§Ãµes
Ġcost um
ĠcomeÃ§ am
Ġbra Ã§os
Ġdeg rad
Ġnut ric
ĠIl has
Ġmatch es
Ġhaver Ã¡
Vol tar
ĠAtt ractions
lev ard
ĠCry stal
ĠOx ford
ĠChann el
at Ã³rias
le an
th rough
Ġcam is
Ġdesc ript
ĠAd ult
Ġbook ed
uss eldorf
Ġocor reu
ĠFin land
Ġcorrespond ing
Ġbag agem
Ġtranspar ente
agre b
Ġsinc ron
b at
u ation
Ġ erv
Ġe ixo
Ġm os
Ġn ort
ĠS plit
Ġro of
Ġcor rupt
ech ar
Ġover l
De v
Ġcal endar
uk i
Ġtre ino
Ġconsegu iu
Ġdedic ado
Ġsus pe
Ġregular mente
ĠOf icial
ĠbÃ¡s icas
Ġconsequ Ãªncias
Col or
rigor ÃŃfico
Ġtestem unho
ĠCÃ¢m ara
Ġteen agers
N orth
T ax
re to
iv ia
Ġdo ce
ĠH ig
ub er
Ġag ress
Ġcol eÃ§Ãµes
Ġdesenvolv idos
Ġhuman ity
Ġpou cas
Ġsecond ary
Ġmeas uring
Par ole
ĠMag ic
Ġentire ly
Ġintrodu ction
ĠOrgan ization
Ġwid th
Ġhol y
Ġmoder ate
Ġchin Ãªs
B B
S istema
n ew
as is
ad ar
Ã© ditos
ĠM C
ĠM D
ig ual
ĠL iving
Ġsu bl
Ġbe at
endo za
ĠTh ree
Ġplay s
With out
Ġexec ution
ĠSec ond
Ġtent ativa
Ġinvolv ing
Ġajust ar
ĠPron unci
ĠSust ain
D ay
J A
V illa
t ech
Ġp ione
Ġf le
ĠC ub
Ġl ets
Ġg rat
ĠB ologna
ĠH Ã¡
ĠG ate
ud ad
th at
Ġsim p
Ġprogram ming
ĠNew castle
Ġtrad uÃ§Ãµes
Ġher itage
Ġconsider ando
ualiz ado
Ġmon et
ba o
Ġextern os
Ġcha ves
Ġefet u
Ġrevol uÃ§Ã£o
Ġther apy
Ġevang el
ĠvÃŃt imas
H C
V isto
Ġc ass
et im
Ġpar ecem
ĠM ak
oc e
ĠE ric
ĠF urn
Ġus amos
ail ing
Ġmost rou
ĠPort land
ĠRes pons
Ġoper a
Ġprot est
Ġautom ated
Ġcult uras
Ġdesej ar
Ġobrig ado
ĠLog in
Ġvitam ina
Ġoppos ite
Ġappoint ed
ĠDeb ian
S ab
a ud
b olo
b enef
v et
Ġp eixes
is se
ĠC ouch
ĠA wards
ĠR un
ĠE V
ĠH ab
Ġen vel
Ġman aging
Ġman agers
Ġass ign
Ġfl ip
ĠY elp
Wh ite
Ġcomb at
ays ia
Ġsex y
att an
ĠMerc ado
ĠUr ban
ĠAven ida
Ġoce an
IEL D
D rive
os amente
Ġs Ã¡bado
ĠA cesso
ĠM Ã¡laga
Ġg anha
ĠG L
Ãº m
ass y
ĠAl tern
Ġprov ÃŃncia
Ġext reme
Ġend ed
Ġrefer Ãªncias
ĠPal avra
Ġcer veja
ĠAll iance
ĠBu ild
ĠComp et
ĠRel ations
Ob rigado
Ġregion ais
Ġdiss eram
Ġsuggest ing
Ġmort os
Ġvig il
Ġpros per
Ġreplac ed
Ġdesemp enh
Ġn om
Ġh ier
ĠA Ã©
ĠE ndereÃ§o
ĠF ron
Ġst ring
ĠV R
ang ai
Ġ7 4
Ġrem ind
Ġcamp anhas
ĠNot ÃŃcias
Ġminim al
ĠLib ert
Ġmeteor olÃ³gica
Sp ain
uzz i
Prim eiro
Ġfres co
c alled
p erson
w orth
in co
Ġp end
ou st
ĠC ork
ĠS ri
ĠA gu
ĠE du
ĠN AS
ĠV ent
Ġac Ã§Ã£o
Ġdes lig
int os
pect ed
Ġcam adas
icion Ã¡rio
Ġdef ender
OR E
Ã³r dia
rum p
Ġmethod ology
Ġarmazen ar
Ġsalv aÃ§Ã£o
Ġdiss ol
Bl ue
Ġsof istic
Ġsubs idi
Ġdefici Ãªncia
J an
M ag
a ire
l oc
r ug
u ega
Ġb or
ol ine
ĠB urn
un ter
ĠR d
ĠH appy
Ġag oda
ras h
ĠPro p
ĠAd vert
Ġapresent adas
Ġunivers ities
Ġobserv aÃ§Ã£o
Ġarmazen ados
Ġregard less
Ġfig ura
Ġmix ed
ĠPesso ais
Ġequival ent
ĠSpecific ation
Ġpne um
ĠFemin ina
abl anca
C ard
Ġof ic
ut on
ĠE ff
Ġest ad
Ġes port
Ġtrans aÃ§Ãµes
enh as
Em presas
Ġprecis ion
AR E
Ġtrat ados
Ġparticular es
Ġcham ados
bor ough
ĠFort al
Or der
ĠLib er
des ign
Cal cul
Ġelectric ity
Ġeurope us
A verage
B ah
D LL
g ests
t ure
Ġp ants
Ġdo gs
ĠI L
Ġno vel
Ġ3 000
iss on
tern al
Ġcap it
Ġ10 80
ĠSe ville
Ġgovern os
Ġsug gests
Ġindepend entes
Out ra
ĠTour ist
Ġfel icidade
ĠPont os
Ġhy p
Ġaument ando
Ġfen Ã´m
o T
ec onom
Ġpar ent
ĠB ike
ÃŃ o
ĠE SP
ter ed
ay er
Ġdis h
fer ing
ern a
ĠAd s
ĠSe oul
ĠIs a
ĠEm presas
St ation
Ġautor izado
Ġtut orial
ĠCin ema
Ġidos os
Ġenfer m
Orig inal
Ġinhabit ants
A present
E duc
ĠC AS
ĠT i
ĠL am
Ãº n
ĠSt ick
Ġinform ar
Ġrel ative
Ġreg ulation
Ġfl ut
Ġun ion
orn al
Est aÃ§Ã£o
Ġant igas
Ġcur ric
Ġref ers
ĠMod ule
ĠPart ners
Ġrepresent ative
ĠYou ng
Ã¢n icas
Ġalun o
Ġagre ements
Ġdestac am
Ġenem y
Ġbroch ures
ĠEnvironment al
) ?
E UR
G al
m aking
Ġs ought
Ġs lee
ĠC V
im enta
ig ate
ĠF ly
ĠF APESP
Ġdos es
Ġcri e
ivers ary
ĠItal iana
ĠGen ebra
Im p
Ġcaracter es
ogrÃ¡f ico
Ġfig ures
Ġexplic ar
Rem ember
Ġimplant aÃ§Ã£o
Ġtrop ical
ĠtÃ¡ xi
ĠfÃ³rm ula
Ġd reams
Ġc igar
an Ã¡
ĠS ÃŃ
ig ue
Ġr id
ĠF unchal
Ġcont Ãªm
Ġcol on
Ġfe aturing
Ġ9 3
Ġoper ar
ĠEl iz
Ġexist s
ploy ment
ĠTe atro
Ġproxim ity
ĠElect ronic
Ser Ã¡
Ġhold s
ĠMos es
Ġlik ed
Ġsubstitu ir
inqu edo
Ġsubsc ription
K now
ra id
Ġab ertos
Ġform ar
Ġaf ili
Ġmot ores
Ġopt ar
IC E
Ġmult id
Ġenvi ou
Ġ199 1
hel or
Ġfrut os
Ġaer on
ĠRol ex
B om
M M
T ab
on ne
id ance
ĠB ob
Ġse eds
for c
Ġcan cell
Ġtem ple
Ġent us
ĠCh ange
Ġcol her
ie val
ĠZ urique
200 6
ĠBed rooms
Ġsess Ãµes
Ġsess ions
Ġmuse u
ĠPRO D
Ġexpos ed
Ġton eladas
T ags
g art
Ġn one
ĠS ites
ia c
Ġat rav
Ġpr isÃ£o
og y
Ġme ant
xim o
Ġco verage
Ġserv ido
Ġmost rando
ĠCar bon
Ġaplic ado
Ġban heiros
Ġrealiz a
Ġarm y
Ġgovern ments
ĠcomeÃ§ aram
Ġdedic ada
ĠIr m
Ġdescrib e
Ġinclus Ã£o
ĠCro atia
ĠEconom ic
D ia
L at
x a
Ġde pos
it em
Ġm art
ic ers
Ġin n
ro f
ĠS ter
Ġqu ar
ĠM AR
ĠB our
ag le
Ġj ew
Ãº p
Ġtra ins
Ġob sc
Ġentre gar
Ġext end
uc ed
ĠCar olina
itar ian
Ġregist rar
ĠPer th
ĠSal t
Ġmodern as
Ġlog otipo
ĠMon ter
Ġmaint aining
Ġfeel ings
ĠVol vo
Ġresid ents
Ġcampaign s
Ġp ipe
ĠC ob
ĠS istemas
Ġg elo
Ġest Ãºdio
ĠN ig
iliz ation
Ġnew ly
ĠAp pl
Ġaplic ada
Ġsent imentos
Ġinstal ados
ĠAss im
Ġdiv ine
Es pecial
More over
ĠAP K
Alugu el
Ġnerv os
ĠBos ch
ĠCot ton
ĠTurk ish
l ia
ĠS elf
Ġdo w
ĠH unt
Ġsu ced
ĠJ im
Ġent ra
ific ou
Ġtrans ition
Ġprodut ores
ĠZ one
Ġpes ca
Ġespecial ista
Ġsin cer
Ġped ras
ama ha
ĠJo hann
Ġapar elhos
Ġinteress antes
ĠHD MI
Ġdifficult y
ĠsÃ© culos
gas mo
Serv ices
ĠDiam ond
ĠLuxemb ourg
k ind
w er
z i
as ant
Ġl iability
et ta
ĠB I
ĠD or
ual a
Ġdis app
Ġab rigo
ĠK am
Ġmin ing
Ġoper adores
Ġsegu indo
Ġevery where
Ġcomb ina
Ġinvest ments
Re al
Ġdig est
Ġassoci ada
Ġcoloc ado
ĠMem ory
Ġacord os
A IS
C onte
d am
d ale
Ġ ..
an ese
it el
Ġm estrado
ĠT all
ĠH art
ĠI g
Ġpre view
Ġcl ube
ink i
ĠCl ar
Ġanal ys
Ġautom Ã³vel
ĠPal ermo
Ġpersonal idade
Ġdeix ando
panh ias
ential s
ĠPe ace
Mod elo
ĠCult ure
Ġchurch es
ĠSof ia
Ġfisc al
I dent
M erc
S pa
r ants
t ainment
u ries
v or
Ġd Ãª
Ġd ental
Ġin ev
ĠA ce
ĠB oy
ul man
ĠT F
ĠH ano
Ġr ica
iz aÃ§Ãµes
cl ima
Ġenc ora
Ġport f
Ġplan ear
Ġeas iest
Ġcab os
Ġstand ing
Ġtreat ments
Ġpersonaliz ada
Ġexecut ado
Ġacab ou
ĠMotor ola
Ġc Ã³digos
Ġs angu
ad ies
il aÃ§Ã£o
ĠC AD
Ġv as
Ã³ ias
Ġst unning
ĠW IFI
Ġtem plate
Ġtrans action
ĠAn y
Ġbaix as
Ch at
Ã¢n io
Ġturn s
Ġsuport ar
Ġvar ies
ĠRet urn
ĠOc idental
ĠIb iza
aci Ã³n
ĠanalÃŃt icos
b ert
c ue
t op
ð Ł
Ġt ube
em Ã¡tica
ĠS GS
Ġh az
ĠA K
ĠA cordo
Ġre ar
ĠB od
Ġpro let
ĠR og
ĠH oll
ĠG il
ĠN Ã¡poles
ust ral
Ġav es
Ġfl ower
Ġ7 7
Ġprom ise
ĠCont roller
Ġstay ing
ank a
Ġrepresent ed
Ġrepresent atives
Ġdetermin ada
Ph il
Ġprote ÃŃna
irl pool
Ġwatch es
Ġacredit a
ĠDen mark
Ġthreat s
ĠCott age
Ġempt y
B rowse
or ro
ĠT on
ĠF at
ĠF ab
ĠF undo
ĠL iter
ĠW at
Ġfr ust
az es
Ġcor rer
Ġvis ibilidade
nci o
Ġatt ach
Ġlim par
Ġexpl an
EC H
ĠVer ona
Ġdivers Ã£o
ĠIN D
Ġresist ant
ION S
Ġcaracter ÃŃstica
Ġbelie ved
Ġphot ography
Ġsaud Ã¡veis
Ġigre jas
Ġreput aÃ§Ã£o
Ġthick ness
ĠCouch surfing
I deal
T est
Ġin vol
ĠM Ã£e
Ġcon cluded
ĠH ouses
Ġr uss
ade qu
Ġno ve
ĠCh arg
Ġrec ycl
ĠRe pair
Ġ7 3
Ġencont radas
Ġart s
Ġforn o
Pro cess
Ġadequ ate
Ġabs ence
ĠPrim e
Final mente
ĠIsl am
cr Ã¢nia
E las
F abric
o e
o ir
Ġ rig
Ġd ot
Ġt ort
in ja
Ġb elo
Ġv eg
ol so
im burgo
ĠR ural
pl ement
Ġj un
Ġprof undo
Ġmelhor ias
Ġact ing
Ġla id
Ġvol unte
ĠSa fe
Ġassoci adas
Ġreport ing
Ġinterpret ation
war ning
Ġdoct ors
Ġtransl ations
Ġinsp iraÃ§Ã£o
igu idade
P orto
g ers
Ġpar ques
ĠL E
ĠL ounge
op es
Ġtem plo
Ãº do
Ġpe oples
Ġsp oke
Ġaqu elas
Ġpoder Ãł
ĠFl ight
Ġdefin iÃ§Ãµes
ended ores
Ġmant ido
Ġadequ adas
Ġselec Ã§Ã£o
Ġmob ility
Ġatualiz ado
Ġprior idade
ĠBreakfast s
Ġportugu esa
wh ile
Ġintegr idade
Ġabsolut amente
ĠInnov ation
I E
Ġc ren
an ne
it Ã¡rias
Ġn aÃ§Ã£o
Ã§ ulman
ĠA F
ac le
oc as
Ġr Ã©
Ġal inh
Ġag ir
ĠUn idade
con es
ĠAp ply
Ġsec a
ĠTh en
ĠCo imbra
Ãªm ios
Ġshe ll
onte iras
uk u
Ã³p io
Ġadminist rador
Ġnave gar
Ġinvestig ation
Ġfour th
Ġdiss ert
bour g
hib ition
ĠJe ho
Ġrepar aÃ§Ã£o
Ġinvent ory
ĠRac ing
ĠTaip ei
I UM
M embro
Ġt ric
it ate
Ġn ine
ec raft
ĠP as
st ream
ĠL er
ĠL ed
ĠL earning
ud as
Ġfl ag
Ġesc uro
Ġ8 6
Pro per
Ġprom ove
Ġpriv ativa
ĠCan aria
Ġconv enc
Ġemploy ee
Ġtru ck
Ġamount s
Ġbon ita
Ã¨ re
ĠSho es
Ġamer icano
Ġdens idade
ropol it
Ã¡ps ulas
ĠINST ALL
at us
ĠS Ã©rie
ĠP U
ĠT hai
Ġque bra
Ġal imento
ta wa
Ġnear est
enci amento
Ġcr Ã©ditos
ĠPre cis
ones a
Ġmonth ly
Ġhost ing
Ġcop o
Bus es
Ġsuppl ies
Ġpropor Ã§Ã£o
Ġdecid iu
Ġsuggest ed
Ġimprov ements
ĠDut ch
C rie
Ġc Ã£o
el ancer
ĠC her
ĠS Y
Ġre posit
ĠB A
ow e
Ġus uf
Ã©m io
Ġwas hing
ĠestÃ¡ t
Ġesp elho
Ġexc ellence
Ġquant idades
Ġsubst ances
ĠÃŃ nd
Ġdiscuss ed
Ġprest ar
Bl og
ĠUN ESCO
Ġtw ice
Work ing
Ġpregn ant
G L
c Ã£o
Ġp ir
Ġp uro
ĠM ale
ĠD ias
ĠD usseldorf
ĠF D
Ġsu do
ew hat
ik es
ĠRe un
Ġsp ots
Ġleg ÃŃt
pr ises
Ġperce b
Categ oria
G r
he jiang
ad ers
ĠC ities
ĠC AP
ĠF itness
Ġen abling
ug a
Ġpart ilhar
Ġcri atividade
ĠEst ate
ĠX angai
ans a
its u
Ġdesenvolv ida
Ġoc ult
Ġcompet iÃ§Ã£o
Ġestar Ã£o
Ġinfl am
iment ary
Ġenjoy ed
Ġtrain ed
ĠVol tar
Ġpisc inas
ĠCateg orias
Ġenvol ve
ĠJord an
Ġamig Ã¡vel
f ar
Ġ Å
Ġd anÃ§a
Ġs ag
Ġw ines
ĠP ump
Ġpar ad
ĠM ail
ĠT elecom
ĠL ess
se ille
Ġen riqu
Ġpr Ãªmio
Ġim Ã³veis
ug o
ub ble
Ġ19 60
Ġret ro
ĠCan al
Ġstay ed
panh ola
Ġcuid ar
ĠMag n
Inst al
ĠPont a
Alugu er
Ġreput ation
Ġl aptop
iv irus
ist Ã£o
ĠI z
ĠG ram
ĠJ ogar
Ġar en
Ġent ity
ish ment
ĠCo zinha
Ar ch
ĠMo is
ĠComp ras
Ġlet ters
Ġexclus ively
Ã¢n s
ester day
Ġsalv ation
ĠLiv re
Ã¡c uo
Inf elizmente
B T
C a
E con
g ot
p ark
Ġc ÃŃr
Ġin door
ro cos
ĠC T
ĠS weet
Ġex cesso
ĠO nt
Ġout ono
Ġte or
Wh ich
IN O
ĠReg iÃ£o
Ġsubst ant
bor o
Ġdestru iÃ§Ã£o
ĠPrin cess
Ġcuidados amente
Ġetern al
jac ulaÃ§Ã£o
Ġhip Ã³t
ĠCongress o
ĠÃļ lt
D ue
H om
N atural
T otal
c c
s lee
Ġp Ã¡t
Ġe ase
Ġh idro
Ã¡ d
ÃŃ mos
ct ions
end ado
ĠJ ET
ang le
Ġsec ador
Ġorgan ismo
arg ar
urch ase
ĠArt works
ĠrÃ¡p idas
Ġconce pÃ§Ã£o
Ġansw ered
Dispon ÃŃvel
Ġconserv aÃ§Ã£o
Ġagricult ura
ĠGR AT
Ġpreval ence
Ol hando
ĠNik on
Ġfulf ill
om at
Ġw ww
ĠC ust
ec idos
Ġre ward
ig ma
Ġar ter
cl ing
Ġman usc
Ġ8 3
Ġcompl icaÃ§Ãµes
Ġbl ouse
Ġmen ina
ĠQ UE
ĠCont ato
ĠIm agem
Ġpersonal ly
Ġpermit ido
ĠMic hel
uv as
Encont rar
Ġpersonaliz ed
Ġhig iene
Ġfamiliar izar
ĠLeg al
Ġgal van
Ġsubs id
Ġelabor aÃ§Ã£o
Norm almente
Ġcorru pÃ§Ã£o
P H
s ec
Ġs ick
Ġv otos
ĠP ract
ur ados
ĠT am
iz ador
ĠMar ine
Ġgu ided
ela ide
Ã©t rica
Ġdevelop ers
Ġcal endÃ¡rio
Ġdisc urso
ĠWh ats
16 0
Ġtur b
Ġconvers ation
Ġprest aÃ§Ã£o
Ġoptim al
Ġinvolv es
Ġrepar os
Ġoblig ations
Ġemot ional
ĠConstru ction
Ġinesquec ÃŃvel
ĠPronunci ada
ĠMois Ã©s
L ond
P age
l am
Ġf old
ĠB C
ĠF A
ĠN ave
ĠW ish
Ġes clar
ĠK uala
Ġent endimento
ĠSt ory
ord ers
Ġesc ap
rib ed
Ġcap ÃŃtulo
Ġliv rar
Ġbl usa
ĠPr est
Ġfut uros
Ġdetermin adas
ĠPhil adelphia
Ġspec ify
Ġdriv es
Ġcorrespond Ãªncia
ĠAlb ert
Ġburn ing
Ġbroch uras
ĠMoz illa
Ġsty les
peon ato
Ã¢ns ito
m art
Ġt ight
it ura
el t
ed ic
Ġas king
Ġon going
ho o
ĠW y
Ġper cept
Ġad er
ub s
Ġsh ock
ath an
Ġdef ense
Ġhum or
va h
ĠInst ru
ĠAss embleia
ane amente
Ġach a
Ġcrit Ã©rio
Ġpubl icaÃ§Ãµes
Ġmark s
Ġvest uÃ¡rio
Ġacab ar
Ġang le
ĠWork ing
ĠAlugu er
ĠAvalia Ã§Ã£o
igen ous
ĠCasc ais
H um
P esquise
S panish
Ġp atch
Ã© ricas
ver ty
Ġel astic
Ġint ent
ern o
Ġ9 1
ĠZ agreb
Ġinv ite
Ġdi Ã¡rias
Re quest
Ġcall ing
Ġread er
Ġmor adores
Us ers
Ġelev ados
Ġcompre end
Ġblock chain
Ġsym b
Ġjorn ada
Ġtranqu ila
Ġsequ Ãªncia
Ġdecre ase
ĠCarib e
Ġmaravilh osa
Ġje ito
Ġdelet ed
iffer ent
P asse
Ġt ÃŃtulos
Ġf Ã³rum
ri k
st ock
ĠL ists
ĠN an
ĠW elcome
ill es
Ġim ig
Ġ4 50
Ġvis ibility
EN D
Ġsens ores
Ã³l ico
ĠSc ript
ĠCast ell
ĠDist rito
TER N
Ġexpos iÃ§Ãµes
ĠMess age
see ing
Quest ions
Ġappreci ate
ĠColumb ia
Ġelder ly
F X
a io
h yd
Ġt ampa
Ġc ena
ĠM aker
Ġdo br
Ġg at
ÃŃ culos
ĠW olf
Ġar rang
Th ree
Ġass igned
Ġaf raid
ĠPh ys
Ġbr idge
Ġ[ âĢ¦]
IS O
Ġbro w
ĠAb b
Ġcare ful
Do es
ĠMa jor
Ġtransfer red
Ġexclus ivos
Ġgrad ually
ĠSte am
Ġreduc es
ĠOF F
ĠUtiliz ador
ĠGAM EP
ĠFron tera
P s
W ind
ent er
ĠM endoza
ess ion
ĠL akes
ĠG or
Ġj ardins
Ġad ap
Ġrel ativo
ĠAl ban
Ġcor aÃ§Ãµes
Ġconf iabilidade
Ġ7 1
Ġ8 7
Ġbus es
Ġinf Ã¢ncia
Ġvo or
12 3
Ġplan ned
Ġrefer ences
Ġsuper merc
Ġapro fund
ĠAss ista
24 0
ĠTo ilet
ĠVis ion
ris on
ĠlanÃ§ ar
Ġdesenvol ve
ĠCart Ã£o
ĠStud ios
Ġintelig entes
Every thing
SH IELD
Priv ate
L ight
d ing
m ag
Ã «
â Ĥ
Ġt eto
Ġo vos
Ġf ome
id th
ĠC ov
ri or
Ġv ote
Ġh ath
ĠH ero
ĠF an
ĠL ump
Ġex ch
Ġrel atively
Ġver Ã¡
Ġsp re
Ġoper ates
Ġlim pa
itor al
ĠPe Ã§as
enn is
ĠCamp ing
Ġproduz idos
ĠCult ura
Ġalgor ith
quar ters
L is
W D
k ed
w eg
Ġf idel
Ġin ches
ĠE ver
ĠN ag
Ġbe er
ĠO z
com p
ĠSt rap
Ġwas h
amb o
iss a
Ġsp are
Ġdesc end
Ġautom ation
Ġban ners
Ġhealth care
ĠItal iano
ribut os
Ġkey board
Ġembal agens
Ġincr ÃŃveis
Ġri queza
Ġdefinit ivamente
Ġcharm ing
Prin cip
Lemb re
Ġhapp iness
ĠINSTALL SHIELD
ĠGAMEP OST
P rices
Ġt atu
it ors
it ivity
Ġb act
Ġw ond
Ġh olidays
ĠA par
ig an
ĠT itan
ĠR ole
ĠL C
Ġsu ic
se y
ha ust
Ġcan s
Ġdis ciples
po io
Ġwas n
Ġun able
ĠEst ratÃ©g
Ġnecess ita
Ġsec Ã§Ã£o
Ġmay be
Ġintern os
Ġmot ion
Ġpublic ar
Ġsent imento
Ġlow est
Ġworks hop
Ġcirc uit
ÃŃg enas
ĠTrad uÃ§Ã£o
ĠDav i
Ã¢mer as
Ġcancel ar
Ġsurround ings
Ġcarry ing
ĠDeg rees
Ġdece pÃ§Ã£o
fei Ã§o
C ookies
E nd
G old
P elo
am less
Ġl ect
Ġh ung
Ġg ardens
Ġth or
un er
ĠF ox
ĠL ike
Ġcont atos
Ġfr esc
Ġres umo
av o
ĠK ings
Ġme ets
Ġfl av
Ġfac es
ĠPer f
Ġsepar aÃ§Ã£o
Ã©g io
Ġshort s
Out ro
ataform a
ĠMus lim
Ġacab amento
ĠTod as
ĠExc ellence
Categ ory
Ġlut ar
ĠSleep s
ĠEther net
Stand ard
condition ed
G ame
Ġn an
Ã§ ando
Ġre act
Ġpro l
Ġfor um
Ġr os
Ġal ive
ĠG ord
Ġat o
Ġcont amin
Ġout standing
ian ces
Pro jet
Ġcomb ines
ÃŃf ica
onst er
ĠAlem Ã£o
Ġsop h
Ġintens idade
Ġsufici entes
Ġfech ar
ĠList en
ĠLink s
ĠFram ework
ĠResol uÃ§Ã£o
A eroporto
F ornec
H ar
L and
S W
l ow
n on
Å ¡
an so
ĠC ord
Ġre aÃ§Ã£o
ĠB eb
Ġfor ever
ap pro
Ġst uff
ĠJ ur
Ġob tenÃ§Ã£o
Ġco ating
Ġcent uries
ari ado
Ġsub t
Ġph ones
ON E
Ġide ais
Con fig
Ġeffect iveness
Ġtur istas
Ġimplement ar
ĠTem perature
Ġrespect ivamente
Ġrecon cil
Ġbig ger
ĠCop a
Ġmicro f
ogrÃ¡f icos
ĠReserv ation
Ġrefl ection
Ġinser ir
Ġpud er
ĠCreat or
Ġmerg ulho
onym ous
MÃ¡ quina
? ?
V ai
z en
Ġm ine
Ġex it
Ġpo verty
ans as
Ġestud ante
Ar qu
Ġinde ed
Ġrepresent am
Im agens
ĠRel ig
Ġclos ely
Ġperce pÃ§Ã£o
Ġbath rooms
ĠBas el
ĠEle v
ĠeconÃ´m icos
Ġcredit s
Ġpreocup aÃ§Ãµes
Ġisol amento
Ġconfi Ã¡veis
ĠFabric ante
ĠExcel Ãªncia
ĠCir c
ĠArqu ivo
ÃŃcul a
ĠNut rition
Ġsangu ÃŃne
Ġusuf ru
L D
r ical
Ġa ze
Ġd ating
as ure
Ġin ch
ra ge
ĠE T
Ġal leg
Ġim Ã³vel
Ġpre views
Ġab ast
ĠPort able
ĠCl os
Ġens inar
Ġfut uras
Ġimpress ive
Ġlog ÃŃstica
Ġtel esc
Ġtext s
Ġaltern ativas
ĠFlor ian
Ġdeb t
Ġflu id
ĠvÃ¡l vula
ĠCel eb
Ġinterval o
Ġsud den
ĠHOT EL
C ountry
G D
in th
re iro
ĠS cre
Ã¡ ci
ĠP ink
ul ly
ĠL iga
per im
co Ã§o
Ġir reg
ĠAnd orra
Ġbase adas
Pl ace
Ġcham ar
Ġfa Ã§o
Ġtrip s
enz o
Ġfast est
Ġconcre to
Sm art
ĠOlymp ic
Ġdiminu ir
D av
S olic
n ut
t own
ic ie
ec imentos
ĠM ega
ĠR AM
ĠH ere
Ġr ico
Ġper i
Ġdis pens
po o
ĠDe utsch
Ġmin ube
aix on
pre Ã§o
Ġpoder osa
Ġport able
Ġvari ar
Ġmant endo
Ġcheck ing
Ġmeas ured
Ġexig em
Ġrom antic
Ġcompat ÃŃveis
Ġapproach es
Ġsav ings
Mic rosoft
ĠclÃŃn ica
ĠLeon ardo
iseric Ã³rdia
ĠFortal eza
Ġbrow se
. âĢĻ
R ent
e us
m aster
Ġp ic
an on
Ġo v
om bo
ĠS ep
im um
ĠT ampa
un icaÃ§Ãµes
ĠD M
ĠH R
pe Ã§Ã£o
Ġag es
... )
Ġaut Ãªnt
ĠPl ug
ĠPr ÃŃncipe
Ġclass ified
Ġindic ates
Ġmor reu
-- -
fl ix
Be aut
IR A
Ġestabelec ido
Ġcollect ive
ĠNor uega
ĠLiv ro
ĠvÃ¡l ido
ĠJew s
ĠIb is
Ġdescre ve
Ġoblig ation
ĠAcom od
ĠOra cle
C OST
r s
w rit
it able
ur ador
Ãª ncio
ĠN T
og ether
Ġper das
Ġsobre v
... ]
Ġcol onial
uro u
ĠY oga
Ex press
ĠPal mas
Ġ24 0
Ġconfig ure
ĠFre qu
Ġmass ive
ĠÃŃ nt
Ġfront eira
Ġconect ado
Ġwin ning
Ġcient istas
Ġfight ing
Ġstruct ural
Ġstim ul
Ġconvent ional
ĠFÃ¡b rica
ĠConteÃº do
E ra
S ite
T ro
b ach
m ais
w as
Ġin con
Ã¡ teis
ac les
Ġg ord
iz am
Ġat itude
Ġun iÃ£o
Ġprocess ar
Ġ12 8
Ġair line
ĠCam pos
Ġadicion e
ĠEd imburgo
Ġveget ables
Ġrevel a
Ġdescrib es
ĠJust ice
ĠBudap este
ĠBil bao
Ġbols a
ĠSust ent
ĠEliz abeth
in form
Ġh ide
ĠP asse
ĠA juda
Ġr icos
iz ade
Ġfr uto
ain te
are house
Se us
ism s
Ġpermit iu
Ġol ive
ST AR
Ġconj untos
Ġopportun idade
Ġadapt ed
ĠÃ³t imos
Ġneigh bour
Ġhappen ing
Ġimag ine
Ġhar vest
Ġgather ed
Ġjude us
slee ved
. -
T el
b il
Ġp H
Ġth in
ĠH i
ĠH ob
ĠN ob
ill ance
ak h
ok a
res ist
Ġcons elhos
Ġint eira
Ġsal Ã£o
Ġpat ro
ĠInn s
ĠTrans porte
Ġcamp ing
Ġrecomend amos
Ġmedic ina
Ġcommon ly
Ġcirc ular
ĠelÃ©t ricos
Ġtransmit ir
Ġtranspar ent
ĠBur berry
Ġplug in
ĠCha ir
Ġha ja
Ġrevolution ary
Ġb esides
Ġem issÃ£o
ant ia
ĠV M
ater ia
ĠY amaha
ĠMar seille
Ġmar ried
Ġhel ic
ĠCar rinho
Ġprecis ely
Ġsignific ativo
Ar m
Ġrepresent aÃ§Ã£o
Ġstat istical
Ġelev aÃ§Ã£o
Ġcover ing
Ġdesenvol veu
Ġvest ir
ĠLo ading
ĠavanÃ§ ado
ĠCro Ã¡cia
Ġexplic it
ĠCi udad
Ġdestroy ed
ĠcrÃŃt icas
Ġpobre za
Ġreven ue
B al
P I
V R
t at
ĠC atedral
et ime
ĠM atch
Ġcon gress
ĠI de
Ġr osa
Ġent itled
are jo
Ġam ino
Ġme x
Al tern
Ġaf ric
ici ar
ĠCl ube
Ġbr in
Ġsur prise
Ġfund ing
Ġpersonal ity
Ġprepar ado
ĠMod a
Ġsatisf ied
Ġlab our
ĠCP U
Ġdivert ido
Ġreflet em
Ġdaqu eles
ĠPequ eno
Ġrepe ated
Ġcaf Ã©s
Ġlegit imate
ĠLump ur
, [
S R
c ara
w ares
Ġc ura
ĠS ix
Ġl ake
Ġv ide
et z
Ġem blem
ĠM embers
ant i
ĠF Ã©rias
ĠF DA
ĠG ren
Ġter Ã§a
pon ent
Ġsob er
rat ulations
te en
Ġint est
Ġnecess arily
Ġcam eras
ĠSh ort
Ġfac ial
ĠCas ablanca
Ġma u
Ġmult ifun
Ã³d ulo
Ġalt ar
En viar
Ġreceb em
Ġult imate
Ġpropos als
Ġconclus ion
ĠDef ense
Ġexcept ional
ĠAmb iente
Ġindis pens
ĠGRAT UIT
F und
T enho
v d
Ġo este
el and
Ġb ibli
ĠC ater
Ġl ac
st op
ĠB O
ĠB art
ĠT ow
ÃŃ odo
ĠD HL
ĠL our
ĠG ib
ĠJ as
ific ates
aliz a
Ġinv ers
Ġatt ribut
Ġcu ri
AD A
Ġconfirm ation
Ġlimit ada
ĠCop yright
ĠPhil ip
ĠWar ning
ĠTrad ing
Ã©n ia
ĠCateg ory
ĠCre ate
ĠVI EW
Ġphen omen
Avalia Ã§Ãµes
ĠPain el
Ġcontrib utions
Ġorganis ations
ĠPhilipp ines
Ġsoph istic
l ate
u is
Ġcom plications
ĠP isa
Ġg ear
ĠD ial
end es
Ġpor Ã§Ã£o
ran Ã§a
Ġab ertas
ass ador
Ġcar gas
vis Ãµes
Ġut il
Ġutiliz am
Ġbo ot
ĠGo i
ĠPol it
Ġconsult oria
Ġcoloc ados
Ġpack ing
ĠRel ated
Ġcomplex os
Ġdiss emin
Ġimedi ato
Ġmer ch
ĠLy rics
Ġtranspar Ãªncia
Ġesqu ecer
Ġscen ario
ĠConstru Ã§Ã£o
Ġslow ly
Pan el
Ġdesnecess Ã¡rio
ĠJET COST
Ġpatro cin
B at
H ER
Ġb ill
ĠL ac
if ÃŃcio
ĠN Ãºmero
Ġou Ã§a
Ġch apter
Ġent rou
Ġvis ÃŃvel
Ġserv o
ĠZ en
Ġra Ã§a
Ġcur r
Ġport ion
Ex peri
Ã´n icas
Res earch
US E
iqu em
Pl us
Ġlig ados
ĠPart ner
Ġmilh Ã£o
Ġprote ÃŃnas
ĠPortugu esa
Ġmonitor ar
ĠRel Ã³gio
ĠEconom ia
Ġentrev istas
ĠRoman ia
ĠFore ign
ĠsÃŃm bolo
ĠesterÃ³ ides
ĠBelf ast
G N
ar de
Ġs Ã¡b
Ġf ases
ent amente
Ġin adequ
id entes
ĠC isco
Ġl Ã³gica
Ġqu Ã£o
ĠD aily
ĠF ix
ab Ã©ns
ver al
Ġap ostas
ĠÃ Ģ
ĠIn terior
Ġdis par
Ġmod ular
olog ias
Ġpass ing
air ros
Ġbr inquedos
Ġconsider ation
Ã´m etro
ĠDire tor
Ġhav iam
Ġach ar
Ġlo vely
Ġstat ements
Ġkeep s
Ġmag ic
ĠFin lÃ¢ndia
ĠNe v
ĠCur rency
ĠOper a
Ġvitam in
Ġarran car
Ġoccas ion
ĠagrÃŃc olas
ĠEvang elho
l av
u ous
es o
Ġm ad
Ġf ing
Ġan el
est one
ra be
Ġ( +
ĠR ight
ĠD j
ĠD ra
ĠN u
ĠU crÃ¢nia
Ġch ronic
Ġter ap
Ġcor pos
pre go
Ġmar ÃŃt
Ġconc urso
iqu id
Ġcontinu amente
Ġprop Ãµe
ĠCons erv
Ġoptim ally
Ġtown s
Ġvolt age
ĠProfess or
Ġvict ims
dis cipl
ĠRF ID
Plan ej
ĠIber ia
Ġpuri fic
utt gart
ĠMarrak ech
forc ement
P esso
s ub
Ġp cs
Ġf ich
Ġf uck
ĠS N
Ġre iv
ĠT rump
pl ing
ok ia
ov ed
Ġthem es
Ġoff icers
Ġsitu ada
ĠMil ano
ĠDis ponÃŃvel
Ġfrequ entes
icy cle
Ġcentral ly
Ġincor rect
Ġsof rimento
Ġvac uum
ĠBra ga
Ġpert ence
ĠÃį ndice
Ġfurn ished
ĠVict or
ĠPrint ing
ĠPes o
ĠPok i
Ġproport ion
Ġc oun
Ġs unset
Ġm ante
Ġb ull
Ġl Ã¢mpada
ra ction
ul ha
ĠF ried
ĠK as
Ġun f
Ġte eth
Ġdel ivers
Ġdev idamente
bo ards
Ġcust a
Ġins ights
Ġcomm ission
IN A
Ġtorn aram
Ġmat ar
Ġcontinu am
play er
Ġstudy ing
Ġsac os
Ġput ting
Ġdever iam
Ġmer ely
Ġpeace ful
ĠEnter tainment
ĠHam pton
Ġcong reg
ĠHen ri
Ġexclu ir
Ġfilos ofia
benef ÃŃcio
P ens
o este
Ġ `
Ġc erc
Ġm ast
ĠA Ã§Ã£o
ac ia
Ġcon duzir
ens or
01 0
ish i
Ġgu idance
ĠCon ce
Ġbar ras
Ġtest im
Ġclass ificados
ĠVal Ãªncia
Ġpri ests
Be en
Ġge omet
ĠColor ado
ugg y
Ġeg gs
Ġmercador ias
ĠnÃºcle o
S un
b ase
at an
ig ence
ĠD IS
ĠG D
ĠV ie
Ġle ia
Ġprodu cers
ick ing
Ġ7 20
Ġentre g
Ġnecess ariamente
Ġinf ring
Ġcert ificados
Ġprot ocolo
AN O
Ã¡s ia
Ġanal ytics
Ã¢m icas
ÃŃl ica
Ġcontrol ador
ung st
Ġsearch ing
Ġvel oc
Ġpot enciais
Â® ,
Ġcombin ar
ling ton
ĠMe io
Ġpan els
Ġpromot ions
Ġchat ting
ĠArm y
Ġmac ro
Ġfiz er
Ġdestru ction
ĠSE O
Ġefica zes
Ġdra wn
Ġetiqu eta
ĠZo over
Ġdisappoint ments
Ġacquis ition
Ġarter ial
M inha
U I
Ġf ita
ĠA u
Ġpar to
ĠB rem
ĠT ake
un ha
us co
ĠH ait
if a
and y
op ia
Ġna vio
ĠK il
Ġad iÃ§Ã£o
Ġch ief
Ġsh ares
Ġmet as
ĠAd elaide
reg o
Ġger aÃ§Ãµes
Ġbro wn
Ġinc Ãªnd
Ġnatural mente
ID S
Encont ra
ĠMor occo
ĠMem orial
ĠOper aÃ§Ã£o
ĠSingap ura
Ġimpression ante
Ġalgor it
IQ A
F az
M ount
P rem
v id
Ġt reas
ĠP ousada
ur ation
ĠT urn
ĠR ange
ĠE F
ĠF IFA
ĠN antes
Ġent ries
Ġinter views
ord en
ark s
ied ades
Ġref ug
ĠHe ights
Ġcult ivo
Cont rol
ape ut
Pass agem
TR ACT
Ġdam ages
Ġcort ar
Ġtw enty
Ġcalcul ated
ĠON U
Ġotim izar
Ġreflex Ã£o
Ġjam ais
Ġsudo este
B ay
G ostas
L ife
S ch
y ang
Ġm estre
Ã§ ambique
ĠC redit
ĠP HP
st own
ac ab
ep ing
Ġprogram mes
ĠSh ut
ound ed
ĠX clus
Ġsom bra
Ġregul atory
ĠlanÃ§ ou
Ãºr g
Ġarg ument
Ġescolh ido
Ġdens ity
Ġmechanism s
Ġenvol ver
Ġsuspens Ã£o
asp berry
Ġphilos ophy
ĠdiscÃŃp ulos
L as
S ize
V itam
Z A
m i
m ir
o ids
Ġt enta
ed ge
ĠC au
ri am
ĠM ob
Ġdo c
ĠT ap
ĠE y
ĠG ir
ĠO perat
Ġcont est
Ġab st
ĠK et
ert e
Ġop cional
Ġseg mento
ĠCont ents
Ġenerg Ã©tica
Ġmat t
Ġapresent ada
Ġclick s
ĠMal aysia
Ġrelax ing
Ã³t ico
Ġ198 9
AG E
Ġcontract s
Ġlav and
ĠDin amarca
Ġdiscut ir
ĠFerram entas
Ġille gal
Instru Ã§Ãµes
Excel ente
C afÃ©
S hop
Ġm ax
om ia
Ġan cest
Ġl inda
ir me
us os
ĠH ay
ĠF ed
ĠL arge
Ġsu ÃŃ
eg ov
ĠJ ama
th is
ĠCh arm
Ġpass am
ĠRes ources
ĠCon venÃ§Ã£o
ĠAd am
ĠWh irlpool
Ġreach ing
Ġnews letter
View ed
Ġemp enh
ĠeletrÃ´n ica
Ġvoc abul
Ġfemin ino
Ġhi per
Ġinspect ion
ĠHels inki
Ġly rics
B en
R en
h ine
Ġ \
es burg
ĠS R
ĠN eck
ang ular
Ġam a
Ġprodu ces
ish es
Ġra ck
Ġmar gem
mit ted
Ġprot agon
ĠCont empor
Ġdisc os
ĠFre der
Ġmass age
Ġselecion ado
Inst ead
ĠPlan et
Ġassum ir
Ġcool ing
Ġsit ting
ĠJeho vah
L ow
b ag
g irl
Ġd our
ar os
Ġb one
Ġh Pa
ol in
ĠA ber
Ġre vers
Ġcon qu
Ġg ir
Ġest resse
ĠN at
vi Ã¡rio
az en
Ġag ed
ĠPl ata
Ġdel ight
ath y
Ġret irar
Ġbel as
Ġsk ill
Ġtal entos
ĠMa j
ION AL
Un fortunately
Ġoptim izar
Ġrout ine
Aprove ite
H R
L ook
T w
Ġp ixels
Ġb ate
ĠP esquise
ut es
ĠM ode
ĠE uros
ag ua
Ġal f
ch at
Ġap aixon
ĠU ber
ĠK i
Ġel Ã©ct
ĠLe e
Ġcu rios
ĠPart ido
etro it
Ġdecor ated
Gu est
Ġsatisf azer
ĠSil icone
Ġrelax ation
Ġveget ais
Ġcirc uito
Ġdimin uiÃ§Ã£o
Ġdial og
ĠâĨ Ĳ
amer icana
ĠOt tawa
ĠLabor atory
Ġbacter ia
Ġreemb olso
ĠBright on
Ġestrang eiro
Ġultrap ass
A X
Ġd raft
Ġc odes
Ġm und
Ġv Ã¡cuo
ĠP oder
iv en
ĠâĢ ¹
Ġdis abled
ell s
pon ents
ĠPar anÃ¡
Ġautom aÃ§Ã£o
St ay
Ġdirect ory
An Ã¡lise
Ġpost al
ÃŃd io
Ġmud a
Sh ort
Ġsens ibilidade
ĠPart icip
umin aÃ§Ã£o
ester ol
ĠCast ro
Ġdescob erta
ĠNe ed
ĠAmar ill
Ġinclus ion
Ġexercis es
Ġconvert ed
Ġscient ists
ĠHam ilton
Ġempresar iais
Conf ira
c ap
r indo
u ing
Ġe a
om eter
el ve
Ġl ifestyle
est res
im p
ig s
ĠR T
Ġr endimento
ag ir
ag ena
ilh Ã£o
Ġset up
Ġrem ained
ĠCan vas
Cl ub
Ġdom ÃŃnios
ane ous
Ġbas ket
Ġimm ig
Ġsolic itado
Ġexpand ir
Ġwor se
Ġconfer Ãªncias
Ġintegr ity
Ġemoc ion
K it
u ir
Ġn estes
ing ering
ot Ã¡
ac ar
ĠD out
Ġr ub
Ġr ose
ĠF onte
ĠU l
Ġob es
ric idade
Ġmet r
ari at
ĠMar gar
Ġrece ives
Ġright e
ĠTer me
Ã´n icos
Ġalt itude
Ġlat ter
ĠBud d
Ġsect ions
ĠCharl otte
ĠtÃ©rm ica
Ġaper feiÃ§o
Gre en
Nenh uma
ĠAnsw ers
M V
P osso
R uss
b os
ĠS ug
Ġv inte
et on
ĠP ros
Ġr ul
Ġal erta
Ġsu pre
Ġbe ira
ho ven
uc al
Ġcre ativity
Ġatt itude
Ġgen etic
la w
Ġpriv ados
Ġsc ores
Ġfal ou
ĠComm on
Ġaddress ed
ĠMen inas
Ġlimit ations
Ġdemonst rate
Ġinov adoras
Ã± o
Ġexce ed
Ġalugu Ã©is
Ġcrist al
ĠBot tle
Ġinim igo
quist Ã£o
Ġluc rat
Ġdoll ars
Opin iÃµes
f ase
n em
Ġc ach
Ġf illing
id ere
ĠP ER
ĠM ate
Ġg ifts
Ġr h
um bo
Ġpr icing
Ġfr ames
ĠJ ob
th ur
Ġro da
Ġtr Ã¢nsito
Ġint u
Ġco inc
Ġprov edor
Ġgu ides
Ġte Ã³
Ġfacil ity
Ġgarant indo
Ġgan ho
ĠDesign er
Ġado Ã§Ã£o
cy cle
Ġwish es
Ġmencion ado
ĠRy okan
Regist re
ĠImper ial
Ġdisapp ear
D em
M obile
T rata
W ar
f ri
Ġqu is
ĠM Ã©d
Ġpr Ã¡tico
co a
ff aires
Ġconf idential
Ġpo ols
ĠRes id
pro v
ĠAd apt
Ġ$ $
Ġhom en
ualiz aÃ§Ãµes
Ġconsum ida
Ġsuper vision
Ġ17 0
Ġspecial ly
En vie
cos ystem
Ã³l icos
Ġlog istics
IV A
Ġconfirm ar
Ġpergunt ar
ĠfÃŃs icas
Ġreduz ida
ĠBath rooms
Ġreve al
ĠBou levard
ĠHua wei
ĠSEN HOR
Ġjudg ment
Ġthor ough
F actory
S or
s peed
Ġp istas
Ġm am
Ġb ronze
Ġto y
Ġv endedor
Ã¡ gua
Ġcon vey
Ġdo entes
oc ation
Ġy es
ĠE vol
ĠH ond
Ġnot ificaÃ§Ãµes
Ġch ose
Ġam o
ĠCom mercial
ĠAr g
els on
Ġir rig
Ġcomput aÃ§Ã£o
Ġdu plic
US T
Ġfund ada
Ġbot as
UR E
Ġedit ing
ĠEd ge
Ġpersonaliz adas
ĠsÃ©ri o
Ġstop ped
Ġlay ers
Ġcolet ar
Ġabsol ute
ĠHen ry
ropol itan
Ġocorr Ãªncia
Ġrestrict ions
Child ren
C all
H ora
M et
N unca
h attan
x t
Ġs ister
ĠS S
ĠT ER
us ing
Ġch ip
Ġmod al
olog ies
ese j
ĠCl ientes
10 5
ĠPar agu
Ġesp uma
ĠBrasil eiro
ĠWh y
ĠRec ursos
Ġnut rition
ĠeconÃ´m icas
Ġtransmit ted
Ġmanufact ured
ĠSER V
Ġadvertis ement
L ine
e ast
n ame
u ÃŃ
Ġpar ada
ĠD ry
um ante
um ping
ĠG ift
Ġex ames
Ġar ising
Ġcl ip
Ġcar os
te ve
ie u
anc he
ĠCl in
ĠCon ferÃªncia
Ġajud ou
12 5
ĠAg ria
Ġdesenvolv edores
Ġdom ic
Ġgarant ido
Ġprepar ing
ĠInd Ãºstria
Ġengine ers
ĠMe et
Ġ198 8
Ġfirm ware
Ġeurope ia
Ġpreench er
Ġbols as
ĠPier re
F ire
m and
Ġde form
ri ft
ol n
ĠP uzzle
ĠM ist
Ġg ained
ĠT ir
ĠR J
ĠD ak
ĠD atabase
ĠI v
Ġr um
ag ues
ĠO P
Ġen z
ĠCh ip
ram e
Ġel etro
ry ption
Ġfl esh
Ġint uit
Ġadd s
ĠOr gasmo
na ire
18 0
ĠCor r
ĠÃģ rabes
Ġtro uxe
ĠComp lex
Ġmag azine
Ġprefer red
Ġclos et
Pr ice
Ġacredit ar
Additional ly
Class ificaÃ§Ã£o
ĠPia zza
( )
A I
M ATION
N E
P ou
l ad
Ġs ocks
at z
Ġf aixas
ĠC razy
Ġl ens
ec on
ĠT ay
Ġse al
ĠD il
ĠF IL
ĠJ in
ĠU L
cl ose
ĠSt y
ĠSt ras
Ġinter iores
Ġel ig
ĠRe volution
Ã´ t
Ġmed ir
ĠAm pl
ĠCar s
Ġpont e
Ġemb ra
ĠFil ip
enn es
Ġdisp ers
Mod ern
ĠÃ¢ ngulo
Ġestat ÃŃstica
Ġbanc Ã¡ria
Ġspeak ers
Cent ral
Ġclim Ã¡ticas
ĠMedic ine
Ġfavour ite
pell ier
ĠAgria ffaires
L ab
i ere
i adas
ĠS ource
ot y
le os
ĠF ollow
ĠL amb
ĠG h
ĠJ P
Ġpre venir
cl ui
ord in
ĠPro duÃ§Ã£o
ne ys
ie ve
Ġins ist
Ġpoder es
ĠIs la
duct s
Ġmov es
ĠCor p
Ġcould n
Ġassoci ations
Ġcorre to
Ġbat teries
Ġgrav ar
Ġresid entes
Ġperce ption
Ġpais agens
Ġmarc ador
ĠSecret ary
Portugu Ãªs
y gen
z ar
Ġd igo
Ġn out
ĠC e
Ġl entes
Ã¡ cil
Ã© f
ĠP ath
ir its
od el
ĠL ogo
ĠV ector
az zo
ĠAl ice
Ġmin ibar
ĠThe ater
Ġnov idades
Ġele iÃ§Ãµes
Ġport s
oug las
Ġsc ar
Ġcompet Ãªncia
Ġativ ar
ĠrÃ¡p idos
Es pa
Ġgener ations
Ġsing ular
Ã¢ne as
Ġvaria Ã§Ã£o
Ġrot ina
ĠSaf ari
Ġintellig ent
ĠmÃºlti plos
Ġfert iliz
Ġmobili Ã¡rio
B s
F al
J e
T uesday
w alk
Ġ iremos
Ġp ip
it uto
ĠP H
ĠP erg
ĠM X
ĠT udo
ĠG un
ĠV ice
ĠV enda
ĠJ ogue
Ġpod endo
int on
ĠDe pois
Ġra ising
ĠAd icionado
Ġbo ys
Ġrestaur ar
ĠCont rato
Ġinvest ir
Ġorganiz ado
Ġcompet ent
Ġpermit ted
Ġpag a
Ġprefer Ãªncia
Ġtour ists
Ġrecomend ar
Ġbran ch
Ġbi ological
Ġreconhec ido
Ġbrows ing
icar do
Ġfant as
ĠJe ff
Ġapply ing
Ġinstant ly
Ġwor st
ĠDef esa
ĠJew ish
Ġpud esse
H or
L es
T oda
l imin
m issÃ£o
Ġa est
or ada
Ġe co
ĠS itu
ĠF it
Ġes porte
ĠSt uttgart
Ġver ified
hes ive
Ġdiv ulgar
Ġsens ÃŃvel
Ġtab elas
ĠmÃºs culos
Ġedit orial
Ġsepar ados
Ġsuppl ied
Ġexig Ãªncia
Ġmembers hip
Ġcontr aste
Ġintrodu zir
ĠVia gem
ĠPron Ãºncia
Ġtrust ed
Ġemphas is
Ġbreat h
Ġinj ury
Ġdesativ ar
ĠComit Ãª
Vac ation
" :
M AN
S ystem
W i
p ad
en ia
at able
ut os
Ġse ats
ĠH ann
ĠI VA
pl us
Ġpre ta
Ġtra cks
Ġag g
ĠAl ente
In vest
Ġcol ours
ors es
ĠRes ist
Ġend ing
ĠSa ul
Ġmic rowave
Ġfix aÃ§Ã£o
So ftware
ĠHostel world
ĠRich mond
Intern et
Ġsolicit aÃ§Ãµes
Ġsty lish
H G
M art
R ad
y an
Ġo posiÃ§Ã£o
re ta
qu ÃŃm
id ges
ĠC ass
ĠS qu
Ġl osing
Ġg ay
ĠR EL
ĠG Hz
Ġro ugh
ĠDe ad
Ġproduct ive
Ġcomplet as
Ġdest aca
Pro perty
Ġhigh lights
Ġeng age
Ġelect ro
ĠSc ott
ĠSec ador
ĠMo Ã§ambique
Ġlet ras
Ġbal anced
Ġreturn s
Ġrenov aÃ§Ã£o
Ġfail ed
ĠFac ilities
Ġcen Ã¡rios
Grand e
Ġsimultane amente
ĠVirgin ia
ĠSnap shot
ĠHeav en
G V
W ould
f aces
r ust
Ġa ter
Ġp ense
Ġn ord
ĠC old
et ite
Ġpar ks
ĠD os
ch ron
ĠW edding
Ġcl uster
our met
âĢĿ ).
Ġbo ots
duc ing
ĠPol o
Ġcompar ado
Ġeconom izar
He alth
Ġdesej am
ĠBen ef
ĠFe ed
ĠQuart a
Ġdiscre tion
afa el
2 20
b urn
p iraÃ§Ã£o
Ġp Ã¡ss
ĠS ainte
Ġl obby
ĠB Y
ure m
Ġnot ified
ĠCh all
ĠCom panies
Ġprov ince
Ġencont ros
Ġcap ability
orm al
Ġdesc anso
Con clus
Ġlit ros
Ġfornec endo
Ġpress ion
Ap plication
Ġspecial ist
Do is
Ġpay ing
Ġcamp us
ĠNot ting
Ġstrong ly
Ġcompetit ivas
Ġperd ido
ĠLuc as
Serv ice
Ġhyd raulic
Ġconflict s
uw ait
ĠDeclar aÃ§Ã£o
H aving
L in
p ace
s i
Ġt antas
he ld
ĠC OR
Ġac r
Ġac aba
elh ado
In dust
Ġpass aram
Ġsee ks
ĠBr un
Ġrealiz ou
Ġinteg rar
Ġfuncion am
Ġpou ca
Ġindic ador
Ġnatural ly
Ġvir am
Ġefici entes
Ġbra Ã§o
ĠPR EM
Ġnor ma
Ġvict ory
ÃŃss imo
Ret urn
ĠNort hern
Ġwel coming
Ġfest iv
' '
C idade
N Ãºmero
S QL
w agen
Ä į
an na
Ġm atur
Ġb apt
ĠP adrÃ£o
Ġpar cel
ia o
ĠD NS
ĠG ot
ĠV itam
ĠV intage
ĠJ on
Ġar co
ang ed
Ġcol he
ĠGu angdong
Ġvari ed
Ġpriv adas
Ġescol has
Ġinvest idores
Ġperform ances
Ã´m ica
Ġcer Ã¢mica
ĠTrans form
Ġdetermin aÃ§Ã£o
Ġcharacter ized
Ġstrong er
Ġimpact s
ĠStud y
Ġessential ly
Ġpratic ar
ĠeconÃ³m ica
ĠCopenh aga
ĠPs ych
ĠDeg ree
ĠcÃ¡l culo
atin um
ĠFeder ation
ĠKnow ledge
. Â°
S B
c Ã§Ãµes
k ins
Ġt ape
Ġe o
Ġto t
Ġv iva
Ġh ole
ol ulu
Ġpar as
ĠM ec
ĠL ite
ĠG oth
Ġent hus
Ġess Ãªncia
ÃŃt icas
ĠSe ason
Ġacc ident
Ã©d ios
ĠCont a
Ġ15 00
Ġret enÃ§Ã£o
Ġcomb ater
Ġperform ing
ĠPer eira
Ġesper ando
Ġsens ors
Ġexec ute
ĠProgram me
Ġcin za
Bus car
imens ional
Ġturn ing
ĠUp per
Ġexam ination
Ġdeclar ed
bol os
cont as
Ġaprend izado
Ġtranspar ency
Ġaprov ado
Ġtranqu ilo
Ġleit ores
Ġdescre ver
Ġurb ano
ĠWilliam s
Ġpharm aceutical
O per
v c
ĠS UP
ri ge
Ġcom et
ia g
ĠE ur
Ġac amp
Al ter
ĠMar x
ĠMar rocos
Ġgu ias
Ġcontro les
US A
ĠAnt al
ĠGl en
200 4
Ġquant os
ĠBo a
ĠProgram as
Ġsil Ãªncio
Ġcorrespond ente
Ġple ased
Ġmol hado
Art igo
Ġdro ga
Ġconvid ado
Cri ar
ĠTun is
Ġpreci ous
3 60
E p
F ix
T enha
V IS
e is
g ios
m ic
m el
Ġt one
ĠC av
ĠC AT
ot ten
Ġh at
ĠP y
ĠB av
ĠB rad
un cia
ĠI MP
ĠL ÃŃn
Ġac idente
ĠJ am
Ġnot ification
all et
ific ando
Ġun ity
Ġtrans fers
Ġco fre
Ġmas cul
Ġpol iÃ©ster
Ġgro wn
Ġbr ush
Ġviol ation
Ġcard iov
Car acterÃŃsticas
Ġwar ning
Ġcompartilh ado
iff any
ĠsuperfÃŃci es
Ġdestru ir
ĠTab let
Ġposterior mente
Ġnaqu ele
Ġcock t
ungal ows
R yokan
V M
V en
c up
n ab
Å į
Ġc ilind
Ġo ven
Ġo mb
Ġf alls
qu in
ĠP ut
Ġg ym
og rama
otel s
Ġres idential
ĠJ PG
ib l
Ġar roz
ĠAr r
ici ente
ĠEs pecificaÃ§Ã£o
Pro te
Ġhor se
ivid ual
IC S
Ġindic aÃ§Ã£o
200 5
Ġautor izada
Ġquestion Ã¡rio
ĠOb ject
ĠLu anda
Ġbrows ers
Ġloss es
Ġsustent Ã¡veis
Ġlov es
,... )
Ġsupl ementos
Sm all
ĠWell ington
ĠEc uador
ĠOm ega
Ġhosp itais
pi ece
Ġrazo Ã¡vel
ĠEdu ardo
ĠHoll and
ĠCau ca
B ER
M ale
b ruck
c ro
d uring
w atch
Ġ idades
re f
Ġf acebook
ĠC ream
ĠS ic
Ġg od
ĠH Ã´tel
Ã³ cia
vi edo
ru pos
ĠSt ream
Ġmu Ã§ulman
Ġimport aÃ§Ã£o
IN D
Ġsm ile
Ġpublic ados
ĠOr ch
Ġesp ir
ĠCal endar
Ġrepresent ante
ĠVis ualizaÃ§Ã£o
Ġregul amentos
ĠNet flix
ĠPack aging
Ġado ption
Ġquad ros
ĠCOM P
ĠLink ed
Ġmerg ul
Ġspect acular
Adv anced
ĠAloj amento
Suppl ier
ĠRole play
F our
V EL
a e
l an
m unic
Ġf atos
em ic
Ġv elhas
ĠA I
ul so
ĠT ak
ÃŃ br
ĠD etroit
ĠL anka
Ġper nas
ere z
aliz ados
Ġhum id
Ġajud ando
ĠGr ill
Ġeng aged
Ġrealiz ed
Ġcult ures
Ġlev am
Ġmo on
Ġconsegu em
Ġadapt ar
Ġvirt uais
Ã³t icos
Ġstop s
ĠcÃ©l ula
ĠMO Q
Ġitiner Ã¡rios
Ġbact Ã©rias
C N
L OC
Ã Ł
Ġ erg
Ġc hec
it ivo
em ed
ĠC ove
Ġv ejo
ĠP ure
Ġg ratis
ÃŃ zo
us er
ĠD ancing
ĠG A
ob e
Ġdes enc
Ġna vios
Ġtrans aÃ§Ã£o
ĠEst at
Ġgen es
St ore
Ġcaus ada
Ġadv oc
Ġed iÃ§Ãµes
Ġnorm ais
Ġdetal he
ĠBo at
Ġord ens
Ã¤ o
Recom enda
Ġsold ados
ĠOri ental
cal Ã§a
Ġscre ens
Ġbloque io
Ġverm elha
ĠHistor ical
Ġhospit als
Ġveloc idades
1 30
T endo
or ation
on so
an ato
Ġn oc
et he
Ġpl eno
Ġtra ct
ric ted
Ġ7 50
Ġut ens
ĠSh in
Ġperson nel
ĠMan aus
ĠQu em
AN G
Ġown ed
Re view
Ġsubst ance
ĠCap s
fl u
ĠSim ple
Ġregul amento
Ġhon ra
ÃŃc ito
Ġcrist Ã£
ĠBarb ara
ĠmÃºlti plas
ĠVic ente
Ġvess els
Ġengen heiros
j ara
l ik
n om
Ġt ough
Ġm ira
Ġl td
ĠA plicaÃ§Ã£o
Ġcon he
ĠT ips
Ġda qui
ĠF rut
ĠN C
ĠV AT
ill on
ĠK os
Ġel ection
ĠRe quest
Ġbut ter
Ġind ire
Ġte atro
Ġparticip ated
ĠAt ac
Ġvel ha
Ġtom adas
Ġindic ar
Ġrepresent ation
ĠMont pellier
Ġru im
ĠBas ket
Ġmiss Ãµes
Ġexce Ã§Ã£o
Ġpreocup ar
Ġnar row
Ġgraph ic
Work s
Ġencontram os
Ġmoder ada
Ġassass in
Sug er
ĠTempor ada
3 50
R ua
c ad
Ġ Ãªn
on os
is ch
it ime
ad ays
Ġl id
Ġre ply
ĠM ud
ĠM eg
ĠM ari
ĠI gu
ĠF ace
ĠF usion
pl ant
ap ro
ĠW ifi
ĠV iv
Ġap osta
ĠU T
Ġcomp ris
Ġad jac
Ġro lo
ades h
Com pany
Ġprov ar
Ġtrad itions
Ġdet ected
Ġhor Ã¡ria
ĠÃ³ culos
Ġadequ adamente
Ġconv ite
ĠSim ilar
Ġinvestig ate
Ġsuppl ements
Ġcontribu iÃ§Ãµes
ĠRich ard
Sec ond
ĠArchitect ure
Ġattribut es
C AD
s ville
Ġd anÃ§
Ġm orto
Ġl ixo
Ġqu ot
ĠB T
ĠO wn
00 00
ew ise
Ġconf ess
Ġgr Ã¡
vol ver
Ġaf ect
Ġdev ast
Ġfal t
ĠPre Ã§os
Ġben ch
Ġharm ful
Ġprev isto
ĠOrig em
Ġcos met
Ġster oid
Ġhyd ro
Ġrank ing
Off ice
Ġsofr er
Ġbiod ivers
Ã´t els
n an
Ġp m
Ġb ura
ĠS SL
Ġl act
ĠP ulse
Ġpr Ã©dio
Ġser iam
Ġar c
Ġcol le
Ġprocess or
Ġpers egu
con f
Ġconst rut
ĠHe ath
Ġproject os
Ġmus cles
Ġdiv ision
br ite
ĠMod els
Ġhost ed
book s
ĠVol ume
Ġdeb aixo
ĠTel ephone
Ġdrink ing
Ġdura ble
Ġobst Ã¡culos
Ġchin elos
Ġminer aÃ§Ã£o
Ġconcorr entes
ĠFerram enta
ĠComer cial
Ġic ons
Ġfrances a
ĠAmarill asc
A cesso
B ot
G roup
S ant
f iles
l ement
â ĺ
il idades
ĠC ursos
ĠA A
ĠM es
ĠM ind
Ġg ospel
ĠR ivers
Ġst ones
ĠW H
ĠU nd
olog ist
ĠAp plications
Ġmar ine
ato es
Ġbus y
uc c
OS S
Ġleg s
pr ing
Ġol hando
Ġapar eceu
Ã¡st icas
Ãªn ia
Ġcomplex idade
Ġdeal ing
Ġsaf ely
inc oln
Ã³m etros
Ġvac c
Ġestablish ing
ĠCanad ian
Ġaument ou
Ġchalleng ing
ĠSy ria
Ġenf at
Ġimper me
Ġanunci ou
ĠCorpor ate
ĠLic ense
ĠÃ³rg Ã£o
instal ar
Ġperc urso
Ġatlet as
ĠÃªn fase
B i
D reams
M el
N on
s os
u y
v indas
or ient
Ġs ha
an ol
ou red
Ġto x
ĠS ir
ĠS ome
ĠS ah
ra it
ĠA X
ĠK or
ĠK ol
Ġtrans vers
Ġpe p
ĠEst ilo
ĠMar s
ĠZ hejiang
Ġdist ante
Ġcert ifique
ĠEl etr
Ġfac ed
Ġcond ens
Ġsin to
Ġtrat ado
Ġpag o
ĠComm un
Ġconsult ation
Ġcop ies
Ġproteg e
AB LE
ĠCart agena
Ġrepro duction
ĠfÃŃs icos
Ġenvolv endo
Ġrar amente
Pol uiÃ§Ã£o
Ġconclu ÃŃdo
Ġagricult ure
ĠHamburg o
Ġalarm e
ĠSens or
ĠLen ovo
ĠREC ENT
ĠBrem en
" ).
N ovo
Ġt uas
al ho
ĠS oul
Ġv ed
ĠP Ãºblica
ĠR ansomware
ĠD B
ĠD ance
um br
ĠV W
Ġcont udo
ĠJ av
Ġhe ter
Ġ5 000
Ġcol unas
Ġtrans it
olog ists
Ġ19 20
Ġmes as
Ġcent rais
Ġsub cont
Ġdem as
Ġesp acial
Ġopt ical
IC O
Ġens aio
Ġz oom
Ġcontact e
Ġoriginal ly
Ã¼ ss
Ġlarg a
ĠInter face
Ġ198 6
Ġprotect ing
ĠBack pack
Ġisol ated
Ġpul ver
Ã¢mp adas
ĠcÃ³p ias
Ġmoist ure
Ġfoss em
B enz
C ong
d oc
Ġp our
Ġp up
Ġs outhern
ro ws
ed it
ĠP ode
ĠT N
ĠR iga
ĠF az
ch ing
Ġen l
ĠIn ovaÃ§Ã£o
Ġnot ar
ĠRe vel
Ġfe els
ĠZ ero
ĠRes pon
cel et
Ġpes coÃ§o
Ġneg lig
Ġmont ante
Ġâ ĸ
Ġperf uraÃ§Ã£o
Ġmon st
Ġmult in
Ġbas icamente
ĠCap it
Ġextern as
ĠLu ÃŃs
Ġblog s
Ġenh anced
Ġrenov ated
ĠeconÃ³m ico
Ġferro viÃ¡ria
ĠTax as
Ġpreval Ãªncia
Ġades Ã£o
* *
D T
D ados
m ers
v endo
Ġ ilhas
Ġ Ãªx
ar in
am or
ĠP RE
ĠP ipe
ĠM yst
ĠT S
ĠJ ones
ire cion
ĠK ha
Ġpart ilha
Ġenc am
Ġesc ritos
Ġprocess ador
Ġseg redo
ĠRes umo
Ġdel iber
Ġprim arily
Ġdesc ritos
Ġdia gram
Ġjust o
Ġeng ines
ĠPal avras
Ġmult idÃ£o
Ġfornec emos
ST R
ĠBro ch
Ġadapt aÃ§Ã£o
Ġdez enas
Qual ity
Ġconsequ Ãªncia
ĠMex ican
Ġdemand ing
Ġestabel ece
ĠExc ellent
ĠConvers ion
ĠHung ary
Ġemoc ional
ĠLuxemb urgo
Ġinstitut ional
Ġpetro l
Ġsch olars
ĠAlente jo
P Ã¡ginas
X L
Y ear
p est
on n
Ġin just
ec edor
Ġh am
ĠM az
ĠD um
ct uary
ip se
Ġdes erto
our os
ang ers
Ġtra iler
ick ed
Ġvis uais
Ġ9 001
ĠAd apter
Ġsal vo
AT O
ĠIm pressÃ£o
ĠCor re
Ġexpress a
Ġmem ories
Ãĩ OS
Ġfocus ing
Ġhab its
Me an
Ġjud ge
Ġprocur am
Aut or
Ġminist ry
Ġtrib unal
Ġrefor Ã§ar
Ġbear ing
Ġproven ientes
Ġqualit ative
Ġlum inos
ĠCalcul ator
Ġmatt ress
S aturday
in ent
Ġe cosystem
at ically
Ġw rap
ĠC trip
st yle
ĠM it
Ġth esis
ĠH onda
ag i
Ġest radas
pl ane
Ġat os
ci ous
Ġper do
ĠK ara
Ġnot iced
Ġpart ÃŃculas
ĠÃł qu
Ġob teve
ĠTh under
Ġajud arÃ¡
ĠÂ ®
hes is
Con nect
ĠSal z
200 1
Ġsl ot
ÃŃm etro
Ġren owned
Ġace itam
ĠInter est
Ġgan hos
Ġinov ador
Ġreduz indo
ĠCro wn
ĠArab ia
Ġprofund amente
Ġurb ana
ĠKy oto
m und
v ideo
Ġ {
Ġf inger
Ġpar allel
Ġem oÃ§Ãµes
ĠR M
ĠI ta
ĠO sc
Ġpr Ãªmios
ard ing
ĠK az
our ly
ell es
ge ois
Ġun lock
ĠDe ath
ors che
Ġval idade
ĠX ML
Ġhum ans
ks wagen
AN K
Ġlug gage
ĠHe ating
ĠPer fect
ĠVi ol
Ġtom ou
sh ore
Comp rar
ĠTr in
Ġreturn ing
ĠHar ry
ĠprÃ© via
Ġdriv en
Ġfunction ing
Ġmix ture
ĠCateg oria
Ġmeasure ments
Ġhour ly
Ġglob e
Ġclub s
ĠGab riel
Ġbenefici ar
ĠagrÃŃc ola
ĠINFOR MATION
Ġdesg aste
D en
J ogo
U lt
g ado
p df
Ġc ache
ad ows
qu alidade
Ġb le
Ġb Ãªn
Ġto ys
ĠC idades
ĠA LL
ĠM are
ĠF oz
pl end
Ġat ributos
Ġag gress
ĠAl arm
Com panies
Ġsp oken
ans k
oth ers
Ġparticip ating
Ġâ Ĺı
Ġpal ha
ĠOut ras
Ġmens al
Ġtrabalh ou
Ġgost am
Ġcontribu i
IG N
atab ases
ĠBas il
ĠCert ificado
Ġang el
Ġfib ras
Ġirm Ã£
Ġlav agem
Ġye ah
Ġluc ro
ĠNar uto
Ġvenc edor
Ãļ lt
Stud ents
ĠÃºn icas
Ġingress os
ĠSEL F
ĠVIEW ED
ĠRECENT LY
H ol
V PN
u pe
on Ã©sia
Ġc Ã¢meras
Ġs culpt
it ted
Ġn ela
Ġpar Ã¡g
Ġdo ces
ant is
oc ese
ĠI oT
ĠN ash
Ġfr onteiras
ĠCh ain
ater n
Ġrec rut
Ġun us
Ġtr ilhas
Ġdesc art
ĠAn ne
Ġneg ociaÃ§Ãµes
Ġtrad iÃ§Ãµes
Ġdesenvolv idas
Ġinvest ors
Ġinteg rate
14 0
ĠCat Ã³lica
Ġceleb rate
Ġlabor ator
Ġconstitu em
iff el
Ġrenov ado
Ġnam ely
mont h
Ġdaqu ele
Ġtiv emos
ĠMoz ambique
Quest ion
ĠsÃ³l ida
Ġenvel hecimento
ĠSÃŃ ria
Ġperi Ã³d
Ġnord este
B ig
L ou
P i
U r
V O
V ote
h ad
Ã Ĥ
Ġ ort
Ġd at
Ġw aves
ĠC ed
ĠC hoose
ĠA TM
Ġg ate
Ġque ix
ĠH E
Ãª me
ĠF all
ific ent
Ġro te
ĠDe posit
pro t
Ġsegu ido
Ġlim itaÃ§Ã£o
Ġcontin ental
Ġsuper vis
Ġsignific ativas
ann i
ĠKing ston
ĠFer reira
Ġguard ar
Ġvaria Ã§Ãµes
Ġintrodu ce
Ġpec ul
Ġinstant aneamente
Ġfall ing
Rep osta
Ġ(? ):
ĠEvent brite
Ġantib i
Conte Ãºdo
L u
b et
n ical
Ġf omos
ad ir
Ġg aming
ĠH em
Ġr ice
ĠG ear
vel and
Ġcol oque
ĠZ ar
Ġdefin ida
Ã³l icas
Ġflex ÃŃveis
eder lands
Sim ilar
Vis Ã£o
Ġintens ity
Ġajust Ã¡vel
Ġterm ina
Ġmig ration
Ġemit ido
ĠBis hop
Ġevang elho
Ġinfect ions
Exc ellent
ĠGel adeira
Ġsacerd otes
Europe an
Ġresta uraÃ§Ã£o
Ġstake holders
Ġatrav ess
Ġphenomen on
Suger imos
G M
Ġt ese
Ġl oyal
ĠA ar
Ġre posiÃ§Ã£o
ĠB olas
ĠF ib
ĠV ert
ĠV ideos
Ġcont rary
Ġac red
Ġdes p
ĠU PS
Ġab ri
nt ese
Ġout come
Ġcar bo
Ġrec olha
ĠRe present
ĠAr k
ĠAr n
Ġfind ings
Ġins uf
Ġcre me
Ġmil ho
Ġexem pl
ĠComm ons
Ġocor rem
Ġpessoal mente
Ġceleb raÃ§Ã£o
Ġexam in
Ofer ecemos
Ġcandid ates
edd ed
Cert ifique
Ġtranqu ilidade
ĠPress ure
Ġscre w
Ġtow er
Ġconcorr Ãªncia
Att ractions
Ġempr Ã©st
Ġirreg ular
TRACT ING
K ing
T ION
V el
b in
in ning
an im
Ġf iquei
ĠC raft
im i
ĠP ern
Ġth read
Ġr ug
ers elf
Ġex haust
Ġpr osse
vi ol
Ġsh apes
Ġmed i
ĠCon v
Ġprim avera
ibil ities
Ġpost os
Ġpri ze
bor g
Ġexecut ive
Ġkey word
Ġimpact os
Ã©n io
ĠAustral ian
Ġwear ing
ĠMosc ovo
Ġ(? )
Bre akfast
raf os
ĠChron o
Observ aÃ§Ã£o
ĠRiv iera
Ġinte iramente
Ġmang as
A plic
g rim
l io
al on
Ġm unicipality
ĠC af
ÃŃ as
Ġ2 30
ĠIn verno
Ġar rest
Ġk ne
ĠK in
ĠK uwait
Ġpl ena
th ansa
ros cop
Ġro les
eb u
Ġext ras
Ġcust oms
Ġfic ando
Ġfic aram
Ġsign ature
uf thansa
Ġdisc ern
Ġchild hood
ĠAs i
ann el
Ġcorre Ã§Ã£o
Ġexpress Ãµes
ĠWe ight
ĠBu ilt
Ġlog ic
ĠComp act
Ġinvestig ar
ĠOb ras
Ġec oss
Ġhy per
Ãºr gu
Ġaux iliar
Ġeg g
Ġfi Ã©is
ĠScot land
ĠhÃ¡b itos
Ġathlet es
Ġautentic aÃ§Ã£o
econom ic
C lean
H and
b oy
i Ã¡
Ġt antos
Ġde ar
Ġin jeÃ§Ã£o
ou x
ĠS ushi
Ġcom andos
ĠF oto
ĠF isher
ĠG amb
and Ãªs
ĠO viedo
end imentos
op t
Ġad orar
fer as
Ġhe aling
Ġsh ips
ign on
ador ia
Ġob ed
Ġmet er
ern el
Ġmar gin
ĠAn na
Ã©t rico
ĠEl ite
Ġpesquis ar
ÃŃl ico
ĠAt ividades
Ġpat ente
Ã©r g
ĠAnt iguidade
Ġrepresent ing
Be ing
ĠNot ebook
Ġaud i
Ġnor oeste
Ġsell er
Ġsequ ence
Ġles Ãµes
ĠPaper back
May be
Ġce iling
ĠÃºn icos
ĠVit Ã³ria
Ġtan que
ĠMediterr Ã¢nea
Ġentreprene urs
Ġacolhed or
T ente
t les
an ci
is ines
ĠI A
ĠF le
ĠO M
ci um
Ġac ids
de en
Ġab use
Ġall oy
Ġter apia
one x
Ġcor romp
Ġdist rito
ĠX ia
Ġlong as
Ġfind s
St ate
AS E
ĠPark s
Ġcost as
AC E
Ġhav en
Ġprop Ã³sitos
ĠFil t
Ġder am
Ġcop iar
Ġindepend ence
Ġmostrar am
Ġeffici ently
ĠQue ens
ĠavanÃ§ adas
Ġconsci ousness
Ġbater ias
ĠcientÃŃf ico
Ġbelong s
Ġvoss as
L T
b ank
c ode
r un
el ly
Ġv encer
ĠM ouse
ĠT ian
ib ir
Ġab enÃ§o
ert z
ĠCh art
ĠCh ips
ian e
Ġun em
Ġint ention
Ġresult a
Ġmed ieval
Ġthere of
ĠFran Ã§ais
ĠGu in
ĠQu er
press or
Ġatt ended
Ġleg end
ĠCan ais
Ġsent idos
isc ina
ĠEn viar
ĠArt icles
Ġmotor ista
Ab rir
Ġgrad uaÃ§Ã£o
bol in
Ġrar ely
Ġabsor Ã§Ã£o
Ġhol der
Ġexpens es
operat ive
T ip
s im
Ġs plit
Ġl ua
ĠM ade
ĠB uck
port o
Ġpre ju
Ġprodu cer
Ġposs ibly
olog ne
Ġsp ending
Ġinf ected
Ġger a
ĠHe at
Ġcab in
Ġapresent amos
Ġindic ator
ID E
ĠDec a
ĠIN C
Ġtro car
Ġsepar ado
ĠEd en
Ġenjoy ing
ĠDi pl
Ġelimin aÃ§Ã£o
ĠBrit ain
Ġpert urb
ĠPrim eira
Ġfamos os
Ter mos
ĠNear by
Ġcontempor Ã¢nea
Ġju ice
Ġcade iras
Ġsoul s
Ġchemical s
ĠHav en
ĠCore ia
ĠChann els
Exc urs
ĠAff airs
Ġreci pe
= =
P ois
m ap
t imo
en za
Ġs ne
Ġs isters
Ġv ÃŃ
ol ombia
ĠH ai
ĠG ulf
ct ional
form e
Ġk et
ĠCh am
Ġdire Ã§Ãµes
Ġsol t
ft en
Ġentre t
ix os
ĠMar sh
uc cess
ĠBe at
Ġher anÃ§a
Ġpal co
Ġorder ed
Ġmult ic
Ġmerc y
Ġinc ons
With in
Ab ra
Ġclos est
Ġdiscuss ions
Ġsum mary
Ġstock ings
Ġeleg antes
roll ed
Ġinicial mente
Ġfant Ã¡stico
ĠAM D
ĠHor se
Ġocup aÃ§Ã£o
Ġotim izaÃ§Ã£o
Ġacadem ia
ĠEmir ados
Ġrastre amento
Avalia Ã§Ã£o
ĠStrateg y
Ġinvol ve
ĠFD STAR
M ini
P ont
es ome
Ġp ux
is ar
he el
Ġb ob
ol ia
et c
ĠA nc
iv emos
ĠF E
ĠN EW
ĠW IT
ĠV igo
Ġass ociaÃ§Ãµes
Ġsol ely
Ġmas culino
ĠX VI
ĠQu ito
Ġlim itation
Ġpublic ations
let ters
Ġfer ment
Ġfre ely
irt s
Ġanim aÃ§Ã£o
Ġpresent ations
200 3
Ġsl ides
Ġexpress o
Ġord inary
cha e
Ġdemonst rated
ĠBan heira
Ġselect ing
Ġcou rage
Ġceleb ration
ĠOl ÃŃmp
Ġmort alidade
ĠSte ak
Ġconserv ation
Ġpne us
Ġfortal ecer
ĠHon olulu
Ġcorru ption
Ġantecip adamente
ĠEurop car
ĠPoll ution
m iss
Ġt ights
ĠC orte
ĠS id
ĠS ob
Ġv ector
Ã© ricos
ĠP att
ĠA ST
ĠM att
ĠM echan
ĠI ss
ĠF o
ĠL ind
ĠV ig
Ġdes blo
Ġver des
ĠEx po
Ġ10 5
erg ia
Ġess ence
Ġdev o
ĠMan hattan
Ġfin anÃ§as
Ã¢m bio
Ġtec la
Ġsens ÃŃveis
Ġpra Ã§a
En s
Ġlo ading
ĠSec ure
Ġnight ly
Ġinici ado
ĠÃŃ cones
Vis ite
EX TRACTING
ĠBack up
Ġcru c
Ġpath s
ĠExcel ente
ĠCommunic ations
ĠmunicÃŃp ios
ĠRi ad
Ġshut tle
Ġminer ais
Ġsched uled
T HE
ent h
st r
Ġg ang
Ġth row
Ġr an
ĠF ingering
Ġpr ontos
ĠJ r
ĠJ og
ate ful
Ġro w
Ġro ots
cre veu
ĠSe afood
Ġconsider adas
ĠCas al
An im
ĠReg us
US B
Ġmob iliz
Ġemb arc
Ġbelie ves
Ġdesej ado
ĠSet tings
ĠMount ains
Ġfit ted
Ġgrad ualmente
Ġreduz ido
Ġmig raÃ§Ã£o
ĠAlex ander
Ġdesl umbr
Ġbomb as
Ġempreg ados
Ital ian
ĠAbra ham
ĠVatic an
ĠVatic ano
. '
D iv
F rench
M r
M ad
P ages
c ond
p u
Ġan at
ĠA veiro
ĠT B
ĠR ubber
ĠL ith
ĠL Ã¢mpada
ĠN as
ho oting
ast es
Ġpl asma
Ġsol idar
ĠMar cos
ĠTh ird
enci ado
Ġ12 00
Ġvisit ante
Ġbre ach
Ġdeter ior
Ġlev antar
ĠTrans par
Ġimplement ing
Ġreceber am
Ġrelax amento
Ġreach es
point s
Ġproporcion ando
ĠRom antic
Ġlemb re
Ġscen es
Ġsimultane ously
ĠOliv eira
oust ic
Ġterap Ãªut
3 65
D ouble
M ex
N em
g ra
h y
k ee
it adas
Ġm ood
ĠC Ã³r
ĠS ection
ĠS OL
ĠP O
ĠI d
ter dam
Ġen jo
ĠW a
ĠV idro
ud ed
eg ro
Ġcomp ostos
Ġar oma
Ġch urras
Ġpl ot
ĠSt rip
ong a
Ġun author
Ġco at
Ġmet ais
Ġact ors
Ġdesc arreg
Ġins peÃ§Ã£o
Ġbr inquedo
Ġban king
Ġger ente
ĠHe ads
ah n
Ã³r ida
Ġsl ide
Gu ard
Ġput s
Ġenvolv imento
Ġrev istas
Ġexplor ing
Ġcum pr
ĠEquip amentos
Ġpul se
Ġsn ap
Ġtecn olÃ³gica
Ġdipl om
ĠjurÃŃd ica
ĠBrook lyn
ĠSovi et
ĠJohann esburg
ĠStras bourg
A lex
S K
c ity
s uced
Ġs po
ĠC usco
ĠS ed
Ġh unt
ĠT alk
ist on
ĠL odging
Ġal ign
iz ard
ch urch
ĠN okia
Ġpre limin
ĠK on
ĠK iss
ros e
ong e
Ġqual ificaÃ§Ã£o
Ġsa iba
Ġsim ul
Ġdist ances
ĠCl en
ana ir
ĠAm az
Ġinf ecÃ§Ãµes
uc ks
ĠQ atar
oj i
Ġdevelop ments
Ch in
Res ol
Ġlig eiramente
Es pecificaÃ§Ãµes
ĠJun ior
ĠDis cover
Ġlet ra
ĠMy ers
Ġindepend Ãªncia
Ġfocus es
Co ffee
ĠCard iff
Ġfeed ing
ATION S
Ġsurf aces
Ġdetect ar
oter apia
Ġamer icanos
Ġster oids
Ġrepe at
grad uaÃ§Ã£o
ĠdÃŃ vida
Ġportf Ã³lio
acab ana
ĠAmarillasc olombia
B ud
C lear
R T
a ust
Ġs entar
Ġb ird
il st
ot ics
Ġh oney
ĠP rata
ur am
ĠB ir
ag eiro
ĠL omb
ĠG ig
Ġat ores
Ġar ise
Ġk iss
Ġnot ÃŃcia
Ġsub ir
con n
Ġrem ark
Ġrem uner
Ġgar ota
ĠCas ual
Ġens aios
ĠBu ff
Ġtro uble
ĠVol t
Per fect
ĠChe ca
Ġrevel ou
Ġcic l
Ġmort ality
Ġasseg ura
Ġadjust able
Ġtarg ets
Ġminist Ã©rio
ĠinÃºmer os
Ġpsych ological
Ġcro wn
Ġdipl oma
ĠSaud i
Aloj amento
Ġilim itado
H ouve
S ocial
c ass
i ou
k u
Ġp iano
ĠA ub
Ġpar es
st ep
ĠB P
Ġfr ase
Ġap t
ĠK rak
ĠSt op
Ġcons ag
Ġprov edores
ĠY OUR
Se a
Ġwhere ver
ĠOr dem
Ġcaus ando
Ġindivid ualmente
Ġimpro ves
ĠInd ic
Ġcel ulares
Ġsuc ceed
Recom end
Inst all
Ġexce ption
Art icle
ĠExc urs
roz en
Ġcamis eta
Ġhaz ard
ĠHond uras
Ġsolidar ity
6 50
L en
N ice
R ank
S ou
r t
Ġin jection
ĠC B
ĠC AM
ĠM I
Ġg reet
ĠL ost
ĠW ales
ast ics
ater ais
ric ht
Ġgr Ã£os
Ġcas ual
rib le
Ġresult ar
Ġdev idas
Pro ject
Ġvari am
Ġprom otes
ruct ions
Ġpost o
Ġshe ets
ĠMal Ã¡sia
Ġexclus Ã£o
Ġmedic ation
Ġnews paper
ĠMart a
Ġatra ente
Ġimag in
Ġespecific ar
Ġmarav ilhos
Ġempreg os
Ġocas iÃµes
ĠDecor aÃ§Ã£o
Ġsche me
Ital y
Ġbrasile iras
Fr iday
Ġexcep cional
B enef
G ener
] [
b ic
i ria
r Ã£o
Ġn esses
Ġw iki
ĠS car
est ra
ec ei
ĠM K
ĠE iffel
ĠD raw
ĠH ello
ĠF ishing
ĠN A
ĠV arious
ja h
ĠRe ap
ĠY OU
Ġche ese
ren agem
Ġrece ipt
ĠEm balagem
Ġcond icion
Ġcal orias
Ġdirect o
IC ES
ĠPol ish
Ġcer im
Ġcontinu idade
Des frute
Ġcour ts
ENT E
Ġparcer ias
Ã³t ica
ĠDr ink
Ġelimin ate
ĠGeor gia
ĠclÃŃn ico
Ġcircul ation
Ġnuc le
Ġcaval o
e h
f uton
Ġp isos
Ġde ck
Ġf estas
Ġf isi
qu al
am ine
em ony
Ġl ie
Ġv ias
ĠA sc
ur ities
ut ch
ĠM ort
ĠM Ã¼
ĠM esh
ĠB rig
ĠE jaculaÃ§Ã£o
ĠL ut
ch air
Ġper pet
ĠIn v
ine a
Ġdis orders
Ġel ected
Ġvis ando
ĠY ello
Ġra iz
Ġbl ank
ĠX E
ĠPar ede
ĠSp y
Ġla undry
Ã¡s coa
Ġpop ulaÃ§Ãµes
Ġlim itar
Ġ[ ...]
Ġimpl ica
Ġread ers
Ġaccount ing
ĠWi i
Ass ist
Ġgost e
Ġcheg ando
Ġsil enci
Ġinov adora
ĠLight ing
Pack aging
âĤ¬ âĤ¬
ĠPass agens
Ġarchitect ural
ĠHom ens
Ġparam eter
Ġatribu ÃŃda
Ġdyn amics
obili Ã¡rio
Ġste am
Ġcomerci alizaÃ§Ã£o
Ġexcurs Ãµes
ĠPeters burgo
Ġunderg round
ĠDI Y
ĠSpot ify
ĠJama ica
ĠPREM IUM
ĠYello China
M estrado
W alk
s ize
u indo
ar ra
Ġf om
Ġn ylon
Ġb uck
ĠS B
ĠA Z
Ġg ab
ĠB und
Ġr usso
ort ion
ĠG MT
Ġst ood
vi ado
Ġch ips
ras se
Ġcar n
Ġun ex
ĠZ ona
Ġdist Ã¢ncias
ren cies
ĠX IX
ĠFl Ã³rida
press o
Ġpop ul
Ġeng agement
ĠFor Ã§a
ĠTer rit
Ġfund aÃ§Ã£o
Ap ple
Ġenvi ada
Ġinfl amm
ĠGre ater
Ġrecomend Ã¡vel
Car reg
Ġcomplex ity
ĠBro ther
Ġatra ir
ĠCert ification
Ġcolet ados
Ġadjust ment
ĠMark ets
CL US
Ġapropri ados
Ġdispos al
Cap acidade
Follow ing
Portugu ese
Ġnutrit ional
F ic
f ish
s he
Ġa pert
al g
Ġb our
Ġw ise
Ġl enses
im ately
Ã¡ x
ĠA val
Ġg ap
ĠE B
ĠH ell
Ġal mas
ch ild
Ġfr an
Ġdes pert
ast y
Ġad ulto
rim os
Ġav en
Se veral
Ġcri adas
ĠCl ip
Ġcomplet ion
Ġins ul
Ã³g rafo
Ġfacil ita
Con st
Ġris ing
ĠCor aÃ§Ã£o
Ġgarant em
ats h
Ġil eg
Ġmass as
Ġampl iar
Ġbelie f
Comp at
Ã¢ne os
Ġestabelec idos
IG HT
Ġoptim ize
Ġreconhec ida
ĠSex ta
Jo Ã£o
Ġcandid ate
Ġox ygen
Ġbirth day
Gl obal
ĠDisc uss
Ġbusc ando
ĠInstall ation
Profess ional
Ġselv agem
Ġentus ias
C reat
L arge
R ight
S unday
l ie
m ended
Ġd arÃ¡
ar ca
Ġc rop
ĠC ash
ĠP Ã´
od ing
Ġse es
ĠD ivers
Ã³ b
ĠN E
ip ur
Ġper cor
ĠU M
Ġnot ifications
Ġro ads
pro cess
ĠAd ri
ÃŃci e
gem ents
Ġdevelop s
Ġbel t
Ġger ir
Ġactiv ely
ĠVal ent
ĠIt em
Ġoriginal mente
Im agem
Ġcoz inhar
ĠLux o
Ġann iversary
ĠPor que
Ġtor re
Ġsurg ical
ĠRead er
ĠLCD s
Ġox ig
Ġdark ness
Ġentrev ist
Ġinitial ly
Ġaceler ar
Ġdut ies
Ġpharm ac
ĠPhen Q
Current ly
Ġtestoster ona
ĠIra q
ĠFlorian Ã³polis
F AQ
P ORT
b en
Ġt Ãªx
ĠS V
Ġl iver
Ġl iable
Ġv intage
ĠP ocket
ĠM ul
ĠL ane
Ġat or
ĠN ÃŃvel
ĠV inho
Ġar ma
Ġout comes
ich i
Ġqual idades
Com panhias
ĠRe ference
riv ing
Ġref in
ĠOr t
Ġcab les
Ġsens itivity
ĠsÃ©ri es
Ġacont ecendo
Ġcompartilh amento
Ġlik es
Pack age
ĠDiv ine
ĠCR M
Ins creva
ĠDur ation
Ġigual dade
ĠBog otÃ¡
Ġtrademark s
D ES
d ios
f onte
g ogo
Å Ĥ
it ivos
ĠS lim
ĠP ick
ĠM ile
ĠB IN
ĠT C
ĠT ul
ĠR SS
ĠR oute
us hed
ĠD rag
ĠH it
Ġr iding
ĠL ufthansa
ĠG an
ĠN azar
ĠW as
ĠW rit
Ġres um
Ġim plic
Ġpart ition
ĠSt rat
Ġcor on
Ġneg ativo
AN CE
ĠBr ush
Ġoc idente
pr us
ĠVal ve
Ġcompar ing
Ġcontinu ing
Ġfix ados
Ġfront al
Ġsho ot
Ġprotect ive
ĠMaterial s
Ġill ness
ĠShe et
ĠAqu ecimento
Ġju ventude
xi ety
Ġattempt s
ĠImp Ã©rio
Ġkil omet
ĠMall orca
ĠMens agem
Ġneut ral
Ġpropag anda
Ġvigil Ã¢ncia
ĠEvol ine
G C
G rupo
T able
c heck
ĠS ent
Ġdo b
ĠT M
ĠT ib
od ia
Ã³ ximo
Ġon tem
ĠG ast
ĠG are
og ene
ĠK ent
Ġnot ebook
ĠSt ars
ĠAl uminum
ĠDe ep
Ġ19 50
ĠEx hibition
Ġexperi entes
ĠAm bi
aint y
Ġprecis amente
arg ura
Ġsur presa
sc ale
Ġsuper ar
Ġcontinu ously
Ġpast oral
Ġobt aining
ĠComp at
Ġder ram
Ġmedic ines
Ġconsist ente
Ġcort es
Ġmulti plic
Ġofficial s
ĠRod ri
ĠEp is
Ġemot ions
ĠHung ria
Ġatac ado
Ġphotograph s
Ġgall ery
Ġveg anas
ĠNotting ham
D D
F ot
O ften
V AT
b as
d esc
is cipl
Ġe Dreams
at ina
ad en
Ã§ u
ĠS ak
Ġv istos
ot ech
ĠB ags
Ġque ima
ĠR on
ĠL an
ĠG reg
Ġab ilities
ind hoven
ros a
ras burgo
ex ist
Ġun e
Ġind igenous
Em ail
Ġwhere as
Ġrespons abilidades
Ġsuper visÃ£o
Ġdefin idos
Ġdin Ã¢mico
Ġil egal
Ġtro c
ĠPriv ado
Ġcheck ed
ĠFre te
Ġmass agem
ĠEsc Ã³cia
Ver ifique
Ġrom ance
Ġtelef ones
Ġimedi ata
Ġinicial izaÃ§Ã£o
Ġeuro p
Ġcast le
Ġadjust ed
Ġplanej ar
Over view
Ġcompens ation
Ġscan ner
Ġprestig ious
ĠpÃ¡t io
Ġsophistic ated
C are
M ulher
W omen
Ġd uche
in fl
el ar
id get
il ion
ĠS yn
Ġh erself
ĠP owder
ĠT P
ĠT ran
ĠT ank
ĠL incoln
ĠG M
ĠN ep
Ġcont ributed
ib e
Ġab ras
ĠK b
ĠK ath
Ġch al
ry lic
ĠRe pro
Ġco al
ĠY ang
ern ess
Ġseg mentos
Ġra ÃŃzes
Ġsoc iedades
10 2
Ġcontro vers
Pro pri
OR Y
Ġped iu
Ġsubst Ã¢ncia
Ġcop per
no ite
Par ece
Me et
quia gem
Ġcast elo
Ġacredit am
Ġetern a
Ġaceler aÃ§Ã£o
Ġapreci ar
ĠMedic ina
Ġsacrif ice
ĠVe h
Ġchap Ã©u
Ġestiv esse
ĠSint ra
Ġerv as
B oa
L ogo
an Ã§os
Ġde i
Ġh ÃŃbr
et tes
ĠB un
oc aÃ§Ã£o
if iable
and ro
du ce
ast as
Ġab riu
ĠK ay
Ġass et
Ġfl our
Ġmin ister
Ġmen ino
ĠSe us
ĠBl vd
Ġbr ut
Ġret rie
pen se
Ã´n ios
Ġgovern amentais
Ġcart e
aman ca
rop ical
ala jara
Ġautor ais
yl inder
Ġsatis feito
Ġhead quarters
Ġdeliver ing
Ġenter prises
tim ore
Ġflor estas
Ġcharg ing
Ġdiagn ostic
ĠEqu ador
Ġexcurs Ã£o
ĠVall arta
ĠResol ution
Ġhes ite
ĠComer ci
Ġjulg amento
Ġcomprim idos
Dent ro
Ã¼ss eldorf
G I
M Ã©t
W E
d ig
n atural
p ac
Ġd ou
Ġt ension
Ġo k
ent ation
ro wn
ĠF echar
se is
Ġen via
Ġdes ert
com merce
res den
Ġle af
Ġass ento
Ġav anÃ§o
Ġsem an
Com put
Ġut ility
Ġresult ando
ĠEs pecificaÃ§Ãµes
Ġprom essa
Ã¡s io
St ainless
rut h
ham mad
Ġdiret rizes
Ġaim ing
Ġing les
Ã³t ipo
ĠCong reg
Ġexpand ed
Ġcompetit ivo
Ġrein for
Ġdiscipl ina
ĠAud i
Ġlar anja
Ġlevant amento
Fer ram
C ha
F oto
L AN
n m
x o
Ġc rack
Ġde veloper
Ġb id
Ã§ ou
est al
ĠM inha
Ġque en
Ġque ijo
ĠR oy
ĠR afael
Ġen qu
end ido
ok es
Ġdis closure
ard robe
Ġtra il
Ġob edi
ĠZ oo
ĠEs lov
Ġoper am
omb a
ĠAss ess
Ġlev Ã¡
Ġconsult as
ĠCop y
Ġreun ir
Ġinstru ction
ĠProt ocol
Ġrevel ar
ĠMB A
Ġmer ece
Ġdemand as
Ġkitchen ette
Ġvolt ou
Ġcontain ers
Ġtransl ated
Ġflux os
Ġidentify ing
Ġvill ages
Ġaccom pany
Ġcomplement ar
Ġperigos as
Ġcompr ida
IZ AÃĩÃĥO
Ġtras eira
Ġsubsequ ent
D ear
S n
W ish
m atic
s ky
t t
Ġc aÃ§a
Ġc iÃªncias
Ġand ares
Ġl anÃ§a
Ġre ly
ĠE f
Ġper deu
ak ed
ast richt
ĠIn fin
Ġform ing
Ġbar cos
Ġaplic ados
AR C
Re v
Ġcu jos
Sh owing
Ġtal ent
Ġconsult ing
Ġgre w
Ġinflu enced
Ġdisp osto
Ġposit ivos
ĠForm at
Tr Ãªs
Mon itor
Ġpil oto
Ġcoorden aÃ§Ã£o
ĠQuest ions
Ġweld ing
Ġprohib ited
Ġelig ible
M ember
Ġd atabases
er ie
Ġc ens
Ġb ug
Ġb airros
ĠM ich
ĠT es
ĠR PG
ĠE ye
ĠH b
Ġ2 10
Ġser ial
ire i
Ġad min
fer Ãªncias
pon ente
ĠPl ate
Ġinv o
Ġinv itation
red or
ĠAnd rÃ©
Ã¢m icos
Ġtotal idade
Ġâ Ħ
ĠCal le
Des envolv
Ġexig ir
Ġpurch ases
ĠProv ÃŃncia
Ġnut riÃ§Ã£o
Ġmiss ions
ĠStud ent
Ġharm ony
Ġdeath s
ĠcÃ¢m aras
Ġquil Ã³metros
Ġafet ar
Ġclim at
Ev entos
Fre qu
Incl ui
ĠVo ice
Fig ure
urre ction
Ġdee ply
ĠPaint ing
A E
W C
W ash
c idos
f ia
Ġp and
os es
Ġs aint
Ġto b
Ġh ang
ĠP OR
ac io
ĠM ong
ÃŃ z
ĠH ours
ab elec
ap h
ĠV ille
Ġper ca
Ġj ump
Ġinter faces
Ġle ves
ater ing
Ġesc ut
Ġmes h
Ġind ÃŃgenas
Ġvia gogo
por ters
Ġsim ulaÃ§Ã£o
ÃŃt ios
ĠCar ros
lt on
uns hine
AN S
ĠAt las
Ġped e
Ġcaus ados
Ġstart up
Ġarm ed
Ġrest ante
angu eira
Ġapresent ando
ĠView s
Cheap est
Ġperce ive
Ġrefl ected
ĠUr b
Ġcalcul ate
ĠPaul ista
ĠLab s
Ġcry pt
ĠJac ob
Ġquadr ado
ĠclÃŃn icos
Ġvict im
Ġextraord inary
Ġsubmet idos
Ġlub rific
Cond iÃ§Ãµes
Ġmur der
ĠPear l
ĠClen but
C ad
D ifer
P erm
R IO
T re
d irect
g aÃ§Ã£o
h igh
l on
m ina
Ä ±
Ġt ribut
er ol
Ġs ig
Ġan te
am ina
em en
ĠS old
et ra
ĠB EST
ÃŃ vio
ĠR ost
ĠH ood
Ġas ks
ĠL IN
ĠL IM
Ġsu av
ĠJ VC
ĠK ind
Ġcons iga
ĠEst ad
ĠMar cel
Ġaf eta
Ġcli ques
pro f
ĠSp ray
ict ions
Ġmat riz
Ġinstall ations
AD OR
200 2
ĠTrans l
Ġadminist radores
Ġweek ly
ĠCamp us
Ġconcent rar
Ġaliment ares
Ġcaminh Ã£o
ĠBol onha
ĠLab el
Ġgold en
Ġserious ly
pher ic
Ġdeploy ment
Ġsud este
ĠTrat ado
Ġposicion amento
apeut ic
ĠAmbi ental
C ams
L P
b ella
j av
Ġa wards
ro ke
Ã§ adas
ĠC hemical
ĠP ret
ĠP ension
ant ly
ĠD X
ĠH in
ap se
Ġen du
ru pÃ§Ã£o
In de
Ġconf ident
ĠY ah
Ġra io
ĠCon junto
Ġdesc ans
Em presa
ÃŃs mo
Ġ20 21
Ġinclu ÃŃdas
Ġcomm od
Ġrest ring
Ġmat hemat
ĠcÃ© us
Im age
ĠEd ward
ĠBel le
Ġconsist ing
Ġsold iers
Ġseem ed
Ġwin ner
Ġcandid ato
Aut om
Ġdisco very
Fe atures
Fun Ã§Ãµes
Ġsor ris
ĠPad re
Ġgenu ine
ĠcardÃŃ aca
Ġacknow led
Ġparaf uso
ĠLeb anon
E ast
T ar
b ot
b ai
n ings
p op
Ġt amp
Ġt ira
Ġc ess
Ġde pressÃ£o
al er
it ra
ĠC ura
ĠM N
ĠR icardo
ĠE indhoven
ĠD N
Ġis lands
Ġ1 12
Ġpre viamente
Ġel ite
Ġfl ops
Ġprov as
Ġup coming
Ġind esej
Ġpass ada
Ġbl end
cel and
ale Ã£o
Ġpublic ada
ĠTer Ã§a
Pre vious
Ġrepro duz
Ġharm onia
ĠHy per
mont on
Fe aturing
Near by
Ġreform a
Ġfrag ment
ĠPs ic
Ġcontribut ing
ĠTreat y
Ġdemocra cia
Ġjack et
H ub
L ock
N ational
T ag
V ista
b ian
s l
Ġd ict
at Ã©
Ġn ic
Ġv emos
Ġv otes
ĠP ill
ĠT reas
Ġal ien
Ġal bergues
ĠW EB
ĠK r
ass agem
co oter
Ġtra ce
Ġrel ief
ount ain
amp s
ĠCl asse
ÃŃs ica
ĠFran ces
Ġvari eties
ty pe
ĠCont ract
vent ions
Ġspe aker
Ġcer amic
ĠInd onÃ©sia
Ġsepar ated
Ġimm une
Ġfra cas
Ġfarm ers
Ġgal eria
ĠSof a
Ġavali ados
Ġvolunt Ã¡rios
Ġjurisd iction
ĠsÃŃm bolos
urre iÃ§Ã£o
AMENT E
Ġdemocra cy
ĠBord Ã©us
ĠDrop box
Ġaze ite
Ġsobrev iver
Ġbour geois
M ens
M ark
S y
Ġ ðŁ
ar re
Ġv et
ut iliz
ĠR ED
ĠR ÃŃo
Ġest ando
ĠW ake
oss os
ĠSt eph
int s
Ġfo am
orn os
Ġserv ant
ĠEx Ã©rcito
Ġintern as
ĠAn k
af ter
ĠIntern acionais
oj o
ON G
Ġgen e
ĠSant ander
ung en
ator iamente
ÃŃd ias
Ġdownload ing
serv ice
ĠSc ene
ĠMil itary
Ġcoloc aÃ§Ã£o
Ġrespect ivos
ĠGal eria
Ġcorrespon de
Ġrepro duzir
Ġcapt ura
Ġesqu ema
Pad arias
Ġadm ission
Pol ÃŃtica
Ġdemoc r
ĠNav igation
Ġmut ual
ĠCer ro
Ġarre pend
ĠHistor ic
Ġnurs ing
ĠUrugu ay
F I
N OT
c ir
v y
Ġc ake
Ġto xic
ĠC air
ĠC OL
Ġl Ã¡b
st ra
st ore
ĠB ird
ĠB irth
Ġque ira
ant il
ĠI con
um i
pl ed
ver g
ran a
Ġqual ities
Ġcar p
Ġcent res
ĠEx pert
ma x
ĠAd just
Ġarqu itect
Ġgl ad
Ġcontin ente
Ġprojet ados
ĠMin ecraft
ĠTer esa
Ġ11 5
ĠWh it
Ġpap Ã©is
Ġobserv ation
Ġnetwork ing
Tra ils
ĠOb ama
ĠMag azine
ĠPhotos hop
Ġachie ving
ĠIr ish
Ġorient ation
ĠReserv a
Ġperspect ivas
COM P
Ġdraw ings
ĠPay pal
ĠDev ice
ĠCÃ¢m bio
gr ades
Ġencourag ed
Nenh um
Ġkilomet res
W in
d el
i per
v ulas
Ġt iro
on ly
Ġs antos
Ġf rigorÃŃfico
Ġin oc
ĠC ams
ĠC eram
ĠS EC
ĠP le
ĠP ES
ĠH TC
ĠL ille
ab lo
ais s
ĠV od
eg os
ĠJ ornal
Ġch est
ĠSt ri
ber gue
ne Ã§a
Ġsol ved
ĠMar ie
Ġprof eta
Ġsign als
rad uaÃ§Ã£o
Ġconc ede
ĠGr osso
11 5
isc he
iar ies
Ġpast as
ĠBu char
ĠFil me
the w
ĠComp ost
ĠDel gada
Ġperce be
Ġvib rant
ĠBon n
ĠMess enger
ĠRot terdam
ĠArqu itet
ĠlÃŃqu idos
ĠConsult ing
Ġdign idade
Ġdign ity
ĠDut y
Ġcript ografia
owe en
Ġagg reg
ĠBuchar est
S endo
T X
U so
Y et
p and
Ġde press
at isf
Ġf t
Ġb erm
Ġw at
Ġl umin
Ġcom ece
ĠM IN
ĠD ictionary
Ġr Ã³t
ag ine
ĠL if
ĠL ip
ĠG P
Ġat raÃ§Ã£o
ai i
Ġ3 16
ell ed
Ġsob ress
Ġdist urb
Ġthere by
Ġaccess ed
Ġgar agem
ĠPer ÃŃodo
Ġdec ade
Ġspeed s
Ġmal ic
Ġgener ating
Ġcolor ful
Ġquestion naire
Ġru ins
Sim ply
Ġwall paper
Ġmotiv aÃ§Ã£o
Ġsuffer ed
oven ant
ĠConfig uraÃ§Ã£o
Contin ue
Ġsurv ive
Ġluxu osos
ĠWhats App
F Ã³rum
L eg
S oft
p ira
s al
Ġan jo
ĠB in
ĠT ube
Ġr anging
ĠF eira
ab et
Ġor ange
ci Ã³n
Ġcan vas
ĠK ansas
ass is
out es
Ġqual ificados
Ġ5 50
ĠRe is
Qu ant
Ġserv em
Ad vert
Ġresult ed
ĠEs per
ĠBl anca
Ġbr inc
Ġrest antes
ĠAss istÃªncia
ĠÃ³ leos
the less
Ġpens a
ĠTem plo
Ġdeb ates
Ġciv is
Qual idade
Ġoil s
Ġ198 7
ĠCheap est
Ġrot aÃ§Ã£o
Ġlov ing
ĠfÃ¡b ricas
amer icano
Ġgarra fas
prim as
German y
ĠEstre la
Ġoverl ooking
Ġdow ntown
H y
M aria
S amsung
h ados
â ľ
Ġt ome
Ġp ink
Ġc ron
Ġc rom
Ġs hed
Ġf eira
Ġn u
Ġl indo
ĠB ass
ĠB apt
Ġse amless
ÃŃ ritos
ĠL P
ch u
Ġcomp ete
Ġdis close
ores c
ov al
Ġob tenha
ĠAl Ã©m
iss os
Ġbook ings
Ġpoder emos
Ġdef ines
Ġvari ations
vent h
ĠAnd al
ĠDes ert
Ġperf ume
ĠWh olesale
Ġrepres entar
ĠAnt h
ican as
Ġtransport ar
Ġold est
Ġcob rir
Ġblo quear
Ġexib ida
ĠTrad ers
Ġorient aÃ§Ãµes
Pe qu
Ġinteract ions
ĠCir cle
Ġvulner able
ĠYear s
Ġdirig ir
ĠclÃ¡ss ica
Ġscan ning
Ġsen ior
Ġsecund Ã¡rios
ĠQuad ro
Acess Ã³rios
ĠÃŃnd ices
Princip ais
ĠAber deen
A uto
B aby
H el
a a
g eral
t ica
u ct
er ias
Ġs ut
Ġto oth
ĠS ous
Ġcom emor
ur st
ĠR idge
ĠH osped
ĠN urem
ell ation
act s
pos iÃ§Ãµes
Ġcor agem
Ġpo eira
ĠBe fore
ĠGu er
Ġgar age
ĠAc cor
Ġeng aj
Ġcal cular
Ġshe ep
Ġlev ado
Ġspecial ists
Ġindivid ually
Ã³l ogos
Ġobt ido
ĠExt ensÃ£o
Ġnews letters
ĠCancel ar
Ġhosped ar
ĠDiv ision
icl op
ĠCle veland
Ġsolid ariedade
Ġbott les
Ġaprim or
ĠMov imento
Gost aria
Ġanfitri Ã£o
Ace itamos
Ġtatu agem
Ġpecul iar
. ).
A irl
E Y
G rav
L os
M otor
W inter
m Ã£o
p illar
r ase
t ic
en cha
Ġp ace
Ġs cor
al ks
Ġf ont
Ġf usÃ£o
Ġin k
em at
Ġl ote
st ation
ĠM ato
ĠE is
ĠE aster
ĠH old
ĠI B
Ġas i
ĠF X
Ġcomp ass
av ailable
Ġ3 20
Ġch ato
Ġall erg
... âĢĿ
ex press
Ġcri ativo
Ġmar gens
ws er
ĠMan n
Ġorgan ismos
ĠBe ir
Ex em
Ġconc ert
Ġcab elos
ĠPre fect
Ġmant enha
Ġlo op
Ġtext ure
ĠRel aÃ§Ãµes
ĠFer ry
Ġdistribu idor
Ġestabelec idas
ĠestratÃ©g ico
ĠTrad emark
Ġterrit Ã³rios
Ġdry er
ĠAtl Ã¢ntico
Ġadolesc ents
Ġaffect s
Ġexcess ive
Ġacid entes
Link s
Ġoce ano
ĠsÃ³l ido
Ġsurv ival
Ġcontribut es
Ġacknow ledge
Ġflut u
A juda
F ly
T weet
d al
z ig
Ġp ista
Ġp uzzle
Ġde pression
Ġm isericÃ³rdia
om ic
Ġb outique
am el
ĠC oco
Ġqu ote
ĠM ant
ig i
ĠI F
Ġal uminium
se qÃ¼
Ġst om
ĠW ego
Ġdes cul
Ġab af
ĠK an
Ġent ende
Com ece
ĠRe form
Ġ7 28
ĠEst rasburgo
Ġseg uras
Wh atever
ĠprÃ³ximos Veja
Ġcho que
Ġorganiz ational
Ġdays weather
Ġmal icious
Un like
Ġrelig iosas
Ġpartners hips
ĠVol kswagen
ĠestratÃ©g ica
UN D
ĠMart ins
Ġpromot ed
Ġfant Ã¡stica
Ġimag inar
Su as
Ġexplic ou
Fran Ã§ais
Ġvitam inas
ĠConst ant
Ġobst acles
ĠUlt imate
Ġevid Ãªncias
Reserv ation
izz eria
ĠBeaut iful
Ġtrim estre
Ġgastronom ia
ĠfenÃ´m eno
Lond on
weg ian
ĠXclus ivo
2 10
J ul
M arket
d ist
v re
Ġp ausa
id ado
ot ype
ĠA Ã§
Ġre tal
ĠM ang
Ġy esterday
us ive
ĠH ans
ĠN az
Ġpr ato
ew ood
vi as
Ġab dom
com pl
pon entes
par aÃ§Ã£o
ĠPl ataforma
Ġseg ments
ph y
we h
Ġcam pe
ĠAd ventures
Ġbo ats
red os
Ġinstall ing
Ġelect ions
Ġsepar ately
Ġcharacter istic
Ġconj un
ĠDist ance
Ġsaf egu
Ġvirt ually
Ġinov aÃ§Ãµes
Ġsop a
Ġmec Ã¢nicos
Ġpron unciar
ĠBut t
Ġdura bilidade
Ġbord a
ĠcientÃŃf icos
ĠStat us
Ġcompress or
Ġcharm e
ĠTax i
ĠWind sor
Ġidos as
ĠBill und
ĠAcom oda
Pac ote
ĠFlo or
Ġsobreviv Ãªncia
Ġenjo ys
L ib
M AR
R est
S IM
S ource
T ext
h ist
h abil
j ack
o ons
v em
Ġf ach
om on
ĠS ole
ĠP rat
Ġfor ests
Ġen velop
Ġfr uta
ĠJ ov
ĠIn quiry
ĠK enn
erv ille
Ġloc ate
Ġext in
Ġmar car
Ġdur Ã¡vel
Ġbl ow
VocÃª s
ĠCar acas
Ġsegu idores
ĠIs le
Ġref uge
Ġfollow ers
AL A
Ġcart on
Mas culino
ĠComm and
Ġinternational ly
ĠSoc cer
ĠLu iz
Ġinstru Ã§Ã£o
ĠPack ing
ĠShe ll
Ġpossu ir
Ġconcre t
estrut uras
Ġtarget ed
Ġetiqu etas
ĠTit le
ĠTreat ment
Ġweak ness
ĠAlp ha
Ġdescrit as
Ãºrgu eres
Ġberm udas
H ard
N or
N ar
S iga
c ot
d ec
ad ed
qu Ãª
Ġw ake
ot ec
Ã¡ vamos
ĠP V
ĠP am
ĠA ch
ĠD ash
iz ante
ost ar
eg r
Ġcan Ã§Ã£o
our t
Ġam izade
ach ar
Ġinform ado
Ġmod ificaÃ§Ã£o
Ġsp an
Ã©s io
ĠFl ag
Ġvari ation
ĠCol ombo
Ġsm oke
Ġoc idental
Ġdig a
Ġtal ks
ĠComp rar
Ġmag netic
Ġcolor ido
ĠCab elo
Ġrespe ita
Ġemploy ed
Ġinov adores
ĠWater proof
Ġoptim ization
Ġefet ivamente
Ġship ment
ald i
Ġtransl ate
ĠHy att
Ġpanor amic
Ġwest ern
ĠcrÃŃt ico
Ġviz inhos
Priv acy
ĠWikip Ã©dia
Dig ital
ĠColumb us
Accommod ation
Convers a
Ġnort hern
ĠFried rich
ĠHait i
Ġespir ituais
C B
C olo
R ock
S hip
W AP
c imento
s burg
in ars
Ġs ights
it Ã©
Ġf ellow
am poo
ĠA O
Ġg ains
Ġg iant
ĠB eg
oc ado
ĠD IN
ĠD Ã¼sseldorf
ĠL ion
Ġres gate
ĠCh eng
ise u
pre m
Ġrem odel
duct ive
ĠPol Ã´nia
Ġrest ored
Ġfund ament
Es panha
ĠMa astricht
ĠMac ed
ĠPe ak
Ġbran ches
ĠSoc iais
Ġtru cks
ĠGar cinia
Ġemerg ing
ĠSam uel
ĠFun ny
ĠPay ment
Ġenorm ous
ĠLuc ia
Ġclub es
ĠparÃ¢m etro
Ġfi el
Ġinaug uraÃ§Ã£o
Ġreemb ols
ĠGraph ics
Ġelet ricidade
Ġdee per
DV D
Ġappe al
Liv ro
ĠGN U
Ġcurr ÃŃculo
A Z
B and
D imens
f im
p in
Ġt act
Ġp ano
Ġb ulk
ĠC ooking
ĠC ologne
ĠS lee
Ġre per
ac co
Ġth irty
ul ose
ĠT rav
ter Ã§a
ers e
ĠW onder
Ġap ag
ip ro
Ġdes m
Ġar que
Ġab stract
ment al
com fort
Ġinst Ã¢ncia
Ġpe ak
ĠestÃ¡ gios
Ġcur tas
ĠSe ating
Ġbo asts
OR K
De velop
Con sequ
ĠAb rir
Ġhuman as
Ġrest ricted
Ġpost ing
ĠVer dade
Ġindic am
Ġobject ivos
Ġpens ando
aca o
Ġestim ul
Ġveget able
Ġdeclar aÃ§Ãµes
ĠFe atured
ĠPesso al
Pa ul
Ġirrit ante
Ġhighlight ed
ĠBlo od
Ġcorros Ã£o
Ber ry
Ġans iedade
Ġmolec ular
Ġmos qu
Ġmetr Ã´
Ġentret anto
ĠCÃ³r do
E ar
I gre
S af
c ano
w en
Ġ rib
Ġf ina
ent r
Ġb in
id enciais
Ġl ands
ĠP aso
ĠT AP
ĠR at
ĠN V
ĠN elson
ĠW I
Ġdas h
Ġcol lege
Ġvis itor
Ġint r
aix ada
hec er
ĠSe ven
Ġlong os
cion e
ĠCol omb
Ġrefer ido
ĠPol ice
Ġten nis
ĠFil mes
Ġtur ÃŃsticas
ĠEd monton
Ġupd ating
Ġaff irm
Ġrelig iosa
Ġvir uses
Ġsil ence
erm ine
Ġceleb rated
Ġlabor atÃ³rios
Ġdeclar ou
Ġdestin ado
Ġcalcul ation
Ġacompanh ado
Ġpil ot
ĠPrefer enciais
Ġbiciclet as
Fig ura
Ġqueb rar
ĠChampions hip
Ġpromoc ionais
Beaut iful
ĠCompost ela
Airl ines
G ive
N ame
i y
Ġc amb
Ġm ural
Ġf ino
ĠA UD
ĠT av
ĠR ating
ĠL iquid
ĠG row
Ġdes ires
ok ed
ional mente
Ġform ado
Ġcri ativa
Ġart ÃŃstica
ĠGu ides
Ġautom otive
Ġ30 4
Res ults
ĠReg ister
Ġpresent ing
Ġgarant ias
Es p
Ġpast or
ĠTor rent
ĠRel atÃ³rio
enn ial
Ġrelig iosos
ĠMais on
ĠCop acabana
Ġ80 2
Ġclos ing
uch o
Ãºnci os
EG A
ĠBal timore
Esc rit
Ġpron ounce
Ġgast o
icon duct
Ġlemb ra
Ġsul f
Del ivery
Ġbelong ing
Som ente
Ġrefriger aÃ§Ã£o
Ġestran ho
Ġexped iÃ§Ã£o
Ġanalys es
Ġunus ual
4 50
A id
E qu
F azer
I ER
L td
P u
r ity
Ġp ocket
Ġb ands
Ġto alhas
Ġh ub
ĠM orning
ĠD ou
ĠN ike
Ġres g
ew ards
Ġj ac
Ġar rast
ok u
Ġass ust
Ġfl ows
ĠAr thur
Ġant icip
Ġequip as
ĠBe er
30 4
St op
Ã¢m ina
Ġstay s
Ġrefer entes
Fl or
Ġtom a
Ġassist ente
ĠPan or
Ġid Ãªnt
Ġsac rific
ĠHol der
ĠNot ice
Ġstrength ening
Ġtell ing
Ġcy ber
ĠCour tyard
Ġdestin at
encion ais
Ġcot id
ĠCamb ogia
Ġdiscipl ine
Ġjornal istas
ĠConvers Ã£o
Ġepis Ã³dio
Ġnaqu ela
ĠDomin ican
Ġproceed ings
ĠGuad alajara
Ġfab rico
Ġmund iais
" ),
P ER
i ando
t rad
Ġan abolic
ec y
ĠP ep
ĠB iblioteca
ĠH op
ĠH ip
Ã³ ia
ch arg
Ġst range
Ġen rich
art en
op ter
ass es
Ġinter discipl
Ġenc ryption
Ġpres o
Ġconst itute
Ġexperi encing
Ġcre w
ĠFl ow
Ġret ention
Ġanal isa
Ġgovern ance
Ġcer emony
Ġcombin ado
ĠIN T
ĠInt roduction
Im pro
Ġsepar ation
lin ed
Ġland ing
Ġatualiz ados
Ġge ogrÃ¡fica
Esc ol
Sc ore
Ġpotential ly
Ġill umin
Ġvalid aÃ§Ã£o
Ġscen arios
Ġbehavi our
Ġreve als
Ġoppos ition
Ġincent iv
ĠEspa Ã§o
Custom ers
ĠcÃ¡l cio
ĠtÃŃp ico
ĠInstrum ents
ĠVib rador
Ġinterven Ã§Ãµes
Ġcancell ation
ĠInstru Ã§Ãµes
azen amento
Ġcolhe ita
W ednesday
h in
n ear
u ant
Ġp ura
it iva
Ġv enha
Ġg ato
ist ro
ĠD resden
ĠN osso
Ġpor no
Ġk ings
out heast
rat ch
In ÃŃcio
ue va
Ġpol uiÃ§Ã£o
Ġ12 3
11 1
Ġped al
Ġpal m
Cl aro
uk a
Ġfix o
Ġrad iation
Ġprotect s
Ġpromot ional
ĠSam ui
Ġpreserv aÃ§Ã£o
Ġcry stal
ĠNature za
Ġgradu ate
Ġfort emente
Ġadvis e
ĠVel ocidade
ĠJackson ville
Ġalmo Ã§ar
ĠDoll ar
ĠLiber dade
Dav id
M ess
N Y
S hopping
i Ã³n
m ount
Ġd rum
Ġt v
Ġc iente
Ġde feitos
re iros
ĠC aval
ĠM M
ĠM om
Ġdo ze
ĠB ul
ĠT il
ĠD H
ĠH ave
Ġr urais
ĠF i
ĠF ur
Ġat ua
Ġst orm
ĠO T
ĠV elha
og g
ran co
Ġab range
Ġsh ift
Ġint uito
Ġimp osto
ock ets
Ġsim ulation
Ġlim pos
Ġconsider able
ars h
sc he
Ġfre te
Ġmult il
go vern
ĠCam el
ĠMic he
ĠPlay Station
Ġsex uais
ts burgh
ĠEsc olha
ĠSm oking
ĠSim on
Ġcheg aram
Ġcollect ing
Ġalong side
Ġpolit ics
ĠSub sc
ĠAct ivities
ĠOce ania
ĠCy prus
Ġvaz io
Ġsen Ã£o
Sum mer
ĠJoin ville
Ġhyp oth
ĠNash ville
Ġacred ito
3 000
C el
M c
T ool
l ava
Ġ q
Ġt ong
en ne
or ini
el ing
Ġh ur
ĠP Ã³s
Ġre verse
ĠM Sc
Ġg a
Ġg un
ain er
Ġk its
ĠRe ading
Ġconf iar
pan har
Ġra ios
Ġsup posed
Ġvi eram
ĠAn ch
Ġins crever
ins k
Ġcert ificates
Re port
ĠCor po
ĠRo HS
Ġwater proof
Ġcomun hÃ£o
rol ux
Ġdiscuss Ãµes
ĠBan ho
Ġveget al
ĠOpt im
Ãģ rea
ĠChe f
Ġconsci ente
ĠTec ido
Ġjorn ais
ĠStat ement
Val le
Ġacol h
ĠAcadem ia
Ġcompens aÃ§Ã£o
Program as
ĠRain ha
Ġsurpr ising
Ġsurpr ised
Ġpeda Ã§o
Ã³x ido
ĠRele ase
Ġexplan ation
ĠOnt ario
ĠComerci antes
H F
P asso
T IS
Â ±
al m
id ratos
ĠC Y
ĠC od
Ġv elhos
et ti
ut er
ĠM oto
ant emente
ĠR Ã¡p
Ã³ c
ĠG U
ect ions
per ties
Ġpr ide
ĠV etor
for est
Ġap Ã³st
ak arta
Ġim pec
ĠCh Ã¡
Ġinform al
Ġrec arreg
Ġmod ificaÃ§Ãµes
Ġco ins
Ġprov ed
Ġencont rÃ¡
As k
Ġdist ribute
ĠAn terior
Ġport e
Ġbase ia
Ġgra in
ĠSal amanca
Ġpress ione
Ġcir cle
Ġesper o
Ġtext ura
Ġpack ed
ĠhÃ³sped e
Ġexib e
Ġconect ados
Ġrepro dut
Ġcrim inos
Ġcarreg ador
Ġglass es
Ġcoord ination
Ġoccur rence
Ġadm issÃ£o
Ġhid rat
Ġapropri ada
Ġdemoc ratic
Ġdestac ar
Ġreb el
Host el
Ġowners hip
Ġnutri entes
ĠHano i
munic ations
R OM
T alk
W ant
f ada
t urn
Ġt ard
Ġt iny
Ġo vers
Ġf ria
ad uras
ent on
Ġin iciais
ĠC resc
ĠS Ã©
Ġh oles
ĠP ico
ĠP ET
ĠP orsche
ĠB angu
ĠL ÃŃ
Ġ- >
ĠW E
ill iant
Ġac credit
Ġres ide
Ġcomp acto
ear ing
av i
all a
ress Ã£o
rar ies
Ġrec orr
pre t
ron es
Ġaplic am
IS H
Ġexpress ar
ĠSol uÃ§Ãµes
Ġdepend ent
Ġren al
ĠPe Ã§a
ĠTur bo
Ġig uais
Ġdisp ute
Ġsus c
Ġestabelec ida
ÃŃg io
ĠPat rim
Ġpert in
Su ite
PC S
Ġunc ert
ĠTerra ce
ĠSi ena
Ġmagn ificent
Ġdura bility
ĠBarb ie
ĠShare Point
Ġventil aÃ§Ã£o
Ġven ue
Brazil ian
ĠToy ota
ĠPri ze
Compl ete
Ġanex o
Ġtoilet ries
Never theless
Ġcrow d
ĠEmer g
Ġcardiov ascular
H Ã´tels
P ousadas
U AL
p ay
s up
Ġt ido
al to
Ġm Ã£es
ĠC ards
ĠS op
ĠS unset
ut ores
ess en
ĠT rem
Ġdes erve
Ġpl Ã¡sticos
ru e
ĠCom ment
Ġev ident
Ġserv ants
ĠMar sel
ph is
Ġpo et
man ent
ins ula
Ġworld s
AT ER
Ġmot oc
ĠAg enda
Ġfin ishing
ĠNov os
Ġleg ally
Ġsac red
Ġhab itaÃ§Ã£o
Ġceleb rar
ĠMot ion
Ġlab els
Ġhy brid
ĠJew elry
Ġamer icana
ÃŃss ima
ĠFore x
ĠPict ure
Ġcaval os
Ġmyst ery
ĠProjet os
Ġmultid iscipl
Ġtestim ony
Ġprosse gu
ĠClenbut erol
ĠMarsel ha
C aixa
N um
f ire
Ġt ired
Ġs atur
Ġf are
Ġb olo
il ation
Ġl entamente
ĠP enh
ĠM ons
Ġg ad
ĠT odo
ĠR H
ĠR hod
ĠD OS
ter r
ĠL ing
ĠG az
and al
ĠW oman
ĠK rist
Ġconf idencial
ĠÃ¡ rabe
Ġpres erve
pre ad
ugh ters
Ġaplic adas
ĠCo fre
uz ir
Ġma j
Ġpower ed
Ġcart eira
Ġexc it
Ġpap ers
ĠSk in
cent agem
Ġcoz y
Ġadapt ation
[...]
