#version: 0.2 - Trained by `huggingface/tokenizers`
Ġ a
Ġ t
Ġ d
e s
Ġ c
Ġ p
i n
e r
Ġ s
< /
č Ċ
Ġ </
Ġ o
e n
a r
o r
o n
Ġ e
Ġ m
o s
Ġt h
i s
a n
Ġd e
Ġ f
r e
a s
a l
a t
i t
Ġ b
Ġ n
Ġth e
o m
i c
a d
en t
Ġ in
Ġ w
Ġ h
r o
Ġ l
e l
q u
Ġa n
Ġ u
Ã £
Ġ v
o u
Ã£ o
Ã §
e d
i on
i d
a m
Ġt o
i l
Ġo f
Ġc om
in g
Ġ g
e m
Ġan d
r i
es t
Ġ re
Ġ qu
r a
Ġp ar
e c
i m
o t
e t
o l
Ã ¡
Ã ©
Ġe m
Ġc on
i a
Ġ r
u r
u t
Ġs e
a c
i v
Ġd o
Ġp ro
Ã§ Ã£o
u s
Ġu m
Ġ y
l e
Ġpar a
es s
Ġf or
i r
u l
Ġqu e
Ġa l
i g
an t
Ġa s
o c
Ġy ou
u n
o d
Ã Ń
Ġ is
at ion
Ġd a
t er
d o
Ġm a
Ġs u
Ġ est
is t
Ġe x
Ġo n
Ġs t
Ġ j
Ġn o
i f
Ã ª
er s
or t
a g
Ã ³
Ġc h
c e
a Ã§Ã£o
v e
u m
a b
it h
s t
ent e
ad e
i z
Ġa t
p l
Ġw ith
Ġ en
c h
Ġh ot
ad o
Ġo s
Ġp r
Ġb e
Ã µ
Ġ k
Ġw h
Ãµ es
Ġu s
Ġa c
Ġa p
o w
Ġum a
Ġs er
Ġ it
Ġ Ã©
v er
Ġf r
Ġo r
a y
ec t
an d
l y
i p
Ġcon t
p er
Ġr es
Ġd es
Ã§ Ãµes
ent o
a p
o g
Ġth at
Ġn e
Ġ es
id ade
Ġcom p
en s
Ġa r
Ġhot el
u d
Ġt r
il l
ad os
t o
en d
it y
t h
f or
ad a
Ġp or
Ġw e
Ġa d
v el
Ġs h
c t
Ġp er
ic a
e i
c i
Ġs o
Ġn a
Ġ im
os t
Ġc l
os s
Ġa re
o p
Ġp l
Ġu n
at e
h t
Ġp re
Ġn Ã£o
Ġyou r
Ġc an
p ort
t a
er e
Ġc ar
Ġfr om
d u
Ġv oc
Ġo u
Ġa b
Ġl e
Ġvoc Ãª
Ġa m
i b
i al
Ġd is
Ġth is
Ġma is
Ġp od
t e
Ġs p
a is
Ã º
i es
Ġt em
Ġb y
Ã¡ ri
v i
for m
u g
Ġm an
us t
i re
Ġn ot
in e
an do
Ġ ro
c ia
h o
h a
Ġcom o
Ġin ter
it e
or es
as t
o k
Ġ i
Ġ ent
as s
Ġo ut
iv e
a v
it o
Ġm ar
d e
u re
Ġg r
i o
m ent
c l
Ġe l
u al
on t
Ġal l
ul t
Ġd os
ar t
Ãª n
Ġa g
al l
Ġt ra
an s
ig ht
or e
Ġc o
Ġpar t
a ve
Ġh e
a k
an g
ar d
ou r
Ġf l
Ġre c
s o
u b
a z
in d
Ġ Ã
Ġt er
p t
id e
ou n
Ġm e
p o
r es
l d
f er
Ã§ a
Ġcon s
u ra
Ġa o
Ġb r
ic e
ic o
ion s
Ġw or
id o
Ġto d
am ento
Ġw ill
Ġc ol
if ic
om e
Ġqu al
h er
el l
a i
c o
Ġv er
ag e
Ġin form
Ġes p
ou s
ĠÃ ł
ant e
ic h
am ente
ac h
Ġse u
c ess
Ġp el
a Ã§Ãµes
e w
Ġb o
in a
r os
Ġas s
Ã© m
Ġre l
v a
a in
Ġo b
g r
un d
on g
Ġg o
Ġc as
at ed
Ġh ave
b re
id a
ion al
Ġc or
ig n
Ġs Ã£o
Ġsu a
ab le
Ġm in
p on
Ġw as
Ġl oc
est a
ent es
g u
b er
Ãªn cia
qu e
Ã© is
ou t
Ġe u
ar e
Ġo ur
Ġin st
Ġpro du
ic al
an ce
ri g
ad as
m o
ac k
Ã§ o
Ġm u
Ġpod e
Ġm od
Ġre g
Ġp ri
Ġf il
Ġhotel s
at er
Ġs a
p e
ad or
Ġp e
Ġe v
Ġn oss
Ġso bre
Ġl o
Ã ¢
el h
r u
ation s
Ġtr ans
ac t
as e
Ġhot Ã©is
Ġin d
k e
Ġf o
Ġp ort
Ġc am
is h
Ġm ore
Ġfor m
Ġv e
ad es
re e
iv o
i an
en ce
Ġo p
ess o
Ġg u
Ġen c
Ġd as
Ġf e
Ġc ent
Ġs em
on e
Ġb l
Ġd ire
Ġs ol
in t
m ente
w n
Ġa ut
Ġt im
Ġne w
Ġt e
Ġv is
or d
am b
is s
Ġin cl
ag em
u e
ei ro
ant es
Ġser v
Ġ if
Ġa f
Ġwh ich
r ar
Ġp h
Ġm as
r y
ac e
d er
i as
Ġm elh
p os
Ġp oss
th er
al iz
ent s
ent os
im ento
Ġes c
b l
Ġr esta
Ġb ar
d it
ic as
Ġb ut
ic k
o v
g e
Ġh as
Ġ x
b al
Ġresta ur
Ġest Ã¡
Ġ z
Ġd if
e ar
id ades
Ġ Ã¡
Ġu p
r ess
Ġcon f
Ġ ra
Ã³ s
t il
at a
Ã¡ri o
Ġf az
in do
Ġon e
Ġa v
k s
pl ic
j a
Ġc ap
Ġpro v
Ġinter n
Ġp ol
Ġtod os
Ġp ass
ing s
x im
Ġm et
Ġe le
Ġa ir
Ġc ri
ic os
Ġl a
i or
c a
u p
am e
l o
ul ar
ou ld
f f
ri o
er t
Ġp a
Ġprodu ct
oun t
Ġar t
ol og
Ġv al
os e
Ã¢ n
ar y
Ġim p
Ġent re
y s
ÃŃ vel
Ġv i
r as
or a
Ġt amb
Ġtim e
Ġo ther
Ġt ri
Ġenc ont
Ġth ere
es e
Ġde l
Ġtamb Ã©m
Ġn os
Ġus e
am os
Ã¡ri os
i e
Ġm ost
Ġac c
Ġal so
Ġs im
d ut
Ġt ec
Ġal g
Ġfo i
Ġp esso
f t
Ġf un
ei ra
Ġm es
Ġb us
ve is
ic es
Ġpro gr
er v
id os
c is
Ġm ed
Ġg er
Ġpr es
Ġc a
at iv
Ã§ os
Ġan t
Ġin t
Ġf in
Ġthe y
Ġs y
Ġcom m
Ġpro cess
Ġs al
Ġno v
Ġthe ir
Ġc r
Ġe qu
ant o
ai x
i x
il e
it os
i Ã§Ã£o
Ġp o
Ġ ess
Ġb est
v is
h e
Ġsu b
Ġit s
or s
Ġpro dut
Ġm on
Ġac t
Ġan y
Ġex p
Ġex per
v ol
Ġp ers
Ġest e
ri a
b o
Ġab out
or n
Ġs ec
Ġbo ok
r ic
Ġex t
Ġsu p
Ġem p
Ġv ia
Ġen g
Ġpro f
re at
Ġs c
Ġc ur
Ġwh en
Ġch e
Ġesp ec
Ġd ist
Ġb u
Ġdes c
Ġin c
Ãª s
Ġse us
Ġprogr am
ig h
ub l
Ġre p
Ġfl ight
Ġf ree
Ġm en
Ġpr Ã³
Ġh ow
Ġv o
p h
Ġse g
Ġ er
s e
ÃŃ n
qu er
em b
on d
ec e
en do
Ġd ur
Ġs oc
Ġwe b
Ġof f
Ġser vi
Ġwor k
Ġor g
Ġres ult
Ġinform ation
iv ers
it a
us e
or y
ist a
Ġl u
n ow
Ġs el
ri b
Ġj og
j ect
Ġcl i
en c
Ġl in
m in
it ies
Ġin f
Ġf ind
Ġs et
Ġu til
Ġa qu
ar i
an c
Ã ´
Ġtra bal
Ġm o
il h
Ġcom pl
Ġmu ito
vi ew
Ġd est
Ġl i
ec ess
Ġd i
ic i
at es
p s
Ġfaz er
Ã§ as
Ġl iv
Ġcon st
Ġp ra
ant s
Ġma y
Ġre ce
Ġwh at
il d
Ġn um
j et
is e
Ã¡ vel
Ġn as
at o
f e
Ġy ear
Ã¡ t
Ġm y
Ġim port
el y
l ine
Ġtem po
in o
Ġpers on
Ġwh o
Ġutil iz
er n
Ġqu ando
p a
Ġre al
h n
Ġcont ro
Ġmelh or
Ġo per
Ġh el
Ġgr and
ation al
Ġpri m
em ent
en as
in c
Ġg en
Ġn ecess
an Ã§a
Ġc al
w s
Ġp es
Ġb et
Ġh is
it u
Ġf am
Ġin s
en h
an h
ist em
ar es
Ġ ir
Ġequ ip
Ġde v
Ġpod em
Ġg ro
Ġpel o
t al
Ġsu as
Ġthe m
Ġk m
Ġd ata
Ġth an
Ġn at
Ġb el
Ġe c
Ġeu ro
Ġsp ec
w e
er g
l and
Ġdes ign
Ġcon v
Ġh igh
n e
Ġse e
Ġne ar
Ġp al
Ġ Ãº
Ġexper i
p ar
ta in
Ġc re
ad ores
i os
Ġc ity
Ġper m
Ġde c
Ġin v
ak e
Ġsh ow
Ġk now
Ġs m
al s
k et
Ġd ados
Ġo ver
ug h
Ġs ite
Ġd ia
Ġl ong
Ġpl ay
id as
w ay
t im
an a
ab il
Ġpel a
Ġa j
Ġde f
st em
ul o
res ent
Ġj o
Ġve z
Ġt w
ra v
z a
Ġof er
Ġm un
Ġwor ld
Ġon ly
w are
Ġth ese
Ġst ud
Ġb as
Ġf ir
p or
Ġp ubl
i ra
Ġm ot
Ġ id
rig ht
Ġs ur
Ġh um
Ġdo wn
Ġg et
el e
Ġne ed
k ing
Ġar qu
bl em
Ġe ver
Ġres pon
Ã¡ l
at h
d s
Ġs ome
Ġsy stem
m er
Ġflight s
ang e
Ġincl ud
Ġb ec
it es
Ġinform aÃ§Ãµes
Ġpl an
Ġat Ã©
Ġpro blem
Ġm ater
it al
Ġap p
Ġpri v
Ġdis pon
Ã© s
Ġfor n
Ġad d
p ri
Ġorg an
ur es
Ġout ros
ect ion
Ġpart ic
ag ens
Ġth ro
Ġtri p
Ġaf ter
Ġo c
ot os
vol v
c ion
Ġf ol
Ġs k
Ġc er
Ġm Ã©
m os
Ġre qu
c el
ib le
Ġl im
Ġcompl et
Ġw ere
Ġv ol
Ġqual quer
ur al
a x
Ġh ist
ÃŃ s
Ġs ign
Ġap art
ir os
ec er
en e
Ġb em
va il
i ed
ci o
op le
Ġcon c
at ing
ÃŃ t
ag es
Ġest a
Ġre view
Ġs istem
ar ch
Ġthro ugh
Ġh er
Ġpe ople
Ġpod er
ment s
Ġa vail
Ġon line
m a
Ġt ip
id er
ci as
Ġsu per
Ġc ust
t on
iv er
Ġvis it
ic s
is a
ow er
Ġt est
Ġdes en
pl o
iv os
ib il
Ġde p
r am
il y
Ġemp res
Ġh ol
Ġincl u
Ġp op
u do
in h
Ġj ust
Ġli ke
Ġb ot
Ġw ell
Ġtr ad
Ġre f
g et
Ġmod el
m e
Ġa os
Ġf ac
ous e
ĠprÃ³ xim
l es
Ġus ed
Ġm er
Ġk e
Ġv ers
Ġf er
Ġl ist
Ġdire ct
Ġt ur
g o
Ġg ar
Ġo pt
Ġis so
g a
per at
Ġb ra
Ġnoss o
ic ion
Ġd u
Ġse gu
in ess
Ġse arch
Ġm il
Ġne g
Ġpr om
Ġc ount
Ġsu ch
Ġfir st
ÃŃ veis
Ġtra vel
ac ion
Ġaj ud
Ġpre cis
Ġwh ere
Ġb ro
Ġtec hn
re as
Ġde vel
Ġbe en
Ġever y
it t
r al
Ġj an
ut e
Ġg l
oun d
Ġs om
Ġvi ew
Ġfil e
if e
Ġport ug
at her
Ġrec om
Ġn et
Ġc ab
Ġro om
Ġf re
a ir
Ġtem perat
Ġpr inc
Ã¡ s
Ġvia g
Ġh Ã¡
Ġst e
Ġat t
Ġan os
Ġan al
Ġmes mo
Ġon de
Ġw indo
Ġhel p
ent al
on s
Ġres erv
en ci
Ġma ke
Ġesc ol
Ġl ug
ar n
Ġac cess
Ġavail able
Ġp os
Ġdevel op
du c
Ġa plic
an y
em os
Ġda y
Ġv ari
Ġw ay
l ish
Ġpesso as
l ow
or m
Ġj un
Ġver y
Ġcomp ut
Ġ right
Ġe t
Ġm at
i Ã§Ãµes
Ġch ar
Ġun ivers
x t
Ġs an
Ġap enas
Ġde m
Ġno w
Ġaut om
un s
Ġprodut os
Ġserv ice
Ġpes qu
Ġt y
Ġso ft
Ġcontro l
Ġst r
Ġdo c
Ġencont rar
f ul
Ġgo od
Ġb an
Ġs ou
p re
Ġcont in
Ġav al
Ġcl ass
Ġpubl ic
Ġpro t
Ġmelh ores
Ġe ff
el a
n er
Ġn Ã³s
Ġc ada
Ġbus iness
Ġdif fer
Ġvo os
Ġb re
am entos
Ġen d
Ġh ome
Ġs in
ig o
Ġest Ã£o
le x
Ġre t
ct ion
Ġcust om
oc k
Ġdif er
Ġbr as
iz aÃ§Ã£o
an o
Ġcas a
Ġm ade
Ġrestaur ants
at os
Ġpro c
Ġeuro pe
Ġgen er
Ġre m
ar am
Ġin to
Ġcom e
it ed
Ġespec ial
r ica
Ġ ide
i er
Ġqual idade
Ġcon d
Ġweb s
am p
el s
j o
it s
Ġtod as
Ġmater ial
h ec
it ion
Ġec on
Ġma ior
Ġmar ket
Ġg ra
Ġgrand e
ut ion
Ġtw o
Ġmun do
Ġex pl
et s
d a
Ġp ed
Ġdis c
our s
Ġwindo ws
r on
ar ia
Ġc idade
Ġb ack
a il
vis or
en g
ĠÃł s
c k
Ã¡ g
ter n
en a
ci os
Ġm al
Ġform a
t y
Ġest r
Ġf i
Ġproduct s
Ġloc al
Ġservi Ã§os
ect ed
Ġin g
em ber
Ġman y
ac ional
Ġop en
lo ad
Ġle g
in es
Ġe d
for e
Ġloc aliz
ar m
Ġqual ity
Ġe as
Ġb ase
Ġtrabal ho
ia is
ver n
Ġb aix
Ġs ch
Ġh om
ar a
ate g
it as
Ġprov id
ur s
or k
ou g
Ġre ad
ad visor
ind a
Ġel es
Ġtrip advisor
Ġf al
Ã¡ri a
Ġqu est
Ġd ig
Ġad v
Ġman ual
Ġp at
we en
in s
Ġen erg
Ġnoss os
Ġbet ween
Ġam b
Ġf av
Ġs ab
Ġv ida
Ġserv ices
Ġsup port
i k
est e
Ġprinc ip
c ul
Ġl ar
Ġrestaur antes
Ġsoft ware
iz e
Ġh ost
Ġcom b
um ent
Ġd om
ic t
Ġp ower
Ġsp e
Ġm ic
end er
Ġ rio
iv a
Ġma in
Ġg re
Ġsh ould
Ġbe ach
Ġconst ru
Ġqu er
j e
Ġs ant
Ãªn cias
Ġdown load
Ġpar te
Ġh ere
Ġh or
Ġche ap
Ġo rig
Ġh ad
Ġalg um
i Ã£o
Ġyear s
Ġfol low
Ġc ost
Ġc ult
Ġw ant
Ġdesen volv
ic ar
u Ã§Ã£o
Ġar m
Ġbras il
Ġre d
Ġc ert
Ġev en
ul l
Ġto p
Ġin n
b e
Ġlo ok
Ġt orn
Ġnoss a
Ġg reat
Ġt ake
Ġcons ider
Ġsistem a
Ġass im
Ġpro jet
Ġap plic
i que
Ġst ay
Ġsoc ial
Ã³ g
e p
Ġcol l
Ġth en
Ġmin ut
it ar
Ġat rav
u x
Ġl ife
ei o
Ġs w
Ġwebs ite
p ect
Ġinv est
Ġch ild
Ġpa ÃŃs
Ġdiffer ent
Ġap resent
Ġma p
ad r
c il
Ġt al
re d
Ġid ent
Ġw ould
Ġgro up
Ġreview s
o od
Ġfor am
Ġd iv
Ġpo int
us s
r it
Ġo l
pl es
Ġcom un
Ġj Ã¡
pt ion
Ġs itu
Ġl og
Ġfav or
in as
ro und
ac ter
Ã¢n cia
iss ion
Ġw ater
Ġa inda
Ġser Ã¡
Ġh and
Ġdur ante
in ha
Ġmer c
Ġ ri
Ġatrav Ã©s
Ġm Ã¡
Ġto tal
Ġd ri
Ãª m
im a
Ġp Ã¡g
ar s
Ġass oc
Ġservi Ã§o
Ġag ora
Ġpl ac
Ġpartic ip
Ġm ult
Ġaval ia
u a
p ed
Ġpro per
Ġind ust
b r
on a
Ġin te
Ġpro ject
Ġaqu i
Ġcont e
Ġarqu ivo
end a
Ġre aliz
Ġr om
h es
an Ã§
Ġcon dit
Ġe duc
Ġcont act
Ġus u
Ġm us
Ġde ve
h ing
Ġun der
Ġcomm un
Ġst art
Ġ Ã³
ist as
Ġc le
Ġex ist
e qu
Ġto do
Ġch o
Ġpl ace
Ġs ent
ÃŃ st
am es
av a
Ġtrans port
Ġo wn
Ġhum an
ĠmÃ© d
Ġp ost
l et
at or
g ar
al th
ot e
Ġth ings
Ġl ight
Ã© c
Ġfac il
a use
Ġam er
ur n
Ġpe qu
Ġrespon s
Ã¢ m
Ġt om
Ġinst al
Ġst and
Ġc u
c er
Ġper f
el d
Ġs l
Ġseg ur
Ġel ect
Ġf ri
Ã© ri
Ġe f
ÃŃ l
Ġe ach
Ġh o
Ġn ort
Ġg od
is mo
Ġt en
Ġgo vern
m s
Ġno va
Ġs at
Ġen s
Ġviag em
gu a
Ġd ias
at ive
l ed
r en
Ġprodut o
h ip
ra ct
at ic
Ġat ual
at u
Ġv el
Ġeng lish
Ġfin al
Ġm emb
Ġof fer
Ġbec ause
Ġus ing
Ġforn ec
Ġad icion
Ġh ouse
olog y
l tim
Ġpro te
ter s
og ra
Ġr is
Ġintern ational
i um
Ġs Ã³
d ade
Ġp ack
Ġv ai
Ġse x
v al
Ġm om
Ġper to
Ġsup pl
Ġcon n
Ġf a
Ġact iv
Ġs ens
Ġcomp ar
Ã³ ria
Ġh im
Ġch ina
in ho
Ġre fer
Ġbra z
Ġf ab
Ġdesc ri
Ġprof ess
Ãº mer
Ġb ed
Ġwith out
Ġsh e
Ġe dit
Ġext ens
Ġde us
Ġair port
n ess
ic ial
ab or
Ġf und
il s
Ġorgan iz
ol d
Ġan im
ol s
Ġor der
u es
l l
Ġpr ess
Ġv ir
Ġalg uns
en Ã§Ã£o
ec k
Ġp le
Ġp ur
on to
Ġcons um
Ġde po
ci al
Ġ ip
g er
Ġbraz il
t ing
an Ã§as
Ġjan eiro
Ġcon hec
Ġl ast
et e
in al
Ġper form
ce pt
Ġen vi
Ġtip o
re a
Ġth ose
Ġintern et
Ġhe alth
b le
ec h
Ġgr u
Ġdis pos
Ġex c
Ġdepo is
m an
Ġca us
olog ia
Ġm m
Ġc op
Ġc at
i ar
h as
Ġpart ir
Ġfe at
Ġf ound
Ġman u
et y
Ġm or
Ġcor re
Ġd r
Ġtrabal h
Ġco ok
Ġspec ial
Ġm ov
Ġout ras
ess e
Ġf Ã¡
Ġap ro
ĠprÃ³xim os
Ġv ÃŃ
Ġt udo
Ġal Ã©m
Ã¡ veis
Ġcent ro
Ġt ele
Ġch r
an ha
Ã³ ri
Ġm ach
Ġreg ist
Ã© t
ica Ã§Ãµes
Ġfri end
Ġt re
t s
Ġb om
Ġr est
Ã³ rio
Ġant es
Ġger al
Ġcli entes
Ã´ n
am a
Ġf ut
Ġpar k
ri es
Ġw est
Ġbe fore
Ġg lo
i ro
Ġse ja
Ã³ r
Ġcomp any
Ġp an
Ġdur ing
ir as
Ġpesqu isa
Ġtra in
Ġ ig
Ġan o
Ġv ide
Ġm ont
Ġb at
i am
Ġent Ã£o
Ġf act
Ġal ta
ig os
Ġall ow
Ġ il
Ġp ac
Ġl he
Ġus o
Ġdef in
rib u
Ġdo es
Ġperson al
Ġing l
w ard
Ġac esso
ĠÃº ltim
Ġind iv
Ġma pa
Ġpro pri
Ġpop ular
n a
ar Ã¡
it or
Ã¡ri as
ific aÃ§Ã£o
Ġl ine
Ġest ab
Ġd on
Ġs ame
Ġc ir
ur g
r ent
Ġcap ac
Ġare a
Ġap Ã³s
Ġat iv
Ġc all
ot o
Ġle arn
Ġre du
Ãº bl
Ġr Ã¡
Ġv ill
Ġda ys
Ġem b
Ġnum ber
Ġg e
ra Ã§Ã£o
l ess
Ġgr atu
Ġsegur anÃ§a
Ġnov o
Ġn Ãºmer
e ver
Ġst re
Ġinst all
at ivo
Ġcl ick
as h
Ġt our
Ġu r
Ġfun cion
Ġb al
Ġp ou
Ġt ar
Ġl ib
Ġle v
b il
Ġf otos
Ġecon om
in k
Ġma g
Ġt ro
v ir
Ġag ain
Ġt ax
Ġj ul
Ġle vel
ativ a
Ġm ust
Ġel a
enc y
Ġd iz
Ġdes de
Ġp et
Ã© r
Ġinte gr
Ġp ot
Ġlu x
Ġcas o
Ġpre Ã§os
al e
Ġempres a
Ġpr ice
Ġneg Ã³
Ġim pl
f act
Ġsem pre
Ġtec n
Ġvez es
n ing
or do
Ġb i
Ġwith in
cl us
im entos
Ġassoc i
Ġl et
Ġn ome
oug h
Ġqu ais
Ġs on
Ġwh ile
Ġdo is
Ġnat ural
Ġm ac
Ġc ateg
ap p
Ġpor que
Ġap r
Ġg ame
Ġgu est
ur as
Ġinclud ing
un t
od o
ri r
is m
Ġob s
Ġfab ric
Ġle ad
Ġcar t
ÃŃ cio
Ġit al
Ġex ec
Ġre mo
el f
b a
Ġamb i
Ġeff ect
Ġqu art
re g
Ġcomp et
Ġde ta
Ġp ay
Ġpr ices
Ã´ m
Ġb ene
ĠÃ¡ gua
Ġl l
v es
Ġt v
Ġm use
Ġde ter
Ġm ant
Ġp ap
Ġres ort
Ġin de
Ġcent ral
ĠpÃ¡g ina
p ing
Ġqu ar
et a
f ort
Ġexperi ence
Ġl ig
Ġal t
Ġun ited
Ġportug al
Ġbe ing
Ġob jet
Ġt am
ear ch
ri m
Ġrequ ire
ÃŃ f
Ġres er
en Ã§a
am s
Ġc our
Ġapp ro
Ġal ug
Ġan g
Ġet c
Ġexp ress
Ġa er
Ġspe ed
il le
Ġest ud
ain t
ĠÃ¡ rea
an e
Ġex em
Ġacc ord
z e
Ġf ull
ru ct
im ent
Ġes per
i u
od y
un g
Ġpre Ã§o
Ġer a
port un
Ġch eck
agem ent
Ġpol ÃŃt
Ġacc om
Ġ q
Ġt ak
Ġsou th
t en
Ġingl Ãªs
Ġm ud
Ġph otos
Ġbene f
Ġspec ific
Ġsm all
Ġpres ent
Ġus er
Ġp c
Ġres earch
Ġad dit
Ġprogram a
p ost
iz ar
Ġesp a
Ġgar ant
Ġoff ers
Ġfr an
emb ro
Ġbu ild
Ġdesenvolv imento
Ġs us
Ġl at
Ġus ar
Ġs ing
ÃŃ d
Ġf icar
Ġf ace
Ġrep resent
ro om
a f
Ġn orm
Ġtr at
Ġj es
Ġmon th
Ġgener al
Ġmod ern
Ġent er
em ente
Ġout ro
a h
v ed
Ġd ar
Ġbas ed
Ġinform aÃ§Ã£o
Ġprov ide
ang u
a ut
iz ed
Ġd ent
Ġdig ital
Ġfo od
Ġchild ren
Ġcom ent
Ġp ont
d ers
Ġter ra
Ġs il
Ãº s
Ġdifer entes
Ġc i
Ġc ould
Ġh av
Ġad min
iss Ã£o
Ġmen os
Ġh y
Ġchr ist
Ġsec ond
Ġp age
og le
p r
c es
or ies
Ġcont ent
Ġt ab
Ġlo ve
Ġcom er
Ġvis ual
v en
Ġcontin u
Ġa ud
Ġl os
enc es
Ġjog os
re l
Ġst ar
Ġgo ogle
Ġty pe
Ġs ay
el o
Ġvel oc
Ġest ar
ĠnÃºmer o
Ġcar d
end ed
Ġman agement
Ġcount ry
Ġp ag
Ġw om
Ġsign ific
Ġde ix
c ar
Ġwe ather
Ġcent er
Ġconf ig
Ġl as
e x
Ġdoc um
Ġresult s
Ġac ordo
Ġfam ily
Ġh os
Ġsa id
Ġprocess o
way s
ĠvÃŃ de
Ġjes us
on es
Ġm ul
Ġac ess
y ing
Ġs ites
Ġst at
Ġac om
Ġa Ã©
Ġcar e
Ġbre ak
id ay
Ġdevelop ment
Ġsa Ãº
Ġl ive
Ġpre par
h os
Ġst ate
Ġrel aÃ§Ã£o
Ġp Ãºbl
ul a
Ġess e
Ġke y
Ġcol or
Ã³ri os
it ch
ir m
Ġlug ar
Ġjog o
c le
Ġlin k
or ia
Ġconte Ãº
ĠsaÃº de
Ġquart os
Ġpal av
Ġde tal
as on
Ġl and
Ġch am
Ġpar is
ol Ã³g
os a
Ġimport ant
Ã³ n
Ġex cel
Ġad equ
Ġqu ant
Ġloc ated
Ġavalia Ã§Ãµes
ĠrÃ¡ p
Ġposs ÃŃvel
ed ade
Ġp ens
Ġbot h
Ġme u
Ġm em
ro du
Ġeng ine
Ġindiv id
it er
ur y
ed i
Ġprim eiro
Ġw al
ot her
Ġind ic
Ġc ast
is as
g est
Ġacc ount
Ġn ational
Ġpa ulo
Ġbook ing
ort o
Ġen qu
en o
Ġm eio
Ġass ist
Ġdispos it
Ġresult ados
Ġple ase
Ġma il
d ay
Ġtemperat ura
Ġre le
Ġcond iÃ§Ãµes
Ġmot or
Ġe ar
Ġfollow ing
ram ent
el ho
Ġcont ra
Ġd ivers
Ġk ing
Ġglo bal
Ġimp ro
Ġt Ãªm
Ġbl ack
Ġdispon ÃŃveis
Ġrecom m
Ġsu port
re ad
Ã©c n
Ġtemperat ure
ol a
Ġn ight
Ġdire t
Ġcomb in
v ers
Ġexperi Ãªncia
Ġmanu fact
p le
Ġsel ec
ent ial
bo ok
Ġinter est
vir on
Ġre port
Ġth ree
ical ly
Ġen viron
Ġap ar
Ġaut h
Ġinclu indo
Ġfer rament
Ġh a
u ro
Ġn ame
Ġr ent
ĠÃº n
Ġme et
Ġres id
Ġdispon ÃŃvel
Ġrel acion
pl ay
Ġplac es
ar o
Ã³ d
at ch
Ġofer ece
Ġveloc idade
Ġt Ã©cn
Ġr en
Ġop in
Ġart ic
Ġr ad
Ġo ld
ent ion
Ã¡t ica
Ġlug ares
ol e
ut ions
Ġstand ard
abil idade
Ġa ch
m od
Ġp s
Ġperm it
el es
if ied
Ġnet w
Ġcont a
Ġamer ic
Ġg iv
Ġposs ible
ud e
Ġadmin ist
Ġh ard
Ġup d
Ġf oc
Ġeas y
Ġdest in
Ġab le
Ġwe e
ibil idade
Ġmul her
Ġnat ure
Ġl is
Ġa round
Ġfam ÃŃl
ual ly
Ġres ol
Ġcont r
Ġal ter
Ġem ail
Ġop Ã§Ãµes
Ġh app
Ġs ci
Ġw ind
Ġl ond
Ġprincip al
Ġg al
Ġm ass
Ġimp ress
Ġtr Ãªs
ura Ã§Ã£o
c os
Ġd ra
Ġm ens
Ġpel os
an n
ĠfÃ¡ cil
Ġch ang
Ġaccord ing
Ġhow ever
Ġenqu anto
Ġt or
Ġest ado
Ġis land
Ġaut or
Ġess a
Ġinf l
Ġempres as
Ġtrans fer
Ġmu ch
Ġtim es
Ġch ange
end e
Ġexem plo
Ġc in
Ġide al
Ġst ation
Ġsch o
Ġs enh
Ġan other
Ġprofess ional
Ġcri anÃ§as
Ġdes e
Ġsin ce
Ġgru po
Ġcas e
ĠmÃ¡ qu
and a
Ġob ject
Ġcook ies
Ġn este
r ado
abil ity
Ġprodu Ã§Ã£o
ur ity
ativ os
Ġbe g
Ġreg ul
Ġorig inal
a u
s c
Ġconv ers
Ġpartic ular
Ġst ates
Ġmin ha
Ġcur rent
an ho
id es
Ġse ver
amp le
Ġapplic ation
Ġsh op
Ġl angu
Ġaccom mod
Ġw in
Ġcome Ã§
Ġvide o
Ġres ist
Ġqu ick
Ġap pl
Ġpriv ac
Ġdu as
m ar
Ġl ow
Ġhe ad
Ġver dade
Ġcondit ions
r om
Ġmu itas
Ġm ill
Ġroom s
Ġest ados
Ġsom et
Ġd in
Ġmu itos
ver t
Ġg est
Ġdec or
o f
Ġinst it
Ġl ista
em ents
Ġp onto
Ġg ames
r ito
Ġtechn ology
Ġm ilh
Ġc Ã©
Ġn ÃŃvel
o ver
Ġrel ated
Ġsh are
Ġprim eira
Ġs ul
Ġenviron ment
t ar
Ġmerc ado
Ġho je
Ġj ap
Ġd at
Ġw r
z o
ne y
Ġobs erv
Ġadd ress
Ġminut os
Ġd im
r ation
r ada
Ġpol ic
ub e
Ġt ick
Ġalgum as
Ġcr ist
Ġsim ples
l ing
Ġprojet o
Ġest rel
Ġb ody
u i
Ġd id
Ġde t
Ġtem por
ir it
qu es
en i
Ġ ib
ir d
Ġpra ct
Ġb er
Ġpesso a
ĠprÃ³ p
Ġp u
if y
Ġcam p
re t
ĠnegÃ³ cios
Ġhe art
Ġl ed
re m
Ġtod ay
ific ar
Ġc ru
Ġsu c
Ġcont ain
Ġper g
Ġm ess
Ġde cis
is c
Ġsec urity
Ġcre ate
c as
ist s
Ġdeter min
Ġdis co
Ġit em
is ter
f a
Ġs i
Ġal ways
Ġw ar
ro p
er a
Ġob ter
Ġa ust
ĠconteÃº do
Ġsh all
Ġcomput er
Ã£ os
Ġvers Ã£o
Ġdent ro
Ġstud y
Ġus ers
il o
Ġan Ã¡l
Ġmost rar
Ġg ost
Ġfil es
h od
Ġhol iday
e gu
at s
Ġar ch
Ġportug u
Ġv ista
Ġk ay
urs os
Ġla w
Ġs ac
i Ãµes
er y
Ġport o
on te
Ġd er
d f
ter ior
Ġcent re
Ġsant a
Ġg ard
Ġbook s
Ġaer op
Ġproduct ion
Ġne xt
Ġch ur
n ers
Ġsub st
Ġfre qu
f r
Ġwh ite
ert as
vis Ã£o
Ġt it
Ġcom fort
Ġloc ation
Ġfl or
Ãº n
Ġpre v
ed er
g as
Ġtod a
anc es
od e
Ġre de
Ġm Ãºs
Ġdest e
Ġd ess
Ġcomp art
res c
Ġf im
Ġam ong
Ġexec ut
Ġw i
Ġim agens
Ġlu z
b y
Ġbe aut
Ġab s
Ġcomp an
Ġrec on
ĠaÃ© reas
Ġcli que
Ġfeat ures
i ous
Ġseg und
Ġhor as
Ġf ich
Ġopt ions
Ġra p
p end
Ġan s
Ġs ize
Ġnort h
b on
Ġr u
Ã³ l
Ġsc re
Ġselec ion
Ġdire ito
Ġindivid ual
le y
Ġl ic
Ġco z
Ġp adr
Ġpre fer
Ġun ders
Ġsal v
os to
Ġmanufact ur
Ġvi ol
ĠpaÃŃs es
Ġr un
Ġi i
m b
Ġp ain
Ġperform ance
h am
Ġproblem as
Ġpriv ate
Ġenerg ia
Ġcri ar
Ġen jo
en ch
Ġc reat
Ġval or
Ġb ig
Ġdis so
Ġprecis a
Ġc e
Ġintern acional
Ġcl ose
Ġdep art
Ġofer ec
Ġmom ento
Ġcomput ador
v ille
Ġev ent
Ġpl ant
Ġkay ak
Ġper fe
em p
Ġdep end
acion ais
Ġcoment Ã¡rios
Ġper ÃŃ
it aÃ§Ã£o
Ġbr an
Ġst ill
d om
ÃŃ c
Ġapart ment
Ġmod o
Ġa z
Ġp i
Ġd ou
Ġpres id
Ġl ess
os o
Ġalug u
Ġn u
Ġis s
r ad
Ġmet hod
Ġty p
th ing
Ġte xt
Ġa ument
Ã¡t is
Ġrec ursos
Ġf ra
Ġgr Ã¡tis
Ġcert ific
Ġqu em
Ġc y
Ġsh ort
Ġap o
Ġis to
Ġte am
Ġbet ter
Ġmo b
ent ly
Ã¡ f
le g
Ġcomp on
ogra ph
un do
Ġn enh
Ġl ot
Ġnov os
um e
Ġmon itor
Ġf ew
Ġcho ose
Ġf ar
um in
ag o
Ġd esta
er o
Ġad ap
Ġdel iver
Ġex er
Ġbu y
Ġdeta ils
Ġnenh um
Ġcon j
Ġex clus
Ġno ite
Ġlar ge
Ġenerg y
Ġp ast
Ġele v
aix o
Ġcar acter
Ġajud ar
ativ as
Ġa ce
Ġmic ro
Ġt reat
Ġc m
Ġn on
Ġp en
aix a
Ġliv ros
Ġa way
t le
Ġimpl ement
Ġtam anho
Ġquar to
et er
Ġca f
Ġh ora
Ġcar ro
Ġperm ite
l er
Ġsim il
Ġmarket ing
Ġtrans m
Ġrequ est
Ġt ent
Ġre v
id s
s os
b urg
Ġe p
Ġnorm al
Ġusu Ã¡rio
ens e
Ġe fe
Ġvers ion
Ġindust ri
Ġnew s
Ġval ue
Ġwom en
Ġcontro le
Ġsenh or
Ġlocaliz aÃ§Ã£o
Ġbr and
ÃŃ p
Ġimport ante
Ġdev ice
Ġco isas
et o
Ġtrans form
er to
Ġsystem s
Ġdis se
Ġf u
Ġtecn ologia
Ġproper ty
Ġse par
ort e
l a
or r
Ġwork ing
Ġwor ks
d ia
Ġbar atos
Ġchur ch
Ġs aint
ro id
Ġst ock
f ast
Ã³ p
ect or
ed ia
Ġper i
Ġtem os
Ġunivers ity
un to
Ġo ri
Ġout ra
Ġs end
Ġke ep
Ġcol oc
en cia
Ġter mos
Ġh ar
Ġsa f
Ġauth or
Ġrecom end
Ġf ix
Ġsur f
Ġdist Ã¢ncia
Ġqu anto
Ġg ive
i ores
Ġto wn
Ġfe el
Ġor d
Ġdes emp
r or
Ġmodel o
Ġbo a
ap e
ul aÃ§Ã£o
Ġl itt
Ġb ath
ent emente
Ġanal ys
ver age
Ġeurope an
Ġf eira
u Ã§Ãµes
Ġv Ã¡rios
at ely
Ġap pe
Ġchar acter
eng th
Ġme as
Ġbo x
Ġint el
Ġdis play
Ġb it
Ġve ja
Ġagain st
b ia
o j
Ġcomp rar
Ġestab el
Ġof ertas
Ġcompan ies
Ġal c
Ġpre c
ibil ity
led ge
al a
Ġrec ord
Ġcons ult
ce iros
ĠanÃ¡l ise
Ġw atch
un ci
Ġstre et
Ġlook ing
Ġf at
Ġsu m
Ġdire itos
Ġv ac
Ġman ag
Ġmach ine
Ġfor t
Ġb ol
Ġw all
Ġpre m
Ġperson aliz
plo y
Ġrestaur ant
Ġhom em
ur ar
Ġsk y
Ġnetw ork
u ais
Ġcon ce
it ive
est er
Ġcl ou
Ġlitt le
ic aÃ§Ã£o
Ġna ve
Ġext ra
Ġequip ment
Ġajud a
Ġcle ar
Ġal em
Ġcomp re
Ġdetal hes
t and
ĠvÃŃde o
j am
Ġgro w
Ġim ages
Ġst y
Ġcap ital
ed e
Ġt a
ÃŃ do
Ġposs a
Ġend ere
Ġcan n
Ġp df
Ġb ag
y n
Ġd en
Ġpr on
Ġusu Ã¡rios
Ġter ms
Ġreser va
ĠfamÃŃl ia
Ġsever al
Ġh ours
Ġpr int
Ġg old
Ġscho ol
Ġmuse um
Ġan n
Ġso b
Ġde d
Ġro ad
Ġlong o
Ġde cl
Ġma k
Ġc ou
it z
Ġbel ow
Ġinde pend
Ġg rav
Ġfornec ed
enci al
z ir
Ġf our
e e
Ġfam il
k a
Ġest es
Ġenjo y
Ġunders tand
Ġcommun ic
Ġpo is
Ġarqu ivos
ot h
Ġmas ter
Ġv ento
n g
Ġs endo
Ġconv eni
Ġmus ic
Ġdoc ument
ast ic
th ers
Ġsel ect
Ġc ours
Ġun idos
Ġb ay
Ã©ri as
Ġest aÃ§Ã£o
Ġhist Ã³ria
Ġminut es
Ġab aixo
Ã¡ st
Ġlin ha
Ġste el
Ġmob ile
Ġpoder Ã¡
Ġs port
Ġperf ect
Ġth ird
Ġand roid
Ġm id
Ġy ork
Ġpont os
Ġperm an
Ġsp a
Ã¡l ia
Ġindust ry
c om
ĠmÃ© t
Ġb on
Ġmed ic
Ġter min
Ġaf f
Ġn em
Ġsm art
Ġd an
at Ã³rio
Ġsistem as
Ġpap el
il a
Ġgest Ã£o
Ġarm az
Ġg ir
Ġprincip ais
Ġnecess ary
Ġliv re
en ho
Ġaerop orto
Ġlangu age
Ġcur sos
g n
v ing
Ġmen u
ÃŃst icas
ĠperÃŃ odo
ish ed
Ġcir c
l t
Ġcount ries
Ġcons egu
Ġins p
Ġcustom er
Ġpou co
Ġnot e
Ġam pl
Ġativ idades
Ġinter ess
e g
Ġcours es
o per
w er
Ġcour se
Ġcapac idade
Ġ ic
Ġknow ledge
Ġmaior ia
ia Ã§Ã£o
Ġest udo
Ġb ud
m et
Ġsp irit
iz ado
Ġpesso ais
Ġab rir
Ġsat is
Ġus a
Ġim m
Ġmic ros
r um
Ġex ample
Ġare as
Ġnov as
one y
Ġf ire
Ġve get
Ġj our
Ãº st
Ġig re
Ġwee k
un ch
Ġexpl or
Ġproblem a
Ġseg undo
Ġambi ente
Ġro t
Ġl ado
Ġon ce
Ġp ut
l i
Ġexc ell
Ġn acional
Ġgratu ito
Ġcli ente
Ġr ange
read y
e a
b s
Ġrecomm end
Ġal ready
c ional
Ġpra ia
Ġsuport e
Ġhos p
Ġdescri Ã§Ã£o
Ġcustom ers
Ġdes co
Ġdescri ption
Ġb ab
iv al
Ġconn ect
k ed
Ġcomp lex
gu e
Ġent anto
Ġfil m
Ġperi od
Ġprovid es
Ġcondit ion
Ġright s
Ġma j
Ġph il
Ġespa Ã§o
ing u
Ġnecess Ã¡rio
o ve
l s
Ġpart y
Ġcle an
ĠpolÃŃt ica
Ġt Ã£o
d io
Ġcont ato
Ġdis p
Ġim agem
Ã© g
op e
Ġprovid ed
Ġsub ject
Ġh d
Ġst ore
Ġn esta
Ġman eira
Ġret urn
Ġloc ais
Ġf ast
og o
Ġcor po
at ro
Ġte x
Ġo il
Ġre ach
Ġam or
Ġleg al
Ġinvest ig
Ġn or
Ġfr ance
ot s
Ġquest ion
Ġf lex
Ġal tern
Ġbreak fast
Ġfin an
Ġameric an
ogra f
Ġc us
Ġreg ion
Ġst or
Ġsp ace
post a
ad ia
Ġk ind
Ġestr ut
Ġpass agens
Ġar g
ĠmÃ¡qu ina
Ġconc ern
Ġtur n
Ġme ans
ut o
Ġcam po
Ġf ica
Ġreserv as
Ġnum a
Ġd am
Ġv Ã¡rias
on y
Ġtrans l
Ġespec ÃŃf
b an
Ġest ava
ec imento
Ġs un
Ġvir t
Ġpro xim
Ġal oj
Ġs ido
Ġa Ã§o
Ġl t
Ġe ast
ip s
Ġplan e
Ġrel ig
i ers
Ġv enda
Ġus ando
Ġser ies
b or
Ġoff ice
o x
Ġg as
Ġpl at
Ġde b
ib us
Ġsuper ior
Ġinclud e
Ġrece ber
Ġl ab
Ġl ÃŃ
Ġc ro
cul os
Ġhost el
Ġf el
Ġviag ens
Ġpur pos
Ġres pect
am ent
Ġreg ard
Ġcomp anh
Ġdri ve
Ġsol utions
Ġs and
iv as
Ġsh ar
Ġanalys is
Ġde al
Ġma king
Ġne ver
Ġtransport e
Ġc iv
Ġbl og
Ġescol ha
Ġbel ie
Ġwor d
Ġlim it
m as
Ġj u
c ed
Ġdisco ver
Ġwh y
Ġj e
Ġin ici
r ing
Ġser ver
Ġis ra
Ġs ide
Ġf ur
Ġestrel as
Ġser Ã£o
Ġinfl u
Ġcon du
Ġguest s
Ġcor aÃ§Ã£o
ric t
Ġm est
Ġl ord
Ġneed s
Ġencont re
Ġcer tain
Ġs n
Ġto get
Ġdev em
Ġreg iÃ£o
Ġgre en
Ġisra el
Ġnoss as
Ġtoget her
Ġim age
Ġendere Ã§o
Ġmet al
Ġg ol
Ġgu ard
Ġb en
l in
Ġj et
Ġanal y
Ġcomp are
ĠÃ ´
Ġeduc ation
Ġvia j
Ġcu id
Ġs Ã©ri
Ġstud ents
Ġhist ory
Ġten ha
Ġex pos
Ġpalav ras
Ġop portun
v o
Ġr at
Ġsu f
Ġexcel ente
Ġgr ad
Ġinc reas
Ġs qu
Ġcon fer
Ġsol ic
ow n
Ġs our
po int
ĠprÃ³xim o
if ica
Ġoc c
om a
ib a
Ġac ont
u c
Ġpr Ã©
Ġdesemp enho
Ġa pl
Ġmed ia
f ic
Ġn un
Ġv it
am in
itt ed
ÃŃn io
n ibus
Ġm Ã£o
is ing
Ġc resc
Ġbar cel
Ġsing le
Ġm b
us h
Ġvari ous
Ġital ian
l ines
Ġse a
Ġb a
Ġbuild ing
id or
Ġproc ed
Ġprot ection
as c
Ġde z
Ġam ar
Ġpodem os
Ġre pl
vi ous
Ġgrand es
Ġautom atic
Ġsu ites
Ġto ols
Ġel et
Ġaplic aÃ§Ã£o
Ġab r
Ġest im
Ġconstru Ã§Ã£o
ian Ã§a
Ġtip os
Ġ ÃŃn
Ġpolic y
y al
im os
Ġfr ont
et her
ĠÃ´ nibus
Ġd ue
Ġar r
Ġconf irm
Ġtrat amento
o ft
Ġt ou
Ġcl os
Ġa do
Ġm el
Ġus ado
Ġsegund a
od a
Ġvo o
Ġint rodu
Ġlond on
Ġscre en
Ġface book
on st
ĠÃ¡ reas
Ġarmaz en
Ġaddit ional
Ġgard en
if ul
Ġindustri al
Ġmulher es
Ġc idades
Ġbut ton
Ġl anÃ§
Ġc aixa
ÃŃ da
Ġpro p
Ġactiv ities
ure d
Ġmes es
Ġde als
Ġa verage
Ġfor a
Ġgl ass
Ġde g
Ġcon form
Ġfut ure
Ġconhec imento
Ġf ig
Ġutiliz aÃ§Ã£o
Ġpadr Ã£o
Ġgu ar
Ġas t
Ġcl ub
b ra
for d
Ġjo hn
ul ation
Ġest iver
Ġcan cel
il t
Ġdisposit ivo
Ġs le
Ġm ol
Ġrel ations
Ġz o
Ġsol uÃ§Ãµes
Ġcomm on
Ġatt ract
Ġs av
Ġe g
Ġconf id
Ġferrament as
Ġsab er
Ġn ut
Ġrap id
n o
Ġob rig
Ġm und
Ġsuc cess
Ġcommun ity
ig a
Ġind Ãºst
oc a
el as
Ġfich eiro
Ġsimil ar
Ġdist ribu
Ġproblem s
Ġpr est
at ors
Ġm i
Ġart igo
Ġelect ron
le o
if t
Ġcor por
Ġph ys
Ġfriend ly
Ġcompart ilh
Ġst ruct
Ġf ic
ens Ã£o
Ġpart ners
s elf
olog ical
Ġknow n
Ġtele f
Ġaccommod ation
Ġpr in
Ġbec ome
Ġl abor
Ġmemb ros
Ġpart s
Ġsp ain
Ġir Ã¡
Ġpur ch
Ġe y
Ġco ver
Ġbarcel ona
j as
Ġobjet ivo
ac to
Ġsoc i
Ġo thers
Ġc ut
Ġf em
Ġess es
Ġm ight
Ġst op
Ġnave g
en os
Ġt iver
Ġw on
Ġfin ance
Ġsal a
ad amente
Ġh ig
ul as
Ġtick ets
Ġs am
Ġso f
Ġag re
Ġde ver
Ġwh ether
Ġth ink
Ġex tern
Ġsu g
Ġp in
Ġdisc uss
Ġw ood
Ġbeaut iful
Ġfoc us
Ġst ri
Ġa vi
Ġbl ue
Ã© rica
Ġtempor ada
Ġexpl ore
Ġc ot
Ġto ol
Ġag o
Ġj ard
Ġforn ecer
Ġcall ed
i eld
Ġsal e
Ġstr ateg
Ġh p
Ġh ab
Ġapart ments
Ġinst ru
Ġt as
og n
Ġestab lish
Ġpres ente
Ġtrain ing
Ġche g
id ge
Ġmemb ers
Ġm ember
ch e
Ġd ll
Ġj ud
Ġad ult
Ġnun ca
s h
Ġal to
Ġmonth s
Ġmet e
Ġcaf Ã©
ov o
Ġcomplet e
Ġigre ja
Ġinf o
Ġsu re
Ġgu ide
Ġperg unt
Ġb and
Ġex ig
is ed
Ġp ict
Ġac cept
Ġmaj or
Ġcer ca
Ġf ot
Ġevery thing
Ġcap az
Ġsh ip
Ġinn ov
Ġl ou
Ġc oun
Ġpart ner
Ġmin i
int es
Ġc and
Ġhist or
ill s
Ġb or
Ġc ra
an as
Ġl ake
Ġof ten
res pon
Ġprogram as
Ġch at
ÃŃ cios
Ġem ploy
Ġestr at
Ġd ate
Ġpropri edade
Ġt ag
ei as
Ġequip e
Ġsomet hing
Ġprote Ã§Ã£o
in ar
in te
Ġtechn ical
Ġag e
Ġpesso al
Ġsol uÃ§Ã£o
Ġsim pl
al u
Ġm iss
Ġres pe
Ġavalia Ã§Ã£o
iz ation
bo a
Ġin ov
Ġj ov
Ġv est
Ġex port
Ġc ities
d ing
Ġal iment
Ġcr it
a ff
Ġsem ana
r ados
iz ados
Ġartic le
Ġt anto
Ġw el
Ġb all
it ation
ific ation
Ġo portun
Ġun til
Ġpoint s
Ġrece ive
Ġp t
Ġe ur
Ġac ad
Ġev ol
ĠsÃ©ri e
Ġm oney
Ġmicros oft
ist ic
Ġadd ed
ĠmÃ¡ xim
Ġofer ta
is on
Ġcab e
Ġadap t
Ġaplic ativo
Ġfriend s
Ġres our
Ġtr y
Ġlib er
Ġmag n
Ġfi eld
Ġv en
Ġte ach
inh eiro
Ġapplic ations
Ġas pect
Ġm ist
Ġant i
Ġt ais
Ġf Ã©rias
Ġmin ist
i j
Ġvis Ã£o
Ġr uss
rib ut
Ġapart amento
re ase
Ġbe b
Ġreal ly
Ġestrat Ã©g
ador a
Ġto o
Ġallow s
Ġs ave
Ġcomp at
Ġconj unto
Ġpro por
Ġair lines
Ġlocaliz ado
Ġpequ eno
Ġbaix ar
Ġf all
es a
un a
Ġbot Ã£o
s el
Ġch u
Ġcoll ect
Ġa ug
ĠÃºltim a
Ġv end
Ġf arm
iv es
Ġl ater
Ġc Ã³d
Ġact ion
Ġper c
Ġeuro pa
Ġadequ ado
Ġre un
Ġvill a
Ġt el
Ġb ilh
ĠmÃ©d ia
Ġsub m
ul es
Ġpl ata
Ġc ele
Ġdirect ly
Ġh Ã³s
ber t
ĠhÃ³s ped
Ġt ela
Ġf ul
Ġex ch
Ã¡t icas
Ġexcell ent
Ġhav ing
Ġgu ia
Ġger m
Ġlis boa
Ġris k
Ġh id
o id
Ġliv ing
Ġprom ot
Ġev ents
Ġc it
Ġch ave
Ġcre ated
Ġfran cis
Ġl Ã¡
Ġlin ks
b ol
z er
Ġrel ax
Ġmar ca
Ġadicion ar
Ġacom od
x ico
anc ed
Ġh air
Ġconf ianÃ§a
Ġm adr
Ġh on
ur t
Ġpri or
Ġmilh Ãµes
Ġus b
Ġcult ural
Ġprom o
Ġdecl ar
Ġam az
et es
Ġm os
Ġwal k
ut a
Ġsegu intes
Ġquest ions
inh os
Ġciv il
Ġcons ul
Ġpel as
Ġess as
Ġab ove
Ġt ub
Ġmade ira
Ġpar cer
s ter
is es
im o
Ġinstal aÃ§Ã£o
Ġsol ution
oc ol
ward s
Ġa im
Ġeff ici
Ġlt d
at ory
Ġar te
Ġsp an
Ġmin ute
Ġfl o
Ġextens ion
Ġwe ight
Ġt able
Ġr ate
Ġcons ist
Ġdem onst
Ġhom ens
to p
Ġopt im
Ġcomp os
Ġco oper
b ack
Ġmun ic
id ores
Ġsaf ety
i entes
Ġev entos
Ġgovern ment
Ġappe ar
v ia
Ġmater iais
Ġs ess
Ġfl ash
Ġk itch
Ġu pon
c ome
Ġplay er
Ġmes ma
Ġcann ot
ol es
w ord
Ġt inha
is er
Ġsec ret
is o
av am
oun tain
Ġpat i
as es
el ine
ot a
Ġaddit ion
Ã© l
ÃŃ m
Ġenvi ar
Ġc um
Ġinter ior
ĠmÃºs ica
Ġmant er
Ġma xim
ĠcÃ© u
Ġconc ent
ÃŃt ulo
Ġdesign ed
er ing
Ġbeg in
Ġest as
Ġrequire d
Ġgiv en
Ġital y
Ã© rio
Ġvisit ar
Ġle ft
Ġprof iss
Ġcop y
Ġpre t
Ġalg o
Ġsu cess
Ġter m
Ġc ell
Ġstr ong
Ġh al
Ġchang es
d en
Ġm im
Ġro yal
Ġsim ple
ĠrÃ¡p ido
ission ais
Ġded ic
Ġst ra
y l
Ġv id
Ã³ veis
bo ard
u le
Ġw a
iv ed
ura is
Ã¡t ico
Ġaut o
Ġprof issionais
Ġrele v
ri pt
Ġest adia
Ġra z
Ġmadr id
Ġmaterial s
Ġens ure
Ġextens Ã£o
Ġfur ther
Ġex istem
Ġhosp ital
p Ã§Ã£o
Ġam Ã©rica
s ide
Ġal m
Ġfacil ities
Ġf eder
Ġnort e
ire d
ied ade
Ġl ei
g ed
m ing
Ġre ino
Ġex ib
Ġph one
Ġreg ular
Ġfo ot
z h
Ġest amos
Ġbrazil ian
Ġd inheiro
Ġin ÃŃcio
Ġpre vious
Ġsel f
Ġr ental
Ġcor r
Ġpes o
Ġf ly
Ġthere fore
Ġm ind
Ġdis s
e iros
Ġre vol
Ġfun ct
em a
Ġdev ido
Ġesc rit
Ġch in
l ight
Ġqu atro
Ġbaix o
Ġprofiss ional
Ġef ici
Ġfe ito
Ġpr ic
Ġcart Ã£o
Ġpe Ã§as
t ies
Ġescol her
bo x
Ġt end
Ġme an
ro u
Ġbo ard
Ġl ay
Ġin it
s ia
o que
il i
ĠhÃ³sped es
al ly
Ġcab o
ic ional
Ġus ados
ian a
ĠindÃºst ria
Ġesp ÃŃ
Ġmin im
Ġinc or
Ġcas as
Ġeduc aÃ§Ã£o
Ġpl us
Ġrem ain
oug ht
Ġapro xim
Ġm ig
Ġproc ura
Ġc el
Ġri ver
Ġris co
Ġdec id
Ġacess Ã³rios
Ġprivac y
Ġbran co
ab a
ip e
Ġprec ip
b i
if icaÃ§Ãµes
Ġper ce
Ġpa per
Ġjo in
Ġcomun icaÃ§Ã£o
Ġdesen vol
Ġmain tain
Ġat r
Ġadminist r
Ġb ad
Ġfun Ã§Ã£o
Ġcr oss
ist ics
po ol
Ġfinan cial
Ġprot ect
ĠÃºn ico
ir t
Ġcoz inha
Ġspe ak
Ġcont ribu
Ġmult i
Ġmak es
Ġ ill
Ġgroup s
Ġre ason
Ġcon h
Ġprogram s
Ġ idade
Ġimp act
Ġac qu
Ġter Ã¡
Ġl y
Ġest ilo
Ġcl im
Ġach ie
Ġplat form
u it
in ta
Ġtrad it
h ar
Ġv ar
Ġmill ion
Ġyou ng
Ġesp anha
Ġam ount
Ġcon ver
Ġinst rum
Ġb ur
Ġking dom
Ġro b
um p
s on
Ġf ant
g es
Ġch all
Ġp ais
ter y
Ġfe ed
Ġestud os
Ġl es
Ġcam inho
om as
Ġcor respon
Ġfa Ã§a
Ġinst itu
Ġsy n
Ġinclu i
Ġproxim idades
Ġac ima
Ġacom p
Ġplata form
Ġn ice
Ġal ong
Ġtar if
Ġjap an
Ġtyp es
Ġg anh
ch a
Ġban co
Ġeas ily
Ġm ec
Ġinc rease
Ġm l
Ġemb ora
Ġoff icial
Ġl iter
Ġbas ic
h i
y a
Ġgu er
Ġl av
Ġgr an
cl u
Ġf it
ro w
Ġpol it
ul ho
Ġdesco b
g em
Ġdist ance
Ġplan o
Ġf est
Ġstud ies
Ġb ir
iz a
Ġfil ho
Ġsty le
Ġparcer ia
Ġguar ante
Ġf ib
Ġfr es
Ġar ri
Ġo ce
iz ada
Ġnecess idades
Ġd ry
Ġph oto
Ġbath room
w h
Ġquant idade
Ġgo ing
Ġan Ãºn
ur ing
Ġc ode
Ġle ast
ĠprÃ³p rio
Ġaloj amento
Ġori ent
Ġmodel os
Ġreser ve
z es
ro l
ci e
Ġob tain
Ġal un
z z
Ġal mo
Ġat l
Ġofer ecer
Ġforn ece
Ġp ad
Ġbro ws
Ġp isc
Ġop Ã§Ã£o
Ġm ad
Ġpro pos
g ing
Ġv an
Ġmund ial
Ġwor ds
Ġu k
Ġro up
Ġreg ister
Ġext rem
Ġes qu
Ġtreat ment
it ect
Ġth er
Ġmo bil
Ġste p
Ġjun e
Ġdem and
or ks
Ġu lt
Ġnu v
Ġc ort
Ġm ountain
Ġcom ments
Ġcoll ection
Ġro d
Ġanim ais
Ġit Ã¡lia
in os
Ġim ag
Ġcre dit
Ġad m
Ġk n
Ġkitch en
Ġunivers idade
Ġclou d
ĠpÃºbl ico
Ġexch ange
e Ã§Ã£o
Ġh ou
Ġw ire
il ity
Ġcon ect
Ġfr ente
Ġsqu are
Ġst aff
Ġrent als
Ġbr ing
Ġsug gest
Ġautom at
Ġs en
l im
Ġfun ction
ual mente
Ġbed room
Ġger enci
Ġcomfort able
Ġro ck
Ġdiz er
ĠcÃ³d igo
im e
Ġsh o
Ġform at
Ġcomm er
Ġdou ble
Ġint ens
ph one
Ġd ro
ub ro
Ġfrancis co
Ġt ell
ith er
g s
et ic
Ġorgan izaÃ§Ã£o
it ude
Ġreserv ar
Ġapl icaÃ§Ãµes
Ġm ix
Ġw ish
un ta
Ġportugu ese
Ġexp edia
Ġp Ã©
Ġman ut
Ġspan ish
Ġm Ãªs
Ġcar ri
Ġrestaur ante
Ġl c
Ġprojet os
Ġad j
Ġmar c
Ġvol ta
Ġprivac idade
Ġda ily
Ġac r
ĠpÃ¡g inas
ĠÃ³ leo
Ġelect ric
oc ar
Ġad vert
Ġr ich
Ġd v
ilh as
Ġdisposit ivos
Ġa ra
Ġfr ench
Ġsom ente
Ġecon Ã´m
Ġpos ition
Ġjun t
Ġamer ica
Ġele g
Ġs ust
Ġcomp rom
Ġcus to
Ġconstru ction
Ġmens agem
ed a
av es
Ġc ul
Ġmelhor ar
Ġev alu
Ġbu ilt
Ġcru z
Ġjul ho
Ġat ra
ch es
Ġcont em
Ġcontin ue
Ġw ide
w a
Ġpo ol
Ġlo ad
Ġgru pos
iz aÃ§Ãµes
Ġhost els
Ġmanut enÃ§Ã£o
Ġf ÃŃs
Ġun ion
Ġm p
Ġel im
Ġport anto
Ġfe b
Ġlux ury
Ġam igos
Ġh our
ian o
Ġrec u
Ġpalav ra
Ġt u
Ġcomun idade
Ġmess age
Ġcal cul
Ġun ique
Ġsignific ant
Ġdim ens
Ġcaracter ÃŃsticas
Ġman h
ir es
Ġcas os
Ġgerm any
Ġre vel
Ġexp ected
Ġset t
at ura
Ġv ivo
Ġinclud es
Ġb ill
an ia
id ity
Ġnature za
Ġsa fe
Ġvari edade
Ġche gar
Ġsign ifica
oc ity
Ġcl a
Ġalgum a
gr ess
Ġcam a
Ġwh ole
om es
Ġp ages
Ġn ada
Ġval e
Ġf ish
Ġco isa
Ġapp le
Ġdifer ente
p ro
Ġped ido
en Ã§as
Ġhe av
ÃŃst ica
Ġstor age
Ġgovern o
ĠÃºn ica
Ġferrament a
Ġs ell
Ġh und
Ġatr Ã¡s
Ġpar que
Ġem erg
Ġtex to
im es
Ġent rar
Ġpag amento
ed ades
Ġfe ver
do or
is ar
Ġy et
Ġtravel ocity
Ġent rada
Ġcaus a
ĠrÃ¡p ida
Ġver m
Ġdev ices
Ġs ound
Ġrec ogn
Ġdiret amente
r ut
Ġsust ent
Ġn ar
Ġfl u
k y
Ġstr ength
Ġmar t
k i
Ġir m
Ġt an
Ã ±
Ġfl ow
Ġdevelop ed
Ã³ t
Ġdes af
b n
Ġest acion
Ġear th
Ġprodu z
Ġresult ado
Ġfut uro
Ġm and
Ġdis e
Ġse pt
Ġfr anÃ§a
Ġres posta
Ġposs ui
Ġdes k
Ġaccess ories
Ġtit le
et h
ul os
Ġupd ate
Ġprocess ing
Ġf ech
Ġf onte
Ġv aria
ing o
u ri
Ġc d
Ġvol ume
Ġapo io
Ġth us
Ġtrabalh ar
Ġsucess o
Ġtelef one
Ġhig her
Ġinter f
Ġter rit
Ġf ive
Ġrespon d
Ġv iv
v id
ist o
Ġcomm it
ĠprÃ³p ria
Ġeu a
Ġgarant ir
Ġal b
Ġpos it
Ġcho ice
Ġreal mente
Ġtradit ional
Ġlearn ing
Ġeconom ic
Ġimpro ve
Ġinst ant
Ġqu ase
Ġj ack
Ġperf il
Ã³ vel
Ġapart amentos
Ġdeta il
Ġm s
Ġresour ces
Ġp ul
Ġob t
Ġcap t
Ġport a
Ġbr it
Ġliv ro
Ġem bal
Ġef et
Ġd one
Ġag oda
Ġcrist o
b our
Ġfor Ã§a
Ġinclud ed
Ġsuppl y
il ha
Ġo k
Ġrecu per
sel ves
Ġc ores
Ġset embro
Ġjul y
Ġp as
Ġesp anh
Ġqu ad
Ġwest ern
n s
Ġh ong
Ġj ur
Ġutiliz ar
Ġac ab
h ouse
Ġsport s
Ġincl us
ur so
Ġna v
iv ely
ei os
Ġw ik
Ġcons ci
Ġconst ant
Ġl er
Ġban k
Ġproject s
Ġh arm
Ġexp ect
Ġk g
Ġcas ino
Ġdif fic
Ġav oid
Ġsk in
Ġespecial ly
Ġl od
ant ar
Ġdiffic ult
Ġaust ral
Ġconf ort
Ġconst itu
Ġhist Ã³r
Ġrapid amente
Ġorig in
Ġo d
Ġv ib
Ġmanag er
Ġu e
Ġg ot
ĠespÃŃ rito
Ġmeet ing
Ġportugu Ãªs
Ġproper ties
Ġc ic
Ġmete or
Ġsci ence
Ġvirt ual
Ġsuppl iers
Ġc Ã¢m
Ġin volv
Ġfil hos
ograf ia
Ġde ath
Ġencont ra
Ġh ous
Ġalc anÃ§
Ġrelations hip
Ġcar re
Ġinter pre
Ġinstall ation
Ġsoc iais
re dit
Ġbus ca
Ġm ission
Ġch ap
in i
ec ast
ÃŃ g
Ġtax a
ar k
Ġsoci ety
iv amente
Ġcom bo
h ib
Ġal i
ĠprÃ³ pri
Ġespec iais
Ġag rad
Ġsal es
Ġrece b
Ġsour ce
e o
u ar
Ġf ather
Ġent ire
Ġs ams
Ġtest e
os os
Ġacomp anh
Ġse ason
Ġsoc iedade
Ġn am
Ġav anÃ§
Ġelet r
Ġm c
Ġro le
Ġp ai
Ġle ia
Ġcas es
Ã¢n t
Ġopt ion
it amente
Ġcom um
Ġb ast
Ġcri aÃ§Ã£o
c y
Ġo x
g round
ho od
Ġess ential
Ġin icial
Ġpro va
ot es
Ġel as
Ġel em
Ġesc re
Ġdat ab
Ġcl aro
Ġexist e
ÃŃ du
Ġtom ar
Ġcon cept
Ġch ann
ug ht
Ġsol d
Ġd re
Ġr an
Ġtr ade
oc h
Ġequip amento
Ġpl astic
Ġb ang
Ġbe h
at amente
Ġco ff
Ġban ho
Ġpel e
Ġtou ch
am ental
Ġsatis f
Ġjard im
u ary
Ġb Ã¡s
w ood
Ġm ech
Ġtorn ar
Ġt ÃŃtulo
ec a
Ġins c
Ġstat us
et te
Ġform aÃ§Ã£o
w ire
Ġa Ã§Ã£o
Ġart igos
Ġd ol
Ġpron unci
Ġd uraÃ§Ã£o
ou ra
Ġvid ro
Ġat enÃ§Ã£o
Ġcomplet amente
l ig
Ġcomp ra
Ġactiv ity
Ġcons equ
Ġsol ar
Ġen f
od os
Ġra il
Ġpay ment
is l
Ġcommunic ation
Ġsept ember
Ġalem anha
Ġthrough out
Ġref l
Ġfever eiro
ac o
Ġlog o
Ġgrad u
p ress
Ġmar ia
rib ution
c ast
Ġor b
Ġel Ã©t
Ġmed ical
Ġproc ur
Ġg b
Ġp ovo
Ġest at
Ġfacil mente
Ġpart es
Ġjun ho
Ġman age
Ġconf l
Ġforneced ores
Ġc ad
Ġk ong
Ġcur so
Ġarch itect
h ic
Ġro ut
es ar
Ġacad em
Ġfor ecast
Ġsu it
Ġitem s
Ġest ou
Ġoper ation
b all
Ġshop ping
c ost
Ġca use
Ġapr ender
Ġh t
Ġpl Ã¡st
Ġcol abor
er ia
ir am
Ġus d
Ġf air
Ġev id
Ġbl ood
Ġsuper f
Ġconfid ence
ec Ã§Ã£o
Ġsci ent
Ġdese j
ĠcomeÃ§ ar
Ġc ry
Ġefe ito
er am
Ġlo ja
Ġtak ing
Ġpric eline
Ġph ot
h ol
Ġcost a
Ġc os
Ġis o
Ġm ort
Ġdi am
az a
Ġsus tain
Ġinstru Ã§Ãµes
Ġh all
Ġequip amentos
Ġs ap
Ġh am
Ġrequire ments
Ġcam era
n y
en ing
Ġrat io
Ġpropri edades
Ġl oss
Ġjog ar
Ġvol tar
ant ic
Ġsams ung
f o
r Ã¡f
or ial
te is
Ġm ount
Ġvill age
Ġjet cost
Ġmet ros
Ġpropor cion
Ġver de
ĠÃ³ tim
Ġse jam
Ġpequ ena
Ġdat as
Ġmanufactur er
Ġtr ue
if i
Ġaqu eles
Ġl ÃŃn
Ġen volv
Ġpe ace
Ġen ough
ill a
Ġcat al
Ġd ress
Ġshow s
Ġlevel s
Ġcresc imento
Ġpergunt as
n es
Ġtrad uÃ§Ã£o
Ġwel come
Ġmech an
Ġw arm
Ġfuncion Ã¡rios
Ġw ine
Ġr ar
Ġus es
Ġquick ly
Ġord em
Ġdes fr
Ġc ore
Ġr os
Ġbab y
ag ing
Ġve hic
Ġev itar
Ġtur ismo
am ic
Ġalun os
Ġis t
Ġespecial mente
p ut
Ġcam e
Ġdocum entos
Ġefe itos
Ġestacion amento
Ġcin co
Ġrep rodu
um ento
Ġab ord
Ġcomplet o
Ġmar ch
Ã© d
Ġreserv ations
Ġcom es
Ġes for
ot t
ag a
Ġun idade
Ġint ell
Ġcabe Ã§a
Ġrec ent
Ġh ip
Ġrec over
Ġaf rica
or ias
as ed
Ġw id
v c
Ġcont ract
Ġimport antes
Ġtri b
Ġfl at
Ġra in
Ġim edi
Ġvol t
Ġb ater
Ġj er
Ġcorre ct
Ġfabric ante
Ġn ÃŃveis
encia is
Ġcons elho
Ġa leg
Ġappro ach
Ġsa ud
it ter
if est
Ãµ e
Ġpar ceiros
Ġemp re
Ġprof ile
Ġestrut ura
Ġdia gn
ĠnegÃ³ cio
Ġun ido
Ġcateg oria
Ġperfe ita
Ġmanh Ã£
Ġs anto
Ġv Ã£o
ece u
Ġaud io
Ġcl ar
Ġprocess os
Ġjour ney
m en
Ġco ord
ens ive
Ġfran k
Ġun it
Ġmodel s
Ġfeb ru
Ġhos ped
Ġm Ã£
ur go
Ġs now
Ġcult ura
Ġpro ud
Ġg all
ug e
Ġy es
Ġwas hing
Ġvari ety
Ġo h
Ġe at
Ġsol id
Ġpac ote
ĠlÃŃ der
Ġview s
Ġcult ure
Ġsab e
Ġfebru ary
en ess
Ġhot wire
Ġap ps
Ġcele br
os co
Ġnecess idade
Ġv ene
Ġform ato
Ġphys ical
og rÃ¡f
Ġcomm ission
Ġb ib
Ġcheap est
Ġm g
Ġpan el
f rica
Ġpa ul
Ġfa ith
Ġsum mer
m p
olog ies
Ġfil t
Ġp ath
Ġam ost
Ġdif ÃŃ
ac es
Ġsuf ici
a w
Ġact ive
Ġpropri et
g en
Ġc ade
Ġout ubro
Ġj os
Ġescol a
u ck
Ġc ai
Ġro und
h one
vis ion
Ġf ill
Ġs ection
Ġaug ust
ort h
Ġcar reg
Ġmar k
e iras
f l
Ġex ce
Ġbl ow
Ġsitu aÃ§Ã£o
Ġintel ig
Ġjov ens
Ġro ute
Ġter ceiros
ĠÃ¡ frica
e za
Ġan terior
Ġrom a
Ġcoff ee
Ġcam inh
Ġdeliver y
Ġas k
Ġprogr ess
Ġtotal mente
Ġanim al
Ġpre to
op s
ific ado
Ġcont Ã©m
Ġne igh
Ġacr oss
in ary
Ġs int
Ġcon ex
Ġsomet imes
Ġpisc ina
ar ian
Ġcol et
Ġfil ter
d le
u el
Ġj orn
Ġlis bon
Ġapr end
Ġrelacion ados
Ġcom issÃ£o
Ġway s
Ġdes p
Ġter ce
Ġcapac ity
Ġci ent
Ġgr Ã¡f
Ġorg ulho
Ġgrow th
Ġinter esse
Ġans wer
on ia
Ġbl ock
Ġappl y
Ġrecon hec
ĠÃ ¢
Ġtak en
Ġv ig
Ġadv ant
Ġb ord
Ġrecomm ended
Ġwh e
Ġf Ã³r
Ġp il
Ġfor te
we et
inh as
Ġatt ack
Ġdocum ents
w ers
iz es
Ġreg ional
Ġavi Ã£o
Ġp az
Ġst ain
Ġalt ura
Ġt endo
Ġdesc rib
Ġadv anced
Ġen h
Ġdel es
r us
Ġs ix
land s
Ġmon te
enc ed
r ant
Ġquais quer
Ġing red
Ġnenhum a
d am
Ġm ÃŃn
Ġb anh
Ġge or
Ġass ess
Ġover view
ĠvÃŃde os
Ġconn ection
Ġpress ure
el er
Ġim per
ber g
Ġajud Ã¡
i qu
Ġcomplet ely
ut ar
Ġme us
Ġcond icion
Ġal th
Ġsom os
Ġd Ã¡
Ġt ut
Ġli k
ĠmÃ©d io
Ġr ome
Ġdo ct
if ique
ac a
Ġimpress Ã£o
end imento
Ġcateg ory
Ġdri ver
val ho
Ġoper ating
Ġcurrent ly
Ġp ec
Ġma x
ell a
Ġrespe ito
ĠÃº til
Ġunivers al
Ġcon vert
Ġro ta
ativ amente
Ġlux o
g on
Ġmod e
Ġcompar aÃ§Ã£o
Ġren ov
Ġcar ros
Ġtrans par
Ġtre in
Ġdess a
g an
Ġten ho
Ġpress Ã£o
v ent
Ġsegu inte
Ġfe z
Ġfavor ite
Ġhapp y
ed s
Ã³ m
Ġsel ected
Ġrefer Ãªncia
Ġpresid ente
as ons
Ġinter act
Ġgra ph
m es
Ġch em
Ġpoder ia
Ġmil it
Ġag ric
Ġrec ol
Ġalth ough
to ber
Ġintern acionais
Ġsex o
h an
Ġexp and
Ġmunic ip
c ing
ve z
vel mente
Ġval ores
Ġeffect s
Ġre duc
Ġser ia
Ġits elf
Ġmult ip
Ġle ve
Ġs ector
om et
Ġcon clus
j i
Ġw ed
Ġrespons ible
Ġt on
Ġdatab ase
Ġv os
Ġf ash
Ġv amos
Ġre in
Ġap esar
Ġpl ug
Ġpre oc
Ġid i
Ġenvironment al
Ġcal if
Ġopin iÃµes
i ance
Ġt are
Ã©t ica
at Ã³rios
Ġact ual
Ġst ory
Ġsem elh
Ġgarant ia
Ġsimpl y
Ġw ifi
Ġap ost
Ġpol y
i ans
Ġopportun ity
Ġpr Ã¡tica
ass e
Ġprev ent
Ġsegu ida
Ġassoci ated
Ġd ie
Ġentre ga
Ġleg isl
Ġstud io
Ġeffect ive
Ġpurpos e
Ġadj ust
Ġpar king
Ġposs o
Ġdez embro
Ġzo om
Ġcomm and
Ġur ban
Ġbl oc
Ġger man
Ġpack age
as ter
Ġr ua
Ġpract ice
if f
Ġagric ult
it ing
Ġver Ã£o
Ġdispon ibil
c r
Ġu t
Ġaut ocar
Ġinstall ed
v as
ok e
Ġtar de
Ġexer cis
ight s
Ġf m
Ġex terior
Ġbar b
Ġresort s
Ġarg ent
Ġt ours
iv ity
Ġiss ues
Ġf urn
Ġev ento
Ġvis ita
Ġplataform a
ra y
Ġch i
Ġlond res
at as
Ġb air
Ġro ll
Ġredu z
Ġfem in
Ġbl u
Ġmot her
Ġpos iÃ§Ã£o
Ġof icial
enci es
l os
Ġt i
Ġth ought
Ġg a
et as
Ġcab elo
Ġr ub
ĠmÃ©t odo
id ad
Ġtr an
Ġle ave
Ġoc tober
Ġmil es
Ã¢m et
Ġum idade
Ġper d
Ġdom in
Ġdocum ento
Ġd or
ess a
Ġun iÃ£o
Ġoper aÃ§Ã£o
Ġfash ion
Ġfr anc
Ġinstal aÃ§Ãµes
ÃŃd os
Ġr am
Ġfamil iar
Ġrece ived
bn b
Ġt ap
Ġl ower
Ġse em
Ġform ul
Ġair bnb
Ġth ing
Ġv ant
Ġexer c
Ġpurch ase
Ġdist rict
Ġbelie ve
iv idade
Ġhuman os
n al
Ġprem ium
Ġcan ada
Ġespa Ã§os
Ġyour self
Ġaument ar
Ġam ster
ke y
Ġhum idity
Ġis ol
Ġalmo Ã§o
Ġutiliz e
Ġlat est
ut h
Ġip hone
Ġf ine
Ġsurf ace
Ġv oss
Ġapresent a
ĠvocÃª s
Ġjan uary
Ġer ro
Ġjun to
Ġeurope ia
Ġdesenvol ver
Ġla unch
Ġlong er
Ġlim ited
Ġrealiz ar
Ġrespons Ã¡vel
Ġhab it
Ġv ent
Ġcan ad
Ġval id
Ġer ror
Ġf iz
Ġrad io
Ġregard ing
Ġespanh ol
Ġf ont
Ġcontinu ar
Ġat mos
e f
Ġb anc
Ġbrows er
Ġco ol
Ġtax as
Ġed if
Ġconcern ing
Ġrequ is
Ġsuperf ÃŃ
Ġthan ks
Ġful ly
Ġg or
Ġc up
Ġsett ings
Ġinterf ace
Ġe ither
Ġm orn
Ġv ict
Ġnov embro
Ġd orm
Ġrel Ã³g
Ġmin ube
Ġdec ember
Ġsegu ir
Ġang eles
ab ly
Ġpra zo
Ġs ong
ia ble
Ġpopular es
Ġtra ck
Ġsubst itu
Ã ¨
en ed
Ġma io
Ġcar bon
Ġconc ord
Ġaplic ativos
Ġac redit
Ġlas er
Ġpu erto
Ġsus p
Ġabs ol
Ġste ps
Ġred es
Ġpr os
olog ias
Ġcompanh ias
Ġd yn
Ġimm edi
Ġf ail
itt en
Ġtak es
Ġv em
Ġma iores
Ġorganiz ation
Ġdeg ree
Ġguer ra
Ġex plic
Ġjo Ã£o
Ġdescob rir
Ġres p
Ġmar Ã§o
Ġfun Ã§Ãµes
Ġarmazen amento
Ġcent enas
Ġfer ro
m l
ent a
Ġfil me
Ġab ility
Ġgre ater
Ġconh ecer
ic amente
Ġhor iz
ab ol
b io
Ġfund amental
Ġbud get
Ġd ial
Ġfor e
Ġalug ar
Ġa Ã§Ãµes
Ġmed ida
Ġpass o
ador as
Ã¡s s
Ġk o
Ġorb itz
Ġmo ve
Ġcost s
Ã ¶
Ġde pos
Ġbro ad
Ġens ino
Ġc able
rar y
Ġcomplet a
Ġcomp r
Ġcl ot
Ġativ idade
Ġdeix ar
s a
Ġset or
Ġautomat ically
Ġsay s
ĠÃŃn d
Ġupd ated
Ġcol om
Ġg ain
Ġinclu em
Ġdese ja
Ġob ras
Ġcand id
v ida
Ġmin er
Ġeff ort
Ġperc ent
Ġd Ãº
Ġcondu ct
Ġc av
Ġp ow
Ġv ic
re ds
Ġdem oc
Ġcontain s
Ġgeral mente
Ġin fer
Ġadv ent
ĠtÃ©cn icas
Ġmaxim um
Ġelim in
Ġprinc ÃŃp
Ġtal vez
Ġear ly
en n
Ġpati ents
Ġp ok
end s
ĠpolÃŃt icas
olÃ³g icas
Ġin ox
Ġtr ust
Ġfeder al
Ġd ub
Ġf ato
Ġpre visÃ£o
Ġm iam
Ġd rop
Ġult ra
Ġhund reds
Ġorig em
Ġstri p
ell ow
Ġins ide
Ġlig aÃ§Ã£o
Ġalm ost
Ġmat ch
Ġconsider ed
Ġpot ential
Ġpolit ical
Ġac id
Ġcli ent
ed o
Ġp m
Ġto ok
ĠmÃ£ e
ul g
Ġus ually
Ġpro b
Ġeng enh
um a
Ġso p
vi o
Ġc ub
ĠmÃ¡xim o
Ġfor est
Ġpor n
Ġadicion ais
Ġcoun cil
Ġstain less
Ġmed idas
Ġsp r
Ġchu va
am ing
Ġeletr Ã´n
Ġg ast
Ġelectron ic
Ġmiam i
Ġforneced or
Ġmunicip al
Ġl an
Ġfuncion amento
Ġcommer cial
k er
Ġgro und
Ġber lin
Ġmeas ure
Ġvac ation
Ġcontem por
Ġma int
Ġout side
Ġform as
Ġinterpre t
Ġc ant
Ġqu iser
ir ar
Ġser ve
Ġsitu ation
Ġl hes
Ã¢n cias
Ġav en
Ġhy d
Ġattract ions
Ġp int
Ġper t
Ġstruct ure
Ġs d
en ance
Ġconver ter
c ulo
Ġsegu ro
Ġmov imento
Ã³ri as
Ġpict ures
Ġpermit ir
Ġh ope
Ã¢n dia
qu ia
Ġresist Ãªncia
k en
Ġhe ar
Ġpres enÃ§a
Ġv ul
Ġdiv id
Ġstart ing
Ġaz ul
Ġass eg
Ġa w
Ġco ast
Ġprocess es
Ġvide os
um o
Ġagre ement
Ġg ama
ec em
Ġdo or
ci pl
Ġquest Ã£o
ol o
Ġr ates
Ã¢ mer
Ġpass ar
ativ es
Ġalugu er
Ġveget arian
Ġpreoc up
Ġa x
Ġv ila
Ġnot ÃŃ
ous and
Ġmemb ro
Ġflo or
Ġsu ite
ens a
Ġcri anÃ§a
Ġhav ia
Ġth ousand
Ġcons erv
Ġfun do
Ġver ificar
Ġsec ure
Ġpresent ed
abil idades
Ġread y
Ġpequ enas
f ield
Ġe th
Ġm orte
Ġc Ã¢mer
Ġal gu
Ġcons ent
Ġa umento
cia is
Ġent r
Ġedit ion
olÃ³g ica
Ġincor por
Ġper u
Ġl ap
Ġtechn ologies
Ġsw itch
Ġth in
Ġf oto
Ġautomatic amente
Ġabr il
is ion
ri Ã§Ã£o
Ġmes a
Ġref rig
Ġcust os
Ġrece be
ĠtÃ©cn ica
um b
Ġcorre t
i ado
Ġv isto
pon line
Ġtri ponline
Ġaj ust
post as
Ġconte xt
Ġpar ede
Ġdra w
Ġtick et
Ġmaint enance
Ġl ost
Ġfor ce
Ã¡l ogo
Ġmens agens
Ġd ura
Ġv as
ri f
Ġch ic
ful ly
Ġalgu Ã©m
Ġgu id
Ġapr il
Ġesper ado
Ġre b
Ġfal ar
Ġgol f
Ġrefrig er
Ġw arn
Ġneed ed
Ġn esse
Ġoc or
at t
Ġk ar
Ġfact ory
ang er
Ġil ha
ia go
Ġpor Ã©m
Ġad s
Ġol hos
Ġmultip le
Ġen ab
er ta
aliz aÃ§Ã£o
Ġatual mente
Ġcomer cial
ot el
Ġremo ve
Ġoportun idade
Ġag osto
Ġdest ru
Ġde w
Ġdi ante
Ġun s
Ġnov ember
Ġconsum o
Ġmid dle
ict ion
Ġs or
ag ue
Ġb orn
qu i
ĠÃºltim os
Ġwon der
Ġb ic
Ġle is
Ġpass ado
Ġlin has
Ġl ength
Ġd c
Ġcomp rim
Ġd ubl
Ġmethod s
at ure
Ġpers pect
Ġcompet it
c an
Ġs ter
Ġmar ri
Ġrep ubl
Ġal imentos
Ġout door
y ch
Ġapro ve
Ġdam age
Ġstart ed
pr ise
Ġk ill
Ġass in
Ġm ir
Ġsearch es
Ġmem ory
Ġcompartilh ar
elh os
Ġtar get
Ġplay ers
Ġrem ember
Ġhal f
Ġselecion e
Ġpain el
Ġpal ace
Ġevery one
Ġproc urar
Ġcour t
Ġdisc ount
Ġartic les
Ġclass e
Ġdar k
Ġfal ta
i Ã§a
Ġa lex
Ġmen or
Ġequip ped
Ġre gr
enh am
Ġeconom ia
Ġ rig
Ġc ath
Ġso on
Ġpurpos es
Ġexper iment
Ġsent ido
Ġsimples mente
Ġat ing
Ġpar l
Ġoffer ing
Ġopin iÃ£o
Ġr ules
Ġw rit
Ġob ra
Ġinst ruct
Ġdr ug
Ġbenef its
ĠmÃ¡qu inas
Ġj ew
Ġnov amente
anc y
Ġple as
Ġhol y
Ġcount y
Ġrefer ence
Ġdig it
Ġpar ece
Ġch ance
Ġsel ection
ar em
Ġl ad
Ġmorn ing
Ġm ys
Ã© ria
ĠÃ¡ r
Ġs s
Ġf ight
Ġbr in
Ġfeat ure
Ġwee ks
Ġqu il
r g
r ico
Ġt un
Ġit ens
Ġsitu ado
Ġbib li
Ġped ro
Ġl g
id Ã¡vel
Ġrec entes
Ã¢n ia
Ġb out
Ġdur ation
Ġjo b
c on
Ġp ick
Ġb ols
Ġpr atos
Ã© n
Ġkm h
Ġpubl ished
Ġwr itten
Ġol h
Ġappro pri
Ġk it
Ġte ve
Ġprocess amento
ion e
Ġfun cional
Ġins er
Ġpar am
Ġnum er
ograph y
Ġo t
Ġes port
Ġquest Ãµes
Ġassoc iaÃ§Ã£o
Ġpc s
Ġver t
Ġper da
Ġprov in
Ġwom an
Ġch amp
Ġmud anÃ§a
Ġc c
in Ã¡ria
Ġfor um
ĠprÃ³xim a
Ġanaly t
Ġpart ies
Ġserv idor
Ġd esse
Ġl it
Ġuse ful
Ġhard ware
Ġpi ece
Ġdv d
Ġor valho
Ġnas c
Ġrespon der
Ġconform e
Ġs ang
Ġval ley
Ġcombo io
Ġcondicion ado
Ġp on
Ġg h
Ġpresid ent
Ġl ack
Ġrep air
ÃŃc ulo
Ġrespon se
Ġfl ux
Ġposs ibil
Ġ iv
Ġed iÃ§Ã£o
ia bil
Ġz ona
Ġgra Ã§as
Ġautocar ro
Ġtarif as
Ġn est
Ġpart ida
Ġlo jas
Ġcur r
ĠanÃºn cios
Ġl ag
Ġrel atÃ³rio
Ġlist ed
Ġcompon entes
Ġocc ur
Ġaustral ia
ei x
Ġnot hing
Ġinox idÃ¡vel
Ġdest ino
Ġmanual s
ou th
Ġsem anas
Ġinde x
Ġfaz em
Ġsub sc
ĠdifÃŃ cil
Ġj antar
Ġsk ills
Ġre asons
Ġpra y
Ġide as
Ġse en
Ġfam ous
Ġhigh ly
Ġcent ury
Ġpac ientes
Ġp ena
Ġfe ita
Ġcal end
Ġcar r
Ġbaix a
Ã¡ b
Ġhe at
Ġsa iba
Ġmat ter
Ġlev ar
Ġimp acto
Ġexpl ain
Ġhand s
Ġrespons abilidade
Ġblow ing
Ġmar av
ÃŃ a
Ġide ia
Ġtele visÃ£o
Ġv ou
Ġqu inta
Ã³s ito
or ar
Ġab ert
Ġassist Ãªncia
Ġliv es
Ġrem ote
Ġengine ering
Ġprof und
Ġredu zir
Ġelem entos
Ġde le
Ġmem Ã³ria
ÃŃdu os
Ġd ut
gu as
Ã©d ito
ĠplÃ¡st ico
Ġestud antes
Ġo m
Ġarqu it
Ġpl aza
Ġmach in
Ġou ro
Ġmom ent
Ġbat tery
Ġj ose
Ġposs u
Ġutiliz ador
Ġpop ulaÃ§Ã£o
Ġfaz endo
Ġdistribu iÃ§Ã£o
Ġalter aÃ§Ãµes
Ġwashing ton
Ġd icas
Ġcomp ort
Ġlead ers
Ġtransl ation
Ġalugu Ã©is
Ġchall eng
Ġb ree
Ġconfig ur
Ġplane j
Ġsle e
Ġc od
Ġre quer
Ġhel ps
Ġlead ing
Ġf Ã©
Ġz e
Ġp iz
Ġv Ã¡l
Ġpop ulation
ĠmÃ©t odos
Ġp un
Ġans wers
Ġcompon ents
Ġnot ice
Ġchrist ian
Ġm r
Ġprovid ing
Ġperfe ito
Ġt ail
Ġnot a
Ġrepubl ic
Ġw ent
Ġr s
Ġsu ÃŃ
ast re
Ġc p
Ġinnov ation
Ġconsul te
Ġf amos
Ġinterest ed
y m
Ġthem selves
Ġdo ing
Ġsu je
Ġbr isa
Ġval ues
e ad
Ġapro v
Ġf oss
Ġqu ÃŃm
Ġcar pool
Ġjos Ã©
i el
Ġsp ot
ular es
Ġcorrespon d
Ġre i
Ġsur round
Ġil umin
Ġtorn a
Ġincreas ing
Ġamar ill
Ġrel aÃ§Ãµes
Ġappl ied
Ġsop ra
ell o
ak es
Ġex hib
Ġat h
Ġjog adores
Ġsp ring
ific ados
Ġbir th
Ġbast ante
Ġiss ue
Ġman ifest
Ġel ements
Ġmuse u
x i
Ġsex ual
Ġtour ism
k o
Ġwire less
Ġconfort Ã¡vel
ra ft
Ġc orte
Ġk ids
Ġeurope u
Ġ ign
Ġwebs ites
Ġestabel ec
Ġcol le
Ġneg oc
Ġcol d
Ġson y
ch ar
Ġass um
Ġb urn
Ġutiliz ado
Ġsuppl ier
b it
e y
Ġcr Ã©dito
Ġal um
Ġatt ention
Ġsle ep
Ġnaveg ador
Ġinte g
Ġdecis ion
zh ou
Ġembal agem
Ġb right
Ġpre d
Ġfre em
Ġat a
d os
Ġhistor ical
ĠsuperfÃŃ cie
i et
Ġcombin aÃ§Ã£o
Ġpr Ã¡ticas
Ġesp Ã©
Ġmost ra
Ġr are
Ġle it
Ġconfig ura
Ġgiv es
is ation
ha i
ost os
Ġart es
ru pt
Ġact ions
h y
Ġimp oss
Ġmed iter
Ġef ica
Ġoffer ed
Ġde ep
ed or
ĠÃ© p
Ġfabric antes
r at
ci es
Ġexper t
Ġex act
end ing
Ġoc orr
Ġrun ning
Ġey es
re ci
Ġh ill
Ġnuv ens
Ġy e
Ġsub s
Ġer am
Ġfore ign
c am
Ġconf i
Ġoce an
Ġargent ina
j u
Ġal ber
Ġbe ha
Ġinter v
Ġviaj antes
ol is
Ġcl in
Ã£ s
Ġcol ors
ĠhistÃ³r ico
Ġcomp ress
er ve
Ġger ais
Ġbair ro
Ġda vid
Ġg el
Ġfunct ions
Ġl ago
Ġcli ents
Ġtre m
Ġinit i
Ġbree ze
us a
Ġal ib
Ġbe ar
Ġc s
Ġredu ce
Ġc t
Ġb ah
Ġpres erv
Ġavail ability
Ġm Ã£os
er d
al d
Ġgir ls
Ġcre ation
ĠÃ¡ l
ĠfÃ¡ b
Ġabs or
Ġcarpool ing
Ġg ab
Ġtr uth
Ġsc en
Ġinc om
Ġci Ãªncia
Ġaud i
Ġcompanh ia
Ġrequis itos
Ġex am
Ġgir l
Ġmediter r
Ġp Ã³s
Ġassoci ation
ap s
Ġoc up
Ġfranc Ãªs
ay a
Ġbrin qu
Ġqu ente
Ã¡t icos
Ġret orn
Ġide a
Ġ ire
ed es
Ġer ros
f s
Ġl emb
Ġph en
Ġclass ificaÃ§Ã£o
Ġperg unta
Ġh un
Ġecon Ã³m
Ġth ough
Ġh ire
Ġex cept
Ġamster dam
Ġcon clu
Ġcomp ras
Ġgo al
Ġsuit able
m ine
Ġtecn ologias
Ġalter ar
Ġst ars
Ġalib aba
Ġexp ans
Ġtran qu
Ġencont r
Ġpres ence
Ġf ares
Ġback up
Ġappropri ate
or ed
Ġcom Ã©r
ut s
Ġconfig uraÃ§Ã£o
Ġamaz on
o b
om s
Ġass emb
w ide
Ġa ux
Ġimport Ã¢ncia
Ġtal k
Ġestablish ed
Ġrele ase
ĠlÃŃn gua
Ġp ous
gu es
Ġeste ja
Ġsc an
Ġprincipal mente
Ġas p
Ġgen e
Ġconn ected
Ġinov aÃ§Ã£o
Ġcla im
Ġser em
Ġhol d
Ġacomod aÃ§Ãµes
ĠfÃ¡b rica
p al
os as
Ġnormal mente
it ado
Ġdecis Ã£o
Ġvend as
Ġefici Ãªncia
Ġengenh aria
Ġchar ge
Ġsa w
Ġbout ique
Ġab ra
Ġev ang
Ġs Ã©c
Ġoper aÃ§Ãµes
Ġwin ter
Ġcreat ive
il ing
Ġm ur
Ġconex Ã£o
x ic
Ġsh irt
Ġmar cas
f as
f urt
Ġdire Ã§Ã£o
Ġencontrar Ã¡
Ġcuid ados
pl os
Ġcum pri
e es
il ton
Ġdo enÃ§a
Ġcompar ison
Ġast ron
Ġpromo Ã§Ãµes
Ġun idades
Ġcar ry
Ġreal idade
Ġdim in
Ġref ei
Ġh amb
Ã¢m ica
ete o
Ġclou ds
Ġcur ta
Ġdivers as
Ġbater ia
Ġd ates
Ġlim pe
Ġadicion ado
Ġsu d
ant a
te za
Ġmud anÃ§as
Ġship ping
Ġsufici ente
b ers
Ġbar ra
Ġspecific ations
ĠcomÃ©r cio
Ġv iver
Ġme xico
Ġdist ribution
Ġfreem eteo
Ġdise ase
ch o
Ġthan k
Ġcient ÃŃf
z y
Ġre form
Ġab st
Ġr f
itt ing
Ġclass ic
Ġorganiz aÃ§Ãµes
Ġmud ar
Ġespec ificaÃ§Ãµes
Ġoper ations
Ġdet ect
Ġmanufactur ers
Ġp Ã´
at ar
Ġcar ga
Ġger aÃ§Ã£o
Ġps ych
g i
el os
Ġstrateg y
Ġqu ite
Ġlin es
Ġbenef ÃŃcios
Ġes quer
Ġsens or
Ġab erto
Ġjog ador
Ġtw itter
Ġw orth
Ġcom ida
Ġwe ar
Ġfin s
Ġe tern
Ġr d
Ġhel d
Ġpack aging
Ġpre p
ĠÃºltim o
ĠfamÃŃl ias
Ġd ific
ĠpÃºbl ica
olÃ³g ico
Ġdub ai
Ġdubl in
cl es
Ġdepart ure
g in
an i
Ġnear by
Ġopen ing
om b
Ġid eias
Ġpass word
Ġcal or
Ġprecis o
Ġeffici ency
il es
Ġir on
Ġneigh bor
i ente
Ġve gas
ri z
Ġbeaut y
Ġsing ap
Ġav ent
Ġk b
ĠsÃ©c ulo
Ġf us
Ġdivers os
Ġconfigura Ã§Ãµes
Ġconfer ence
Ġrom Ã¢nt
ĠprÃ³pri os
Ġsur ve
Ġfre ed
Ġdetal h
Ġdom ÃŃnio
Ã³ st
Ġregr as
ir amente
Ġfir m
Ã¢n eo
Ġplay a
Ġcom ment
Ġli qu
Ġnat al
Ġmest rado
or f
ac y
Ġper der
Ġhous es
Ġmov ement
Ġresid ence
Ġresol uÃ§Ã£o
Ġb es
Ġprodu ced
Ġvis ion
Ġmeas ures
Ġv indo
us al
Ġco ach
Ã´n ia
Ġrelacion adas
t own
Ġinst ead
Ġfest ival
id Ã£o
Ġex cess
Ġdes l
Ġav iso
Ġinv ent
Ġdispon ibilidade
c in
Ġis l
ud io
Ġstandard s
ul s
Ġclick ing
Ġexpos iÃ§Ã£o
Ġbegin ning
Ġcopy right
Ġdest es
Ġcham ado
Ġamb os
Ġsil ver
Ġwar rant
Ġarquit et
Ġscient ific
Ġpos itive
Ġv s
Ġprofessional s
Ġprecip itaÃ§Ã£o
Ġverm elho
Ġo tim
Ġcer to
Ġspr ings
on o
Ġst age
ub ra
Ġlog in
Ġmanu ais
Ġinsp ir
Ġd Ã©c
Ġadminist raÃ§Ã£o
Ġfr am
Ġart s
pa ign
mar k
ĠalcanÃ§ ar
Ġqu adr
Ġsy m
Ġwindo w
Ġed ge
Ġd h
Ġse qu
ve u
Ġcont as
Ġsant iago
x x
Ġt s
am ar
Ġaf ric
Ġfr ut
Ġcoll abor
Ġproper ly
et t
ĠcÃ¢mer a
Ġp vc
Ġconv id
Ġth reat
Ġpe Ã§a
Ġlib rary
Ġm issÃ£o
Ġem iss
ec es
Ġposs ibilidade
Ġworld wide
Ġm Ã³d
ber ry
Ġsa ÃŃda
Ġequ ival
Ġtrad u
Ġlc d
Ġch ain
Ġsent ir
Ġunderstand ing
Ġm Ã³veis
Ġdetail ed
Ġjour nal
Ġexperi ences
Ġsens e
Ġparticip aÃ§Ã£o
Ġcreat ing
Ġchem ical
Ġnat urais
Ġdirect or
ad s
Ġob st
he iros
Ġget ting
Ġexercis e
a ult
Ġregist ro
Ġbal ance
Ġl ingu
Ġv inho
Ġch Ã¡
Ġdesc ubra
Ġampl a
Ġat ribu
Ġconf orto
Ġwork ers
Ġprote ger
Ġha ver
Ġrad i
ĠestratÃ©g ia
Ġexc urs
Ġlink ed
Ġc n
Ġrec ente
Ġnecess Ã¡rios
Ġback ground
Ġado pt
Ġou v
g io
Ġg Ã¡s
Ġcomer ciais
Ġsel eÃ§Ã£o
Ġexperi Ãªncias
Ġinc r
Ġdom ain
Ġr y
Ġcam paign
Ġbec ame
Ġlat in
Ġposs am
Ġelect r
Ġpromo Ã§Ã£o
Ġvisit ors
Ġs ect
Ġbas is
Ġlar gest
Ġliber dade
in er
Ġs pl
Ġcam pos
ĠÃŃnd ice
Ġhim self
ĠÃºltim as
ĠmÃ© xico
Ġet ap
Ġa k
Ġm ente
Ġv ag
ch ester
Ġphil ips
ÃŃ culos
Ġdes enh
ish ing
Ġcr ÃŃt
Ġpesqu isas
Ġimpro v
Ġintell ig
Ġa ward
Ġcon g
Ġind ia
Ġbar ato
Ġinf ra
Ġtec ido
Ġf io
Ġtem pos
Ġte u
Ġgood s
Ġcoloc ar
Ġtag s
Ġfit ness
st on
Ġaliment aÃ§Ã£o
w ise
Ġb m
Ġchin ese
Ġrefl ect
Ġimedi atamente
Ġne ve
Ġtra ff
Ġbeha vi
Ġemploy ees
Ġf is
ug g
Ġimp r
Ġwh ose
Ġdi rig
Ġfuncion a
ific ada
Ġsc ript
Ġm ental
ĠÃº teis
r an
r ate
ute bol
Ġpat tern
Ġal umin
Ġmet ro
Ġpequ enos
Ġesc ala
Ġdesfr utar
Ġprovin ce
Ġlimpe za
b ro
Ġrep ar
Ġfi el
Ġmot iv
Ġcateg ories
Ġlist ing
Ġdoes n
Ġf utebol
Ġraz Ã£o
Ġs r
al ha
Ġaf et
Ġcl ima
Ġace it
Ġpronunci ation
Ġbe y
Ġimmedi ately
Ġc en
Ġte a
Ġcontr ato
i i
Ġpolic ies
Ġinvestig aÃ§Ã£o
Ġa u
Ġprogram me
Ġdefin it
az er
Ġtest es
Ġtorn ou
Ġwr ite
Ġd s
Ġb ri
om in
Ġj a
Ġmil an
Ġtent ar
ĠnotÃŃ cias
Ġair es
Ġinvest ment
Ġcol e
Ġbot t
Ġdom ingo
Ġestrel a
Ġmed i
Ġnecess Ã¡ria
Ġextern al
Ġrail way
Ġre ve
ok ing
ide z
Ġshow er
Ġsalv ador
Ġfrank furt
Ġl em
Ġl ider
Ġport al
Ġpal m
let t
Ġmess ages
Ġescrit Ã³rio
Ġb ak
Ġcont rib
Ġfound ation
Ġnav ig
Ġdre am
Ġm t
Ġcar ds
Ġvis a
Ġse Ã§Ã£o
Ġenc om
anc ing
Ġgener ation
Ġpower ful
Ġbeh ind
Ġest avam
Ġam ea
Ġcri ado
Ġbeg an
Ġsome one
Ġescol h
Ġs ample
m ore
st al
Ġsw im
Ġcarri ed
Ġde ad
Ġany thing
Ġcer teza
Ġincreas ed
Ġexper im
Ġpriv ado
Ġs ort
du ra
Ġbo as
Ġmod er
Ġset ting
Ġprot ocol
Ġrecover y
Ġdan os
Ġemp reg
Ġlong e
Ġview ed
Ġedit or
ĠÃ¡r v
Ġw ars
Ġcl ÃŃn
Ġpass agem
ari amente
Ġdi et
Ġutiliz ando
Ġapro pri
b ul
Ġdepend ing
Ã© st
Ġel abor
Ġbu enos
Ġsegund os
Ġelectron ics
oles c
re u
Ġdess es
Ġshar ed
Ġread ing
Ġcomb ust
Ġalum ÃŃnio
Ġcom ing
Ġrec ently
Ġfilm es
Ã§ ar
Ġk il
Ġimpress ion
Ġm ÃŃd
Ġvo z
Ġpot encial
Ġsh ang
Ġsk i
Ġposs ÃŃveis
Ġrepl ac
Ġinvolv ed
Ġc idad
um es
ost a
Ġcar s
Ġag ree
Ġtra z
Ġeur os
Ġprofess or
Ġrecomend aÃ§Ãµes
u aÃ§Ã£o
en ha
Ġh r
Ġam igo
Ġon es
Ġst ress
Ġcan al
Ġsuf fer
Ġs und
Ġinter m
Ã¡ til
ĠmÃ©d ico
Ġrep Ãºbl
Ġdest ac
Ġshow n
Ġappro xim
Ġguarante e
Ġs ar
Ġplan ning
Ġintegr ated
Ġclass es
Ġapresent ar
Ġc f
Ġm ention
Ġw ild
Ġad olesc
Ġinstal ar
Ġtransfer Ãªncia
Ġun its
Ġpass age
Ġcateg orias
u o
x to
Ġp ic
Ġfor tal
Ġhigh light
Ġmass a
Ġprocur ando
Ġmachin ery
Ġt Ã³p
ÃŃst icos
wh ere
Ġvo ice
Ġal p
Ġpass os
Ġact ually
Ġfeed back
Ġarchitect ure
d es
h old
z u
Ġintern al
Ġpadr Ãµes
Ġgerenci amento
Ġp p
Ġg ent
Ġco bert
Ġic on
Ġb il
am o
Ġprote g
Ġer r
Ġlod ge
n et
Ġcic lo
Ġcancel on
Ġint eiro
Ġrom antic
Ġconsum ption
Ġan unci
Ġdifer enÃ§a
Ġrelev ant
Ġse at
Ġplay ing
Ġto wards
Ġr ural
Ġreport s
Ġt iv
al o
Ġtrad icional
ĠrepÃºbl ica
Ġt ree
ree k
Ġpou cos
Ġcit iz
r itos
Ġsy d
Ġsch ed
Ġenter prise
Ġ rib
Ġmod a
Ġaproxim adamente
Ġro do
Ġredu Ã§Ã£o
Ġill ust
Ġanim als
Ġg i
Ġsur g
Ġfunct ional
Ġr ather
Ġad icional
Ġtra il
Ġpict ure
Ã© cia
Ġcri min
Ġgratu itamente
Ġci Ãªncias
Ġfres h
p ass
Ġambi ental
Ġviaj ar
Ġin qu
Ġcompar ed
Ġalem Ã£o
ter iores
Ġdem ais
Ġmarav ilh
Ġhum ano
Ġconhec ido
Ġinstruct ions
Ġh abilidades
Ġdes port
Ġhe w
Ġresist ance
Ġt ens
Ġquad ro
ci ples
Ġenc oura
Ġup gr
Ġvisual izaÃ§Ã£o
Ã¢n ica
Ġb io
Ġreal ity
Ġstud ent
Ġident ify
Ġpract ices
Ġcondition ing
Ġdific ul
Ġc res
an ca
Ġl oun
Ġto wer
Ġk y
Ġres umo
s hip
is Ã£o
Ġparticip ar
Ġas ked
Ġsant os
Ġtor onto
Ġcul inÃ¡ria
Ġv in
Ã¡ cia
Ġcons ol
Ġlangu ages
ĠcomeÃ§ ou
Ġchic ago
Ġf ase
Ġencont ro
Ġlar g
Ġann oun
Ġspirit ual
ma il
Ġedit ar
Ġsecond s
i en
Ġpo or
Ġjan ela
Ġreserv ation
Ġpack ard
Ġfact ors
Ġcertific ate
Ġguard a
Ġup per
Ġquer o
iz ing
Ġm Ã³vel
iz adas
Ġimport ance
Ġin vern
Ġg ift
Ġpre ench
Ġlong a
it ure
Ġse is
Ġii i
Ġp ure
Ġext re
Ġminim um
ag en
Ġacomod aÃ§Ã£o
Ġd il
an os
d as
Ġp ud
Ġt ua
Ġant on
Ġhigh est
Ġa Ã§
Ġl Ã¢m
Ġad or
ous ly
Ġdestin ation
Ġaccommod ations
Ġraz Ãµes
Ġcl ic
ĠrÃ¡ dio
Ġb ul
te ase
Ġz ip
Ġgold en
Ġtermin al
Ġteach ing
Ġexist ing
Ġdeix e
Ġjorn al
en na
Ġaqu ele
Ġmal e
Ġdepart ment
Ġvehic le
Ġstrip tease
Ġentre v
Ġtrad ing
Ġmarket s
Ġbat tle
Ã£ es
Ġse ven
Ġjer usal
Ġsu ger
anh as
Ġtip s
Ã´m et
Ġrevol ution
Ġgall ery
Ġpar ad
Ġy ellow
Ġch ile
Ġcont acto
Ġmet ers
Ġmilit ary
Ġwal king
Ġchann el
Ġsyd ney
Ġcan ais
Ġtem a
Ġconte xto
ĠcÃ© l
k now
Ġor l
vi e
d ades
ÃŃd as
Ġfall s
Ġcorret amente
Ġn ingu
ie f
Ġcanad Ã¡
Ġdepos it
Ġcuid ado
Ġachie ve
Ġningu Ã©m
Ġadult os
Ġinstitu iÃ§Ãµes
Ġpropriet Ã¡rio
u k
Ġn acionais
em pt
Ġsol o
ro g
Ġsa o
Ġdiv ert
Ġtransm it
Ġprecip itation
Ġext ract
Ġl id
Ġent ender
Ġenf rent
Ġamost ra
Ġs ag
Ġl if
Ġro l
Ġlu c
Ġindividual s
Ġyou th
Ġpan or
Ġn ord
Ġcont ents
og ue
r Ã³
Ġpesqu is
Ġparticip antes
Ġtab ela
v idas
Ġlin ux
Ġdiffer ence
Ġflux o
Ġpar Ã¢met
Ġbel eza
Ġjust iÃ§a
Ġhew lett
h op
Ġb od
Ġaf irm
Ġfat ores
Ġfr uit
ap es
Ġcl Ã¡ss
Ġsc ale
Ġre act
Ġpi eces
Ġdes per
Ġform s
Ġprim eiros
b urgo
Ġey e
Ġdesk top
d r
ens es
Ġresol ution
Ġfamil ies
Ġinit ial
Ġinclus ive
Ġvul ner
Ġf ing
Ġv il
Ġant ig
Ġfinal ly
Ġcalif orn
Ġfont es
ĠÃ©p oca
vi Ã¡ria
Ã¢n ea
Ġadvant age
Ġs ain
al ing
Ġla ws
Ġdel ici
Ġequ il
Ġportug ues
Ġdecor aÃ§Ã£o
Ġexec uÃ§Ã£o
Ġalugu el
Ġinf ant
Ġedif ÃŃcio
Ġdri vers
Ġmach ines
Ġoportun idades
n ia
Ġcom od
ect ual
Ġx p
Ġrequ ires
Ġcome Ã§a
Ġapresent aÃ§Ã£o
Ġs ÃŃ
Ġre for
Ġconc re
Ġfel iz
Ġsang ue
Ġ ice
Ġdo enÃ§as
ag ed
Ġun to
Ã©t ico
Ġobjet ivos
Ġrecommend ations
m al
Ġa h
Ġsp read
Ġmes mos
Ġatual izaÃ§Ã£o
Ġm old
Ġcham ada
Ġjap Ã£o
er land
Ġst one
Ġtrabalh os
Ġas ia
ak a
Ġconst it
Ġinstit ute
Ġinstit utions
Ġep is
Ġc oc
Ġc ima
Ġl en
Ġac er
Ġcy cle
Ġprint ing
Ġbibli ot
ĠtÃ©cn icos
Ġconform idade
w orks
Ġv Ãª
f ol
Ġal co
st e
Ġagrad Ã¡vel
Ġp aint
est ic
oun ds
Ġganh ar
Ġfreed om
Ġutiliz ados
Ġr as
Ġch ron
Ġag r
Ġpres entes
Ġbro ch
Ġeconom y
Ġrev est
Ġprodu ce
Ġplac a
Ġlib ert
de u
Ġoc id
Ġefica z
Ġl ate
Ġobject ive
Ġdin ing
ĠrelÃ³g io
Ġbey ond
on om
ed os
Ġinc id
Ġrespons ibility
p n
os ter
Ġw at
Ġor Ã§
he ad
Ġformul Ã¡rio
ur b
un e
Ġdis cipl
Ġn ames
Ġlim a
Ġtravel ers
Ġfor ward
ĠpÃºbl icos
Ġloc ations
Ġaust r
Ġdedic ated
Ġinsc re
Ġg ate
Ġant ec
Ġmen cion
Ġsat ell
Ġib is
Ġeffici ent
f re
Ġm erg
Ġsu its
Ġtab let
Ġcont ÃŃn
Ġsalv ar
Ġmonitor ing
Ġopportun ities
Ġilumin aÃ§Ã£o
ar do
ic let
un es
Ġpass eng
Ġjo int
Ġsupport s
Ġcontr Ã¡rio
Ġdisp Ãµe
Ġmec an
k ok
Ġh en
Ġjapan ese
Ġterce iro
Ġtrein amento
i ados
Ġr ing
is so
og a
Ġpermit em
m ento
Ġde u
Ġto que
Ġm Ãº
Ġat ac
Ġx box
g os
Ġs ed
Ġbe ij
Ãºn cia
Ġestabel ecimento
b t
Ġrep et
Ġd ens
Ġof ic
Ġcon osco
Ġser ious
Ġbr idge
ĠmÃ¡xim a
ol ic
Ġve ÃŃculos
Ġsum m
Ġl uta
Ġr ating
ĠÃ¡ udio
o y
Ġinter view
Ġcoment Ã¡rio
Ġhapp ens
Ġfu el
Ġprecis Ã£o
Ġpesqu isar
Ġwarn ing
Ġcolle ge
Ġp av
Ġp ix
Ġm ut
Ġg ave
Ġcol eÃ§Ã£o
Ġcharacter istics
Ġsolic itar
Ġroup a
Ġdirect ion
Ġgra Ã§a
Ġz ero
Ġps ic
Ġgiv ing
Ġconveni ent
Ġbr ux
Ġcol um
Ġisland s
Ġoferec emos
Ġus ada
Ġadvert ising
Ġinstal ado
Ġapplic able
Ġcast le
Ġwas te
n i
am m
Ġdist ribut
Ġhor Ã¡rio
Ġconce ito
Ġorl ando
b u
Ġc ach
or me
Ġst ick
Ġkey word
Ġf if
ir Ã¡
Ġcol on
Ġruss ia
Ġwhe el
Ġplan et
Ġexclus ive
Ġaff ect
i ques
Ġcan on
Ġj ac
Ġmil Ã£o
Ġbilh etes
Ġo ra
Ġsu pl
Ġou vir
Ġnum bers
Ġrecom enda
unt os
Ġcheg ada
c ks
Ġencont rados
Ġess encial
Ġcomprim ento
el ess
Ġv ot
Ġcir cul
Ġp eix
Ġm eios
Ġrec ip
Ġset e
Ġorganiz ations
es is
os h
Ġmar ina
Ġatual izar
Ġcin ema
Ġdever Ã¡
Ġvit am
q l
Ġe arn
Ġbu ff
Ġcaliforn ia
ra p
Ġestr ada
Ġfram ew
at i
Ġh u
ur ance
Ġest ate
Ġcan c
Ġter ror
Ġcompl ement
Ġruss ian
Ġo em
Ġv Ã¡
Ġfavor itos
Ġgal ax
Ġar c
Ġhom es
Ġdro ps
Ġsustain able
Ġex amin
Ġport as
Ġprom over
Ġmar y
Ġcap e
Ġsal t
Ġtele vision
Ãºs sia
Ġrar os
Ġa us
Ġto y
Ġto ld
em un
Ġam en
Ġrel iable
Ġident ificar
Ġsitu ated
Ġmerc ados
Ġpet er
Ġprep are
l ers
r is
ard s
n am
Ġg osto
Ġcolom bia
f in
Ġk h
Ġve ÃŃculo
Ġsat ur
Ġado be
en ge
Ġr h
Ġma ps
Ġoc as
Ġref let
Ġrout es
Ġclic ando
Ġimplement ation
Ġmean ing
Ġdoct or
p i
Ġd out
Ġal one
Ġesp irit
Ġcas al
bl es
Ġvisit antes
al ity
Ġsh ut
Ġpoder Ã£o
Ã©ri os
Ġplay ed
Ġterra ce
Ġfoot ball
ĠfÃ³r um
ta il
Ġdevelop ing
Ġresol ver
Ġrecuper aÃ§Ã£o
p et
Ġgu ang
ĠmÃŃn imo
w an
Ġpart ilh
Ġaval iar
Ġenter tain
Ġconvers Ã£o
Ġroup as
Ġgra u
Ġother wise
Ġcomer ci
Ġp Ã³
Ġv ont
Ġtr ata
Ġna Ã§Ãµes
b ar
el le
Ġel ement
Ġhum ana
Ġtem pl
Ġtrabalh adores
ĠnÃºmer os
Ġtransm issÃ£o
Ġwarrant y
Ġapproxim ately
j os
r ated
Ġqu iet
Ġcor rig
ĠlÃŃ qu
Ġrealiz ado
Ġhealth y
Ġremo ver
Ġpiz za
Ġm is
ic l
ay s
Ġmod os
Ġbl o
Ġbro ught
Ġnetw orks
Ġdescrib ed
Ġf aro
Ġch air
Ġtour ist
Ġclean ing
Ġabord agem
p an
pl a
Ġspec ies
Ġallow ed
Ġchalleng es
al idade
Ġn y
Ġcompet itive
Ġalt amente
Ġgost aria
Ġloun ge
Ġn ations
Ġex clu
Ġdi pl
Ġprecis am
Ġvisual izaÃ§Ãµes
Ġblu eto
Ġfacil it
Ġinstit uto
Ġbang kok
Ġreg iÃµes
Ġmo on
Ġclim ate
r ando
Ġt at
Ġb ou
plo ad
Ġtro p
Ġshang hai
est rut
Ġle va
Ġblueto oth
ol as
Ġat ender
Ġespecial istas
Ġinnov ative
t ube
Ġarri val
Ġmin has
Ġscho ols
Ġlic ense
Ġcel ular
Ġmeteor olÃ³gicas
Ġinfer ior
Ġdimin u
ec om
Ġpl ants
ĠconteÃº dos
ĠÃŃn dia
Ġpartners hip
Ġbrinqu edos
v an
Ġperform ed
Ġtas k
Ġs inc
Ġo z
ro y
Ġl este
icion ais
Ġprom ote
Ġinvest imento
Ġgrow ing
Ġinici ar
Ġocc up
ĠfÃŃs ica
et ers
Ġac ol
Ġcomp act
Ġadv ance
Ġcom uns
Ġpre gn
Ã¢n ico
Ġsp ect
Ġgeor ge
ire ct
Ġbrit ish
Ġdol l
Ġo v
ÃŃ cia
Ġcur to
Ġmat Ã©ria
Ġbaix e
Ġneighbor hood
Ġvont ade
ÃŃn a
Ġil ust
os p
Ġas c
Ġshow ing
Ġbase ado
Ġdefin iÃ§Ã£o
Ġm all
Ġsou l
Ġlik ely
Ġpre val
Ġtor re
Ġb ell
Ġb ow
Ġque en
Ġtem ple
ĠmÃºs icas
he im
Ġcaus ed
l ets
Ġn omes
Ġlist en
Ġm ouse
it Ã¡rio
ind er
Ġaustr Ã¡lia
r ast
Ġcont agem
Ġadvent ure
Ġr ess
Ġk a
ud es
Ġcontro lo
Ġheav y
Ġinteg raÃ§Ã£o
Ġl ut
Ġen able
Ġrec urso
it ions
Ġcar los
Ġdesc on
Ġinc ent
ar io
Ġpr atic
Ġtest emun
Ġdo g
ade ira
Ġag encies
inh am
Ġtraff ic
Ã ł
Ġcond iÃ§Ã£o
Ġrealiz ada
Ġsil ic
Ġinterest ing
u ed
Ġsy mb
Ġvol unt
Ġcar ta
Ġatt empt
Ġsin al
ĠÃ¢ mb
Ã¡ n
Ġbr ilh
Ġint ended
Ġland sc
Ġopt ional
Ġlic enÃ§a
Ġcompat ÃŃvel
ĠeconÃ´m ico
Ġal ma
if ying
Ġbenef it
Ġcertific ado
Ġheav en
Ġe co
Ġh em
Ġma h
Ġch ocol
Ġequip a
Ġjo y
Ġsupport ed
Ġregul ation
Ġsatell ite
Ġm ich
is co
Ġh it
Ġred or
Ġident ificaÃ§Ã£o
Ġrelig ios
Ġaspect os
Ġcommit te
Ġcom plic
Ġfor Ã§as
Ġtrad icionais
Ġchar l
Ġcert amente
Ġfrequ Ãªncia
Ġf c
Ġfr iday
Ġsh ape
Ġchrist mas
Ġcombin ation
Ġacont ece
h ot
Ġs it
Ġr id
Ġquer em
Ġcrit ical
Ġbedroom s
Ġu pload
Ġem ir
Ġest arÃ¡
Ġcar ib
Ġmas cul
mar ks
Ġs uns
Ġinter c
ĠmÃ©d icos
p ers
Ġsa ir
ph ere
Ġconv enc
Ġbas ta
ĠlanÃ§ amento
Ġb anda
Ġig ual
Ġmanufactur ing
Ġt Ã©r
Ġv Ã³s
Ġpar ents
Ġcare er
Ġfiel ds
it age
Ġwh om
Ġairport s
Ġindepend ent
Ġchall enge
Ġwrit ing
Ġp ne
Ġf ern
Ġres postas
Ġdirect ory
Ġhor Ã¡rios
Ġfoc o
Ġber lim
g ra
il he
Ġda qu
ip o
Ġtr ying
Ġbr uss
aix as
Ġintegr al
ĠsuÃŃ Ã§a
Ġcon qu
r ita
Ġfire f
Ġgalax y
and er
Ġd Ã³l
Ġcas amento
Ġdiv ulg
Ġopin ion
Ġcorpor ate
y pt
Ġs low
Ġf um
Ġfl ores
Ġpract ical
Ġh ors
Ġu ltim
ux e
ĠmÃŃd ia
s k
Ġcomp ens
Ġpot Ãªncia
Ġdesp ite
Ġin im
Ġclot hing
Ġmos c
Ġr ose
Ġresult ing
Ġnet her
Ġk r
Ġam anh
Ġgr ant
ograph ic
Ġfurn iture
a ug
Ġf an
Ġb in
Ġaltern ative
Ġexerc ÃŃcio
Ġinvern o
Ġt enham
ing ham
Ġpens ar
al ed
Ġsmart phone
Ġl unch
Ġat endimento
Ġcar ne
Ġdesc re
Ġemb ar
Ġdeclar aÃ§Ã£o
Ġsund ay
f us
Ġag Ãªncias
Ġrealiz aÃ§Ã£o
Ġdess as
i h
Ġconst ante
Ġparticular ly
Ġtri ps
Ġdesign er
Ġinclu ir
Ġcoll ected
Ġoferec em
Ġp ier
Ġf ogo
Ġcr is
Ġbro wn
Ġsw itz
Ġsimil ares
Ġadult s
Ġd j
Ġc Ã³p
Ġch art
Ġaccord ance
Ġwr ong
Ġcoord en
Ġenh ance
Ġfr ances
Ġeven ing
Ġvisual izar
Ġara b
Ġp ub
Ġs Ã¡b
Ġmed ium
Ġcal Ã§as
ÃŃst ico
Ġimag in
Ġc Ã¡
Ġf t
Ġh i
Ġop pos
ix o
Ġany one
Ġdeter mine
Ġdesaf ios
Ġabst ract
c op
Ġd ual
Ġtorn o
Ġconsegu ir
Ġexplor ar
Ġbilh ete
Ġswitz erland
Ġp y
at em
Ġg ig
Ġsu gar
Ġtest ing
Ġd anÃ§a
Ġh ilton
ÃŃ amos
Ġab and
Ġcom ando
Ġcon cl
Ġz one
Ġdesc ar
Ġdef esa
c ular
Ġi or
Ġaspect s
Ġb os
ent y
Ġpr Ãªm
Ġsex ta
Ġdestin os
w ell
Ġgar ra
br idge
Ġ ia
Ġv ital
Ġcooper ation
ro ll
Ġanal isar
Ġadminist ration
Ġcertain ly
Ġsolic it
Ġhistor ic
Ġcooper aÃ§Ã£o
Ġcont ribut
Ġenvi o
Ġcop enh
Ġregist ration
Ġsho es
z as
pt on
ph ones
Ġris cos
Ġdr ink
Ġpac otes
Ġpag ar
ent ais
Ġr c
Ġout put
Ġn erv
Ġaqu ecimento
d ed
Ġb ost
qu ick
Ġr Ãºssia
Ġph arm
Ġdesc ont
Ġinf rast
Ġprim ary
Ġabsol ut
et or
ent ic
Ġem ot
Ġcon gr
Ġra w
Ġutiliz adores
Ġbrasil eira
Ġintegr ation
Ġidi oma
Ġto il
Ġpro l
Ġover all
Ġescol as
Ġopen ed
Ġlocaliz ada
Ġplac ed
Ġec r
Ġsay ing
Ġmilh ares
Ġnuv em
Ġdorm ir
Ġframew ork
Ġinfrast ruct
Ġs weet
Ġg d
Ġg ps
Ġmod ule
Ġeng land
Ġconstru ir
Ġcoord in
al i
Ġem it
Ġabert ura
Ġbruss els
re al
Ġv on
Ġv inc
ot er
Ġap rim
ĠÃ¡ sia
Ġsur v
Ġg Ãªn
Ġel se
Ġsim ult
Ġexp ensive
Ġcu is
Ġrele ased
ĠespecÃŃf icos
Ġshar ing
Ġsn ap
Ġcurr ency
Ġcarr inho
Ġb ens
Ġbo y
Ġrest rict
met ros
Ġfot ograf
Ġjov em
Ġreun iÃ£o
Ġroyal ty
Ġcap it
Ġlight ing
Ġplant as
Ġchann els
ff ici
Ġpost ed
iv ing
ter est
Ġpr at
d Ã£o
n ecess
om os
Ġingred i
Ġrel atÃ³rios
Ġbaix os
Ġdeliver ed
Ġliqu id
Ġnether lands
is mos
ond a
Ġchang ed
Ġthin king
Ġse i
Ġhe ating
Ġreg ions
Ġanal is
Ġpersonaliz ado
Ġvest ido
Ġamaz ing
ed ores
Ġr osa
Ġob lig
Ġesc rito
Ġsim ul
Ġju an
Ġinflu ence
Ġpas ta
Ġmu ita
Ġobtain ed
Ġconfl ict
Ġempre go
Ġcomod idades
m ont
Ġag Ãªncia
Ġpra zer
ira Ã§Ã£o
ended or
Ġbost on
Ġfe ar
Ġinf in
Ġdesenvolv ido
Ġol har
Ġtr Ã¡s
Ġquar ta
Ġsubm itted
Ġsingap ore
Ġfor ces
Ġintrodu Ã§Ã£o
ĠanÃºn cio
iabil ity
Ġin j
Ġv iz
ric s
Ġalb um
Ġwonder ful
Ġanalyt ics
ing ton
Ġpa ir
Ġlev ant
Ġfabric aÃ§Ã£o
Ġbud ap
Ġn ic
Ġr and
gr ad
Ġs mo
Ġb ern
Ġenvi e
Ġnu cle
Ġlab el
ament ais
Ġsignificant ly
Ġior que
f it
Ġa ve
ar Ã£o
Ġre visÃ£o
Ġfer ry
ĠtÃ©cn ico
Ġdepart amento
w or
Ġp ip
ro duc
Ġfr ame
Ġsess Ã£o
Ġcarre ira
ĠÃ¢mb ito
quick ly
Ġhotel quickly
Ġdel a
Ġip ad
Ġconvers ion
ol ina
Ġpower point
Ġconveni ente
Ġerr ors
Ġen vol
Ġlig a
Ġtrib un
a ver
Ġpass eio
Ġbook ings
Ġref lex
Ġprova velmente
Ġde fe
Ġbo at
Ġglo b
Ġmest re
Ġlou is
ĠcÃ¢m ara
Ġswim ming
Ġa le
Ġst ations
Ġgr at
Ġbel ong
olÃ³g icos
burg h
b and
Ġh uge
iv el
ap ar
Ġvers Ãµes
Ġlist ados
ten ha
Ġhou ve
ed as
Ġad vis
Ġpra gue
Ġpost s
Ġpassage iros
ill o
Ġcol Ã´m
Ġph u
Ġsepar ate
ĠlÃ¢m p
ĠcolÃ´m bia
l as
Ġatt ach
Ġfinal mente
Ġvert ical
Ġn ik
Ġr ico
fer a
Ġpal est
Ġbro ther
Ġcover ed
Ġly on
Ġp oc
ri e
Ġform er
Ġsem i
Ġautor idades
abil ities
Ġbic iclet
o a
iv eness
Ġgr am
lo ok
Ġwant ed
Ġjunt amente
Ġeduc ational
Ġig ualmente
Ġdepend endo
Ġsour ces
Ġfig ure
Ġpin terest
Ġman chester
Ġamarill as
Ġg on
Ġoper acional
Ġbrasil eiro
Ġfem ale
Ġvib r
g al
Ġu v
Ġyou tube
Ġac resc
Ġher o
Ġlead er
Ġnaveg aÃ§Ã£o
Ġg ather
Ġobrig ado
Ġaven ue
Ġan ci
Ġpa id
Ġfin ish
Ġdesign s
Ġbec omes
Ġtest s
Ġefet uar
Ġ ÃŃc
Ġr p
Ġen em
Ġle ather
Ġcer ta
Ġfich eiros
Ġtare fas
ha el
Ġcas h
Ġautom Ã¡tica
Ġpublic idade
Ġparticip ation
Ġtele phone
Ġsatis fact
Ġht ml
Ġaprend iz
Ġmont agem
Ġevalu ation
Ġatra Ã§Ãµes
at Ã³ria
Ġsu gest
Ġcl ip
Ġi os
Ġprodu zir
Ġmot el
Ġprot ected
Ġbre ve
Ġmodern o
Ġimplement aÃ§Ã£o
Ġcut ting
Ġpar ce
Ġca fe
Ġdist in
Ġn d
Ġin Ãºmer
ce ed
Ġparticip ants
Ġstat ement
Ġthousand s
h s
ar ies
Ġn i
Ġpol ice
Ġcompl iance
Ġren ew
Ġopin ions
Ġven ice
Ġappear ance
Ġasseg urar
j ud
Ġh ang
av ing
Ġant igo
Ġgor dura
ar ily
pl ace
Ġown er
Ġdr in
Ġchang ing
Ġleit ura
Ġdis cl
Ġseg ura
Ġsac o
Ġrelig ious
Ġconsol id
Ġcap s
Ġfol ha
Ġvir us
Ġobjet os
Ġcommitte e
ri p
us ta
Ġob tenha
Ġhosp it
Ġfoss e
u Ã¡rio
Ġgr ade
Ġmus ical
Ġclos ed
Ġextrem amente
Ġespirit ual
Ġauthor ity
Ġbeb Ãª
Ġvant agens
Ġc z
Ġc Ã¡l
Ġwill iam
Ġfe itas
Ġdecid ed
Ġregister ed
it i
Ġmil k
Ġfix ed
Ġesfor Ã§o
Ġan a
Ġr ica
Ġfinan ci
Ġest re
Ġrec entemente
Ġfe es
Ġinterest s
Ġupd ates
Ġrecebe u
m on
Ġb reat
Ġal f
Ġk u
Ġdiret or
Ġcot ton
Ġextrem ely
Ġesquer da
Ġh op
Ġprov ider
Ġbom b
Ġassoci ados
Ġcart Ãµes
Ġv istas
Ġac ord
Ġgr oss
Ġhe ight
Ġport Ã¡til
Ġbi ke
Ġang el
Ġprepar ed
k t
Ġch al
ow s
Ġdown town
Ġsat Ã©l
Ġs ons
Ġl amp
ce u
Ġoc cas
ĠdÃº vida
on as
Ġh orm
ag ram
Ġper igos
ib er
Ġdire ita
Ġcri me
Ġtom or
Ġterra Ã§o
Ġgard ens
Ġd ado
en er
Ġf rio
Ġv a
Ġet iqu
Ã³l ica
Ġdiscount s
Ġdis ap
Ġexper ts
Ġmunic ÃŃp
Ġb ond
Ġre pe
ut en
Ġgo es
Ġnecess Ã¡rias
Ġpop ul
Ġesper a
Ġrecon h
ĠespecÃŃf ico
Ġarquitet ura
os en
Ġaud it
Ġassist ance
Ġu l
ber to
Ġtrans act
Ġph ase
Ġmo z
Ġto po
Ġent ry
Ġbenef ici
Ã§ am
Ġal arm
Ġdec ide
Ġminist Ã©rio
ÃŃ b
Ġest aÃ§Ãµes
ment os
Ġpriv ile
Ã©t icos
Ġindiv ÃŃduos
Ġcast elo
Ġl ac
ra k
Ġpol l
Ġindivid uais
Ġle ague
t ica
Ġart ific
mb h
Ġdemoc r
Ġb irm
Ġag entes
Ġperson s
Ġdefin ed
Ġprin ter
ĠcÃ¢m bio
Ġt ai
end as
Ġseem s
Ġanton io
Ġun if
Ġle ite
Ġserv idores
Ġutiliz a
Ġher itage
Ġbal c
Ġcommunic ations
Ġstor ed
pro of
bour ne
Ġs we
re es
Ġbl ess
Ġpro ph
Ġte ams
Ġplan os
ÃŃl ia
Ġcompre h
Ġt inham
Ġprepar ar
Ġpron Ãºncia
Ġm it
Ġmod es
Ġdef ici
Ġdef ault
Ġcomport amento
Ġth ick
Ġb s
Ġh ub
Ġest er
Ġpra Ã§a
Ġamanh Ã£
Ġcr iter
Ġexecut ive
Ġcommit ment
Ġtare fa
Ġac eler
Ġjust ice
Ġprofess ores
Ġvir gin
Ġsuccess ful
Ġre ais
Ġver ifique
Ġgar ante
Ġa ulas
Ġg mbh
Ġposs ibility
Ġdia b
Ġchocol ate
Ġus adas
Ġra ce
Ġins ert
Ġstre am
Ġvent il
om o
Ġsc ore
Ġtechn iques
e k
Ġmo vie
Ġcook ie
Ġcamp anha
Ġmedic ine
Ġpon ta
Ġaprendiz agem
Ġset s
Ġthem e
Ġlist as
Ġmal ware
Ġconsum er
Ġsol ve
Ġbot tle
Ġsw ed
ch er
Ġfl ag
Ġass unto
Ġadv ice
Ġameric ana
Ġdestin ia
Ġexecut ar
Ġabr ang
Ġlap top
t es
Ġag ency
Ġobject s
Ġbehavi or
Ġbuild ings
Ġdese jo
Ġsh er
Ġire land
Ġbeij ing
Ġd ram
Ġp ump
ra Ã§Ãµes
rig o
Ġbel o
Ġshop s
Ġpret ende
Ġb b
ĠparÃ¢met ros
a o
ion ais
Ġpri est
Ġrece ba
Ġsym pt
Ġinfrastruct ure
o bil
cion ais
Ġcontin ua
or o
Ġshow ed
Ġcontrol ler
Ġful f
Ġsess ion
Ġfant as
Ġpre f
Ġrep ut
Ġident ity
ĠprincÃŃp ios
Ġp ir
Ġl ose
Ġverdade iro
Ġaument a
Ġflex ible
p ot
Ġh at
il ho
Ġserv ed
Ġbel g
Ġn essa
Ġorgan ic
Ġitalian o
Ġecr Ã£
m i
Ġeas ier
ĠespecÃŃf icas
Ġtas te
ĠromÃ¢nt icos
ul y
ce is
Ġimp ed
Ġtro ca
Ġirm Ã£os
Ġb erg
Ġbu ying
Ġeuro p
Ġcomun idades
Ġd Ãª
Ġpre view
Ġsp ac
Ġreg ime
Ġbibliot eca
w ork
Ġserv ers
Ġinclu ÃŃdo
Ġbro w
Ġstat istics
Ġconsul ta
Ġentertain ment
g ia
Ġsp end
Ġdos e
Ġdire to
Ġfollow ed
Ġcaus es
Ġacess ar
Ġinstit ut
Ġauthor ities
Ġdise ases
Ġimper ial
Ġdyn amic
Ġf en
Ġobjet o
Ġsemelh ante
Ġadicion e
Ġimpl ant
Ġdra g
Ġindepend ente
Ġbon us
Ġcra ft
al es
Ġgo als
Ġace ita
c king
Ġcombust ÃŃvel
Ġo ly
Ġv az
Ġr it
Ġst ad
Ġlet ter
ĠpÃºbl icas
Ġland marks
Ġintrodu ction
a j
Ġe ight
ac her
Ġpres c
Ġfant Ã¡st
Ġtomor row
an al
al t
Ġcam pe
Ġt ente
Ġvi enna
Ġcitiz ens
Ġre ut
Ġpro posta
Ġor ange
Ġwork ed
Ġproced ure
z ar
Ġo ak
anc ou
Ġdid n
Ġcomprom isso
Ġbirm ingham
Ġadequ ada
Ġefici ente
Ġpl ans
Ġassemb ly
Ġincr ÃŃvel
Ġch osen
Ġcre d
Ġident idade
Ġcompat ible
n ed
Ġex atamente
Ġna qu
Ġident ific
Ġfund aÃ§Ã£o
ĠaÃ© rea
Ġcoun ter
Ġminist ry
Ġdie go
r er
Ġin aug
Ġag u
Ġrel ation
ĠÃ¡ c
Ġregist o
Ġjunt os
Ġexact ly
Ġf aixa
Ġag ents
Ġbar s
Ġespec ific
Ġoper ate
Ġcell s
Ġg if
ang o
Ġadv ers
Ġtas ks
Ġvehic les
Ġintelig ente
ĠorÃ§ amento
am i
ir y
Ġra y
Ġdesen ho
Ġcommun ities
Ã©r c
Ġevol ution
b ody
Ġliv er
Ġlist s
Ġteach ers
Ġbanh eiro
Ġquil Ã´met
Ġk l
Ġk ore
Ġle on
Ġpublic aÃ§Ã£o
Ġur b
Ġreun iÃµes
ĠlÃŃder es
c raft
Ġthe at
Ġg m
Ġphil ip
Ġsav ed
Ġeg ypt
Ġlad y
Ġexhib ition
Ġguarante ed
Ġdigit ais
Ġf isc
Ġmed o
Ġmist ura
Ġindust ries
Ġann ual
Ġad ot
Ġcult iv
Ġatual izaÃ§Ãµes
Ġbom ba
Ġvene za
Ãª ut
Ġprim e
Ġdep ress
Ġprin ciples
Ġpati ent
Ġmig uel
Ġwed ding
Ġd anger
Ġcou ro
Ġkind s
Ġaim s
Ġparam eters
wor ld
Ġt ir
or ter
Ġn an
Ġmet od
Ġcri e
Ġapar Ãªncia
Ġevol uÃ§Ã£o
Ġtut ors
Ġvict oria
Ġbrux elas
Ġfiref ox
it am
Ġh s
ÃŃ tim
Ġdi Ã¡logo
Ġmom entos
Ġoferec endo
ĠprincÃŃp io
Ġoly mp
Ġre pos
Ġex Ã©rc
Ġprecis ar
Ġsitu aÃ§Ãµes
Ġpu zz
Ġlic enci
Ġsustent Ã¡vel
ri as
ap y
Ġoff ic
Ġlat ina
Ġbrow se
Ġv ancou
est re
ol i
Ġvancou ver
g ow
Ġim pos
Ġrec re
ues day
Ġcontempor ary
Ġto ler
Ġsec o
ĠgrÃ¡f icos
Ġbanc os
Ġtra ils
Ġdire ta
Ġfra g
r ato
ro v
Ãªn io
Ġter Ã§a
ĠÃ¡ guas
he et
Ġgl as
Ġtel ecom
Ġd un
Ġj am
Ġtr as
Ġun less
Ġd ign
Ġp onte
Ġl ub
Ġalg od
Ġpriv ada
Ġpossu em
Ġclin ical
Ġab und
Ġur l
Ġens in
Ġdefin ition
Ġestabel ecer
Ġbill ion
ĠelÃ©t rica
Ġp iso
op h
Ġdest roy
Ġgre ece
Ġtop ic
ro b
Ġen orme
Ġsm oking
Ġobserv ed
Ġconfer Ãªncia
Ġt es
ur os
Ġab erta
Ġs Ã©
Ġj ames
Ġtr uck
Ġfe itos
Ġpal Ã¡
Ġdiam ond
ĠcÃ©l ulas
Ġa id
Ġb ac
ab les
Ġcent ros
Ġprepar ation
ĠprÃ³pri as
u cion
Ġa y
Ġd ies
Ġde leg
Ġpl ate
Ġremo Ã§Ã£o
p at
Ġl am
Ġex cl
Ġbar atas
Ġgost a
Ġinstitu iÃ§Ã£o
ĠmÃ³d ulo
a ux
Ġsp aces
Ġbus car
Ġallow ing
Ġgeneral ly
Ġsignific ativamente
Ġviol ence
Ġescre ver
ic ed
Ġw it
Ġque b
Ġinst agram
Ġcompart ilhe
Ġacer ca
Ġmet er
anh os
Ġpok er
il idade
Ġad qui
Ġaleg re
al h
us to
Ġmag ic
u an
Ġp Ã©s
Ġfor get
ĠbÃ¡s ico
Ġrefriger ator
Ġaltern ativa
Ġmart in
Ġr ated
Ġloc k
Ġir Ã£o
Ġbusiness es
Ġespecial izados
Ġped ra
Ġdecis Ãµes
Ġlay er
Ġmechan ical
us c
Ġcomm itted
Ġprof it
Ġinf ect
Ġdri ving
Ġhy per
Ġinteress es
Ġinstrum ents
Ġsatur day
Ġn ap
Ġz h
Ġmic hael
Ġdestin ations
Ġhead s
Ġlarg ura
Ġr osto
Ġcl ara
Ġcor d
Ġprov ÃŃn
Ġdel ete
ĠsÃ³ l
Ġfrequ ency
Ġsmo oth
r ument
ec ido
Ġad es
Ġnot es
Ġass ign
Ġaerop ort
Ġfeel ing
Ġwa it
Ġpow der
o ok
Ġt weet
Ġc ere
Ġw ants
Ġex e
ag re
Ġbar co
ĠÃ³ rg
Ġpay pal
Ġhy ip
Ġdin ner
ĠaÃ§ Ãº
Ġd b
Ġn eck
Ġv all
Ġsh en
Ġte en
c al
Ġv ive
Ġinst rument
Ġalg ar
Ġcompet ition
Ġviol Ãªncia
Ġconfigur ation
a e
em ia
Ġor al
Ġme ia
Ġbus es
Ġjog ue
Ġcomplet ed
Ġsin ais
n el
Ġf le
Ġit unes
Ġpart ido
Ġpos terior
Ġur g
Ġfic ou
Ġsupl em
Ġs ÃŃt
id el
Ġr astre
st ru
Ġsobre v
Ġbeach es
Ġcou ple
lt i
Ġbes ides
ri ption
Ġpasseng ers
Ġre vis
Ġap i
Ġpra ias
Ġconv ention
Ġphu ket
Ġp ill
Ġb our
Ġcom and
Ġus age
Ġchamp ions
Ġaband on
r ich
os is
Ġvi et
Ġsee k
Ġbras ile
ik i
Ġselecion ar
nes day
ĠmÃº lti
n is
Ġp ig
Ġdel l
Ġexcel Ãªncia
Ġsen ha
p es
Ġp ull
Ġal ert
ĠsatÃ©l ite
Ġman eiras
Ġind ian
Ġdesc onto
Ġmot ivo
Ġcert ificaÃ§Ã£o
Ġnorm as
Ġdetermin ar
Ġv ice
Ġg s
Ġcon he
Ġpre jud
tim e
Ġdirect ions
Ġexcel entes
l or
Ġa ware
Ġencont ram
Ġnews let
Ġingredi ents
Ġs ede
Ġdel ic
Ġsw iss
Ġfornec idos
Ġficar Ã¡
Ġpleas ant
y le
Ġin es
Ġk id
Ġter mo
Ġmain ly
Ġsac rif
Ġlabor atÃ³rio
Ġcot t
y cl
Ġl ip
Ġse v
Ġped ir
Ġregist ry
Ġtarif a
Ġb is
Ġw ol
Ġap anh
Ġcre am
Ġdef ine
Ġvers ions
Ġsuppl ement
Ġconhec ida
Ġdefin ir
ĠÃ³tim o
Ġesfor Ã§os
Ġn it
Ġdes ire
Ġint roduc
Ġjo bs
Ġpublic ado
Ġredu ction
Ġreport ed
Ġdiagn Ã³st
v est
Ġg mail
Ġlux emb
Ġinstrum entos
Ġsatisf aÃ§Ã£o
ĠvÃ¡l v
z ia
Ġan teriores
Ġpar ar
Ġtorn ando
Ġalgod Ã£o
r icos
r ition
it iba
Ġch ec
Ġk al
Ġsal as
Ġlabor atory
Ġp urs
Ġan c
Ġcon dut
og ram
Ġcl icar
Ġadvert is
ĠespÃ© cies
Ġglas gow
Ġbra in
Ġrub ber
zu ela
Ġt in
Ġm ent
as ing
Ġne ut
Ġro ot
Ġeste ve
Ġingred ientes
Ġa a
Ġs ight
Ġand ar
ve ja
Ġor ders
Ġco b
ĠÃ³tim a
Ġtoil et
Ġartific ial
Ġin ch
Ġad qu
Ġneg ative
Ġamen ities
Ġp ia
Ġb ÃŃ
Ġb ug
Ġre tail
pa per
Ġtransport ation
Ġcu ri
Ġcharacter s
i ada
Ġacc ur
Ġcontrol s
et os
Ġcl ube
Ġme al
Ġcor ru
Ġant iga
Ġtw in
Ġj ar
Ġup s
Ġdel et
Ġmen inas
ll a
rim ir
Ġacont ecer
Ġfot ografia
om ing
Ġv ind
ud a
Ġremo v
Ġconnect ing
Ġstrateg ic
Ġjur is
Ġinterm edi
Ġr t
Ġcol our
Ġpresent ation
Ġnumer ous
Ġex plo
Ġtr ilhas
Ġbo b
Ġtec h
Ġcustom ized
Ġmag az
for ce
Ġport able
ÃŃs s
Ġprojet ado
Ġrecord s
Ġcolabor aÃ§Ã£o
Ġt ensÃ£o
Ġb ull
ens ion
Ġform al
Ġmon day
Ġcat Ã¡logo
Ġjur ÃŃd
Ġsilic one
Ġal ic
Ġhe ard
Ġpra ga
Ġpal ma
Ġdiz endo
Ġrev ista
Ġassess ment
Ġf ax
Ġst ores
Ġcont udo
ica is
Ġcomput adores
Ġexist Ãªncia
Ġmor al
Ġgratu ita
Ġexpress Ã£o
Ġhapp en
d ra
h ab
Ġf rig
Ġv ip
Ġdep Ã³sito
Ġautom Ã¡tico
Ġfornec ido
Ġdeix a
Ġavent ura
Ġcobert ura
u f
an k
Ġf esta
Ġl ift
Ġsem in
Ġsub se
Ġoff ices
Ġautor idade
ogrÃ¡f ica
Ġmention ed
on Ãªs
Ġk w
Ġwe ak
Ġgu itar
air s
Ġpet ers
Ġcirc un
Ġproced imentos
Ġgraph ics
z i
Ġ idos
Ġcam ping
Ġref ere
Ġdesaf io
Ġbm w
c ket
Ġbr on
Ġcor ner
Ġprov is
Ġbed s
Ġcir urg
Ġcirc um
Ġproced ures
Ġinfra estrut
f ri
Ġm ath
ol os
Ġentre t
Ġconhec imentos
Ġcertific ation
Ġcompre ender
Ã© dia
Ġprote in
Ġenvi ado
ĠvÃŃ rus
Ġbat alha
Ġlet ra
Ġgradu aÃ§Ã£o
Ġsubs id
Ġsec und
Ġcur itiba
Ġterrit Ã³rio
Ġh es
ol it
us te
Ġconsci Ãªncia
Ġatmos phere
al and
ro t
Ġfor g
Ġst ories
Ġdev emos
Ġdom Ã©st
Ġru le
Ġe ps
Ġcam as
Ġmet res
Ġart ist
Ġrespons Ã¡veis
ÃŃf ico
Ġimprov ement
Ġre cl
Ġexperi enced
Ġbran ca
Ġdeg rees
Ġcos m
ou l
Ġro of
Ġown ers
Ġbag s
Ġmel bourne
Ġcompos iÃ§Ã£o
Ġsho ot
Ġload ing
ĠquilÃ´met ros
Ġter ren
Ġeleg ante
Ġpous adas
c s
i Ã¡rio
it ando
Ġrepresent a
Ġregul amento
Ġpromot ion
a per
Ġs ad
Ġi ra
Ġfac ul
Ġparl iam
Ġpray er
Ġanci ent
c ars
w ater
Ġnot as
Ġfe et
Ġemp has
Ġcall s
ĠÃ¡l b
d y
k h
ra is
ok an
Ġval le
Ġmajor ity
Ġacadem ic
Ġsemelh antes
i ares
Ġl or
Ġap point
Ġsk ys
Ġhand le
Ġexist entes
Ã´n io
Ġnavig ation
Ġd ance
in ed
el ha
Ġso z
Ġtur ÃŃsticos
Ġped idos
Ġdisc ut
Ġauth entic
ĠgrÃ¡f ico
Ġkeyword s
ĠbÃŃ bl
o o
Ġman ip
Ġprodut ividade
fr ont
Ġestat ÃŃsticas
Ġev il
Ġcab in
Ġalt as
Ġpermit indo
Ġstra ight
Ġintellig ence
Ġtr end
Ġlim po
Ġaccount s
Ġcapaz es
Ġsaud Ã¡vel
ĠpÃ´ r
Ġt um
Ġm d
ed ing
Ġg n
ag on
Ġag enda
Ġpos icion
Ġeffort s
Ġc ass
Ġin put
Ġg osp
Ġmediterr ane
Ġc em
ÃŃ cul
Ġcent ers
Ġtrabalh ando
Ġprepar aÃ§Ã£o
Ġfel t
ick s
Ġmon um
Ġcontrol ar
Ġcontr at
Ġconvers a
Ġadvant ages
Ġcon gress
ub a
Ġfer til
Ġchr ome
Ġreach ed
Ġmest rados
Ġaliment ar
Ġt uesday
ri fic
Ġle aving
Ġinstit ution
Ġocor re
Ġalumin um
Ġo raÃ§Ã£o
ri min
ther n
Ġacc id
Ġshe et
Ġconfi Ã¡vel
Ġd m
Ġf og
id amente
us ed
Ġcar n
Ġmed iÃ§Ã£o
Ġchar les
Ġue fa
og en
Ġpass a
ativ idade
Ġrece pÃ§Ã£o
Ġsm s
Ġafter no
Ġtam pa
Ġesper anÃ§a
Ġbenef ÃŃcio
Ġo st
Ġpr ata
Ġdu plo
Ġata que
ĠsÃ¡b ado
Ġe b
Ġbar ata
se e
Ġoper a
Ġsou thern
Ġsl ight
Ġmodern a
Ġmountain s
Ġaeroport os
Ġm ira
Ġr ÃŃg
Ġcar Ã¡
Ġbo ost
Ġmas ters
Ġcert ified
Ġtre es
Ġp om
in n
Ġb ons
Ġorg as
Ġcondu z
Ġdescob ri
Ġw ave
Ġl umin
Ġcom it
Ġit iner
Ġconsider ado
Ġcombin ed
Ġprest ig
Ġbanh eira
Ġastron om
Ġr ue
Ġr ise
st and
ap or
Ġalg or
Ġambi entes
Ġaloj amentos
Ġje an
Ġremain s
Ġcontrib ute
ro ad
ific ations
ell ing
ater ra
Ġexplor er
Ġstrateg ies
Ġh ung
Ġl azer
Ġtr uly
Ġameric ano
Ġpain ting
Ġvit Ã³ria
Ġparliam ent
c ent
Ġh Ã´
ik a
Ġassoci ado
Ġquant ity
Ġcatal og
Ġcriter ia
Ġr ang
Ġap reci
Ġlook s
Ġupgr ade
Ġfotograf ias
m ond
Ġal ar
Ġutiliz ada
Ġarm as
Ġrom an
ĠestratÃ©g ias
Ġdimens Ãµes
Ġsatisfact ion
Ġpar al
Ġest Ãº
Ġter r
Ġcap a
Ġsav ing
Ġreduc ed
Ġs ai
Ġth y
at uras
Ġch ip
Ġcompre ensÃ£o
ĠespecÃŃf ica
u its
es h
Ġf asc
Ġg ear
em in
Ġem oc
Ġinter val
co in
Ġver ify
Ġfrequ entemente
Ġamost ras
Ġin ic
Ġen vel
Ġcons ole
Ġmin ister
Ġimp ostos
Ġir land
Ġexpress ion
Ġobserv aÃ§Ã£o
Ġbrand s
Ġmedi ante
ffici ent
ĠaÃ§Ãº car
Ġb ish
Ġmar co
Ġlu a
urs day
Ġmilh as
Ġmedic amentos
Ġbor ra
Ġliter ature
Ġwed nesday
Ġt Ã¡
Ġproc ure
Ġpr onto
Ġman ga
Ġbr ings
Ġaplic ar
Ġexpl os
Ġdom estic
Ġtro ubl
Ġfound ed
Ġt x
ot ic
Ġj ava
Ġwh ate
Ġwhate ver
Ġ ilhas
Ġmus cle
Ġtyp ically
Ġfig ura
Ġfilt ro
Ġkil omet
Ġlid ar
Ġv eio
Ġfact or
Ġextra ord
Ġacol h
Ġj av
Ġme xic
Ġcal ib
Ġword press
Ġbeb idas
Ġsimult ane
Ġstr ugg
Ġperman ent
Ġinflu Ãªncia
Ġcorr ida
Ġh an
Ġpass ou
Ġtrabal ha
Ġfish ing
Ġpint ura
Ġentret anto
Ġafterno on
Ġs v
al has
ire m
Ġout look
ativ ely
e v
Ġt iss
Ġaut onom
Ġserv ing
yl on
Ġpubl ish
Ġpan ama
Ġelectr ical
Ġg ente
ers on
ap t
Ġdist ingu
Ġget s
Ġcrit Ã©rios
Ġk en
Ġcont amin
Ġingl aterra
ason ic
Ġmeet ings
Ġagr ÃŃc
Ġde ce
Ġfor em
Ġon das
Ġsp ent
Ġtrans c
Ġhuman idade
Ġsci ences
Ġcro wn
Ġmet abol
Ġpers ist
Ġlar ger
Ġjose ph
es as
Ġp ush
Ġv idas
Ġir rit
Ġreprodu Ã§Ã£o
Ġp unta
Ġtrad em
Ġgl Ãº
Ġpan asonic
Ġprob ably
b el
p ack
r icas
ir ing
ud ed
Ġbus c
Ġcath ed
c p
Ġbe at
Ġar re
Ġag ent
Ġter ap
Ġdef ense
Ġach o
Ġsam ples
Ġgast ron
h ost
Ġc v
Ġp end
Ġv ote
Ġv eter
Ġconc ert
Ġsitu ations
Ġpack ing
Ġpack ages
Ġvill as
Ġform atos
Ġwik ip
ro z
pl as
Ġelev ado
Ġexcell ence
Ġagre ed
Ġwood en
Ġsurve y
j ar
Ġt irar
Ġesc al
Ġcorre l
Ġappro ved
Ġori ente
Ġpais agem
Ġlem bre
w al
Ġj p
Ġmin as
Ġaccess ible
Ġsab or
Ġcomun ic
Ġbott om
Ġlandsc ape
Ġco bre
Ġop ens
Ġphil os
Ġt ons
Ġh us
Ã§ ado
Ġg ord
Ġis n
Ġmo eda
Ġste am
Ġmuse us
Ġappe ars
ĠdÃº vidas
Ġp ipe
Ġw ro
Ġen fer
Ġte atro
Ġprot est
Ġpat rim
Ġgosp el
is ters
ra b
Ġpro ib
Ġcam b
Ġbase ada
Ġfacil idades
Ġlux u
Ġconclus Ã£o
Ġlingu agem
Ġsympt oms
Ġcan cer
Ġman s
Ġra b
Ġmil itar
com ing
Ġaleg ria
Ġimpr ensa
ĠtÃ©r m
Ġb og
ed y
ia Ã§Ãµes
Ġmelhor ia
Ġsur pre
Ġplan eta
Ġconduct ed
Ġmediterrane an
c are
Ġg an
Ġst im
Ġtra jet
Ġche ia
Ġmen ores
Ġdi eta
Ġmay be
Ġarm y
Ġcalend ar
Ġprovid ers
Ġtax i
Ġball s
Ġphot ograph
Ġafric an
ĠpalÃ¡ cio
ĠglÃº ten
Ġf als
Ġim obil
Ġint im
Ġplataform as
Ġfech ar
Ġcarbon o
b ury
Ġan ne
Ġfal a
Ġspecific ally
Ġsuport a
Ġverdade ira
Ġprefer red
Ġelev ada
Ġhamb urg
e as
or as
or al
Ġj ord
Ġconstru ÃŃdo
Ġmom ents
Ġcompar ar
Ġru as
Ġtransm ission
Ġrig or
qu ei
od es
Ġgu atem
Ġsc ene
Ġgl uten
Ġlay out
Ġvig or
b us
Ġc ater
Ġac ons
Ġwas h
Ġcur t
Ġestud ar
Ġenter ing
in ter
Ġpar ecer
Ġexem plos
Ġprop Ã³sito
ĠhÃ´ t
il os
Ġma ils
Ġvis ite
Ġlim ite
Ġmosc ow
l ic
u ff
Ġda ugh
Ġch Ã£o
Ġweb cam
Ġfra ca
c ol
it Ã¡ria
Ġle itor
aliz ation
Ġpass e
Ġde ploy
Ġj s
Ġat ivos
Ġman ner
Ġche aper
Ġmov ing
Ġtyp ical
ĠprovÃŃn cia
Ġalgar ve
Ġapanh ar
Ġevent ually
le v
Ġas us
Ġve gan
Ġz el
Ġrecom ende
Ġlead s
Ġindustri ais
Ġdever ia
Ġhoriz ont
Ġdut y
Ġborra cha
em at
Ġesp ect
Ġfe e
Ġproduct ivity
Ġinc red
Ġcontact s
Ġaccept ed
Ġcry stal
Ġvant agem
Ġcar go
Ġconc orr
Ġreconhec imento
Ġexperim ental
ÃŃb rio
Ġcompreh ensive
Ġart ists
Ġcheg ou
Ġenab les
Ġcen Ã¡rio
Ġcl ock
Ġrel ativamente
Ġesc ape
Ġdep th
Ġnut rition
Ġconh ece
Ġwit ness
Ġb oca
Ġaf ford
Ġintern o
Ġbro thers
Ġgre y
Ġcontinu ous
Ġorient aÃ§Ã£o
Ġdemoc ra
un te
Ġaff ili
Ġcomplex o
Ġportugues a
r Ã¡
Ġb ach
Ġtr Ã¡
Ġcar a
Ġsign s
Ġdownload s
Ġcamp us
Ġtribun al
Ġs id
Ġf ios
Ġas h
Ġpesqu ise
Ġleg end
Ġident ified
Ġimpro ving
Ġmanag ed
ĠfÃŃs ico
Ġsint omas
Ġrefei Ã§Ãµes
ur f
Ġbl oque
Ġacc eler
Ġtur key
Ã³n ia
Ġhid den
Ġassin atura
Ġmir ror
Ġrodo viÃ¡ria
r ations
z one
Ġp ink
an bul
Ġso il
ÃŃn c
Ġban ks
Ġlegisl aÃ§Ã£o
Ġalco hol
Ġstad ium
Ġt ant
Ġp ov
Ġs iga
ar ta
st all
Ġcri a
Ġmult if
Ġimpro ved
Ġperman ente
Ġcade ia
on i
Ġw w
Ġcontain ing
Ġsac erd
Ġdan iel
zh en
d i
ot i
ab l
Ġwh oles
Ġab us
Ġbl ind
Ġdu ro
Ġconstru ct
Ġfib ra
Ġreplac ement
Ġs ql
um ul
Ġcas c
fe go
Ġdiffer ences
Ġleg ais
Ġconcre te
Ġw ife
Ġsc ar
Ġmov ies
Ġacresc ent
l ock
u ca
Ġde uts
Ġf aster
Ġum bre
Ġtrans f
Ġval ve
Ġmat t
Ġexclus ivo
Ġrequest ed
Ġlod ging
o h
Ġdo ors
Ġintern a
Ġencont rado
Ġdispos iÃ§Ã£o
Ġestrut uras
can ner
k u
ad i
Ġk et
Ġprogram aÃ§Ã£o
Ġord en
Ġinteress ante
Ġhon or
Ġexam ples
Ġrefei Ã§Ã£o
ĠdÃ³l ares
g ate
Ġinter fer
Ġco br
Ġprevious ly
Ġnasc imento
Ġpoc ket
Ġma i
Ġint u
Ġdisplay ed
Ġcris is
ĠcÃ³p ia
Ġdies el
Ġca ir
Ġpac iente
Ġb ound
Ġn in
Ġn ubl
Ġl um
ak er
Ġdecis ions
Ġconsegu e
ĠtrÃ¡ fego
iss Ãµes
Ġart istas
Ġestr ange
Ġther mal
Ġproporcion a
Ġspl it
Ġd al
at on
Ġn Ã¡
ber ta
Ġfol der
Ġbre ast
Ġplant a
Ġrequest s
Ġaff ected
Ġleaders hip
Ġexpert ise
Ġlider anÃ§a
ig ar
Ã³ is
Ã³ rica
Ã³ via
ici ans
Ġcontr ast
Ġproced imento
Ġacqu aint
Ġly rics
Ġskys canner
Ġ ile
or ado
at ia
Ġfl av
Ġind ones
Ġdire c
Ġaqu is
Ġbathroom s
Ġcr ise
Ġoper ators
Ġextens ive
Ġconsent imento
Ġt Ã³
Ġche f
Ġmun ich
Ġatl antic
y e
Ġg em
Ġtra zer
Ġver ificaÃ§Ã£o
Ġdest as
me ga
Ġdifer enÃ§as
Ġcook ing
Ġacess ÃŃvel
Ġdetermin ado
Ġfib er
Ġdimens ion
Ġjuris d
p ens
in ais
qu et
ist Ã£o
Ġtem as
Ġgr Ã©cia
Ġaplic Ã¡vel
Ġfeat uring
Ġspecific ation
Ġdesej os
Ġact s
Ġsec ador
Ġwhen ever
Ġfornec imento
Ġturn ed
Ġbelg ium
Ġre vers
Ġpar ks
st ar
Ġdi Ã¡ria
Ġsk ip
Ġdep ende
Ġsenh ora
Ġacont eceu
Ġtub o
Ġaproxim aÃ§Ã£o
Ġfant astic
Ġterrit ory
f c
l ist
Ġv int
Ġmar ine
Ġimp rimir
Ġbas ket
Ġstre ets
Ġace itar
Ġdeb ate
Ġv pn
Ġg p
Ġg t
ri an
us Ã£o
io x
Ġcho os
Ġmont real
Ġtab lets
Ġist anbul
Ġvene zuela
Ġm am
Ġm eias
Ġw is
Ġqual it
Ġpass ion
Ġview ing
red ores
Ġalter aÃ§Ã£o
m y
is os
Ġno ise
Ġwe ap
Ġsp ray
Ġloc ate
Ġsubm it
Ġo ito
Ġv ast
Ġal le
Ġtem per
Ġpersonaliz ar
Ġbiciclet a
Ġt ÃŃp
Ġn ation
Ġart works
eld orf
Ġsex y
Ġapar ecer
Ġevid ence
ĠdiagnÃ³st ico
Ġin ject
Ġque im
Ġcomp osto
Ġgreat est
Ġdra gon
Ġeleg ant
Ġan ex
ÃŃ metros
Ġle aves
Ġform ats
Ġcri pt
Ġsec re
Ġover cast
Ġlight s
Ã´n ica
Ġclot hes
Ġparce iro
Ġap k
Ġbre ad
Ġquer emos
Ġvel ho
Ġaust ria
Ġintelig Ãªncia
ivel mente
Ġm h
ri Ã§Ãµes
ec endo
Ġrece ita
Ġobs erve
Ġwall s
Ġcathed ral
Ġpar ques
Ġpol u
Ġmet rop
Ġpet rÃ³
Ġfamil iares
Ġdiscuss Ã£o
Ġze aland
Ġbuff et
Ġfulf ill
ĠexÃ©rc ito
Ġat uais
Ġdis ney
Ġfl ower
Ġposs ess
Ġpol i
Ġdel as
Ġeste jam
Ġinc ome
Ġho b
Ġcaus ar
Ġsil va
Ġcompon ent
Ġfocus ed
Ġhou ver
Ġdyn am
m ed
og ia
Ġab ri
Ġsee king
Ġtab les
Ġacqu ire
Ġcumpri r
j ac
Ġb t
ad el
Ġbr un
Ġimport a
Ġconsum idores
Ġnight s
Ġreduc ing
ji ang
Ġtroubl es
Ġg am
Ãªn is
Ġcor ros
Ġsol e
Ġess enciais
Ġremo ved
Ġflor ida
Ġresour ce
Ġcidad Ã£os
Ġc ock
Ġth ursday
Ġte acher
Ġespa Ã±
Ã³n io
Ġprev enÃ§Ã£o
Ġpropos ed
Ġharm on
Ġsong s
Ġleis ure
Ġcuis ine
Ġin ner
Ġab u
Ġdef end
Ġfac to
Ġdu pla
Ġlocaliz ar
Ġexist ence
Ġdim ensÃ£o
Ġsyn th
Ġolh ando
Ġnubl ado
ĠpetrÃ³ leo
ak i
Ġbu urt
Ġgen u
Ġgra ce
Ġrest o
Ġresearch ers
Ġobject ives
ĠeconÃ´m ica
Ġdatas heet
Ġconcord a
Ġfail ure
ĠespÃ© cie
Ġs ig
Ġm outh
Ġl amin
elh as
Ġprecis ion
Ġparticip ate
Ġrefer red
Ġaim ed
Ġsap atos
Ġparad ise
Ġthe ory
ur ado
Ġso vi
amb ique
Ġcri ou
Ġadv og
Ġcircun st
x y
Ġc b
Ġth ir
Ġto w
Ġal de
Ġser ra
ios o
Ġdiscuss ion
Ġchu ve
Ġating ir
g age
Ġs as
ec o
Ġno ites
ch ain
ib ar
Ġenc oun
Ġdist rito
Ġder iv
Ġmarri ott
Ġexpans Ã£o
Ġtai wan
Ġt osh
Ġr ide
iz ando
Ġcontrol led
Ġstart s
Ġmete o
Ġcompos ition
Ġhyd ro
Ġdificul dades
Ġspac ious
Ġd ando
on de
Ġh ack
Ġdi Ã¢met
Ġke pt
Ġquar ter
Ġfinance ira
Ġextre me
ĠlÃ¢mp ada
Ġa wards
es es
Ġp ant
do wn
Ġtra ins
Ġautom ot
Ġmal ha
Ġgratu itas
Ġrecomend ado
Ġescrit Ã³rios
Ãª x
Ġat end
Ġautom Ã³veis
Ġfa q
Ġear l
d on
ar ial
el ines
Ã¢n icos
Ġidi omas
is ms
ist e
Ġtest ed
Ġdem anda
Ġtop ics
Ġdecor ation
Ġapo iar
Ġmuseum s
ĠsÃŃ mb
Ġb ola
Ġh az
Ġv ector
Ġmet ade
Ġespec ificaÃ§Ã£o
Ġline ar
Ġbig gest
Ġterren o
g ica
i us
Ġt ast
Ġg ender
Ġass ass
ky o
Ġjack son
Ġchap ter
Ġresp ir
ĠinÃºmer as
Ġumbre lla
Ġv atic
ter ed
Ġcam isa
Ġche fe
Ġaqu ilo
Ġlig ado
Ġesper ar
Ġanaly z
Ġirm Ã£o
Ġfill ed
Ġshen zhen
Ġd ian
Ġn m
Ġand r
Ġle eds
Ġart ista
Ġhost ing
Ġident ification
Ġprem ier
Ġconnect ions
Ġanaly ze
Ġfemin ino
Ġap par
Ġun com
ie v
Ġbel a
Ġadd ing
Ġris ks
Ġprop ag
Ġinstrum ento
ĠrelÃ³g ios
Ġplanej amento
Ġw eld
Ġv inhos
Ġal vo
Ġbir ds
Ġtan k
Ġterce ira
f all
Ġ ida
Ġa ws
Ġg in
Ġg un
Ġcat ar
ĠÃ¡rv ore
Ġrevest imento
l ado
v in
Ġe is
ac i
Ġar bit
Ġpres ents
Ġapp reci
Ġang ola
rad ar
Ġwid ely
Ġt ube
it im
it ores
Ġb ingo
Ġn urs
Ã¡ mos
Ġpro ceed
Ġfor d
Ġab re
Ġass untos
Ġcam ada
Ġrelationship s
Ġdiab etes
Ġv ary
Ġbr inc
Ġcomput ers
Ġcomun icaÃ§Ãµes
Ġetap as
Ġenc er
Ġdi Ã¡rio
Ġfi que
Ġed in
Ġinde ed
Ġassist ir
Ġnam ed
Ġequil ÃŃbrio
Ġn ess
Ġw et
Ġest ad
Ġk iss
Ġcons ists
Ġinst ance
Ġcorre io
Ġalc ance
Ġemir ates
Ġvint age
Ġcol eta
Ġsa una
Ġport fol
Ġequip ada
Ġtransform aÃ§Ã£o
Ġkeep ing
Ġtheat re
Ġs ara
qu ec
Ġan ivers
ug u
Ġco vers
Ġpe ak
Ġfinance iros
Ġdimens ions
Ġcub a
Ġcalend Ã¡rio
Ġex ame
Ġrealiz adas
Ġamar elo
Ġsustain ability
Ġguatem ala
Ġd ada
Ġs izes
Ġan ual
Ġr us
Ġpass eios
Ġsup re
Ġdiv ine
Ġrelacion ado
Ġold er
Ġcele b
Ġc aixas
Ġw il
Ġpol ÃŃcia
Ġval encia
Ġmem or
Ġflor ence
Ġrelig ion
Ġtou l
Ġetap a
Ġacquaint ed
d ios
or et
Ġto c
Ġj um
Ġsh ell
Ġtem plo
Ã´m ico
Ġclear ly
Ġconect ar
ĠlÃŃn guas
Ġaccur ate
c ard
Ġext ended
Ġsign al
Ġfic am
Ġadqui rir
Ġhist Ã³rias
Ġmus cular
Ġip od
Ã³r nia
Ġsustent abilidade
Ġd ental
re o
Ġam ig
Ġcons ec
Ġrep res
Ġinstant Ã¢neo
Ġbod ies
Ġre ven
Ġse p
Ãº r
Ġant igos
Ġmot ion
Ġret ro
Ġpens amento
Ġflow ers
ĠelÃ©t rico
Ġcrimin al
if er
Ġes que
Ġtra v
Ġcam ps
Ġsc ot
Ġins urance
Ġconv inc
Ġunivers o
Ġrespond em
Ġcalif Ã³rnia
Ġultim ate
Ġrand om
Ġo ct
Ġb acter
Ġn ele
Ã© ia
Ġdis k
Ġdirect ive
Ġhon est
Ġjoin ed
Ġinfant il
Ġpov os
r ine
Ġc reek
ar ias
Ġde ar
Ġf et
om ia
Ġsub met
be an
Ġmult im
Ġspecial ized
Ġregul ations
Ġspeak ing
Ġbols a
e is
i ant
Ġl ind
Ġdes ativ
Ġcur te
Ġhelp ful
Ġcustom ize
Ġconsider ando
Ġfort es
Ġacad Ãªm
Ġb ible
Ġv r
Ġk at
Ġhost al
Ġflo ors
Ġlag os
ag er
Ġliv ed
Ġcra zy
Ġfly ing
Ġreut ers
Ġacons elh
er as
Ġenc ar
Ġdel uxe
Ġread er
Ġmanufact ure
Ġmedic ina
Ġelem ento
Ġphot ography
Ġcaminh ada
ir ma
Ġsh a
Ġvari Ã¡veis
Ġtrat ar
ĠanÃ¡l ises
Ġdrug s
Ġouv ido
Ġtri al
Ġremo val
Ġigre jas
Ġhyd ra
Ġr oss
Ġse b
Ġcons igo
Ġmo edas
ail and
Ġcoz inhas
Ġtex as
Ġaudi ence
Ġcomp ara
Ġsp are
Ġx l
Ġra zo
Ġconhe Ã§a
Ġedin burgh
Ġde e
Ġf ug
Ġcont ar
Ġencont rada
Ġeas tern
Ġminut o
Ġtom ada
ĠvÃŃ tim
Ġkey board
Ġath ens
Ġt ort
Ġpr ÃŃnc
Ġsp ons
aix Ã£o
Ġke ys
Ġconveni ence
Ġcancel ar
Ġrecogn ized
ĠlÃŃqu ido
Ġmascul ino
ĠprÃªm io
ĠÃŃc one
Ġtosh iba
a im
c Ã³p
r amento
el and
Ġv ender
Ġme at
Ġpol and
Ġnat ive
mar ket
Ġgrav aÃ§Ã£o
ĠlanÃ§ ado
Ġtend Ãªncias
Ġrecol her
Ġswed en
l ife
Ġprincip le
Ġtre ated
Ġjet radar
n ik
Ġd um
Ġc Ã¢n
Ġh ills
Ġpro of
Ġbe ads
Ġsm ith
Ġatual izado
Ġsens aÃ§Ã£o
Ġevang el
Ġcres cer
Ġjerusal em
Ġbalc ony
g ens
Ġa i
Ġlo ved
Ġcap able
Ġtax es
ÃŃdu o
Ġevang elho
Ġmecan ismo
er es
Ġth ailand
Ġf ed
Ġant iv
Ġknow s
Ġbro ok
Ġgener ated
Ġcult urais
Ġsens itive
Ġremain ing
Ġvar anda
Ġevalu ate
Ġacadem y
j an
ri x
Ġbar es
Ġz ur
Ġsoc io
Ġlu ck
Ġselecion adas
Ġweek end
Ġvic tim
Ġalex and
Ġocorr er
Ġcz ech
Ġcircum st
Ġy a
Ġbe er
Ġper h
Ġbi om
Ġauth ors
Ġhous ing
ul ado
Ġsh ot
Ġcam is
Ġenc ant
Ġsk ill
Ġapresent am
Ġbrilh ante
b ios
m at
on al
ter ies
Ġser es
Ġour selves
Ġbar re
Ġval u
Ġvisit ing
Ġorganiz ed
Ġdiz em
Ġdivers idade
Ġwat ers
ĠÃ¡lb um
Ġd ano
Ġch ines
Ġform ula
Ġinv as
Ġsur ger
Ġtam anhos
Ġha w
Ġsmart phones
ĠfÃ³r m
char ge
ĠtÃ³p icos
Ġnucle ar
Ġn t
Ġliv res
Ġtechn ique
Ġrecuper ar
i ent
Ġre emb
Ġsh ado
Ġper n
Ġcap abilities
Ġpass ed
Ġgratu itos
ende u
Ġib ook
Ġfrequ ent
Ġconce b
Ġinici ativa
Ġcorr ente
Ġincor re
Ġfacul dade
Ġres ÃŃduos
Ġel ite
Ġtri m
Ġfol has
Ġlog ot
Ġcontribu ir
Ġpleas ure
Ġocid ental
Ġn Ãº
Ġcor n
Ġra cing
ier ra
Ġsupport ing
Ġresid Ãªncia
Ġprin ce
Ġplatform s
Ġax is
Ġgarra fa
Ġad ul
Ġare ia
Ġx x
Ġger ar
Ġdesc ans
Ġinf el
Ġconv ent
Ġbec oming
Ġrecon stru
Ġitalian a
Ġachie ved
Ġintell ectual
Ġedif ÃŃcios
Ġmeasure ment
Ġesport es
Ġretorn o
Ġgent le
Ġe a
Ġos lo
Ġk ings
ib ly
her n
Ġbo ot
Ġform ation
Ġtechn ological
Ġinfraestrut ura
u ch
y stem
Ġin du
Ġr ans
Ġpro ve
Ġrece pt
Ġmot ivos
Ġsur pr
Ġanal ÃŃt
ĠÃ³ pt
Ġselec cion
Ġfuncional idade
ĠdÃ©c ada
Ġpregn ancy
Ġjav asc
b res
Ġc ÃŃ
Ġin door
ac ular
Ġap ont
Ġsh el
Ġnot urn
Ġtravel lers
Ġcu ja
Ġarr ang
Ġinterv enÃ§Ã£o
Ġjavasc ript
f low
Ġt rig
Ġt eles
Ġd ust
Ġb id
ic idade
Ġso ph
Ġbr ush
Ġver ific
Ġcert ifique
Ġresist ant
Ġfinance iro
Ġcommer ce
Ġiniti ative
Ġc ura
Ġw o
Ġvi ena
Ġapresent aÃ§Ãµes
Ġdin Ã¢mica
Ġt p
Ġt reas
Ġh abilidade
Ġto b
Ġas i
iz er
Ġwith dra
Ġar ena
Ġant ib
Ġreserv ed
Ġinteress ado
Ġbord er
Ġpow ers
Ġen ch
Ġfil os
Ġconsist e
ĠcientÃŃf ica
Ġcollabor ation
ĠÃ¡rv ores
Ġat u
Ġtr ends
Ġsuc ed
Ġflor esta
Ġwatch es
Ġpec ado
Ġparl amento
Ġbah ia
Ġbri ef
gra ph
r adas
Ġd ong
Ġp ho
Ġth r
Ġin do
ru p
Ġdi ed
Ġlim ites
Ġenviron ments
Ġhapp ened
Ġmill ions
Ġless ons
Ġpen et
Ġsky pe
Ġflex ÃŃvel
Ġhig i
Ġperspect ive
Ġtempl ate
Ġp ior
Ġmant Ã©m
Ġiss ued
Ġrevol uÃ§Ã£o
Ġlaunch ed
ĠgÃªn ero
Ġperh aps
Ġt all
it Ã¡rios
Ġst able
Ġcont est
Ġesp ess
ich e
Ġempres arial
Ġdisc rimin
Ġinvest imentos
Ġgal eria
Ġrental cars
Ġdescon hec
w ick
ir l
Ġun know
Ġconsider ar
Ġproject o
ĠmÃ©d ica
Ġpap a
Ġconfig urar
Ġchurch es
Ġbit coin
Ġrot as
Ġincreas es
Ġwa iting
Ġlav ar
Ġstim ul
i est
k in
Ġn g
Ġentre gue
Ġlic ens
Ġsell er
Ġbudap est
c ams
Ġun d
Ġtal king
Ġfund os
Ġdr ill
pr ene
Ġperman ecer
Ġsof Ã¡
Ġliter atura
Ġaven ida
h ire
Ġt ig
ad ura
Ġr m
Ġso fr
Ġcas ual
Ġcap ÃŃtulo
Ġlev ou
Ġhar bor
Ġcai ro
Ġrecol h
Ġhoriz onte
Ġg ay
Ġdes f
Ġdes ert
Ġhelp ed
Ġreserv ados
Ġstruct ures
Ġmiss ing
Ġtend Ãªncia
Ġagricult ural
Ġpuzz le
Ġhorizont al
Ġest oque
ak ing
Ġx vi
Ġfin ished
Ġhelp ing
Ġconsider ing
Ġadqu ir
h ere
w ing
Ġl ang
Ġlo b
Ġrece iving
Ġparticular mente
Ġath let
Ġencontr amos
Ġj or
ell er
Ġprov ision
Ġlu is
Ġactiv idades
Ġdepend s
Ġemerg ency
ĠeletrÃ´n ico
Ġhors e
ĠdiÃ¢met ro
Ġp ak
Ġte oria
Ġav iv
Ġcri ada
Ġunivers e
Ġflor est
Ġprefer Ãªncias
Ġrecogn ition
Ġmagaz ine
Ġent end
Ġter ia
ura cy
Ġfil ters
Ġapar th
Ġrelig iÃ£o
Ġrat ings
Ġanterior mente
Ġdraw ing
Ġnest as
on ic
Ġth ou
Ġb h
Ġr Ã©
Ġbas es
Ġconce itos
Ġearl ier
ot as
Ġno vel
Ġrece ption
Ġhel s
Ġfood s
Ġprev ention
Ġfu j
Ġden omin
Ġreturn ed
ĠtÃ³p ico
ol l
Ġcl us
Ġob vious
Ġajud am
Ġautom ation
Ġrelacion amento
Ġtit ular
Ġcarre gar
r ont
we ather
Ġsign ed
Ġgrav es
Ġconveni Ãªncia
Ġinflu enci
Ġminer al
Ġdesport o
Ġchuve iro
Ġa ÃŃ
Ġt Ãªnis
Ġb apt
Ġv ine
ur re
ÃŃ ram
ous ness
Ġany where
Ġdevel oper
ÃŃl io
Ġconcern s
Ġhund red
Ġinsc riÃ§Ã£o
Ġperspect iva
ste in
Ġantec ip
Ġaprim orar
Ġp Ã£o
Ġb c
Ġn ig
ut ical
Ġfind ing
Ġfeat ured
Ġpac ific
Ġalt os
Ġprefer ences
Ġdro gas
Ġbloc ks
Ġsched ule
b orn
w in
Ġesp et
Ġav an
Ġmov imentos
Ġapar elho
Ġbeg ins
Ġsubject s
Ġbor de
Ġemerg Ãªncia
Ġconcept s
ĠquÃŃm ica
al f
ut es
Ġfl ip
iss ions
Ġentre prene
Ġpo bre
Ġwid th
Ġsuns et
n ic
Ġp ent
em e
un ately
ly wood
Ġsp in
Ġfaz Ãª
Ġseg ment
Ġvisit ed
Ġref und
Ġef ect
Ġens uring
Ġexc eto
Ġambi entais
Ġnormal ly
Ġo este
on ta
Ġh ua
Ġab road
Ġbr id
go ing
Ġcare fully
Ġholiday s
Ġtit an
ĠÃ¢ ng
Ġjew el
Ġse ed
un as
ÃŃn as
inh ar
Ġsan ct
Ġrem oto
Ġapresent ado
Ġfacil idade
Ġtrabalh amos
Ġheart s
Ġrod as
Ġsell ing
Ġcade ira
Ġata ques
l ov
w all
Ġt ul
Ġf ans
Ġre ver
Ġter Ã£o
Ġstud ied
Ġneg oti
Ġprom ov
Ġcirc u
Ġinsp ired
hol m
Ġdiam eter
Ġchoos ing
Ġrans om
Ġt iro
Ġc ogn
Ġso fa
Ġprecis amos
Ġdiv isÃ£o
Ġson ho
Ġcontain ed
Ġcy cl
Ġmak er
c at
p as
Ġrec Ã©m
ĠprÃ³xim as
Ġsegur os
Ġfuncion ar
Ġpret ty
Ġadopt ed
Ġunknow n
t ico
Ġequ al
Ġfal se
Ġquer ia
Ġcontain er
Ġfarm ac
Ġexib iÃ§Ã£o
Ġcomprom et
Ġcos met
Ġunif orm
if ies
Ġch a
Ġcomp rov
Ġcar men
Ġnort hern
Ġrecord ed
Ġcorpor ation
Ġnegoc iaÃ§Ã£o
Ġpred ict
Ġfern ando
Ġb ub
ra ine
Ġk er
Ġk el
Ġne uro
Ġro bert
Ġstre aming
Ġbal i
Ġviol aÃ§Ã£o
Ġworks hop
Ġemploy ment
Ġgerenci ar
Ġdesenh os
Ġcong reg
ĠmunicÃŃp io
Ġindones ia
k es
Ġc ac
Ġw c
Ġes co
ari um
Ġindepend entemente
Ġpl as
io v
Ġaut ores
Ġperfe itamente
Ġrecord ing
Ġimag ine
Ġcolabor adores
Ġacc uracy
Ġded os
ony m
Ġrelev antes
lim ited
Ġconstant ly
Ġsubstitu iÃ§Ã£o
Ġvas ta
Ġimposs ible
Ġexpans ion
Ġborde aux
Ġne ither
Ġaj uste
Ġgener ate
Ġautor izaÃ§Ã£o
Ġtrop ical
Ġd Ã©
Ġs ir
Ġdo br
ag u
Ġcan vas
Ġnot ificaÃ§Ã£o
Ġent idades
Ġmin ing
Ġlo vel
Ġesc rita
Ġsignific ado
Ġdetermin ed
Ġexig Ãªncias
Ġstra p
Ġhou ston
Ġist ock
Ġmys elf
Ġepis Ã³d
Ġch er
Ġsem entes
Ġir an
Ġstay ed
ĠavanÃ§ ada
Ġcav al
Ġequival ent
Ġalic ante
Ġat ras
Ġus am
Ġag ente
Ġaqu ece
Ġprint ed
Ġanivers Ã¡rio
Ġcircumst ances
er ife
Ġun limited
ass o
Ġla und
Ġol iv
Ġhand ling
Ġrealiz ados
Ġlot s
Ġtel em
Ġlemb rar
Ġpeix e
Ġfasc in
or ra
Ġb ird
ist an
Ġst ability
Ġel der
Ġmes h
Ã¢m ico
Ġcu jo
Ġrest ore
Ġnote book
Ġnut ri
Ġchin Ãªs
Ġmechan ism
Ġinteract ive
s en
Ġc ay
Ġin hab
Ġcont ribution
ct s
Ġflex ibilidade
Ġestim ated
Ġatmos fera
Ġdivid ed
Ġofic iais
Ġespecific amente
Ġt m
an es
Ã© u
Ġpont uaÃ§Ã£o
Ġadministr ative
Ġfiz eram
Ġcath olic
a us
Ġan th
Ġexp ed
Ġmont anhas
Ġpen al
Ġperfect ly
asc ular
Ġcarreg amento
ir ts
Ġim Ã³veis
Ġair craft
Ġentre ten
Ġtri ed
Ġmes mas
Ġtent ando
Ġconcent raÃ§Ã£o
Ġkn ew
Ġwik i
ĠcontÃŃn ua
g g
g ht
Ġt n
Ġth read
Ġn om
Ġl Ã³g
Ġto kyo
Ãº ne
Ġprom pt
Ġleg itim
Ġmerc ure
Ġcombin ing
Ġimpress ora
Ġcro w
Ġproporcion ar
Ġguid elines
f ia
t r
Ġm Ã¡s
Ġh oney
ur u
Ġmo ist
Ġatl anta
Ġattack s
Ġvoss o
Ġsect ors
ĠÃ¡c ido
Ġinfel iz
Ġb und
ir us
Ġap t
Ġrel ativos
Ġgu ides
Ġprov Ã¡vel
Ġcontin ues
Ġestr ang
Ġarm s
Ġaud itor
Ġapo i
Ġelev ador
Ġcondition ed
Ġexport aÃ§Ã£o
Ġhear ing
Ġpous ada
ĠclÃ¡ss ico
ĠsÃŃt io
Ġsurger y
i jo
Ã© dit
Ġr um
Ġpro port
Ġdes apar
Ġsp ir
Ġmet a
Ġfre te
Ġpag amentos
Ġvegetarian os
Ġdes in
Ġcomp il
Ġserv ir
Ġgl ory
Ġten erife
Ġsever e
Ġesqu i
Ġbloc o
Ġfemin ina
Ġirland a
Ġd ating
Ġs ÃŃn
Ġv enced
Ġre y
Ġk im
Ġencont rou
Ġspec ified
Ġpop e
Ġtransport es
Ġdemand s
w ave
er ies
Ġo mega
ang a
Ġform ed
Ġmost rando
Ġsub c
Ġsty les
Ġwarm s
Ġester Ã³
Ġa ula
Ġf ec
Ġsh in
Ġtest oster
Ġri vers
bil idade
Ġcontinu ed
Ġib m
Ġhostel world
Ġexce p
Ġgab ri
h ado
Ġh ello
Ġsal Ã£o
Ġequip es
Ġmun ique
Ġcomplet os
Ġcert as
Ġselecion ados
Ġpropos al
Ġchi ang
c ement
Ġpar edes
ard a
Ġinf ection
ÃŃt ulos
Ġvel ha
Ġextens Ãµes
Ġconcern ed
Ġestim aÃ§Ã£o
ĠeletrÃ´n icos
Ġcar ton
Ġrel ativa
Ġoper ational
air es
Ġamer icas
Ã´n us
Ġeffect ively
Ġsatis fe
Ġexib ir
Ġfrut as
Ġkore a
ĠcarÃ¡ ter
ĠnÃº cle
t ra
Ġc ated
Ġj ude
st r
Ġhel ic
Ġpublic ation
Ġpat ro
Ġhav en
Ġgran ada
Ġther apy
Ġcn c
ĠvÃ¡lv ula
g l
Ġn one
Ġpara fus
Ġpr ont
Ġdesign ers
Ġsab emos
Ġtiver am
Ġpesquis adores
Ġentreten imento
Ġd ores
Ġb Ã©l
Ġb ought
Ġfor th
Ġon t
Ġla ud
Ġcert os
Ġconsider ada
Ġcham adas
Ġjap onÃªs
Ġinterv ention
Ġfrut os
Ġprol ong
Ġsubse qu
Ġhydra ul
w ear
Ġth omas
Ġre ct
Ġem o
Ġun idas
Ġprim eiras
Ġanalyt ical
v ar
is i
st one
Ġfact s
Ġguest house
Ġtrat ado
Ġassemb le
uls ion
om y
Ġw are
Ġg reek
Ġph p
Ġset ores
Ġjul g
Ġrad ical
Ġannoun ced
Ġjerusal Ã©m
Ġh ier
ri zes
Ġpod es
Ġrec icl
Ġcol oque
co ol
Ġmon et
Ġfre el
Ġgra us
Ġfuncional idades
Ġdescont os
g h
Ġm Ã¡g
ot y
Ġcon cess
Ġest abilidade
Ġpr Ã©m
Ġor ch
Ġtrans it
ian os
Ġgra ve
Ġflex ibility
Ġzur ich
h or
Ġv l
Ġar redores
Ġbr is
Ġpe p
Ġcart as
Ġshar p
Ġintrodu z
Ġvolt age
Ġesque Ã§a
ac as
Ġas ian
Ġch aves
Ġco fre
Ã³s itos
Ġutiliz adas
anÃ§ ais
Ġfund s
Ġwholes ale
es ia
Ġc ed
it is
Ġst rict
Ġres c
Ġi q
Ġall iance
Ġmin or
Ġtrad ition
Ġmerc edes
Ġconsum ers
Ġstre t
Ġdent re
Ġbran ch
Ġdetalh adas
Ġh iv
Ġcont ras
Ġexperiment ar
Ġinim igos
Ġd l
Ġcor p
Ġposs ivelmente
Ġtrad iÃ§Ã£o
Ġcreat es
Ġcompon ente
Ġsend ing
Ġhar bour
Ġvac u
Ġconfirm ed
Ġb Ã´nus
ent er
qu ete
ag ar
Ġch eio
Ġass ets
Ġampl amente
Ġdisponibil iza
Ġentrev ista
Ġdelici ous
p her
Ġp v
Ġs gs
our g
Ġme ga
Ġbut ter
Ġemp ire
Ġtur quia
Ġfollow s
Ġcaus as
Ġlig aÃ§Ãµes
Ġstat ist
Ġnewslet ter
Ġrepres ents
r aliz
s s
in aÃ§Ã£o
Ġs orr
ol ar
Ġsu ave
Ġad e
Ġsp am
Ġnear ly
Ġvisit as
Ġmer ch
Ġaval i
Ġfrequ ently
Ġep id
ĠhistÃ³r icos
Ġaw ar
Ġalber gues
Ġl inda
Ġre gress
Ġinter rupt
Ġvis ible
Ġdel ta
Ġsuper iores
Ġocc urs
Ġvit amin
Ġdrin ks
r ina
r atos
Ġr ender
Ġat let
Ġun ity
Ġatt end
Ġmal ta
Ġdiv ision
Ġexist ente
Ġresist ente
Ġbon ito
Ġexplor aÃ§Ã£o
Ġvaria bles
Ġton el
Ġmarri age
Ġtat to
Ġibook ed
Ġc anto
is cipl
Ġsp ok
Ġass ista
Ġport s
Ġlim its
Ġdocument aÃ§Ã£o
Ġbilh Ãµes
Ġaprove ite
Ġsuje ito
in ity
Ġm iser
Ġl ie
ra fo
Ã© ns
Ġpro postas
Ġmass age
Ġgrav idez
Ġdocument ation
Ġjard ins
Ġphen om
c c
Ġm ate
Ġl ing
Ġprogr esso
Ġequip ado
Ġsand als
Ġch ips
Ġch ief
amb a
Ġmat em
Ġindic adores
Ġdesta que
Ġaprove itar
ĠbÃ©l gica
b ane
ch as
Ġpr ison
ak ers
Ġped ag
Ġwater proof
Ġfacil itar
Ġpert enc
h ops
u z
Ġcom igo
Ġre ject
Ġem pt
Ãµ em
Ġun es
ass em
Ġmo ver
Ġfinal idade
Ġconsum idor
Ġreport ing
dom in
ĠindÃºst rias
Ã± a
Ġcad astre
Ġaquis iÃ§Ã£o
Ġawar eness
e z
Ġc il
Ġp all
Ġre ar
Ġk am
Ġsh ock
av ar
Ġop cional
Ġtur k
Ġlog istics
Ġapl ica
Ġdivulg aÃ§Ã£o
Ġliver pool
g ro
y cle
op hy
vi amente
Ġmar ked
Ġpe g
Ġhol ding
Ġdou bt
f os
am aÃ§Ã£o
Ġsu do
Ġar en
Ġtr u
Ġfil ms
Ġenc ry
Ġant ic
Ġoper acionais
Ġconc ed
Ġcru cial
Ġacadem ia
Ġentr ance
Ġsugest Ãµes
Ġcirurg ia
ĠestÃº dio
Ġm ast
Ġv ars
Ġv endedor
Ġqu entes
Ġis a
ab i
Ġcomb ine
Ġconn osco
Ġfech ado
Ġsuffer ing
Ġviet nam
Ġtoul ouse
p art
Ġpl ana
Ġperson agens
Ġreserv es
Ġescol ar
Ġcontin ental
Ġprot ecÃ§Ã£o
Ġpan am
Ġminist ro
Ġpratic amente
rÃ¡ ul
re en
Ġin vis
if ier
Ġcar o
Ġsp y
Ġdel ay
Ġsc r
ÃŃn ios
Ġorgan isation
Ġluz es
Ġmonitor amento
Ġconsult ing
Ġcapt ure
Ġinscre va
ĠbÃŃbl ia
Ġdeuts ch
Ġb p
Ġl akes
qu ar
Ġat ivo
Ġsobre t
Ġnas ceu
Ġbro ken
Ġdig est
Ġsab em
ĠmÃŃn ima
Ġsuje itos
Ġpartilh ar
Ġsymb ol
Ġb rig
Ġj ers
ag n
Ġcan a
Ġbar ri
Ġz onas
Ġmap as
Ġcot aÃ§Ã£o
Ġhid rÃ¡ul
Ġfilt ros
Ġreve aled
Ġencom enda
Ġastronom ical
Ġpolu iÃ§Ã£o
c ope
Ġr ug
Ġr uns
ig en
Ġen x
Ġorganiz ar
Ġindiv ÃŃduo
Ġcir cle
Ġbi od
Ġcrist Ã£os
Ġmetrop olit
Ġcircunst Ã¢ncias
ĠprÃŃnc ipe
Ġd all
Ġro de
Ġcol una
Ġbo ys
Ġbook ed
Ġgol fe
Ġcresc ente
Ġencoura ge
Ġh ell
Ġv ess
og os
Ġle x
Ġsegu indo
Ġenter ed
Ġintel ectual
Ġprior ity
Ġdecid ir
Ġgene va
Ġcorrig ir
Ġdian abol
h us
ra gem
Ġest ilos
Ġap er
av ia
Ġesc ond
Ġpoder iam
Ã³n ico
Ġprin cess
Ġagricult ura
p res
Ġ iva
Ġv enc
Ġdo gs
Ġpol eg
anc er
Ġoper ator
Ġvol umes
je Ã§Ã£o
Ġintegr ado
Ġgal van
Ġoferec idos
Ġproduz ido
Ġinteract ion
Ġwars aw
Ġchron ic
Ġvacu um
en ia
Ġf d
Ġqu eda
Ġpl enty
Ġbr ist
Ġrespon deu
Ġstr ing
Ġapresent ou
Ġoferec ido
Ġstock holm
Ġign or
Ġdisap point
Ġd w
Ġar co
Ġrec ycl
amb ul
Ġpoder oso
Ġll c
Ġhosped agem
Ġdial ogue
Ġestrange iros
w est
Ġl ets
Ġam ester
Ġind irect
Ġfav our
Ġcho ices
Ġemb aix
Ġcard ÃŃ
Ġposit ions
Ġexpect ations
Ġfinanci amento
Ġd iction
ot ec
Ġsu Ã©cia
Ġac know
Ġmin h
Ġind is
Ġte us
Ġmerc ador
Ġcompet Ãªncias
Ġcirc uit
Ġju vent
Ġsolic itaÃ§Ã£o
Ġacompanh ar
Ġdomin ic
Ġenab led
Ġalde ia
Ġthe oret
Ġv at
Ġcom em
Ġpar cial
Ġse al
ust ria
Ġfre q
Ġunivers idades
Ġstart up
Ġsat an
Ġpay ments
Ġcancel amento
sh ot
Ġnar r
Ġcott age
ĠespaÃ± ol
Ġm ine
om i
Ġan el
Ġcom ece
Ġg ym
Ġr enda
Ġro ub
Ġdas h
ÃŃl ios
Ġtrabalh am
Ġreason able
e os
v oc
it ada
Ġun fort
ind ing
Ġequip ados
Ġtravel ing
Ġevery day
Ġsl ip
Ġdin amar
Ġtransform ar
Ġworks hops
Ġsn ack
uc ks
Ġdre ams
Ġdisponibil izados
Ġadolesc entes
Ġcarib bean
stand ing
Ġn int
Ġw ake
Ġl ifest
el p
ec ia
Ġsu bl
Ġen orm
Ġmar io
Ġbr ilho
Ġmelh ora
Ġaccom pan
Ġtransform ation
Ġfunctional ity
f u
Ġthe ater
Ġto ys
ul hos
Ġos aka
Ġus amos
Ġol ive
Ġhealth care
Ġmov ed
Ġsignific ativa
Ġauthor ized
Ġbol as
Ġhour ly
Ġtranspar ent
hold ers
Ġpho en
m outh
Ġt inta
Ġh ide
Ã§ ada
Ġj Ã³
Ġk ir
oun ce
Ġind ica
ios a
Ġfac ult
Ġsmall er
Ġmodern os
Ġcamp inas
Ġentr adas
Ġeps on
Ġamester dÃ£o
b ud
p ace
Ġs co
Ġv apor
Ġse af
ig r
Ġac Ã§Ã£o
Ġwor ry
out s
Ġunivers ities
ÃŃm p
Ġmaintain ed
uck land
Ġexerc ÃŃcios
Ġpoll ution
Ġespess ura
Ġinfeliz mente
Ġsobret udo
p ap
Ġe ating
Ġinter aÃ§Ã£o
Ġcor k
Ġcam bridge
Ġmil ÃŃmetros
Ġpower ed
Ġsl im
Ġconhec idas
Ġsi em
Ġbris bane
ic Ã¡cia
Ġh ort
ens o
Ġdis ord
Ġprodu cing
ĠÃ¡ ustria
Ġcri ando
Ġorgan ize
Ġtur b
ĠÃ³ b
Ġrevol ucion
Ġpossibil idades
Ġa uckland
Ġpro cl
ter o
st ation
Ġcont endo
Ãº rg
Ġel astic
Ġtra cking
Ġx xx
Ġconf ira
Ġche ga
Ġfornec em
Ġd ancing
Ġc igar
Ġse eds
Ġra ise
Ġconsum e
Ġcertific ados
Ġmicro f
Ġapropri ado
Ġenfer m
Ġnint endo
a way
Ġan at
Ġbras ÃŃlia
Ġsl ot
Ġelect ro
Ġmont anha
rim ento
Ġang le
Ġvoss a
Ġmich el
Ġpne um
Ġdanger ous
Ġp d
Ġl ies
Ġcar l
Ġpri ze
Ġprecis e
Ġgl or
bil ity
Ġtempor ary
Ġfra ud
Ġbox es
Ġprovis ions
Ġb un
Ġg aut
ir Ã£o
Ġor le
Ġdes ired
Ġam plo
Ġsp ots
Ġair ways
Ġer rado
Ġhol e
Ġaplic Ã¡veis
Ġdivers ity
Ġcoloc a
Ġdiagn ost
Ġhabit antes
Ġfight ing
Ġd ot
Ġc edo
Ġf ator
ou d
Ġg aming
Ġac eder
Ġprocess ed
Ġmen ina
Ġhol der
Ġlocaliz ados
Ġadequ ados
Ġaddress es
Ġdisplay s
Ġmanag ing
Ġconclus ion
Ġconqu ist
Ġseb ast
c ado
Ġf ui
re y
Ġpara ÃŃ
pl an
Ġac ion
Ġtemperat uras
Ġpublic ar
Ġmonth ly
Ġreceb ido
Ġbroad cast
Ġvitam ina
i at
Ġo vers
Ġh art
ac ial
Ġst ages
igh ter
Ġmal ici
Ġtorn am
Ġprote ÃŃna
ĠpolÃŃt ico
pr int
Ġbreakfast s
Ġsuccess fully
Ġmeteor ologia
Ġgrat is
s or
Ġt ang
Ġg ul
ci ous
Ġme g
Ġbo ots
Ġban heiros
Ġconsider a
Ġtre ino
Ġmol ec
Ġmobil idade
Ġmix ed
Ġequival ente
Ġa ids
Ġs ierra
en z
Ġl ens
ac te
ist os
Ġsa ia
Ġfin land
Ġnov otel
Ġext ent
Ġsegu e
Ġatt ribut
Ġlearn ed
Ġclar amente
Ġdipl om
Ġincred ible
w ich
Ġsc ope
Ġvo ar
Ġlux uri
Ġextern o
Ġcarri ers
Ġexcurs Ãµes
Ġb its
Ġan avar
il ia
Ġpl en
ru ck
Ġta ip
Ġblock chain
Ġguang zhou
Ġexplo itation
Ġs b
ri ve
Ġwill ing
Ġmost ly
Ġresol ve
Ġmeas uring
Ġbeb ida
Ġtail Ã¢ndia
Ġcanc ell
r ence
w ei
il iar
Ġme als
Ġjog ado
Ġplac as
Ġstand ing
ĠcÃ¡ ps
Ġwro te
p y
er mo
ar l
Ġcur ric
Ġprom oc
Ġef icÃ¡cia
Ġmant enha
Ġtown s
Ġtub os
Ġdifficult ies
h ua
Ġth or
Ġdo ce
iz am
Ġtr ump
Ġam end
vi os
ach e
Ġresult ante
Ġregul ament
Ġdet ection
Ġpros pect
Ġprob abilidade
Ġcomand os
Ġafford able
Ġjor ge
Ġe du
Ġe go
Ġst ated
Ġsa u
Ġtec lado
fort able
Ġacess ÃŃveis
Ġjap ones
Ġtext os
Ġexpos ure
Ġjud g
Ġpromot ing
Ġvig il
ĠquÃŃm icos
Ġimposs ÃŃvel
Ġdificul dade
Ġdistribut ed
Ġdoll ar
aver a
al ia
Ġl Ãª
Ġpr ost
Ġass em
gr y
Ġint l
Ġrealiz e
Ġregist ros
Ġextern a
Ġmaravilh oso
Ġportfol io
r ise
it udes
Ġb ulg
Ġma ur
Ġst an
Ġpl ain
ous es
enc ing
Ġinclu ÃŃdos
Ġgl Ã³ria
Ġapar ece
Ġconcent ration
Ġmec Ã¢nica
v amos
Ġs ounds
Ġf idel
Ġn ine
Ġv iva
Ġg ang
et ies
Ġst un
Ġrec ife
Ġset up
Ġfavor ito
Ġwin ning
Ġgost ar
Ġcaf Ã©s
Ġinteress ados
Ġamerican os
Ġregard less
Ġrepl ace
Ġuncom fortable
Ġconvinc ed
Ġvars Ã³via
Ġ iz
Ġt atu
Ġd ÃŃ
Ġin ex
Ġse am
Ġen ds
Ġmin ibar
man n
Ġemb ra
Ġverdade iramente
Ġcontem pl
Ġposit ivo
Ġhosped agens
Ġtradu z
Ġtrail er
Ã©dit os
Ġhydraul ic
e u
ic on
Ġin her
Ġsu fficient
Ġappl ies
Ġnor ue
Ġsumm ary
ĠrÃŃg ido
h u
Ġa ze
Ġt ive
Ġh b
Ġmod ules
pe g
Ġvi u
orn o
Ġjan elas
Ġcomb ate
Ġorigin ais
Ġsurround ed
Ġthick ness
in to
re do
re bro
Ġb ordo
Ġto ward
Ġque bra
Ġat enas
Ġar ray
to od
Ġsel v
Ġpes ca
Ġbel t
Ġcorre ta
Ġcrist al
Ġtransl ations
Ġconstant emente
Ġist ambul
erd ale
t able
en Ã§Ãµes
Ġr g
Ġout ono
Ġcontact ar
Ġcreat or
Ġperman ece
Ġexpect ativas
iabil idade
Ġfamos o
Ġdefinit ely
Ġantec ed
Ġdiscl os
Ġstrugg le
r s
Ġch ick
Ġent idade
all el
Ġfin anÃ§as
Ġprocess or
Ġlim par
Ġconstru ÃŃda
Ġconsider aÃ§Ã£o
Ġfund amentais
Ġsecond ary
Ġindic ated
Ġori ental
Ġdeb ian
Ġdiscover y
Ġtut orial
Ġlegisl ation
Ġsain do
Ġshut tle
Ġhus band
Ġd Ã£o
Ġf apes
ul u
ch ing
Ġes o
Ġou vi
Ġdis hes
Ġass ume
Ġoff line
Ġnas cer
Ġbet a
Ġbot Ãµes
Ġtravel ling
Ġcomput aÃ§Ã£o
Ġsin ta
Ġextens ions
Ġdivers e
Ġta ught
ĠÃ³rg Ã£os
Ġlaud erdale
Ġg amb
ter a
Ġprogram ming
Ġconhec idos
Ġeg ito
Ġexclu ir
Ġglob ais
t p
Ġr ul
Ġcont ido
az z
Ġesp elho
Ġmembers hip
Ġobt idos
Ġalumin ium
Ġfapes p
r itas
Ġb ass
ut er
ess em
Ġper ante
Ġman ila
Ġinv ited
Ġhost s
li ke
ĠbÃ¡s ica
Ġincom pl
Ġhr s
Ġenem ies
Ġtrajet o
Ġdaugh ter
Ġjers ey
s urf
Ġa head
en burg
Ġdes lig
Ġmod ified
Ġfil ha
Ġinf ecÃ§Ã£o
Ġens ures
Ġlet ras
Ã³n ica
Ġindic ate
Ġconsult ar
Ġadjust able
Ġkill ed
Ġfrances a
Ġcated ral
ve y
Ġknow ing
Ġfac ing
Ġchar ming
Ġinn s
Ġdiret Ã³rio
Ġcy ber
Ġaprov aÃ§Ã£o
Ġbear ing
Ġsinc ron
Ġdistin ct
Ġphoen ix
er ge
Ġde vol
Ġin gress
Ġand re
Ġre is
Ġch ama
Ġsh ift
ater al
Ġaut oc
Ġx clus
Ġger encia
Ġwhat s
Ġdet ecÃ§Ã£o
Ġran k
Ġconfl itos
Ġimmedi ate
fit ri
Ġb oc
Ġh ect
ac ht
ag ers
Ġdis h
Ġz en
Ġspe ech
Ġcus ta
Ġmultif un
p age
u ador
ou ro
Ġg y
Ġg one
ell i
Ġinform ed
Ġbar i
Ġfin ais
Ã¡l ias
Ġadap ter
Ġrecomend amos
Ġconfl ito
Ġgraph ic
Ġfamos a
Ġmachinery zone
Ġcolon ial
ĠfÃ³rm ula
Ġt ape
at ul
Ġj in
Ġrece itas
Ġcomun icar
Ġrefer Ãªncias
Ġcontr atos
Ġru ÃŃdo
Ġrelax ar
ĠmÃ³d ulos
Ġprotocol o
Ġreconh ecer
Ġsher aton
Ġlogot ipo
Ġt il
Ġn ylon
cl ar
co ver
Ġmost ram
Ġprim avera
Ġvol unte
Ġexpl ica
Ġol ho
Ġarri ved
Ġsuggest ions
Ġolh ada
Ġemiss Ãµes
Ġbrist ol
Ġc et
Ġp ants
Ġj im
Ġrel iability
Ġaqu ela
Ġvers at
Ġlar an
Ġobject ivo
Ġce o
Ġconsult oria
Ġfour th
Ġnut rit
Ġthought s
Ġsubsc ription
Ġbron ze
Ġtheoret ical
Ġp aixÃ£o
Ġb d
Ã© us
Ġdes necess
Ġcal m
Ġsuppl ies
Ġcontribu iÃ§Ã£o
Ġfisc al
Ġfarmac Ãªut
Ġlovel y
Ġgaut eng
in um
Ġe ixo
Ġf s
em n
Ã¡ culos
ha us
ub le
Ġgu ad
Ġir re
Ġconsum ir
Ġsac os
Ġsurpre end
v am
Ġv Ãªm
Ġrel ativas
ĠestÃ¡ vel
Ġorgan is
Ġreview ers
Ġmat ters
Ġback pack
Ġamb as
Ġindic ators
Ġhair d
Ġfest iv
Ġscan ner
Ġinqu Ã©r
ed oria
Ġre Ãºne
ab ad
que za
Ġesc ap
Ġcomplet ar
Ġhol lywood
Ġmanual mente
Ġscre w
Ġguid ed
Ġexcept ional
Ġtiss ue
Ġww w
r in
Ġs orte
Ġw ard
Ġro w
Ġrec us
Ġprecis arÃ¡
Ġemail s
Ġexpos iÃ§Ãµes
Ġvest uÃ¡rio
Ġaspect o
Ġox id
Ġconex Ãµes
Ġcool ing
Ġfilos of
Ġransom ware
Ġt amp
Ġim plic
Ġun necess
Ġfaz emos
Ġcab os
Ġstand s
Ġmor oc
Ġvest ir
Ġcompos ed
cast le
Ġcumpri mento
Ġequil ib
Ġsuplem ento
Ġbrasile iros
Ġintroduc ed
p c
s ters
Ġp ico
Ġum as
Ġdi ariamente
Ġdirect ed
Ġdu plic
Ġtal ent
Ġpost al
Ġacqu is
Ġmobil ity
Ġinvent ory
Ġcopenh agen
Ġvalu able
Ġp ione
Ġun for
Ġreg ener
Ġemp r
Ġespecial ista
Ġpat r
Ġcomb at
Ġdou ro
Ġuk raine
ĠavanÃ§ ados
Ġpercent age
Ġfing er
Ġcongr esso
Ġh ur
Ġpara b
Ġcont acte
Ġwe alth
Ġreg ra
Ġdel hi
Ġsee ing
Ġchar ges
Ġcop per
Ġengine er
Ġvaria ble
Ġcolum n
Ġlifest yle
Ġt ong
Ġin ac
Ġan ch
Ġv ed
Ã© ct
oc ks
Ġsh orter
Ġmore over
Ġpass ando
Ġdesc rito
Ġcompl y
Ġsur ge
Ġtrad uÃ§Ãµes
Ġperf is
ĠpolÃŃt icos
Ġtrat amentos
rom p
Ġincreasing ly
r esso
z za
Ġp n
Ġg at
Ġsim p
rib e
Ġstud ios
Ġlist ening
Ġsab edoria
Ġcapac idades
Ġson hos
ven ir
Ġrecogn ize
Ġpattern s
Ġdynam ics
b ing
Ġs ides
Ġe ther
Ġb le
Ġy oga
Ġj i
Ġmanual ly
Ġinvest ments
Ġconfirm aÃ§Ã£o
Ġestiver em
Ġcrit ic
Ġbring ing
Ġagricult ure
Ġfortal eza
Ġzel Ã¢ndia
Ġmh z
em i
us ion
Ġfr uits
ari am
Ġten nis
Ġactiv idade
Ġdispos iÃ§Ãµes
Ġunders tood
Ġdever Ã£o
Ġachie v
Ġwid get
Ġtranspar ente
ĠÃ¡l cool
Ġastron Ã´mico
Ġetern al
Ġqueb ec
pap ers
Ġt b
Ġd na
Ġin k
ot te
ast s
Ġpo ols
Ġfal ando
Ġlog ÃŃstica
Ġarch ive
Ġaz ure
Ġbag agem
Ġenvolv idos
Ġexplain ed
Ġwikip edia
Ġunfort unately
g ers
Ġd our
qu io
Ġan fitri
Ġwor ship
Ġcr Ã©ditos
Ġcome Ã§o
Ġped a
Ġapar ecem
Ġshort s
Ġcommunic ate
Ġadditional ly
Ġjohn son
Ġpurch asing
Ġevalu ated
Ġconfort Ã¡veis
Ġhigi ene
Ġdall as
re am
Ġn ick
Ġcons id
Ġpers egu
Ġcer veja
Ġopt ical
Ġrepresent ative
Ġsubst it
Ġcaracter ÃŃstica
Ġnaveg adores
Ġpul s
ĠclÃŃn ica
er b
Ġm x
Ġn c
Ġn ad
Ġg ri
us ers
Ġon da
end ar
ress e
Ã´ s
itu ais
Ġdec reas
Ġforn o
Ġsab ia
Ġrequire ment
Ġpain Ã©is
Ġsand Ã¡lias
Ġben z
Ġclos er
Ġko h
Ġsobrev iv
Ġkilomet ers
Ġd entes
Ġc ento
it ados
Ġre je
ac os
Ġfr anÃ§ais
Ġdesc end
Ġfac ial
Ġtotal ly
Ã©r ico
Ġwatch ing
Ġinici ativas
Ġemot ional
Ġsoz inho
Ġinter d
iss e
ativ ity
Ġoper ador
Ġcontrol ador
Ġsus hi
Ġrepresent antes
Ġexer cer
Ġcou ch
Ġexig e
Ġlater al
Ġmunicipal ity
Ġseat tle
Ġphilos ophy
h al
Ġp up
Ġh z
em as
Ġre tain
Ã³ i
Ġpe gar
Ġtec idos
we ight
Ġmult ic
Ġlig ar
Ġaust in
Ġpurch ased
en b
on do
ab el
Ġat iva
Ġdire cion
Ġserv es
Ġcal le
Ġsur pres
Ġmov ements
Ġtransfer ir
Ġclaim s
Ġvag inais
Ġbil ba
Ġpeix es
b ed
Ġt l
Ġd ito
Ġl amb
Ġap re
Ġsec Ã§Ã£o
Ġdef ender
Ġunder ta
Ġur ugu
Ġweek ly
Ġlimit ado
Ġdoct ors
Ġye ah
Ġhaver Ã¡
Ġlinked in
Ġabsolut ely
Ġluxuri ous
b ow
Ġal d
Ġpre domin
Ġtem p
Ġprof iles
Ġsl ov
Ġappro val
Ġsubst Ã¢ncias
ĠperÃŃ odos
zz i
Ġcombo ios
Ġbols as
Ġamarill asc
f und
l ar
Ġs ut
ad ing
Ġl m
Ġj as
Ġall oy
Ġter ras
Ġcaus ing
Ġmor adia
Ġdivers Ã£o
Ġhar vest
Ġendere Ã§os
Ġmobil iÃ¡rio
Ġsen ior
Ġpoly ester
Ġtrust ed
Ġry okan
Ġrit mo
Ġslight ly
Ġwis dom
ĠcÃ¢n cer
Ġp um
ers t
Ġen ri
bl ed
Ġinsp iraÃ§Ã£o
Ġconsist ent
Ġines quec
Ġpanam Ã¡
d ong
Ġs ic
Ġh abil
Ġl yn
int as
Ġcer amic
Ġescol he
Ġhuman ity
Ġdiss emin
Ġcompress or
Ġh l
Ġk in
Ġac us
Ġro lex
Ġesp osa
Ġger ente
Ġped ras
Ġexc iting
Ġmagn etic
Ġcandid atos
Ġgh z
Ġprofund idade
Ġunnecess ary
Ġc Ã£es
ia h
Ġma qu
Ġgr ill
Ġph ones
Ġbra cel
Ġautom ated
Ġfal ha
Ġamea Ã§a
Ġd p
or i
Ġb ung
im bra
Ġal ign
Ġst ake
Ġins ul
Ġdeix ou
Ġcru ise
Ġgas es
Ġbutton s
Ġganh ou
Ġdiagn osis
Ġmilit ares
Ġnord este
Ġfrig or
Ġjuvent ude
s et
y er
Ġth ai
Ġcam inhos
Ġaf irma
Ġvisit s
Ġret ir
Ġdri ven
Ġcour ty
Ġconfig ure
Ġpens ion
aro om
Ġconvers ar
ĠcÃ© rebro
Ġfurther more
Ġburn ing
or gan
pl y
Ġim un
Ġra ised
Ġcri mes
Ġjun tar
Ġdescri pt
Ġpap o
Ġproxim idade
Ġcong el
Ġcach e
Ġtransf ers
p ad
v Ã£o
Ġt ire
ar as
ic ia
Ġpara graph
aliz ar
Ġtrad ers
Ġtemperat ures
Ġdownload ed
Ġil leg
Ġlet ters
ĠcomeÃ§ ando
Ġflor enÃ§a
Ġrus so
w orth
Ġp and
Ġent ities
ĠestÃ¡ gio
Ġconf ront
ath ers
Ġinterpret aÃ§Ã£o
Ġincent iv
f ei
m un
Ġm umb
Ġf ita
it ou
Ġl s
Ġmar rak
Ġrel ative
Ġpe o
Ġop cionais
Ġgu y
Ġint enÃ§Ã£o
ĠmÃ©d ias
Ġperf ume
Ġquant it
Ġminim al
Ġperce ber
Ġsurround ing
Ġsuger imos
host al
x a
Ġper igo
Ġesp ir
Ġant iox
Ġsoc cer
Ġref in
Ġapresent ados
Ġdiv is
Ġcompar ador
Ġmem orial
Ġinfo hostal
Ġtell s
Ġetiqu eta
Ġanalyz ed
Ġmet r
Ġke e
ĠhÃ¡ b
Ġsl ides
Ġmud ou
Ġdeb t
Ġpret end
Ġstrength en
ĠdÃ©c adas
Ġinqu iry
Ġunes co
a qu
c ers
g ada
Ġt t
ec as
ch al
Ġrel ating
Ġget aroom
Ġace itaÃ§Ã£o
Ġatac ado
Ġinhab it
Ġp am
Ġbe ings
ari os
Ġjo h
Ġil im
Ġinsp ection
Ġjud icial
Ġelim inar
Ġdesfr ute
Ġconserv aÃ§Ã£o
Ġdesl oc
Ġisl am
Ġantiox id
Ġa q
Ġc ow
Ġp it
Ġm ile
Ġqu ot
Ġon to
Ġst orm
iz ador
Ġinc ap
Ġdu che
Ġcop a
Ġaer on
Ġagre ements
ogrÃ¡f icas
Ġbloc os
Ġpros per
Ġpreocup aÃ§Ã£o
Ġproteg ido
Ġplas ma
Ġl ith
Ġfl ut
Ġmod ify
Ġmod ificar
Ġmov iment
Ġarr an
Ġverm elha
Ġconsequ ences
Ġslee ps
ĠcÃŃ r
Ġcor on
Ġpress ion
Ġson o
Ġmedic amento
Ġlab our
Ġrepl y
Ġestablish ment
Ġexib ido
Ġpropriet Ã¡rios
Ġintellig ent
Ġlaund ry
Ġt ome
Ġm sc
Ġl iability
Ġst ack
Ġsh am
Ġna ples
Ġdis ab
Ġprov oc
Ġart istic
Ġfun ny
Ġoper ated
Ġdirect amente
Ġpos to
Ġaplic ada
Ġdr um
Ġchrist ians
Ġfra gr
Ġexclus ivamente
Ġbon ita
Ġnor way
Ġferro viÃ¡ria
Ġrepar aÃ§Ã£o
Ġweap ons
Ġd ica
Ġf ides
Ġan onym
Ġg il
Ġj r
Ġpod ia
Ġmar ÃŃtim
Ġx e
Ġpol ar
Ġperson agem
Ġmal aga
Ġfund ada
Ġlev ando
Ã³p olis
Ġcirc ular
Ġdiss ert
Ġmoder ate
Ġsev ilha
Ġluxemb ourg
l Ã¢ndia
Ġf ellow
ch i
Ġfr as
Ġaf ili
Ġlimit aÃ§Ãµes
Ġcorpor al
Ġelectric ity
Ġviv em
Ġvict or
Ġfis her
Ġhighlight s
Ġf Ã£s
am as
Ġg elo
ut t
Ġk as
Ġprocess ador
Ġdevelop ers
Ġtro users
Ġfel icidade
Ġfres co
Ġinspir ation
Ġempt y
v d
Ġs ente
at ies
Ġan abol
Ġj ump
Ġbe ber
Ġfo x
Ġentre gar
Ġperm ission
Ġste ak
br id
Ġmanag ers
Ġgas olina
Ġdesp esas
Ġlen ovo
Ġcircul aÃ§Ã£o
Ġgif ts
Ġfilosof ia
Ġb ate
Ġex it
Ġco ating
Ġsim plic
anc ar
Ġdec ades
Ġpubl icaÃ§Ãµes
Ġmat ches
Ġpat ch
Ġdownload ing
Ġmanu el
Ġemb ed
com es
Ġrob ust
Ġreact ion
Ġgrant ed
Ġmetod ologia
Ġoffic er
Ġjp g
l og
Ġd icion
Ġp Ã¡t
Ġb ench
Ġn h
Ã§ al
Ġes g
Ġbr anc
Ġmot ores
Ġvisit or
Ġautom Ã³vel
Ġenvi ados
Ġaccount ing
ĠeconÃ³m icas
Ġwol f
Ġturk ish
Ġc Ã£o
Ġport ra
Ġra ck
Ġclass ified
Ġsl ide
Ġrefer ences
Ġregist rar
Ġmac ro
Ġexecut ivo
Ġcondu Ã§Ã£o
Ġjack et
Ġjewel ry
Ġmumb ai
Ġs ister
Ġto car
Ġal leg
Ġat m
Ġconv enÃ§Ã£o
Ġespecial izado
Ġlook ed
Ġnatural mente
Ġsecret Ã¡ria
Ġtiv emos
Ġassass in
Ġt c
Ġde grad
Ġu cr
Ġmar ks
Ġtrans iÃ§Ã£o
ace utical
Ġconc ret
Ġnome adamente
Ġfig ures
Ġeg g
Ġnut ric
Ġadministr ador
Ġg ad
im ar
Ġr j
ach i
ie x
Ġstruct ural
Ġacompanh amento
Ġesport e
Ġpier re
Ġpeo ples
Ġar th
Ġqual ified
Ġrel at
Ġesc rav
Ġdri ves
Ġcann es
Ġrepair s
Ġbirth day
h r
u idade
Ġa ur
Ġs g
en Ã§o
Ġb urg
ch t
ly n
Ġrec ar
Ġaf ast
Ġra inha
Ġprov eni
Ġmet Ã¡l
rib ute
Ġref res
Ġespecial izada
Ġunder ground
Ġedit orial
Ġcop o
Ġcham ber
Ġapar elhos
Ġmess eng
Ġdial og
ĠeletrÃ´n ica
Ġtransact ions
Ġimped ir
Ġphilip p
Ġcourty ard
ar ks
ra g
ra in
Ġest iv
Ġag es
Ġco verage
Ġvari Ã¡vel
Ġdefin ido
Ġden ver
Ġconstitu i
Ġconvid ados
ĠcrÃŃt ica
Ġenfrent ar
g ary
h em
Ġs ri
Ġw ines
ec Ã§Ãµes
Ã¡ r
Ġbel as
Ã³l io
Ġoce ano
Ġiniti atives
Ġadvertis ement
Ġdiction ary
Ġd n
Ġfor ced
Ġch ances
Ġk i
ap olis
Ġmar ro
Ġnew castle
Ġvol vo
Ġhist Ã³rica
Ġrespect ive
Ġfinance iras
Ġstra w
Ġdut ch
Ġsud este
Ġfus ion
Ġmath emat
Ġseaf ood
y ard
os idade
Ġk iev
vi era
Ġro da
cl er
Ġtra ct
Ġhe ights
Ġact ing
Ġperm issÃ£o
Ġmat Ã©rias
Ġeurope us
Ġcin za
Ġwall paper
Ġden mark
ĠdifÃŃ ceis
Ġbish op
Ġluxu osos
Ġbung al
Ġpro hib
Ġfor ever
Ġdesc ul
Ġtest ar
Ġexec ution
Ġcontr ad
Ġperiod s
Ġdam aged
Ġprotect ive
Ġpossibil ities
Ġdh l
Ġchampions hip
Ġadvog ados
Ġencoun ter
h ow
v nik
Ġd ubro
Ġm n
Ġb olog
Ġv m
Ã¡ culo
Ã© e
ur ada
Ġst ro
Ġmar gar
Ġbr ad
pos ters
Ġtermin ar
Ġaccept ance
Ġham pton
Ġconcord ou
Ġacredit a
Ġsor ry
Ġattach ed
Ġmiser ic
c ase
f ru
Ġn aÃ§Ã£o
el i
Ġr ice
Ġcomp osta
Ġcri ados
Ġdi oc
Ġins ights
Ġreview ed
Ġgame post
Ġexclus iva
Ġattract ive
Ġguarante es
Ġbreat h
Ġma u
ab eth
Ġou Ã§a
Ġapresent aram
ĠfÃ¡ ceis
Ã©t icas
Ġdefin iÃ§Ãµes
Ġaccom pl
Ġquant os
Ġindic ado
Ġacqu ired
Ġcredit s
Ġtradu ction
ĠcÃ¡l culo
es c
Ġp ets
Ġp iano
Ġh orn
Ġsh ap
Ġpre cios
vi am
Ġz omb
Ġcre me
Ġsecret ary
Ġprofund a
Ġabrang ente
Ġassemble ia
k ar
o is
Ġo as
on ha
Ġthe e
Ġto xic
Ġsp o
Ġmod ular
Ġplay s
Ġhead quar
Ġjorn ada
Ġaward ed
Ġamea Ã§as
Ġpharm aceutical
Ġtatto o
Ġpoleg adas
Ġorle ans
Ġdubro vnik
w ar
ol ine
Ġat os
Ġus Ã¡
Ġent ra
Ġmar cos
Ġpequ im
Ġhav ana
Ġartic ul
Ġmethod ology
ĠavanÃ§ ado
Ġdetalh ada
ĠtÃ³ quio
v ido
Ġl ect
Ġl ados
Ġk ara
vi k
Ġel iz
Ġcri ador
Ġmost rado
Ġdev o
ĠmÃ¡ r
Ġfel izes
Ġclos et
Ġinclus Ã£o
Ġconclu ir
Ġcole gas
Ġdipl oma
Ġbos ch
Ġy ama
Ġtr ucks
Ġmar ido
Ġport land
Ġbl an
Ġint ense
Ġutil ity
Ġtw enty
Ġobserv ar
Ġdesco berta
Ġacab amento
ĠnÃºcle o
o ff
Ġe ase
Ġg Ã©
est h
Ġre ward
Ġne v
Ġcons elhos
Ġcam eras
Ġav es
Ġext end
Ġinf Ã¢ncia
Ġcal orias
Ġpos iÃ§Ãµes
Ġjun ior
Ġcond en
Ġenvi ou
Ġesper o
Ġmotor cy
Ġhapp iness
Ġimplement ed
Ġpropor Ã§Ã£o
Ġoccur red
Ġdefici Ãªncia
Ġaccompan ied
b ras
Ġg az
Ġsub t
Ġcal gary
Ġsign ature
Ġhol anda
Ġexpress ed
Ġrepresent atives
ĠcÃ³d igos
Ġpix el
ÃŃcul as
Ġtradem ark
v et
Ġa ri
Ġt f
Ġt one
Ġw rap
ly ing
Ġsp ark
Ġtur ÃŃstico
Ġautom aÃ§Ã£o
ĠÃ³ culos
Ġmac au
Ġresid ents
Ġreturn s
Ġobrig aÃ§Ãµes
Ġdemonst rar
Ġescre veu
Ġquadr ados
Ġras p
Ġcongr atul
Ġn oc
Ġh ay
Ġno ve
Ġun w
Ġpo bres
Ġgen etic
Ġconc urso
Ġfal e
Ġconsider ados
Ġsens ores
Ġcat Ã³lica
Ġmor rer
Ġge omet
Ġregion ais
ĠprÃ© vio
Ġsug ere
Ġdens ity
Ġcircu ito
Ġtonel adas
Ġsudo este
Ġstun ning
l u
Ġpar an
Ġest ocol
Ġat uaÃ§Ã£o
Ġam ino
Ġall posters
Ġtim or
Ġpublic ations
Ġmal ay
Ġing les
Ġsitu a
Ġintegr ada
Ġcompre end
Ġtex til
Ġtransl ate
Ġadm it
ĠbÃ¡s icos
Ġfaith ful
Ġexplain s
Ġocas iÃ£o
i amente
Ġad am
Ġnov idades
Ġho ok
Ġchur ras
Ġpersonaliz ed
Ġestocol mo
Ġv etor
Ġr amos
Ġcont atos
Ġad hes
amb u
Ġliv rar
Ġsch ol
Ġpersonal ly
Ġlow est
Ġembal agens
Ġmerg ulho
Ġmecan ismos
Ġt ij
os amente
Ġar k
Ġcar p
Ġvoc ab
Ġnear est
Ġbase ados
Ġgovern ments
Ġtent ativa
Ġbol iv
Ġpersonaliz ados
Ġsuggest ed
Ġflu id
Ġvoss os
Ġinser ir
Ġemiss ions
Ġacord os
Ġappoint ed
ĠhÃ´t el
surf ing
Ġal ive
Ġal erta
te x
Ġesc uro
Ġprov en
Ġgra y
Ġdig ite
Ġcost um
Ġdiv ul
Ġspeak er
Ġlav and
Ġcorrect ly
Ġesquer do
Ġtransact ion
f un
t ic
Ġm Ã¡l
Ġb art
ing en
op ol
Ġcontro les
Ã©s ter
Ġquer er
Ġexist ir
Ġalt itude
Ġdecor r
Ġconfirm ation
Ġalun o
Ġther m
Ġcarri er
Ġpec ados
Ġexcurs Ã£o
Ġcole Ã§Ãµes
Ġaus Ãªncia
Ġhua wei
Ġc ake
Ġn s
Ġse oul
ag ne
Ġtrans ition
Ġx ml
get table
Ġsin s
Ġapresent ando
Ġmult id
Ġrom ance
Ġmotor ola
Ġindepend ence
Ġdiss ol
Ġarri ve
Ġox ford
Ġfill ing
Ġtiv esse
Ġsched ul
Ġfif a
hot els
Ġshado w
Ġunfor gettable
v ant
w i
or king
Ġb oss
Ġn r
Ġcam adas
Ġnew ly
Ġpubl ishing
Ġdetermin ados
Ġnave gar
Ġaff airs
Ġblog s
Ġmig r
Ġajust ar
Ġenem y
ĠtÃ¡ xi
Ġbach el
Ġpoli Ã©ster
d b
en on
at Ã³rias
ro ta
Ġmar x
Ġcol her
Ġrem ind
Ġrest riÃ§Ãµes
Ġsalv aÃ§Ã£o
Ġarg ument
Ġsess ions
Ġregular ly
Ġpisc inas
Ġposit iva
Ġdens idade
Ġimobil i
b ell
Ġs ne
Ġe jac
st ic
th e
Ġam p
Ġref ug
Ġcult uras
Ġtom ato
Ġrest or
Ġpens amentos
dr ome
Ġpeters burg
Ġstatist ical
Ġre ap
Ġbe ira
Ġun like
pe ar
Ġspec ify
Ġsk irt
Ġsearch ing
Ġfal has
Ġpress ione
Ġdetal he
Ġfrequ entes
Ġconj untos
Ġemploy ee
Ġmort os
Ġnest es
Ġcatar ina
Ġincorre ct
Ġt iff
an na
Ġpar ent
Ġst uff
Ġus ual
Ġper deu
Ġent ity
Ġpol o
Ġbra Ã§os
Ġchar ged
Ġri os
Ġvill ages
Ġcamp anhas
Ġhd mi
Ġproxim ity
Ġrapid ly
Ġmos es
Ġgradu ate
Ġtestemun ho
Ġp our
Ġn v
Ġg ap
Ġse o
Ġgro ve
Ġib iza
Ġscre ens
Ġsof ia
Ġmaintain ing
Ġplug in
Ġinser indo
Ġgel adeira
Ġimplant aÃ§Ã£o
Ġjoh ann
ĠmÃ¡l aga
c ara
r ates
Ġd t
Ġd x
Ġcar olina
Ġx i
Ġbot as
Ġban king
Ġri p
Ġib eria
Ġobrig aÃ§Ã£o
Ġconvenc er
Ġdemocr atic
Ġmon ter
Ġlog ic
Ġedit ions
Ġpou cas
Ġdh abi
f i
Ġc ena
on n
Ġh ano
Ġno k
Ġat o
ho f
Ġag ress
ific ador
Ġcor rupt
Ġenc ora
Ġcri atividade
Ġwell ness
Ġexpl an
Ġfi quei
Ġgovern os
Ġappear ed
Ġoccas ion
Ġenvel hec
Ġm ong
Ġf arÃ¡
Ġg anha
Ġqu Ã£o
ĠÃ© t
og y
Ġout standing
ĠestÃ¡ dio
Ġtrain ed
Ġrelacion ada
Ġcro atia
Ġdiscover ed
Ġsess Ãµes
Ġdedic ado
Ġinterpret ation
Ġaceit amos
Ġteen agers
Ġconsec ut
n ament
Ġp uro
Ġo mb
om ar
Ġl v
Ġl omb
qu eio
Ġac esse
Ġrec orr
Ġcr on
Ġsl ots
Ġfornec idas
Ġarmazen ar
Ã¨ s
Ġclus ter
ĠepisÃ³d io
Ġbolog na
Ġse ville
Ġcar te
Ġend ed
Ġdisc urso
Ġfri ed
Ġfornec ida
Ġju ice
Ġpromot ions
ĠbÃ¡s icas
Ġocor reu
ĠcontÃŃn uo
Ġguang dong
Ġsnap shot
Ġcampe on
ĠÃ¢ng ulo
ĠinquÃ©r ito
Ġs isters
Ġv are
im as
ut ed
Ġper th
Ġport f
Ġte Ã³r
Ġair line
Ġoper adores
Ġstay ing
Ġcompet iÃ§Ã£o
Ġtrat ados
Ġinvestig ation
Ġpregn ant
Ġvind as
Ġorgas mo
p oles
w r
Ġt et
Ã§ ados
Ġal inh
ÃŃ zes
st ad
Ġso ber
Ġco at
Ġter em
Ġsec a
Ġprom ise
Ġban ners
Ġdisc ÃŃp
Ġemb ass
Ġresid ential
ograph ical
met ro
Ġrespect ively
Ġextern os
Ġdiss eram
Ġrich ard
Ġgene bra
Ġsud den
Ġfacilit ate
Ġidos os
b as
l ia
Ġt ight
Ġd up
Ġpar ish
ĠÃ¡ rab
Ġhum or
Ġown ed
Ġcall ing
Ġdra ft
Ġann ivers
Ġrelev ante
Ġcod es
Ġpix els
Ġcomit Ãª
Ġc ras
Ġl p
Ġcon ter
Ġch ill
pl us
ch en
Ġab aix
Ġthem es
Ġbas il
Ã©s ia
Ġpersonal idade
Ġsalv ation
Ġtreat ments
ĠnotÃŃ cia
Ġhect ares
Ġyama ha
ĠÃ¡rab es
x e
Ġe z
Ġse ating
Ġor t
Ġi ria
ont in
Ġmus lim
Ġdisp ens
Ġreceber Ã¡
Ġcuid ar
Ġali en
Ġvict ory
Ġcp u
cin ia
Ġoppos ite
i ante
y on
Ġp ine
Ġs od
Ġh ans
Ġh ood
Ġg ib
de fin
Ġgr ass
Ġtrans aÃ§Ãµes
Ġbar ras
Ġprodut ores
Ġengine ers
Ġinstru ction
Ġmand ar
Ġran ked
Ġsubstitu ir
Ġautomot ive
f al
u as
Ġs angu
Ġto alhas
ant i
Ġcar bo
Ġdos es
Ġinform ar
Ġinv ite
Ġover come
Ġsuper mer
Ġgreat ly
Ġmant Ãª
Ġcy l
Ġconce pÃ§Ã£o
Ġcollect ive
Ġentire ly
Ġchec king
Ġinject ion
iex press
b ag
ch at
Ġent it
Ġfil ip
Ġfun chal
Ġche ese
ph ia
Ġpal ermo
Ġdec k
Ġsuper market
Ġgar cinia
Ġevery where
Ġpap Ã©is
Ġdiret os
Ġmicro wave
Ġneigh bour
Ġanteced Ãªncia
h ouses
Ġb one
Ġpar ole
Ġal iexpress
Ġab rigo
Ġgr id
Ġbo ats
Ġcat ch
Ã´n ico
Ġrecon cil
Ġcorrespon ding
Ġran king
Ġconsequ Ãªncias
Ġdescrib e
Ġrein for
Ġasp ir
ĠvÃŃtim as
d ale
h otel
Ġt ÃŃtulos
Ġwh irl
Ġpre ta
Ġcan s
Ġab ast
Ġprim a
Ġlug gage
Ġautor izado
Ġparticular es
mas ter
Ġcry pt
Ġresp et
ĠnÃ¡ poles
Ġreven ue
Ġpatro cin
Ġcil ind
Ġal imento
Ġj on
du ct
Ġind ÃŃg
Ġaplic ado
Ġclass ificados
Ġedit ing
Ġpil ot
Ġcampaign s
Ġrevolution ary
Ġleon ardo
Ġde i
ro gen
Ġem blem
Ġk ne
Ġle af
Ġsol t
Ġz uri
Ġgar age
Ġpan els
Ġeconom ics
ĠcomeÃ§ am
Ġsac red
Ġindepend entes
Ġadapt ador
Ġfurn ished
Ġamig Ã¡vel
Ġtaip ei
Ġo g
Ġl d
est o
Ġst ones
Ġj aco
Ġk its
ei Ã§Ã£o
Ġun f
Ġnot ed
Ġdig a
Ġsitu ada
Ġsus pe
Ġelev aÃ§Ã£o
Ġsun ny
Ġlou v
Ġregular mente
Ġinicial mente
Ġafirm ou
Ġbroch ures
Ġatualizar mos
b ase
f ar
o ids
Ġs itting
Ġh ers
Ġu g
Ġex ata
Ġcompl ain
Ġdef ect
Ġspecial ist
Ġintegr idade
Ġlimit ada
Ġpermitir Ã¡
Ġabert os
Ġthreat s
Ġinstitut ional
Ġelder ly
ĠparaÃŃ so
Ġether net
Ġzuri que
z os
re z
ic ian
Ġpr isÃ£o
Ġab a
und er
ke e
ry er
Ġposs amos
Ġconf ess
ins on
Ġcomb ina
Ġdesenvolv idos
Ġrealiz a
Ġrepresent aÃ§Ã£o
Ġinvolv ing
Ġbeh alf
Ġabsol ute
Ġdura ble
Ġfirm ware
Ġelabor aÃ§Ã£o
Ġdisab led
h ara
Ġ Ãªncia
Ġt eto
Ġd uss
en za
Ġe ag
Ġl az
Ġy elp
ul ta
Ġco imbra
Ġver ified
Ġvis ibilidade
Ġpol ish
se a
Ġmelhor ias
Ġmot oc
Ġcer Ã¢mica
Ġhol ds
Ġpat ri
Ġbat teries
Ġbi ological
Ġmodern as
Ġci ud
Ġdiret iva
Ġdesemp enh
Ġconsegu iu
Ġrefl ection
Ġconserv ation
Ġrf id
Ġbou lev
or p
Ġf ell
ec ida
Ġmar s
Ġtra p
Ġmo is
Ġoper ar
Ġchar ging
Ġbaix as
Ġenvi adas
Ġdeix ando
Ġpens Ãµes
Ġcast ell
Ġber m
Ġaument ando
Ġmeas ured
Ġfast est
Ġconfer Ãªncias
Ġscient ists
Ġut ens
Ġhen ri
Ġcorru pÃ§Ã£o
Ġ ion
om er
il ly
Ġque br
Ġver ona
Ġz agre
Ġmost rou
Ġmon st
Ġsc ul
Ġins pe
Ġir rig
Ġinv Ã©s
Ġchar ger
Ġbat t
Ġselec Ã§Ã£o
Ġmig ration
Ġfest as
Ġdesej ar
f are
l ass
Ġp b
Ġs ick
Ġv od
Ġpro let
Ġal ice
Ġres um
Ġcor al
Ġform ar
Ġserv o
Ġfer ries
Ġperform ing
Ġregist re
Ġpet ro
Ġrole play
Ġmerg ul
Ġdelet ed
adel phia
Ġzagre b
Ġall erg
Ġcol ch
Ġz ar
Ġvo or
Ġinv ers
Ġtest im
Ġdirect ors
Ġprom ove
Ġri ad
Ġobs c
Ġchin elos
Ġperce b
Ġefet u
Ġora cle
Ġfen Ã´m
Ġjord an
Ġcasc ais
en agem
qu is
Ġar ter
Ġpart ial
Ġlu cas
Ġsm ile
Ġaltern ativas
Ġacab ou
Ġdifficult y
Ġexplic ar
Ġgh ost
ĠeconÃ³m ico
Ġdefinit ivamente
Ġrodo vi
Ġschol ars
Ġf x
ut or
Ġel Ã©ct
Ġlo op
Ġbar cos
Ġarm ed
Ġce iling
Ġven ha
Ġreduc es
Ġreplac ed
Ġreput ation
Ġinhabit ants
t ese
y an
Ġd ir
Ġs f
Ġpar ecem
Ġad er
Ġte or
aliz ed
Ġmen do
Ġtw ice
Ġfac es
Ġinstal ados
Ġhouse hold
Ġcaracter es
Ġfront eira
Ġcarreg ador
Ġpreval ence
Ġnaqu ele
Ġlaran ja
Ġparab Ã©ns
Ġduss eldorf
Ġc int
Ġl ent
Ġr ust
ig ual
Ġun able
Ġro lo
cl ub
Ġel l
Ġco in
Ġgu ias
Ġglo be
Ġprior idade
ĠeconÃ´m icos
Ġestat ÃŃstica
Ġenab ling
Ġcorrespond Ãªncia
Ġurb ano
Ġsubsid i
abl anca
Ġfrigor ÃŃfico
c ino
om at
em an
Ġem issÃ£o
Ġve g
Ġli ked
Ġdisc ret
Ġcham ados
Ġfeel ings
Ġturn s
Ġcabe Ã§as
Ġdeclar ation
Ġlc ds
Ġtan que
Ġweld ing
Ġadul to
voc Ãª
Ġp itch
Ġm ante
Ġw iz
il ed
od er
Ġsu ic
Ġam o
Ġx ang
Ġprov edor
Ġimp Ã©rio
Ġimp ulsion
Ġint ent
Ġimport aÃ§Ã£o
Ġec os
Ġpersonaliz ada
Ġphil adelphia
Ġexpos ed
Ġconfirm ar
Ġclos est
Ġsuggest ing
Ġintens idade
Ġmeteor olÃ³gica
Ġenh anced
Ġsusp ensÃ£o
Ġantig as
Ġnik on
t ure
Ġm w
Ġr urais
ver ty
Ġso br
ho e
Ġserv ido
Ġcustom s
Ġsens it
Ġspecial ty
sh ield
Ġdedic ada
Ġcorr er
Ġrob ot
Ġsuggest s
Ġisol amento
Ġdestac am
Ġtempl ates
Ġmendo za
p to
Ġp isa
Ġn ec
Ġpar as
Ġk ra
Ġne o
Ġcomp ost
Ġsh ips
Ġim Ã³vel
Ġag reg
Ġvis ibility
Ġref ers
Ġexist s
Ġsent imentos
Ġcoloc ado
Ġpric ing
Ġdry er
Ġatl Ã¢nt
Ġimprov ements
Ġillust ration
Ġbul k
Ġalgor ith
Ġinterval o
Ġmois Ã©s
e jo
Ġt ay
qu em
il er
Ġab er
Ġob es
Ġsur prise
Ġneg ro
its u
Ã³r dia
Ġestud ante
Ġarmazen ados
Ġintelig entes
Ġtranspar Ãªncia
Ġultra pass
Ġalp ha
Ġreput aÃ§Ã£o
Ġjude us
Ġciud ad
Ġxang ai
Ġd d
Ġin vol
Ġh ath
ro be
Ġv otos
Ġj ama
vi er
Ġprof undo
Ġrep ro
Ġaqu elas
Ġopt ar
Ġsou ght
Ġfacil ity
Ġnatural ly
Ġesper amos
Ġadequ ate
Ġsty lish
Ġelet ro
Ġsav ings
Ġdestru iÃ§Ã£o
Ġcarry ing
Ġov os
ĠsÃ© culos
Ġconvent ional
Ġdinamar ca
Ġin ev
ia c
Ġap Ã³st
og ne
Ġent us
Ġfl ood
Ġgu il
Ġpo verty
Ġdisc os
Ġapresent adas
Ġpersonal ity
Ġassoci ada
Ġmant endo
Ġprec ed
Ġtrig ger
Ġmalay sia
Ġannivers ary
n ight
p ell
Ġc isco
ar ity
Ġm end
ing er
ac le
ist ry
Ġcont Ãªm
Ġpart ilha
Ġra Ã§a
Ġlim pa
Ġacom oda
Ġdam ages
bor ough
Ġprest aÃ§Ã£o
wh at
Ġetiqu etas
Ġscul pt
Ġd oug
Ġo ven
is her
Ġb ik
Ġw aves
Ãª me
Ãº m
Ġag g
ai os
Ã¢n icas
Ġmes as
Ġsc ott
Ġcal c
Ġcer ro
Ġassoci adas
Ġresid encial
Ġabs ence
Ġbud d
Ġje ho
Ġband eira
Ġoptim al
Ġinclus ion
Ġabsolut amente
Ġshoot ing
Ġeliz abeth
Ġv et
Ġpar cel
Ġk an
Ġk ha
Ġfr ust
Ġam a
Ġag ir
Ġmo Ã§
Ġsom bra
Ġrepresent ed
Ġpag a
Ġach a
Ġmass ive
Ġconvers ation
Ġsubst ances
Ġpad re
ogrÃ¡f ico
Ġmoz illa
h d
r il
Ġl ump
Ġre aÃ§Ã£o
ec raft
Ġex po
ĠÃ© tica
Ġfr on
Ġfl ange
Ġme ant
Ġport e
Ġmed ie
Ġeffect iveness
Ġpag o
ĠcomeÃ§ aram
Ġput ting
Ġstri ke
Ġcontract s
Ġtow els
g art
m ad
Ġc Ã³r
Ġh ond
Ġand orra
Ġre ag
Ġper e
Ġme ets
Ġpal mas
Ġfut uros
Ġpron ounce
Ġclub s
Ġmaravilh osa
Ġbomb as
Ġrepe at
x o
Ġp ist
Ġh in
Ġk or
ip os
Ġes clar
Ġtr in
Ġpor qu
Ġmar inha
Ġaut ent
Ġla id
Ġla ugh
Ġint est
Ġinf ring
Ġfre der
Ġfa Ã§o
Ġpet rol
Ġprest ar
Ġmiss Ãµes
Ġvar ies
Ġreprodu ction
Ġmys tery
Ġbrinqu edo
Ġocid ente
Ġc un
Ġp Ã¡ss
re ira
Ġr on
un k
ap a
Ġna vio
Ġcor aÃ§Ãµes
ater n
Ġbl usa
Ġcompl icaÃ§Ãµes
Ġplan ear
Ġbre ach
Ġdisc re
Ġinfl amm
Ġcrist Ã£
Ġinteress antes
bour g
Ġincr ÃŃveis
Ġcolum bia
Ġmexic an
Ġnorue ga
Ġhaird ryer
Ġin ches
Ġl ite
Ġr ic
Ġar row
Ġdis par
Ġsp oke
Ġdi y
Ġcre ativity
enci ar
Ġfund ing
Ġdetermin ada
Ġveget ables
Ġpropos als
Ġcad ast
Ġcient istas
Ġsect ions
Ġilust raÃ§Ã£o
Ġnerv os
Ġbless ed
Ġoffic ers
Ġmedie val
m el
Ġ erv
om ic
ag as
Ġen for
ual a
Ġass et
Ġmo q
Ġorgan ismo
Ġfol ding
aria is
itar ian
Ġregul atory
Ġflor ian
Ġlabor ator
Ġsyn c
Ġsaud Ã¡veis
Ġot ta
ĠeconÃ³m ica
aci Ã³n
Ġantiv irus
Ġboulev ard
u zzi
Ġb act
Ġg ale
Ġy ield
Ġun lock
Ġman aus
Ġent endimento
Ġmo od
Ġdi Ã¡rias
Ġsuport ar
Ġguid ance
Ġrepar os
Ġolymp ic
Ġf ome
Ġl utar
et ics
th eless
Ġel ig
Ġfl ats
Ġcas ablanca
Ġfo am
Ġcompl iment
Ġdev ot
Ġplan ned
Ġeas iest
Ġpermit ido
Ġacab ar
Ġbeh old
Ġaux ili
Ġsurg ical
Ġgate way
Ġconcl uded
ĠlÃ³g ica
Ġmercador ias
Ġbachel or
Ġb n
Ġl us
ra c
im b
Ġser ial
Ġsh ield
Ġpre defin
iss on
Ġadequ adas
Ġbig ger
Ġimplement ar
Ġsepar aÃ§Ã£o
Ġgrad ually
Ġcort ar
Ġsufici entes
Ġadvent ures
Ġhen ry
Ġproph et
Ġnurs ing
Ġbilba o
Ġdicion Ã¡rio
k el
Ġc oca
Ġm k
Ġv inte
ra id
Ġal v
Ġon going
ip t
Ġag ed
Ġcam s
Ġresta uraÃ§Ã£o
Ġx ia
Ġste ph
Ġexec ute
Ġexecut ado
Ġje ff
Ġkitchen ette
Ġminer aÃ§Ã£o
ĠcrÃŃt icas
Ġsurv ival
Ġoblig ations
ĠagrÃŃc olas
ĠanalÃŃt icos
Ġentreprene urs
Ġresc ue
Ġchick en
h Ã£o
r id
Ġf da
Ġf aixas
Ġh c
Ġk ick
Ġac umul
Ġle e
Ġnot ification
Ġro hs
Ġdia gr
Ġbas el
Ġadv oc
Ġenerg Ã©tica
Ġdesenvolv ida
Ġfavor ites
Ġmor reu
Ġapro fund
Ġintegr ity
Ġoriginal ly
Ġord inary
Ġcic l
Ġox y
Ġestabelec ido
Ġexcess o
Ġdoll ars
Ġrepos it
Ġassign ed
Ġpia zza
fri end
Ġmatem Ã¡tica
Ġacquis ition
Ġcouch surfing
m art
Ġd y
Ġf are
Ġb iz
Ġas king
st ream
ade iras
Ġad ds
Ġmar se
Ġhe x
Ġdel ight
Ġcal Ã§a
ink i
Ġic ons
Ġconfid ential
Ġmount ed
Ġsequ Ãªncia
Ġsugest Ã£o
Ġposterior mente
u ries
Ġt os
al mente
Ġv ille
et ta
ur ados
Ġna val
Ġi ot
Ġhe aling
ell es
Ġenc aix
Ġte eth
Ġz he
Ġcap p
Ġintern os
Ġdec rease
Ġpriv ativa
Ġmil ano
Ġed im
Ġpay ing
Ġmant ido
Ġcentral ly
Ġtext s
Ġnever theless
Ġdesenvol ve
Ġpronunci ada
Ġcontempor Ã¢nea
Ġire mos
ett i
Ġc rop
or de
Ġw ins
Ġl ote
Ġan na
Ġda vi
Ġk os
Ġfr onte
Ġcan aria
Ġfaz enda
Ã¢n io
Ġfin lÃ¢ndia
Ġsup pos
Ġinc Ãªn
Ġnecess ita
Ġajud e
Ġmerc y
Ġsens ors
has a
Ġenter pr
Ġassist ente
Ġsaf ari
Ġbelie ved
Ġeg gs
Ġamount s
Ġatl as
wa it
Ġster oid
Ġanc est
ĠagrÃŃc ola
Ġstret ch
l an
Ġs q
Ġs ard
Ġal ianÃ§a
Ġtra cks
Ġco al
Ġbr ut
Ġz a
Ġdom ÃŃnios
Ġrom ania
Ġprote ÃŃnas
Ġanim aÃ§Ã£o
Ġrepresent ante
Ġestar Ã£o
Ġreach ing
Ġzo o
Ġperce pÃ§Ã£o
Ġconstitu iÃ§Ã£o
ĠelÃ©t ricos
Ġroll er
ĠvÃ¡l ido
ĠsÃŃmb olo
Ġl ant
Ġu ber
Ã§ ul
ol so
Ġap ert
Ġro cha
gu ard
Ġport ion
Ġprogram mes
Ġmot o
Ġtur ning
Ġmat ar
Ġsin to
Ġol ÃŃmp
Ġshe ets
Ġhy brid
Ġstat ements
Ġcare ful
Ġcham ar
Ġnetw orking
Ġjud ge
Ġnar uto
Ġhip Ã³t
Ġapost as
Ġenvol ve
Ġucr Ã¢nia
b ian
c uo
t i
u ate
Ġf ier
Ġl ion
um n
Ġac red
Ġfr ames
Ġcl ips
Ġpre fe
Ġinter ven
Ġmar g
Ġcol he
ai k
Ġgo i
ios os
ash i
Ġquant idades
Ġdetermin adas
Ġenjoy ed
Ġnor ma
Ġhospital ity
Ġdecid iu
Ġpaper back
Ġmarri ed
Ġencontr adas
Ġcharl otte
Ġterap ia
Ġcamis eta
Ġjudg ment
Ġwhats app
Ġorganis ations
Ġmoroc co
Ġb ura
ri ed
ÃŃ o
cl ima
ans as
ov es
Ġmen ino
Ġsens ibilidade
Ġcop iar
Ġassoci ations
Ġmass agem
Ġdra wn
Ġexclus ively
ĠlanÃ§ ar
Ġlob by
Ġt ill
er os
Ġf omos
it Ã¡rias
Ġl our
Ġpar to
Ġy u
Ġk uala
op es
Ġmet all
Ġmon ster
Ġpoder Ãł
Ġsuper vision
Ġcond ens
Ġens inar
Ġmor adores
Ġland ing
Ġimpress ive
Ġtor res
Ġdiscuss ed
Ġcaminh Ã£o
Ġimper me
Ġdestru ction
Ġcontrib utions
Ġinterview s
Ġwhirl pool
il oc
Ġse ats
ver e
Ġar n
Ġar roz
Ġmu Ã§ul
Ġpe arl
Ġind igen
Ġir reg
Ġgl ad
Ġped al
Ġleg ÃŃtim
Ġfab ul
Ġativ ar
ended ores
Ġhip er
Ġcuidados amente
Ġbiod ivers
Ġmesseng er
ent ar
am er
Ġre plic
Ġac amp
Ġrel atively
va h
Ġcor pos
Ġcam ar
Ġconf iabilidade
Ġeng en
Ġtur istas
Ġpublic ada
Ġspecial ly
Ġquant as
Ġexclus ivos
Ġharm ony
Ġham ilton
Ã¨ re
Ġquadr ado
Ġurb ana
it ate
Ġch est
Ġam d
Ġent ries
Ġmar it
Ġmar sh
Ġbl ouse
Ġaqu arium
Ġhigh way
Ġstud ying
Ġdesenvolv edores
Ġcir Ãºrg
Ġcolor ful
Ġcast ro
Ġje ito
Ġcommon ly
Ġbrows ing
Ġss l
Ġreform a
Ġinitial ly
Ġconcre to
Ġocas iÃµes
ĠprÃªm ios
Ġdrin king
ĠesterÃ³ ides
Ġedim burgo
c ore
Ġt ib
Ġs ind
Ġg our
Ġy ester
Ġtr Ã¢n
Ġper cept
Ġpass ing
Ġext ras
Ġfu ck
Ġmaster card
Ġcrit Ã©rio
Ġirm Ã£
Ġinvolv es
Ġcade iras
Ġanswer ed
Ġtranspar ency
Ġsoph istic
Ġyester day
k l
in Ã¡rio
on ne
Ġpar ada
Ġy un
Ġch or
Ġap aix
Ġdis ciples
ult ura
Ġaf raid
Ġsim ulaÃ§Ã£o
Ġcal ories
Ġsome what
Ġbra Ã§o
Ġhost ed
Ġsw ord
Ġusu fru
ĠrÃ¡p idas
Ġaccommod aties
Ġcompat ÃŃveis
Ġexch ang
Ġspeak ers
Ġobt enÃ§Ã£o
Ġbroch uras
Ġcomplic ations
ĠtÃ©rm ica
Ġproport ion
Ġmarse ille
Ġzhe jiang
Ġe cl
Ġl entes
Ġpar allel
Ġam iz
Ġprodu cers
ish ment
Ġcent uries
Ġprov ence
Ġestr adas
Ġbal anced
Ġalt ar
Ġcamp ismo
Ġindepend Ãªncia
Ġscen ario
Ġreflex Ã£o
Ġreemb olso
Ġfreel ancer
Ġmarrak ech
Ġengen heiros
t ec
Ġe o
it el
ri mentos
im p
Ġis la
ow e
Ġpl ot
Ġun c
Ġcar to
Ġnot ificaÃ§Ãµes
Ġrel ativo
amb o
Ġhol land
Ġcolor ado
Ġindic aÃ§Ã£o
Ġindic ador
Ġindic ates
bor o
Ġpeace ful
Ġphen q
Ġepis ode
Ġcomerci antes
Ġcarib e
Ġvirgin ia
Ġfacult y
ĠtrÃ¢n s
Ġa ar
Ġa ub
Ġt ung
ra ge
et ime
iv ind
Ġad ela
Ġesp uma
Ġencont ros
Ġseg mento
Ġbra ga
Ġchar m
Ġdiv ing
Ġpu rif
Ġcover ing
Ġadapt ed
Ġclim Ã¡ticas
Ġentrev istas
ĠvÃ¡ cuo
Ġpriest s
Ġvictim s
Ġindis pens
Ġphilipp ines
Ġenterpr ises
a io
h l
t v
Ġd ive
Ġm f
Ġw d
Ġl act
Ġyou n
Ġj azz
Ġsh ares
Ġform ing
Ġav is
Ġprocess ar
ari edade
Ġred irect
Ġri queza
Ġsent imento
Ġprepar ing
Ġwin ner
Ġbuy er
Ġelev ados
Ġgrav ar
ban k
Ġlay ers
Ġespanh ola
Ġbater ias
Ġfamiliar izar
Ġajust Ã¡vel
Ġhun ting
Ġbudap este
Ġalar me
Ġappreci ate
Ġpobre za
Ġinesquec ÃŃvel
c ad
Ġ ÃŃ
Ġw u
Ã© dio
ÃŃ mos
Ġpre vis
Ġtra ce
Ġver n
Ġaut Ãªn
Ġprof eta
Ġsc ores
Ġlu anda
Ġoper ates
Ġcomb ines
Ã©r icas
Ġtransfer red
Ġsalv o
Ġdisp ers
Ġnut riÃ§Ã£o
Ġexercis es
Ġperd as
Ġbanc Ã¡ria
Ġtranqu ila
Ġdescre ve
Ġmonum entos
Ġalgor it
Ġchines a
Ġont em
Ġejac ulaÃ§Ã£o
p any
an ne
Ġn antes
Ġre ivind
Ġper pet
Ġz an
Ġhar ry
Ġbab ys
Ġlimit ations
Ġpromot ional
Ġalmo f
Ġrecol ha
Ġjew s
Ġsurround ings
Ġexperim ente
Ġfif th
ĠprÃ©m io
ĠjÃ³ ias
ĠcÃ¡ps ulas
Ġfron tera
Ġd igo
Ġh onda
Ġl ane
Ġab ertas
ian ces
Ġexp resso
Ġeng an
Ġide ais
Ġpat ent
Ġgre et
Ġcomplex os
Ġrelax ation
Ġperce ption
Ġlav agem
Ġchemical s
Ġblo queio
Ġspect acular
Ġmoist ure
Ġsangu ÃŃn
Ġotta wa
Ġindigen ous
ĠtrÃ¢ns ito
Ġt d
Ġl il
Ġal bert
Ġk s
ok a
Ġmar gem
Ġesp alh
Ġra ising
Ġdel ivers
Ġconst rut
Ġbel fast
Ġsou ls
Ġsuppl ied
Ġlat ter
Ġtor rent
Ã³l ico
Ġpast or
Ġpast oral
Ġcro Ã¡cia
Ġdiminu ir
Ġjam ais
Ġcontras te
g ames
x ido
Ġo w
Ġde form
at is
Ġr endimento
Ġal ente
Ġat itude
Ġk om
Ġcl oth
Ġab d
ho o
ass a
Ġesp acial
Ġwas n
Ġval Ãªncia
Ġgen es
Ġatt itude
Ġret rie
Ġdom ic
Ġtal entos
Ġrepl ica
Ġult ras
Ġproduz idos
Ġartes an
Ġgi ant
Ġrepe ated
Ġfantas y
Ġkee ps
ar ra
oc al
do ba
Ġfr uto
Ġrec ru
Ġver Ã¡
gu eira
Ġpoder osa
Ġprecis ely
Ġinstall shield
Ġapr enda
play er
ĠcÃ© us
Ġexplic it
Ġpreocup aÃ§Ãµes
Ġaprov ado
Ġcitiz en
Ġt act
Ġt ese
in stall
Ġon u
ade qu
Ġent rou
Ġve jo
Ġdesc art
Ġarqu itect
Ġsuper vis
Ġban ner
Ġsw f
Ġchild hood
Ġcorre Ã§Ã£o
room s
Ġcombin ar
Ġappl ying
Ġdecor ated
Ġrecomend ar
Ġbol et
Ġpul ver
Ġcanad ian
Ġhospit als
Ġcabin et
Ġgenu ine
Ġestrang eiro
Ġanch or
er ie
Ġf ases
Ġw s
Ġel ection
ific adas
Ġmet as
Ġpes co
Ġhol and
Ġgl am
itor al
Ġmem ories
Ġsubst ant
Ġveget ais
Ġapproach es
ogrÃ¡f icos
Ġconfi Ã¡veis
Ġinim igo
Ġprat icar
Ġw ick
Ġpr oss
ill es
Ġad iÃ§Ã£o
Ġso pa
Ãªn cio
Ġsim ulation
Ġer as
Ġfut uras
Ġtab elas
Ġprepar ado
Ġclos ely
Ġbasic amente
fl ix
Ġtun is
Ġslee ved
Ġjac uzzi
Ġoblig ation
Ġilleg al
Ġadela ide
y d
Ġd ns
Ġp isos
Ġcar gas
ha ust
Ġop os
Ġins ist
Ġprote ge
Ġsing ular
Ġren own
Ġmos qu
Ġmulti plic
Ġrenov ated
Ġdivert ido
Ġtransmit ir
Ġhospit ais
Ġgross o
Ġpreview s
Ġhels inki
z en
Ġt g
or ro
Ġw ing
Ġr icos
Ġy ang
ant is
Ġpr Ã³s
Ġar que
Ġele iÃ§Ãµes
Ġmon ument
Ġmor r
Ġrepresent am
book s
Ġmonitor ar
Ã©g io
Ġrelax ing
Ġconect ado
Ġrs s
Ġbright on
Ġlibert y
Ġslow ly
Ġcorru ption
Ġdece pÃ§Ã£o
Ġcampeon ato
k it
on os
ro it
Ġfor ex
Ġout er
po o
Ġess ence
Ġutiliz amos
Ġfac ed
Ġris ing
Ġbreak ing
Ġach ar
Ġtransl ated
Ġrespect ivamente
Ġbur berry
Ġintens ity
Ġpert ence
Ġcamb ogia
Ġaper fei
Ġedu ardo
Ġvigil Ã¢ncia
Ġseam less
Ġmetr Ã´
Ġcapp uc
Ġaperfei Ã§o
Ġa esth
Ġb ios
ra ction
ud as
Ġpre cious
Ġle ban
ult ural
Ġmod al
Ġcap tain
Ġval ent
Ġperson nel
Ġempres ariais
Ġbase adas
Ġcompar ado
Ġdesenvol veu
Ġcalcul ator
Ġsatisf ied
Ġarchitect ural
ĠromÃ¢nt ico
Ġinscre ver
Ġrestrict ions
Ġtelecom un
cÃ³p io
Ġarter ial
Ġfronte iras
Ġde ca
Ġin oc
Ġin adequ
Ġto t
em s
Ġpara gu
Ġda qui
Ġab ras
Ġro te
Ġmar ie
Ġcol ar
Ġcol ours
rig a
Ġbut t
Ġsc and
ph y
Ġconv ite
Ġright e
Ġend ing
Ġinvest idores
Ġhuman as
Ġmilh Ã£o
Ġesqu ecer
Ġrevel a
Ġtrib ut
Ġimpression ante
Ġpud er
Ġexamin ation
g ov
id ing
Ġr ush
Ġy acht
un er
Ġhot eis
Ġinter l
Ġinter iores
Ġvis ÃŃvel
Ġsuper b
Ġgl oss
Ġpack ed
Ġha ja
ling ton
Ġtreat y
Ġquestion Ã¡rio
Ġsolid arity
Ġdescrib es
Ġalp es
Ġrid ing
Ġdestroy ed
Ġlegitim ate
Ġparan Ã¡
w atch
Ġa ter
Ġf atos
Ġb ure
ic ing
Ġh pa
Ġu b
ec imentos
Ġest resse
Ġch an
Ġpr Ã¡tico
ari ado
Ġvari ar
Ġlab els
Ġexig em
Ġhon ra
Ġadm ission
Ġirm Ã£s
Ġchap Ã©u
Ġster oids
Ġantig uidade
Ġvinc ul
ÃŃcul a
Ġald eias
Ġenvelhec imento
r idge
Ġd well
Ġp g
or ada
om eter
Ġcom et
st ock
ans a
Ġlo ves
Ġbl end
ĠestÃ¡ t
Ġpos ter
Ġfornec emos
Ġsuppl ements
Ġfa ult
Ġindic ator
Ġpergunt ar
Ġfeed ing
Ġmechan isms
Ġcelebr ation
Ġsingap ura
Ġdesper t
Ġgs m
Ġsight see
Ġmiseric Ã³rdia
Ġn out
ro c
Ġra fa
Ġint eira
Ġret irar
Ġassoc iaÃ§Ãµes
Ġclick s
Ġpermit iu
Ġgost as
Ġintens ive
Ġaustral ian
ĠÃ³tim os
Ġimedi ato
Ġgather ed
Ġsuplem entos
Ġt Ãªx
Ġs ak
Ġh ug
ro pri
Ġan gry
Ġpar e
Ġen cl
Ġk ol
Ġpor Ã§Ã£o
Ġro les
Ġi o
Ġfo z
Ġeng age
Ġcer em
Ġgl en
Ġpos ters
Ġinvest ors
Ġcompet Ãªncia
Ġmud a
Ġgarant ido
Ġguard ar
Ġdiscuss ions
wh ile
Ġcorrespond ente
ĠfantÃ¡st ico
Ġingress os
Ġlump ur
Ġpesco Ã§o
f ly
ad ed
Ġw ise
est one
Ġpl a
Ġab dom
Ġqual ificaÃ§Ã£o
Ġrel ief
Ġsa ul
Ġop pon
Ġaut umn
Ġsoc ks
Ġmat th
Ġconsider ation
Ġmont ar
Ġmanufact ured
Ġhapp ening
Ġcondu zir
Ġexpand ir
Ġjew ish
Ġgm t
Ġdesativ ar
Ġtitan ium
Ġware house
Ġdiagnost ic
f eld
g ado
y o
Ġb end
Ġw an
Ã¡ teis
Ġk ern
Ġap el
Ġgra in
Ġamb ass
Ġdiv ina
Ġprop Ãµe
Ġdistribu idor
Ã± o
Ġperd ido
Ġlad ies
Ġotim izar
Ġdaqu eles
Ġvatic an
Ġness es
k ind
Ġto k
Ġg anho
ul um
Ġk on
Ġdes bl
th ro
Ġob edi
Ġbl ade
Ġjun g
Ġrealiz ou
Ġtrain er
Ġselecion ado
Ġquad ros
Ġrout ine
Ġrenov aÃ§Ã£o
ĠcÃ¢mer as
Ġfavour ite
Ġheadquar ters
Ġentit led
Ġapaix on
Ġsightsee ing
v ide
Ġt elh
ar os
Ġm ural
Ġb rav
ig e
Ġk az
ill ance
Ġsh irts
Ġgu in
Ġger aÃ§Ãµes
Ġeng ines
Ġutiliz am
perat ive
Ġha viam
Ġfix aÃ§Ã£o
Ġopportun idade
Ġdever iam
Ġsecret Ã¡rio
Ġcalcul ated
Ġcolet ar
Ġrenov ado
Ġreve al
Ġinj ury
Ġhung ary
Ġnutrit ional
Ġoas is
Ġth esis
Ġb ent
Ġqu is
Ġest end
og Ãªn
Ġcomp ass
Ġmar vel
Ġrestaur ar
Ġgar agem
Ġnet flix
Ġproject os
Ġlig ados
Ġsignific ativo
Ġfeder ation
Ġrich mond
Ġreceb em
Ġwhe els
Ã©n ia
Ġpanor ama
Ġarc ade
ĠmunicÃŃp ios
Ġfle et
Ġdemocra cy
Ġcongratul ations
Ġjeho vah
Ġcompliment ary
c ados
Ġp ux
Ġn ou
Ġan k
Ġu f
ig u
op ro
Ġco inc
Ġwor se
Ġprodu cer
Ġtrans vers
Ġsoc ied
Ġnecess arily
Ġec uador
Ġcontin ente
Ġfal ou
Ġcult ivo
Ġinvest ir
Ġperf uraÃ§Ã£o
Ġcoloc ados
Ġconsult ation
Ġcel est
Ġessential ly
att an
Ġreflet em
Ġdout or
Ġcancell ation
Ġjohann es
Ġc ess
Ġc ens
am pton
Ġre wards
Ġen rich
Ġcar valho
ish i
Ġca Ã§a
rib ed
Ġbel gr
par k
Ġwell ington
Ġmer ely
Ġmat riz
Ġrepresent ation
Ġcontinu am
Ġcontinu amente
Ġlos ing
Ġdecor ative
Ġtent a
Ġarr ancar
Ġvaria Ã§Ã£o
Ġsain te
ĠsÃŃ ria
Ġneut ral
Ġanex o
Ġsupre me
Ġpuls eira
Ġlant ern
Ġp itt
Ġf p
Ġex ames
Ġhe ath
Ġind icar
Ġtorn aram
Ġconn ector
Ġtour nament
Ġcoz y
Ġchat ting
Ġfail ed
Ġsurve illance
Ġdiscut ir
Ġbacter ia
ĠmoÃ§ ambique
Ġt ian
el t
Ġre h
Ġex haust
Ġj usto
Ġes lov
Ġar ising
Ġper eira
Ġcar os
Ġnot ar
Ġcons iga
Ġint uit
Ġcontact os
post os
Ġcard iov
Ġdetermin aÃ§Ã£o
ÃŃc ito
Ã¡st ica
Ġsof rimento
Ġdemonst rate
Ġwish es
Ġnasc ido
Ġdiminu iÃ§Ã£o
Ġbub ble
Ġdesnecess Ã¡rio
mun ic
Ġinspe Ã§Ã£o
Ġcappuc cino
h ou
u er
Ġp istas
Ġan te
ra be
pl ing
Ġar oma
Ġfl esh
Ġprodu ces
Ġlo yal
Ġmas k
Ġcomm od
Ġemp enh
Ġdest aca
Ġpal ha
Ġprot agon
Ġed iÃ§Ãµes
Ġlar ga
Ġens aio
Ġig u
ane amente
Ġcertific ates
Ġadap tar
Ġroad s
Ġvirt uais
Ġefica zes
Ġescolh ido
Ġenvol ver
Ġemoc ional
h ine
Ġth om
it ary
ac les
Ġque ens
Ġst utt
Ġpre ach
ang ular
Ġind ire
Ġpass am
Ġint r
Ġperm itted
Ġpriv adas
Ġoc ult
Ġmal d
Ġking ston
Ġep ic
Ġintrodu zir
Ġzo over
Ġdiscuss Ãµes
Ġmagn ific
Ġfunction ing
Ġinstant ly
Ġconsci ousness
Ġacredit ar
Ġmeasure ments
Ġassum ir
Ġiq a
Ġc ave
Ġe h
Ġto l
Ġr hod
Ġse asons
Ġma z
iz antes
te en
ho ot
Ġlu cr
Ġrece ives
Ġdev idamente
Ġpoder es
Ġanal og
Ġmake up
Ġgener ations
Ġassist ant
Ġarg um
Ġpais agens
Ġsold ados
Ġbair ros
Ġpok i
Ġalex ander
Ġcen Ã¡rios
Ġades Ã£o
ĠmÃºlti plos
Ġparafus o
Ġrenown ed
Ġambass ador
r ador
Ġh ast
im ens
Ġr ings
Ġpre venir
Ġrec all
Ġrec rut
Ġter me
Ġaf inal
Ġpriv ados
Ġret enÃ§Ã£o
Ġgener ic
Ġped est
Ġoptim ally
Ġmig raÃ§Ã£o
Ġcort es
Ġgab in
Ġempreg os
Ġreconh ece
Ġgabri el
Ġnok ia
ĠdiscÃŃp ulos
i ation
Ġc ute
Ġp Ã¡
Ġan jo
il ities
Ġsa il
Ġind on
Ġess Ãªncia
Ġwork flow
Ġapresent ada
Ġorganiz ado
Ġtour ists
Ġpot enciais
Ġresid entes
Ġlab s
Ġado ption
ĠlanÃ§ ou
ĠeconÃ´m icas
Ġaprend izado
Ġpreench er
Ġconstit ution
Ġtoy ota
Ġpne us
Ġpharm ac
Ġstutt gart
m us
Ġp ing
Ġe va
Ġn ano
ap ia
Ġro ots
Ġcas inos
Ġnecess ariamente
Ġwhere as
Ġcab les
Ġital ia
Ġcour ts
Ġregul amentos
Ġder r
Ġord ens
Ġadministr ator
Ġprotect ing
ĠfÃŃs icas
Ġexce ed
Ġcav alo
Ġtradu zir
ugg y
Ġcoc o
Ġdescre ver
Ġaparth otel
Ġmarro cos
Ġrasp berry
g ara
Ġan jos
ec on
Ġwe go
Ġproduct ive
Ġsoc ket
Ġhum id
Ġajud ou
Ã¡s ia
Ġcult ures
Ġol Ã¡
Ã¢m icas
ÃŃl ica
Ġgovern ance
Ġmov es
Ġcompet ent
Ġba ÃŃa
Ġfall ing
Ġfarm ers
Ġocorr Ãªncia
Ġwilliam s
Ġemoc ion
w ares
Ġl un
Ġv endo
ot ten
Ġar ma
Ġlu ÃŃs
we g
Ġsm oke
Ġgar ota
Ġbre t
br icas
Ġfornec endo
Ġtecn olÃ³gica
Ġesper ando
Ġarr est
Ġmarc ador
Ġsustent Ã¡veis
Ġpul se
Ġfiz er
ĠsuperfÃŃ cies
Ġparam eter
Ġaux iliar
Ġhi king
Ġdisap pear
Ġsimultane amente
Ġdisappoint ments
Ġautent icaÃ§Ã£o
m ers
m and
n ut
Ġd ip
Ġp se
Ġb Ãªn
em ic
Ġse as
ig an
Ġj ones
iz z
iz ante
Ġnot ting
Ġro ugh
Ġmed ir
Ġsc al
Ġseg redo
Ġbet h
Ġlim itar
Ġban ana
Ġcost as
Ã´n icas
ĠrÃ¡p idos
Ġdiret rizes
ĠprÃ© dio
Ġcheg ando
Ġreun ir
Ġill umin
Ġsatisf azer
Ġpil oto
Ġconvert ed
Ġapost a
Ġconflict s
Ġeurop car
Ġintermedi ate
Ġmanip ul
Ġpern as
g ios
or re
Ġm orto
at ur
Ġn ela
Ġre per
Ġwe igh
Ġna vios
Ġmar cel
ak en
Ġrec ipe
Ġwor st
Ġfer ment
Ġleg s
Ġfal t
Ġcorre to
ape ut
Ġpersonaliz adas
Ġinov adoras
Ġoptim izar
Ġcruz eiro
Ġmort alidade
Ġacredit amos
Ġleit ores
Ġscen es
Ġfis i
Ġemphas is
Ġembass y
g y
Ġc es
Ġf ach
Ġg oth
Ġpr ato
Ġor th
Ġdes erto
vi an
Ġi e
Ġdoc es
els on
ĠfÃ¡ bricas
Ġpou ca
Ġgarant indo
Ġsil Ãªncio
Ġcould n
Ġaddress ed
gas te
Ġveget able
Ġado Ã§Ã£o
Ġstop s
Ġadapt aÃ§Ã£o
Ġstrong er
Ġchap el
Ġotim izaÃ§Ã£o
Ġmencion ado
Ġbow l
Ġtatu agem
Ġdisclos ure
Ġdivul gar
h ill
k ins
v s
Ġd anÃ§
Ġc erv
Ġs Ã©rio
Ġl b
Ġse vent
Ġst amp
Ġun ic
Ġcol unas
Ġens aios
Ġplat inum
Ġclub es
Ġstop ped
Ġevol u
Ġcontribu iÃ§Ãµes
Ġreconhec ido
Ġtranqu ilo
Ġcoorden aÃ§Ã£o
ĠÃ³rg Ã£o
Ġluxemb urgo
y ang
Ġl ixo
ec idos
Ġdo entes
ta ke
Ġpart ition
Ġcor oa
iss a
Ġcond om
Ġleg acy
Ġanim ation
Ġcart ag
Ġviol ation
Ġtransm itted
Ġimm ers
Ġelet ric
Ã³t ico
Ġbarb ara
Ġbic ycle
Ġwrit er
ĠcientÃŃf ico
Ġsolicit aÃ§Ãµes
Ġtant as
Ġoliv eira
b in
Ġp us
Ġp iment
ot Ã¡
ac idade
per a
Ġad ri
Ġi h
Ġver des
ional ly
Ġant al
Ġsc roll
Ġinv o
Ġescol has
Ġcomput ing
Ġsant uÃ¡rio
Ġapresent amos
Ġsens ÃŃvel
ÃŃd io
Ġcoz inhar
Ġrot ary
Ġcand y
Ġmos co
Ġcelebr ate
Ġlik es
Ġreduz ida
Ġisol ated
ĠdÃ³l ar
Ġrepos iÃ§Ã£o
Ġdescans o
Ġempr Ã©st
Ġs Ã©r
el ve
Ġar ras
Ġmar ble
Ġcent rais
ĠÃ¡ rabe
Ġeng agement
Ġprim as
Ġgro wn
Ġchar me
Ġpou p
ĠmÃºs culos
ester ol
Ġremain ed
Ġescre va
Ġcandid ates
Ġeth ics
Ġdark ness
Ġextract ing
Ġpurs u
Ġspok en
Ġthor ough
i Ã¡
Ġc Ã´
Ġqu ote
Ġar d
Ġent hus
Ġcap ability
Ġinc on
Ġher b
Ġprinc esa
Ġdet roit
Ġwel coming
Ġmort ality
Ġacid ente
Ġmediterr Ã¢nea
ĠcÃ©l ula
Ġcater ing
Ġdeploy ment
Ġscot land
Ġselv agem
Ġtelecomun icaÃ§Ãµes
Ġf ei
Ġch ose
ch ron
Ġcan o
Ġcar pet
Ġag ing
Ġag gress
Ġhe b
Ġcent res
Ġinf ected
Ġvers a
any a
Ġret reat
Ġtro uxe
Ġveloc idades
Ġru im
Ġrot ina
Ġsolic itado
Ġpessoal mente
Ġpolit ics
Ġbrows ers
Ġpert urb
Ġandr Ã©
Ġatlet as
Ġscr atch
Ġmolec ular
Ġenri qu
Ġopos iÃ§Ã£o
d in
Ġh ert
ed ly
Ġto oth
Ġg ato
et ite
ho ven
Ġent es
Ġimp ul
ath y
Ġreturn ing
Ġpas te
Ġsleep ing
Ġky oto
Ġparad ig
Ġrefor Ã§ar
Ġinfect ions
Ġile gal
Ġpropag anda
Ġspir its
Ġenferm agem
d orf
s che
Ġ idades
Ġp ace
Ġh ence
qu istÃ£o
Ġg rip
oc ation
Ġk ab
Ġac ou
Ġes m
Ġgr Ã¡
Ġco ve
Ġcent raliz
Ġacc umul
ond as
Ġmy th
Ġtw ist
Ġcomplet as
Ġmil ho
Ġred ire
Ġfund ament
Ġprefer Ãªncia
Ġampl iar
Ġexig Ãªncia
Ġnar row
Ġcore ia
ĠmÃºlti plas
Ġcycl ing
Ġecos ystem
Ġsensit ivity
Ġcartag ena
Ġa e
Ġa ver
Ġb im
ri am
Ġqu int
Ġwh it
Ġcont rary
Ġpod endo
art s
Ġbr ass
ew s
Ġpass aram
Ġed en
Ġmemb r
Ã³l icos
Ġsepar ados
Ġimm un
Ġdez enas
Ġfot Ã³g
Ġsold iers
Ġadjust ment
Ġelimin aÃ§Ã£o
Ġreb el
Ġdestru ir
Ġpreval Ãªncia
Ġcopenh aga
Ġdemocra cia
Ġthir ty
Ġpum ps
o este
Ġr icar
Ġres ili
Ġper do
Ġun install
Ġnot ifications
Ġass ento
Ġvis uais
Ġemp ilh
Ġpal co
Ġplay station
Ġlim itaÃ§Ã£o
Ġdep ut
Ġcomb ater
Ġland s
Ġblack berry
ĠsÃ©ri es
ĠcÃ¢m aras
Ġlit ros
Ġluc ro
Ġigual dade
Ġceleb raÃ§Ã£o
Ġoxy gen
e ur
l at
s er
Ġin jeÃ§Ã£o
od el
Ġk enn
Ġac aba
ast ing
Ġbus y
Ġconsum ida
Ġperform ances
Ġtrabalh ou
uro u
Ġimplement ing
Ġselect ing
Ġcompartilh ado
Ġfocus ing
Ġband s
Ġstrong ly
Ġbarb ec
Ġpsych ology
Ġrol amento
Ġjapones a
Ġamiz ade
Ġricar do
f et
Ġ Ãªx
Ġt ira
Ġqu ito
Ġpar Ã¡g
Ġk ent
ost as
ang le
Ġread ers
Ġpur ple
Ġquart z
Ġnorm ais
Ġcontinu ing
Ġmens al
Ġnews paper
Ġstruct ured
Ġestablish ing
Ġgain ed
Ġhamb urgo
Ġpsych ological
Ġdesper tar
Ġpsic ologia
Ġmoz ambique
Ġmatt ress
Ġp ura
er va
Ġde mo
Ġf b
Ġf os
Ġh ate
Ġre tal
Ġcam el
Ġposs ibly
Ġmet ais
Ġsy ria
Ġcer im
Ġprot etor
Ġinstall ing
Ġintegr ate
Ġbol o
Ġimm ig
Ġinstru Ã§Ã£o
Ġdro ga
Ġcalcul ation
Ġfing ering
Ġitiner Ã¡rios
Ġmetropolit an
Ġattribut es
Ġdoug las
Ġm ba
ol om
Ġch op
Ġab enÃ§o
Ġmar gin
Ġag ria
ak s
Ġentre g
Ġdel iber
Ġacc or
Ġmon it
Ġhum ans
Ġwhere ver
Ġclass ification
Ġgener ator
Ġfollow ers
na ire
Ġtro uble
Ġexem pl
Ġoptim ize
Ġimpact s
Ġcaminh adas
Ġdorm it
Ġct r
Ġconclu ÃŃdo
Ġpasseng er
ĠÃŃc ones
Ġmonum ents
Ġacolh edor
Ġqualit ative
Ġpione er
Ġshap ed
n ame
w agen
is k
Ġh ai
et z
ol or
us es
Ġy ah
Ġque ijo
ag ues
Ġab use
Ġpart ÃŃculas
Ġhe bre
aliz ado
ff aires
Ã¢n eas
Ġca uca
Ġmult in
Ġeconom izar
Ġmill enn
Ġsof istic
Ġfriends hip
Ġsequ ence
Ġconvid ado
Ġwithdra w
Ġo vi
ans k
Ġtrans aÃ§Ã£o
Ġenc am
Ġvari ed
Ġoriginal mente
Ġperi Ã³d
Ġcharacter ized
Ġfire wall
Ġglass es
Ġmiss ions
Ġloss es
Ġpaul ista
Ġpath s
Ġvenced or
Ġinev it
Ġbact Ã©rias
Ġagria ffaires
o z
as te
Ġg are
Ġsh ore
Ġpre lim
Ġman usc
ure m
ub er
Ġlo ft
Ġaf ect
Ġpass port
Ġec oss
Ġsee ks
Ġpubl isher
Ġsubst ance
Ġdess ert
Ġexclus Ã£o
Ġdeb aixo
Ġmol hado
Ġhab itaÃ§Ã£o
Ġtag ged
Ġdeclar ed
Ġcalcul ate
Ġsett l
Ġpud esse
Ġsain ts
Ġrazo Ã¡vel
Ġtreas ure
Ġathlet es
Ġexcep cional
Ġgul f
Ġc is
Ġst ir
Ġsh apes
Ġab ort
Ġnot ified
Ġmar e
Ġag ro
Ġlin en
Ġvol ks
Ġsw ing
Ġnort he
Ġorder ed
Ġmont pell
Ġang els
Ġpresent ations
Ġexplor ing
Ġinici ado
Ġtradit ions
ĠfÃŃs icos
Ġharm ful
Ġht tp
Ġbog otÃ¡
Ġmontpell ier
p d
r ating
er te
Ġm ata
Ġl da
qu eta
Ġv elhas
Ġun us
te ve
Ġra iz
Ġla ur
Ġeng aj
Ġcur tain
Ġref uge
Ġneg lig
Ġajud ando
Ġdem as
Ġeas ter
Ġsch eme
Ġparticip ating
Ġfuncion am
Ġcart eira
aut hor
Ġautor izada
Ġru ins
Ġnor oeste
Ġintrodu ce
Ġfib ras
Ġrevel ation
Ġrain bow
Ġillust rations
Ġgd pr
Ġimpos to
Ġanne x
Ġantib i
Ġdisord ers
Ġdiscret ion
Ġsocied ades
Ġs ous
Ġm v
om p
Ġpor no
co a
Ġfe els
Ġger a
bo y
Ġer ic
Ġlu f
Ġinf ecÃ§Ãµes
Ġmay or
Ġpat ente
Ġcop ies
Ġsil enci
Ġdese jam
Ġenjo ying
ribut os
Ġrout er
Ġocup aÃ§Ã£o
Ġabra ham
Ġwear ing
ĠcÃ³p ias
ĠjurÃŃd ica
uf ici
Ġpatrim Ã³nio
Ġvess els
Ġcras h
o va
Ġm och
an ol
Ġb old
Ġv itor
um br
ug a
Ġro c
Ãªn f
Ġeng aged
Ġmen inos
ari at
Ġvir am
Ġexpress a
Ġmotor ista
Ġimpro ves
Ġefici entes
Ġsusp ension
Ġbrook lyn
Ġf ake
re iro
ol in
ant ed
Ġis le
Ġat ributos
Ġen rol
ill ar
Ġpl eno
our se
Ġfl our
az zo
oun der
Ġcol a
Ġtec la
Ġplay ground
Ġdef ens
Ġpublic ados
Ġatrav ess
Ġparticip ated
Ġtom adas
Ġq atar
Ġelev ator
Ġclean er
Ġsun rise
Ġadministr adores
Ġexce Ã§Ã£o
Ġvic ente
Ġarab ic
Ġaceler aÃ§Ã£o
Ġcraft s
Ġconcorr Ãªncia
Ġhaz ard
h ome
p ec
y st
Ġm ato
Ġm ister
Ġf itted
oc e
un cia
Ġch ass
Ġpr ide
Ġcan eta
Ġman gas
Ġger ir
Ġer gon
se y
Ġworld s
Ġpoder emos
Ġtur bo
Ġneg ra
Ġident ifying
Ġrev istas
Ġcou ples
Ġinvestig ate
Ġcompat ibilidade
Ġperc urso
Ġcel ulares
Ġadj ac
Ġmanh attan
Ġnam ely
Ġminer ais
Ġlan ka
Ġcompetit ivas
Ġgastron omia
Ġportf Ã³lio
Ġeag le
Ġp ion
Ġs ized
en zo
Ġh ind
Ġh eter
ac ia
Ġbe ver
Ġun em
Ġro y
Ġfl ora
Ġesc ritos
Ġra io
Ġsim on
Ġmed idor
Ġsal z
Ġple ased
Ġexpress Ãµes
Ġwi i
Ġdeal ing
Ġterm ina
Ġpad arias
Ġenf at
Ġcandid ate
Ġtranqu ilidade
Ġhero es
ÃŃss imo
ĠpÃ¡t io
Ġgour met
Ġs ights
Ġf oster
ri al
est on
ur ch
Ġdes enc
Ġpl ast
Ġz in
Ġbra ke
Ġbre men
Ġrealiz ed
Ġdet ected
Ġcontain ers
Ġwar ri
Ġsaf ely
Ġcomplex idade
Ġarr end
Ġextern as
Ġhab its
Ġdry ing
Ġsaud i
Ġaceit am
ĠsÃ³l ida
Ġdrill ing
Ġirreg ular
Ġres et
Ġmais on
Ġx ix
olog ist
Ġcr m
Ġprim arily
Ġfer reira
Ġfre ight
Ġmult il
Ġlev am
Ġobserv ation
Ġinov ador
Ġvaria Ã§Ãµes
Ġrar amente
Ġexpand ed
Ġlemb ra
Ġobst Ã¡culos
Ġsumm it
Ġrastre amento
Ġvatic ano
ĠhÃ¡b itos
ĠcÃŃr culo
ĠindÃŃg enas
b ral
Ġ Ãªnf
re ams
ol ulu
Ġy ell
Ġar b
ian as
int os
ern o
Ġstr at
Ġtom ou
Ġgod s
Ġsul f
Ġcompartilh amento
Ġlabor atÃ³rios
Ġhid rat
Ġhon olulu
Ġganh os
Ġlevant amento
Ġrecycl ing
p p
r est
x ia
Ġp is
Ġm ack
an he
ec ion
Ġdes gaste
Ġsem icon
olog ists
Ġdist ante
Ġdev ast
Ġcre w
Ġmus cles
Ġcaus ada
Ġpopular ity
Ġdet ector
Ġconsegu em
Ġsand y
Ġast m
Ġcra ck
Ġcontribu i
Ġinstrum ental
Ġadm ir
Ġmix ture
Ġconclus Ãµes
Ġreduz indo
Ġchalleng ing
Ġabsor Ã§Ã£o
Ġcompens ation
Ġlub ric
Ġtin y
Ġauditor ia
Ġemo Ã§Ãµes
Ġtiff any
Ġbarbec ue
Ġf as
Ġcon vey
pl ac
Ġout s
ĠÃł qu
ress Ã£o
Ġval idade
Ġmy r
Ġmont ante
Ġson ic
ane ous
Ġgost am
Ġestabel ece
Ġlimit ation
Ġcollect ions
Ġrelax amento
Ġparcer ias
Ġcomprim idos
Ġprofund amente
Ġbis po
Ġstake holders
Ġalente jo
Ġrafa el
h ada
Ġv igo
ul ha
ÃŃ zo
st own
Ġsp ending
Ġro ch
av al
Ġcons ag
Ġcol leg
Ġprov ar
Ġbus h
Ġfind ings
Ġrem uner
Ġhor Ã¡ria
Ġcho que
Ġlight weight
Ġip s
Ġcard iff
Ġapar eceu
Ġib er
Ġprev isto
Ġconsult as
Ġje ans
Ġcollect ing
Ġtu as
Ã³t icos
Ġpreocup ar
Ġmoder ada
Ġcircul ation
Ġdaqu ele
Ġdepress ion
Ġcondut a
ogram a
Ġaccid ental
Ġextraord inary
Ġconsid ere
Ġentus ias
Ġhond uras
Ġovi edo
ĠÃªnf ase
Ġc ec
Ġp ano
Ġm ora
Ġf om
it ivos
Ġn l
Ġv ias
Ġst ras
Ã³ f
Ã³ cia
Ġcan Ã§Ã£o
Ġcomm ons
Ġsal on
Ġsal am
Ġcr an
Ġnas h
Ġcomplet ion
Ġsuper visÃ£o
Ġed ward
Ġri viera
Ġpost os
Ġgovern amentais
Ġpap ers
Ġhy gi
bor g
ĠprÃ© via
Ġavi ation
Ġod m
Ġofic ina
Ġcomerci alizaÃ§Ã£o
Ġvibr ador
Ġbungal ows
Ġpross egu
p ur
Ġc x
Ġp est
Ġp Ã¡s
or ca
Ġe ix
Ġl enses
Ġto e
ill on
Ġso y
Ġcl Ã¡
Ġout come
Ġpo et
Ġinv itation
Ġvisit ante
br ite
Ġorganiz ational
Ġtro car
Ġpens ando
Ġfic ando
Ġdemand ing
ĠavanÃ§ adas
Ġenvolv endo
Ġmatch ing
Ġbott les
Ġemir ados
Ġphotograph s
Ġconcorr entes
Ġesco va
Ġgad get
Ġschedul ed
Ġjama ica
v y
at y
em ed
ac ab
ist or
Ġk ath
Ġser iam
Ġco ven
pt ed
Ġmin ecraft
Ġra c
Ġdist ances
tim o
Ġintegr ar
Ġadequ adamente
Ġcou rage
Ġquestion naire
Ġcus co
Ġconstitu em
Ġconsequ ently
Ġprocur am
Ġelimin ate
Ġnegoc iaÃ§Ãµes
Ġempreg ados
grad uate
col n
Ġphenom enon
Ġdash board
b ach
Ġt ights
Ġd ict
ar c
or ing
Ġn ich
ad y
Ġl indo
est ra
Ġal mas
Ġsp ell
Ġbr u
Ġtim ber
Ġlin coln
Ġins ect
Ġtrad iÃ§Ãµes
Ġmult idÃ£o
Ġlast ing
Ġcolor ido
Ġmedic ines
ĠestratÃ©g ico
Ġconsequ Ãªncia
Ġdesl umbr
Ġtras eira
Ġsacerd otes
ĠsÃŃmb olos
Ġsofr er
Ġaze ite
Ġmosco vo
g or
Ġm osa
ad er
oc king
Ġor n
ew ise
Ġpres erve
Ġint ention
Ġespec ificar
Ġdefin ida
Ġbon n
Ġinvestig ar
Ġfic amos
Ġles Ãµes
Ġbrit ain
Ġsolid ariedade
Ġscan ning
Ġanunci ou
Ġtens ion
Ġsag rada
Ġgarra fas
Ġnaqu ela
Ġterap Ãªut
Ġerv as
Ġjohannes burg
b ruck
i op
x os
Ġf ountain
ad ays
Ġh ÃŃ
il m
Ġcomp ostos
Ãªn ia
Ġlo ving
ades h
int on
igh th
Ġsil k
ann i
ann y
Ġaument ou
Ġfra c
Ġpersonaliz aÃ§Ã£o
Ġfront al
Ġaim ing
Ġpec ul
Ġtarget s
Ġforum s
Ġfoss em
Ġtelecom munic
Ġtung st
Ġbure au
l ink
Ġr ÃŃo
Ġj ess
Ġk un
Ġac ids
Ãº p
Ġel ected
Ġme x
Ġph d
Ġacc redit
Ġact ors
Ġnow adays
Ġchr is
Ġlig ue
Ġsil ent
Ġautor ais
Ġinfl am
Ġflex ÃŃveis
Ġtelef ones
respon ded
Ġoptim ization
Ġgeor gia
Ġdrop box
Ġmut ual
Ġrit ual
Ġprestig ious
Ġgord uras
Ġrevers e
Ġluck y
Ġelig ible
Ġacred ito
Ġvolks wagen
Ġd ick
Ġc och
Ġl on
Ġv emos
et on
Ġfor b
Ġal k
Ġcl ay
Ġi x
Ġinform e
Ġob teve
Ġsem anal
Ġpol Ã´nia
Ġequ ador
Ġdesc ritos
Ġvir gem
Ġless on
Ġrig a
Ġct rip
Ġfortal ecer
Ġku wait
Ġsovi et
Ġflorest as
Ġvenc er
Ġcurric ulum
ĠdÃŃ vida
Ġmarit ime
on so
el ect
Ġre charge
le os
Ġch lor
Ġac ry
Ġres ulta
to ps
Ġle an
Ġprov edores
ie u
Ġrece ipt
Ġins ight
Ġir ish
Ġsegu idores
Ġdesenvolv idas
Ġinstall ations
Ġlev antar
Ġrepresent ing
Ġimpact os
Ġterrit Ã³rios
ĠmÃ£ es
Ġpanor amic
Ġmall orca
Ġpip es
Ġbusc ando
Ġjulg amento
p is
Ġf ria
Ġl isa
Ġto wers
Ġg av
Ġbe ir
Ġfr ase
Ġgr Ã£os
Ġfin o
Ġbu ck
Ġfind s
Ġdev il
Ġstr and
Ġmal Ã¡sia
Ġshould er
Ġcost ume
Ġarm Ã¡rio
Ġcompar ing
ils on
Ġgarant ias
Ġlat ino
Ġcomplex ity
Ġrod ri
Ġexce ption
Ġlik ewise
Ġfus Ã£o
ĠclÃŃn ico
Ġdiscipl ina
Ġave iro
Ġanonym ous
Ġagg reg
Ġcolhe ita
Ġstras bourg
k k
m und
r amos
s u
Ġp ista
ic iais
qu el
Ã§ ando
Ġg w
Ġpar es
Ġr end
Ġque ix
Ġch eca
Ġpl ena
Ġmar ta
ador ia
Ġint ra
Ġexp enses
Ġher anÃ§a
Ġajud arÃ¡
Ġtorn e
Ġrom ano
ĠÃºn icas
Ġarch ip
Ġestim ul
Ġcompat ibility
Ġboard s
Ġcapt ura
ĠlÃ¢mp adas
Ġni ke
Ġaa a
Ġvind os
Ġtradem arks
ĠhÃ´t els
Ġmultim edia
Ġya hoo
Ġtextil e
b b
h ers
j ara
al ho
Ġu d
Ġun e
Ġfir me
Ġsegu ido
Ġdisc ern
Ġtorn eio
sh ore
Ġven ue
Ġpromot es
Ġara bia
Ġinstant aneamente
Ġmur der
ett es
Ġlem on
Ġdout rina
Ġvolunt Ã¡rios
Ġrenew able
Ġfrag ment
Ġsacrif ice
Ġhung ria
Ġepid emi
Ġproveni entes
i ere
Ġp ab
an im
at able
Ġh ose
Ġg ly
Ġal as
Ġal fa
ig s
Ġk v
Ġres gate
Ġad orar
Ġcl iff
Ġun ex
Ġun author
Ġnot iced
Ġi w
ge ois
Ġcr ush
Ġext r
Ġrep osta
Ġlong as
Ġmater n
Ġmat rix
Ġlocaliz aÃ§Ãµes
Ġpopular idade
Ġdeter ior
Ġwood s
Ġband e
Ġhid ro
Ġferro vi
Ġocor rem
Ġfamos os
Ġdistribut or
Ġinterc Ã¢m
Ġcoordin ation
Ġbenefici ar
Ġrang ing
Ġtroubles hoot
c imento
Ġf athers
re gar
Ġan xi
Ġv c
Ġv istos
Ġfor ne
Ġch ate
ab y
Ġat ores
Ġpre g
Ġab b
Ġout comes
Ġco ins
Ġtw elve
Ġbot an
Ġclass ical
Ġsent ar
Ġfut on
Ġnight ly
Ġarmaz Ã©m
Ġconnect ivity
Ġofficial s
Ġinterf aces
Ġbrasile iras
Ġsimultane ously
Ġsanct uary
Ġinterrupt or
Ġbracel et
Ġsophistic ated
y p
Ġp enh
Ġs Ã¡
Ġb inary
Ġn elson
Ġit a
Ġfe iras
lo oking
Ġmy ers
Ġcal ci
Ġorgan ismos
Ġstr ange
Ġfi Ã©is
Ġpat t
Ġinte iramente
Ġsent idos
Ġder ram
Ġevent brite
Ġcoun sel
Ġempre endedor
Ġcarreg ando
Ġasseg ur
Ġtant os
Ġsynth etic
Ġilim itado
Ġecoss istem
Ġluf th
ĠhÃŃ br
f ish
l ah
in ent
Ġl anÃ§a
Ã¡ c
Ġon s
Ġst atic
Ã³ metros
Ġbe am
Ġfr ost
ip er
Ġcomp ete
Ġall a
Ġco vid
Ġbr ill
Ġob viamente
Ġvis ando
Ġcri ativo
Ġdist Ã¢ncias
Ġins ufici
ĠÃ³ r
Ġshe ep
Ġge ographical
Ġhy att
sc reen
Ġarch ives
Ġder am
eder lands
Ġalem Ã£
Ġmedic ation
Ġclos ing
bol in
Ġtub ulaÃ§Ã£o
Ġcum pr
Ġrar ely
Ġvoss as
stal ar
Ġchron o
Ġcuis ines
Ġdepress Ã£o
Ġmagnific ent
d al
g at
j Ã£o
u pe
Ġn z
il der
ia o
Ġen du
Ġus p
Ġna z
our os
Ġdire Ã§Ãµes
Ġsens ÃŃveis
Ġwal es
ĠÃºn icos
Ġdetermin ation
Ġveget al
Ġfic aram
Ġeffici ently
Ġadjust ed
Ġbarb ie
Ġforest s
Ġeth nic
Ġjornal istas
Ġemit ido
Ġbour geois
Ġnin ja
Ġdirec to
Ġestad ual
ĠmÃ¡s cara
Ġportra it
e iramente
Ġe k
ic ular
Ġl ament
Ġl iable
Ġv otes
Ġma quia
Ġno body
Ġar ise
Ġtr on
vel and
int y
Ġesc Ã³cia
ov en
ff e
Ġsub ir
Ġclass ificado
Ġsignific ativas
Ġdeliver ing
Ġrecomend aÃ§Ã£o
Ġgrad ualmente
Ġprop Ã³sitos
Ġox ig
Ġht c
Ġsint ra
Ġetern a
Ġconstit ut
Ġira q
Ġwo ol
Ġpep per
Ġsobreviv Ãªncia
Ġsubstant ial
l io
Ġp ie
Ġs z
Ġf ounder
Ġin ver
Ġre ign
Ġr he
Ġat or
Ġk rak
Ġcont abilidade
Ġdis m
Ġman o
az es
Ġx s
Ġmon cler
Ġinc ons
Ġatt ended
Ġsant ander
Ġenvi ada
Ã©r g
Ġsil ence
Ġaccording ly
Ġappe al
Ġsav es
Ġobrig ada
Ġclim at
Ġreprodu zir
Ġroll ing
Ġasseg ura
Ġspot ify
Ġdetect ar
Ġbelong s
Ġpront os
Ġencry ption
Ġmotorcy cle
Ġgabin ete
Ġt we
Ġs ib
Ġto led
Ġqu iz
Ġcon ector
Ġr n
Ġdo d
Ġda ÃŃ
Ġpor sche
Ġcor romp
Ġup coming
Ġprov as
Ġthere of
Ġbel le
Ġover looking
Ġfre ely
Ġmarket place
Ġgra b
Ġtom a
Ã³l icas
Ġmist ur
Ġreduz ido
Ġvitam ins
Ġcaps ules
Ġsubc ont
Ġinvol ve
Ġacamp amento
Ġindon Ã©sia
Ġeletric idade
Ġp st
in th
Ġw ap
Ġpre ju
Ġab ilities
Ġel s
Ġcor ners
Ġra ch
Ġext rato
we b
Ġprecis amente
Ġdevelop ments
Ġjun te
Ġlocal idade
man ia
Ġfran co
Ġaltern atives
Ġbelie f
Ġemploy ed
ĠestratÃ©g ica
Ġmarc adores
Ġdatab ases
Ġproporcion ando
Ġenvolv imento
Ġclin ic
Ġblo om
Ġchart s
Ġcontribut ed
Ġbarri er
Ġflorian Ã³polis
es p
Ġm ama
Ġth under
ter dam
Ġch amb
Ġk ap
Ġfr uta
Ġpl ates
Ġro cks
fer as
ign on
act ive
Ġlu iz
Ġins ulation
Ġpriv ativo
Ġneg ativo
Ġcheck ed
Ġaccom pany
Ġmass as
Ġstock ings
point s
Ġsyn chron
Ġconsequ entemente
Ġtap as
Ã©n io
Ġplanej ar
Ġslee ve
ĠclÃ¡ss ica
Ġsymb ols
Ġpatrim Ã´nio
Ġacknow led
Ġneighbour hood
Ġredire cion
e q
Ġn er
il ar
ra fos
Ġdo ze
oc o
Ġsh ine
ct ive
Ġsol ving
Ġserv ant
Ġins ira
Ġmot els
Ġrecom pens
ÃŃl ico
Ġspecial ists
Ġdefin idos
Ġsuc ceed
Ġmostrar am
Ġeleg antes
Ġharm onia
Ġgor ge
Ġrefriger aÃ§Ã£o
Ġhamb Ãºr
ĠparÃ¢met ro
ĠinÃºmer os
Ġavan Ã§o
Ġtestoster one
Ġlufth ansa
ĠhambÃºr gu
c ode
k an
ol ia
Ġen z
Ġco ated
Ġsm ell
Ġcab elos
ĠÃ³ leos
Ġrespons abilidades
Ġput s
Ġphys i
Ġvest idos
Ġaliment ares
Ġruss a
Ġill ness
Ġinstitu cional
Ġorient aÃ§Ãµes
Ġrevel aÃ§Ã£o
Ġinicial izaÃ§Ã£o
Ġcomem or
Ġsurpres a
Ġhers elf
b urn
l ik
u j
Ġo ils
ad ir
Ġw p
Ġse es
Ġj ab
ere z
Ġbo om
ros e
und a
Ġreg us
Ġfo b
Ġz inc
Ġhol es
Ġsw ift
Ġho j
Ġlig eiramente
Ġcontinu idade
Ġwind sor
Ġwin n
Ġsepar ado
Ġrot aÃ§Ã£o
Ġcand le
Ġdeclar aÃ§Ãµes
Ġdemonst rated
Ġnav y
Ġimedi ata
iff el
char est
Ġposicion amento
Ġcorros ion
Ġtestoster ona
Ġhelic op
Ġhelic Ã³p
Ġurugu ay
Ġtemp est
Ġarth ur
Ġabast ecimento
Ġcalci um
f ix
Ġt ac
Ġe iffel
Ġr idge
Ġest ando
Ġac um
Ġbr at
Ġdef ence
Ġapp art
Ġconsider adas
Ġtele vis
Ġbal an
Ġbreak s
Ġdra in
Ġdin Ã¢mico
Ġsurf aces
Ġdeath s
Ġdesej ado
Ġdraw ings
Ġchamp ion
Ġexhib itions
Ġentrev ist
Ġrecip es
Ġvitam inas
Ġpopul aÃ§Ãµes
Ġinaug uraÃ§Ã£o
Ġkore an
Ġflut u
Ġadhes ive
Ġnotting ham
olom bia
Ġc og
al to
it ivo
Ġb ust
Ġn p
Ġh ak
Ġto x
Ġr ational
Ġque ima
Ġal me
Ġma Ã§
Ġj ak
Ġres urre
Ġfl Ã³r
Ġcol umb
Ġver ification
Ġgu ess
Ġgu ine
Ġsol ely
Ġfin ishing
Ġbu charest
Ġmot ors
Ġpriv il
Ġdevelop s
Ġrem odel
Ġrele ases
Ġbelie ves
Ġship ment
Ġvend ido
Ġachie ving
Ġalong side
ĠplÃ¡st icos
Ġflux os
Ġpartnership s
Ġemot ions
Ġrp m
g m
Ġd res
ou x
ÃŃ as
pl ica
Ġen via
ch u
ip se
Ġcar acas
Ġfl am
Ġsol v
Ġsuper ar
Ġgener ating
Ġespecial izaÃ§Ã£o
Ġproject or
Ġappl iances
Ġreach es
Ġreceber am
Ġpurch ases
Ġtub es
Ġobtain ing
Ġatra ente
Ġhoriz on
Ġwild life
Ġadolesc ents
Ġchair s
Ġprivile gi
Ġcosmet ics
Ġfd star
Ġbolet im
b et
p ensa
w as
Ġp ira
ent h
Ġl ido
od ia
Ġst a
Ġj ag
iz ou
Ġat tain
Ġcl are
Ġcar vÃ£o
Ġvoc al
Ġform ado
Ġgu i
pos iÃ§Ã£o
Ġcri adas
Ġcri ativa
Ġcr us
Ġeng ra
Ġbu f
ana ir
Ġsign als
Ġactiv ely
Ġsepar ated
Ġbol onha
Ġdeb ates
Ġaccept s
Ġmagn ÃŃf
Ġorient ation
Ġatra ir
Ġemerg ing
Ġreconhec ida
Ġincorpor ated
Ġdut ies
Ġhors es
Ġantecip adamente
Ġexped iÃ§Ã£o
vere ign
m ap
m ina
on der
Ġh k
Ġl ente
Ġr hy
Ġso vereign
Ġna zar
Ġman n
Ġmar in
Ġsa x
Ġra ÃŃzes
Ġlu cia
Ġtur ÃŃsticas
Ġped e
Ġing est
Ġquer y
Ġfacil ita
Ġadicion ada
Ġanim e
Ġdispos al
Ġemb ro
Ã©r icos
Ġpens o
Ġsam uel
Ġmean while
Ġoce ania
Ġesqu ema
Ġadm issÃ£o
Ġmix er
Ġrevel ou
Ġessential s
Ġut c
Ġdram a
Ġc w
Ġm ou
Ġf ina
Ġg c
Ġr Ã³t
ur ities
Ġest abil
ag eiro
Ġcan yon
Ġman us
de en
Ġfl ame
Ġcol ogne
Ġra ios
Ġprom essa
Ġcop acab
Ã´n icos
Ġindivid ually
Ġindividual mente
Ġdepend ent
Ġimm une
Ġfocus es
Ġfeder aÃ§Ã£o
Ġrevel ar
ĠavanÃ§ ar
Ġjorn ais
Ġdoct rine
Ġcompr ador
Ġcompress ion
Ġlif ting
Ġportugues es
Ġrp g
ĠsÃ³l ido
Ġcaval os
Ġembed ded
Ġcopacab ana
Ġf id
Ġf roz
al m
Ġb ai
om Ã©t
Ġl ille
ut as
Ġy an
Ġbr ick
Ġvi e
ibil ities
Ġclass room
Ġeduc acional
Ġcaus ando
Ġphotos hop
Ġcombin ado
Ġmid i
Ġcorpor ativa
Ġsure ly
Ġinov adora
Ġconver g
Ġorient ed
Ġaw es
Ġcompetit ivo
Ġcurr ÃŃculo
Ġestabelec idos
Ġcompress Ã£o
Ġdiscipl ine
Ġattempt s
Ġaceler ar
Ġrecl am
Ġamarillasc olombia
ĠgÃ© ner
it adas
Ġal ph
Ġk ansas
Ġhotel l
Ġle ver
Ġnot ify
Ġfin ancing
Ġseg mentos
rib le
ilh os
Ġaval iado
Ġrem ark
hip s
Ġimpl ica
Ġgarant em
Ġacess ibilidade
Ġobserv aÃ§Ãµes
Ġcoloc aÃ§Ã£o
Ġrot terdam
Ġstrength ening
Ġcandid ato
ob ile
Ġpref ect
Ġdirec Ã§Ã£o
Ġproceed ings
Ġdee ply
Ġsteak house
Ġtay lor
ĠflÃ³r ida
v endo
Ġt ough
Ġp ty
ar ca
ur r
Ġal iv
ÃŃ rus
Ġsu av
Ġch eng
ab e
Ġcomp acto
ill as
Ġent ende
Ġco er
Ġav isos
Ã¢n g
Ġbus bud
Ġinc re
par a
Ġrem ot
ep ing
Ġol ha
Ġri v
Ġmor ada
pr us
Ġcontinu ously
Ġold est
Ġupd ating
Ġgost e
Ġsepar ation
Ġflu ores
Ġautocar ros
Ġatmos pher
Ġdil ig
oter apia
Ġinfin ite
ĠcÃ¡l cio
Ġcript ografia
Ġpere gr
Ġkern el
Ġfroz en
r ass
u ÃŃ
Ġa um
Ġs ie
Ġn ag
Ġw ond
Ġque ira
Ġst ew
ial s
Ġfl ops
ich i
Ġx ii
Ġcompl em
Ġcontro vers
Ġjo an
Ġvari am
Ġtom ando
Ġinstall er
Ġpot ato
Ġtext ure
Ġrecomend Ã¡vel
Ġbrit Ã¢nica
Ġbord a
Ġhun ter
Ġexcess ive
Ġjournal ists
Ġfum ante
Ġsimul ator
Ġvirus es
Ġmans ion
Ġji ang
Ġberm udas
Ġencl os
h ub
z ig
Ġs ket
is ch
Ġl ung
ou red
oc l
Ġst ood
Ġper ca
Ġcl enb
ast as
Ġter esa
Ġqual idades
Ġsol ucion
ick ing
Ġresult ar
Ġperm ita
Ġchar ity
Ġcle veland
Ġrest ring
Ġpens a
Ġsubst Ã¢ncia
Ġviol ent
Ġconveni ently
Ġfig uras
Ġaccept able
Ġimag ing
Ġcolet ados
Ġacid entes
Ġtarget ed
Ġanfitri Ã£o
c ura
d iv
e ing
u is
Ġd f
Ġl r
Ġan Ã©is
Ġu c
Ġv ela
Ġne on
op o
Ġco o
Ġsa hara
ja h
ric ht
Ġdev idas
Ġtest ado
Ġevery body
Ġdoc k
Ġgra f
Ġtal ks
Ġmag ical
Ġarch ae
Ġlic enÃ§as
Ġinflu enced
Ġmarc aÃ§Ã£o
Ġmart ins
Ġvib rant
och ina
Ġatribu ÃŃda
Ġgn u
Ġapreci ar
Ġseleccion e
ĠcardÃŃ aca
Ġinterd iscipl
Ġutens ÃŃlios
Ġdesbl oque
thro ugh
Ġe ph
Ġf iction
Ġn ue
Ġw yn
il st
Ġg og
ec onom
Ġcon quer
um i
ch urch
Ġinter ag
Ã¢n eos
Ġrep ent
Ġwork er
Ġprim Ã¡ria
Ġins pect
Ġdec ade
Ġjo e
Ġge ographic
Ġmag ia
Ġcountry side
Ġtit les
Ġprefer enciais
Ġconfer ences
Ġconsist ente
Ã³t ica
Ġcs s
Ġpaint ed
Ġdout orado
Ġspect rum
Ġreligios os
Ġkr ist
Ġembar c
Ġcontribut ing
Ġnewslet ters
Ġpeters burgo
Ġket tle
Ġrecicl agem
Ġleban on
Ġtoled o
es k
al id
Ġb inding
Ġre ef
ec ei
et to
Ã© f
Ġpro xy
ater ais
Ġsal to
Ġsub way
orn e
Ġcal cular
Ġret rato
Ġcomun hÃ£o
Ġrespons abil
Ġelect ions
Ġdesco bert
Ġinov aÃ§Ãµes
Ġexib e
Ġcompr ida
Ġperspect ivas
con n
Ġry anair
ĠclÃŃn icos
Ġapropri ados
Ġrestrict ed
Ġperigos as
Ġtast ing
Ġgin Ã¡s
Ġspons ored
Ġanabol ic
Ġaber deen
Ġyell ochina
Ġd arÃ¡
Ġp ins
Ġe ind
al on
Ġg atos
Ġst abil
Ġch el
Ġwh ist
Ġfr ases
Ġhotel es
ill er
Ġgr ants
Ġbr unch
Ġass urance
Ġob ama
Ġcas ais
ĠestÃ¡ gios
Ġdur Ã¡vel
Ġcompl aint
Ġaplic adas
Ġcat s
Ġtre k
Ġmac ed
Ġgal Ã¡
ham mad
Ġdisp ute
Ġciv is
Ġacont ecendo
Ġba hasa
Ġprotect s
Ġposit ivos
Ġevid Ãªncias
Ġbord Ã©us
Ġdirig ir
Ġmotiv aÃ§Ã£o
Ġnavig ate
Ġlif etime
Ġserious ly
Ġhem is
Ġbiciclet as
Ġbish ops
Ġaffili ates
Ġjurisd iction
Ġabri u
Ġconceb ido
Ġcrow d
Ġimperme Ã¡vel
Ġcerem ony
ĠpÃ¡s coa
a ust
j ado
Ġf f
Ġw ings
Ġre ly
oc as
ÃŃ de
Ġat raÃ§Ã£o
Ġwh is
Ġtr inta
Ġso ja
Ġhe y
Ġx in
Ġart ÃŃstica
Ġins u
Ġcab ine
Ġret ention
Ġped iu
Ġcle ans
Ġpac ÃŃfico
Ġsing er
Ġmund iais
Ġsubm ission
Ġgain s
Ġrecip iente
ĠlÃŃqu idos
Ġcompens aÃ§Ã£o
Ġoccas ions
Ġcott ages
Ġcass ino
Ġcorros Ã£o
Ġeind hoven
j ack
Ġt art
id en
ec edor
Ġcor agem
Ġind ese
Ġsol ved
Ġbar n
ov ed
ys is
Ġfin n
se x
Ġsk ate
Ġinclu ÃŃdas
Ġtur ÃŃstica
Ġed reams
Ġpost ing
Ġlev es
Ġans iedade
Ġpast as
Ġinteract ions
Ġvalid aÃ§Ã£o
Ġacredit am
ĠÃŃnd ices
Ġpreserv aÃ§Ã£o
Ġimpr esso
Ġaprim or
Ġauthentic ation
Ġreemb ols
Ġrecept or
Ġsatisfe ito
Ġsubsequ ent
Ġaq i
Ġenfor cement
Ġcardiov ascular
Ġanxi ety
Ġembro ider
o on
w rit
Ġp f
Ġw m
Ġan est
Ġqu i
Ġda v
Ġj vc
Ġass ert
up s
Ġsim s
Ġvo ices
Ġresult ando
Ġexperi entes
Ġthro w
Ġprom et
Ġresid ent
Ġcrist Ã£o
Ġfix ados
Ġben jam
Ġperc orr
Ġmix ing
Ġcatal ogue
Ġvolt ou
Ġradi ation
Ġreligios as
Ġket one
Ġsurpr ising
Ġobvious ly
Ġvare jo
Ġveg anas
Ġrepro dut
h en
n om
at in
Ġb iss
im i
ir s
Ġsu co
Ġj peg
og ene
Ġcor da
Ġmod ificaÃ§Ã£o
ru z
Ġcap ri
Ġtri als
Ġdispos to
Ġassoci ate
Ġtor que
Ġevol ine
Ġconsist ing
Ġprogress ive
Ġembar que
Ġsurv ive
Ġcosm Ã©ticos
Ġcater p
Ġlicens ed
Ġcyl inder
c ano
g el
k ov
m ir
Ġt uc
Ġh ann
el ing
il ion
le e
Ġest ras
Ġex teriores
Ġen gr
Ġpre viamente
Ġcar idade
Ġmar car
ard ia
Ġver b
Ġbl vd
Ġpo eira
Ġprodut or
Ġext rus
Ġaplic ados
Ġvari eties
Ġestr anho
Ġmain land
Ġquer idos
Ġinn oc
Ġlib rar
Ġlev Ã¡
Ġpresent ing
Ġflor al
Ġexig ir
Ġliber al
Ġperce be
Ġtan ks
Ġbord ers
vent ura
Ġconclus ions
Ġmunicipal ities
Ġslee ves
Ġrib e
Ġviz inhos
Ġswed ish
Ġvall arta
Ġprohib ited
Ġprevis Ãµes
b ella
r and
es per
Ġp ly
Ġp ng
Ġm its
at ra
Ġas ks
if iable
Ġk itt
Ġtr ick
oss a
Ġcas aco
Ġmer ece
Ġvari ations
Ġgre w
Ġcu jos
Ġdeus es
Ġcateg or
Ġha iti
Ġbran ches
Ġmol de
Ġphys ics
Ġrefl ected
Ġvaz io
ĠfantÃ¡st ica
Ġbloque ar
Ġsubmet idos
Ġversat ile
Ġestiv esse
Ġjaco b
Ġmaquia gem
Ġestras burgo
h in
z ip
Ġe book
Ġv iana
Ġand ares
Ġtr am
Ġsh r
Ġper p
Ġtrans pl
Ġincl in
Ġaf eta
Ġz ap
Ġintern as
Ġpass ap
Ġact or
Ġinc ub
Ġcli ques
Ġaccess ed
Ġprojet ados
Ã´n ios
Ġmem Ã³rias
Ġrad isson
ats u
Ġcy prus
Ġanalys es
Ġtransl ator
Ġmist Ã©rio
Ġactual izaÃ§Ã£o
Ġdura bilidade
Ġquil Ã³metros
Ġsinc er
Ġmit ig
Ġowners hip
Ġcurt as
Ġguad ala
Ġward robe
Ġsudden ly
Ġunus ual
Ġacry lic
t ed
Ġs ung
Ġre bo
ul ada
Ġac Ãºst
Ġesp ada
Ġthere by
Ġdist urb
Ġimport ar
we h
tim ore
Ġret ire
Ġbal timore
Ġcast el
Ġrad ar
Ġdet ach
Ġpu rific
Ġsob ress
Ġmagn et
Ġconcent rar
Ã³t ipo
Ġster eo
Ġss eldorf
Ġexam ine
Ġilust raÃ§Ãµes
Ġoppos ition
mont on
Ġhes ite
Ġautonom ia
Ġlavand aria
Ġfried rich
Ġyoun ger
l ab
Ġm ere
Ġn ia
em pre
Ġre abil
Ġac ne
Ġle w
Ġinform al
Ġsobre car
Ġz l
Ġpa usa
Ġoper am
Ġdef ines
Ġdifer enci
Ġlog os
Ġtotal idade
Ġrest ante
Ġren ais
Ġcorrespon de
Ġther apeut
Ġdemand as
Ġtan z
Ġconsci ente
Ġhall owe
Ġground s
Ġeth ical
ĠcrÃŃt ico
Ġbehavi our
Ġescolh endo
Ġsobrev iver
Ġjackson ville
ĠsÃŃn tese
Ġandre w
Ġsolt eiro
ĠintercÃ¢m bio
Ġdres den
Ġguadala jara
Ġt iles
Ġc ib
Ġf ighter
at ically
Ġb ong
Ġn urem
Ġu h
Ġcon do
ac ot
Ġma ast
Ġos car
Ġna il
Ġqual ities
Ġext in
Ġpra ise
Ġarqu iv
Ġdirect iva
Ġviag ogo
Ġaccess ibility
Ġge ogrÃ¡fica
Ġren al
tar io
Ġwi en
Ġmi ke
Ġjard in
Ġterrit ories
Ġhighlight ed
Ġvulner able
Ġcomplement ar
Ġacou stic
ĠparÃ¡g rafo
Ġm ould
Ġl Ã£
ri er
ĠÃ© s
th on
Ġz ones
Ġsec agem
Ġconc ede
Ġprot ector
Ġri val
Ã¢m icos
Ġcaus ados
Ġglo bo
Ġbat man
Ġq r
Ġfar inha
Ġfic ha
Ġadapt ation
Ġperce ive
Ġobt ido
Ġvent ure
Ġscen arios
ĠcientÃŃf icos
Ġafet ar
Ġreligios a
Ġdign idade
Ġcomunic ado
Ġantic ip
Ġpromoc ionais
Ġfidel idade
Ġh urt
ac io
and ro
Ġinst Ã¢ncia
Ġserv iced
Ġpass ada
Ġseg ments
Ġequip as
Ġtrip le
Ġcond omin
Ġmus icais
Ġinternational ly
Ġpen ins
Ġsepar ately
Ġconfid encial
Ġpad ron
Ġkn ight
Ġdesaf i
Ġpas o
Ġconsci ous
Ġcoast al
Ġpiz zer
Ġscen ery
Ġador o
Ġagu ard
Ġkilomet res
Ġintu itive
Ġsara h
Ġmalici ous
Ġbulg aria
Ġhert z
Ġawes ome
Ġcaterp illar
Ġmaast richt
a a
b ad
Ġh ass
Ġpar ado
Ġy am
Ġj ay
ch air
Ġfr idge
Ġman gueira
Ġinter ru
Ġinform Ã¡tica
Ġlo vers
Ġind icaÃ§Ãµes
Ġant Ã³nio
Ġbel ize
Ġher Ã³i
Ġchar ter
Ġaval iados
Ġstay s
Ġfab rico
Ġpay s
Ġdestin at
Ġaz ur
Ġcharacter istic
Ġpromot ed
Ġefet ivamente
Ġseem ed
Ġporn Ã´
Ġbright ness
Ġaffect s
Ġdign ity
Ġweak ness
Ġfed ex
Ġhaw ai
Ġacknow ledge
Ġespir ituais
Ġhano i
Ġyah weh
Ġnorthe ast
Ġpecul iar
Ġhallowe en
k ers
r ans
Ġs j
os ity
Ġf its
ro f
Ġv entos
Ġr b
Ġmar gens
Ġqual ificados
Ġmet ad
Ġdel gada
Ġec ological
Ġlar go
Ġdesenvolv edor
red or
Ġtransport ar
Ġspeed s
ung en
Ġprepar a
Ġcru c
Ġtext ura
Ġvirt ually
Ġflow s
Ġminer als
Ġpossu ir
Ġencoura ged
Ġtrim estre
Ġdominic an
Ġkara oke
Ġsne akers
Ġbasil ica
x ias
Ġt ile
Ġin se
ac ta
Ġsu ff
Ġest Ã©tica
Ġat ua
Ġwh ilst
Ġcar b
Ġsp at
ĠestÃ¡ vamos
ÃŃs mo
Ġvari ation
Ġsou za
Ġprot oty
Ġsegur as
Ġfut ura
Ġstat ue
Ġder ived
Ġbol ÃŃ
Ġrespect ivos
Ġobrig atÃ³rio
Ġtell ing
Ġterrit orial
Ġbang l
Ġcry pto
Ġhosped ar
iel ds
Ġbak ery
Ã´met ro
Ġearn ed
Ġcontribut es
Ġventil aÃ§Ã£o
Ġdiamond s
ĠsÃŃt ios
Ġcob rir
Ġpall et
ĠfenÃ´m eno
p ol
Ġt ired
Ġc ement
Ġm ik
Ġin equ
qu ÃŃm
Ġr ena
pl ast
Ġap ag
Ġsh ed
Ġun cer
ug es
Ġmar king
Ġtod avia
Ġmod ificaÃ§Ãµes
Ġpe as
Ġcr om
Ġemp ower
Ġtest ament
Ġend less
Ġed monton
Ġcorre ia
Ġobject ivos
Ġsubst an
Ġfix o
Ġprem ises
Ġjoin ville
Ġdol ph
Ġobst acles
Ġbuff alo
Ġhang zhou
Ġnoturn a
Ġpak istan
urre iÃ§Ã£o
Ġincompl ete
Ġpredomin ant
ĠatlÃ¢nt ico
Ġcolumb us
om on
Ġin ib
Ġv inda
ri os
ÃŃ vio
Ġab c
Ġter emos
Ġbl anca
Ġesc onder
Ġca ught
Ġsel o
Ġfol h
Ġher Ã³is
Ġatt raction
Ġrest ored
Ġsi ena
Ġtit Ã¢nio
Ġamong st
Ġelev ation
Ġbol so
Ġarr ange
Ġjud a
Ġrelev ance
Ġjoin ing
Ġpil g
Ġtut or
Ġcommand s
ĠespaÃ§os o
Ġoccur rence
Ġestabelec idas
Ġretorn ar
Ġdefe itos
Ġbug s
Ġsecund Ã¡rios
Ġsacerd ote
Ġdee per
Ġsham poo
Ġmatth ew
i ria
r oss
Ġp ond
Ġp anda
er on
er ver
Ġs es
at al
Ġh unt
ac ho
ig as
ter r
Ġst em
Ġhe pat
Ġfil a
Ġserv em
Ġdesc rit
ita ine
Ġher m
Ġaplic am
Ġsoft wares
Ġleg ends
Ġwater fall
ator iamente
Ġativ aÃ§Ã£o
Ġrelacion amentos
Ġsolic ite
Ġbill und
Ġcolet iva
ĠÃ¢ n
Ġlago a
Ġabsor ption
Ġsuffer ed
Ġqueb rar
ĠvÃ¡lv ulas
Ġcosmet ic
Ġtelem Ã³vel
Ġsnack s
Ġrecar reg
Ġexplan ation
Ġtestim ony
Ġxia omi
Ġinterven Ã§Ãµes
Ġd g
Ġd ren
Ġb ella
Ġh il
em y
Ġre vision
Ġst om
Ġch ol
pl ed
Ġle il
Ġinter vent
Ġinform ado
Ġserv ants
ĠestÃ¡ s
Ġca vern
Ġrece iver
Ġlong os
Ġactiv ation
Ġregist ar
Ġmac io
Ġdestin ado
Ġwr ist
Ġconj ug
Ġgas to
Ġfech amento
Ġpul so
Ġcaminh ar
Ġga ia
Ġsecre ts
Ġnom inal
Ġartesan ato
c et
e ast
h amos
Ġn ing
ac ar
Ġar du
Ġun t
aliz a
aliz e
Ġmen us
Ġmot hers
Ġtest amento
arn a
Ġday ton
orm al
Ġamb ul
Ġcommun ion
Ġrest antes
Ġadmin ister
Ġapar entemente
Ġshare point
Ġvend idos
Ġmec Ã¢nicos
Ġimag inar
Ġvib raÃ§Ã£o
Ġvib ration
Ġchem istry
Ġexpand ing
Ġexplic ou
Ġexcurs ions
Ġreve als
Ġlibert aÃ§Ã£o
Ġsuns hine
Ġdefe at
Ġdiscl ose
Ġchal eira
Ġnash ville
Ġforne Ã§a
Ġd it
Ġd ad
Ġe ug
Ġf one
Ġb ing
Ġw ound
Ġv p
Ã§ adas
ec y
Ġal am
Ġno ble
Ġcont atar
ct ions
ost ar
ang ers
ain s
Ġcam elo
aliz ada
Ġimp re
Ġresult ed
Ġcal a
Ġlist ings
Ġtravel ler
Ġanal isa
Ġdiv ide
Ġconj un
Ġinnov ations
Ġcra w
Ġsecret aria
ĠespÃŃ ritos
Ġacompanh ado
ĠfÃ³r uns
Ġvalid ation
Ġfiz emos
Ġcolom bo
Ġpotential ly
Ġestabelec ida
Ġalber gue
Ġlemb r
ĠcrÃŃt icos
Ġencom endas
Ġimagin ation
Ġalert s
Ġimobil iÃ¡rio
Ġness as
Ġachiev ements
Ġcoven ant
ĠginÃ¡s io
b ot
d l
Ġo le
ic it
Ġcon ci
Ġest eira
Ġdes ires
Ġcl am
Ġpl ural
Ġpre ca
Ġab af
Ġam iga
Ġcons eq
Ġinform a
Ġind iana
Ġav iaÃ§Ã£o
Ġpes c
Ġmer id
ik o
Ġelect rol
Ġlev ado
Ġchrist church
Ġwall papers
Ġben ed
Ġexib ida
Ġmind s
Ġestat uto
Ġscript s
ĠmÃŃd ias
Ġspread s
Ġofic inas
Ġultim ately
Ġeurop eias
ĠmuÃ§ul man
Ġpiment a
Ġguine a
c ut
f x
z el
Ġt rigo
in ia
Ġs ip
Ġde volv
Ġb amb
Ġn iss
Ġw y
Ġl x
Ġv angu
Ġv elhos
Ã§ u
Ġcom ecei
Ġr in
Ġda wn
Ġch ato
ch ed
Ġcont ate
Ġne pal
Ġtr ist
Ġdis aster
ok u
Ġpe gue
Ġev itam
iss os
Ġesc ort
Ġconf iar
Ġlu vas
Ġdiv ino
Ġexc it
Ġq c
Ġfich as
Ã³l ogos
Ġenjo ys
Ġinov adores
Ġtable au
Ġdemonst ra
Ġbrit Ã¢nico
Ġcelebr ated
Ġdura bility
Ġpreserv ation
rog Ãªnio
Ġfum adores
ĠdomÃ©st icos
Ġrecl amaÃ§Ã£o
Ġorgas m
ĠtÃ©rm ico
Ġced ar
Ġsco oter
Ġsiem ens
Ġpromoc ional
Ġdup lex
Ġcarbo id
h eld
n an
Ġd irt
Ġf ad
Ġin qui
Ġl ec
ig raÃ§Ã£o
Ġon tario
Ġar ra
for est
Ġpor cent
Ġco il
Ġsem ente
int s
Ġpres o
Ġexperi encing
Ġgl ac
Ġmant emos
Ġsouth ampton
Ġpens e
Ġnor weg
Ġmol ho
Ġcot id
Ġrespe ita
Ġbeb Ãªs
Ġkn itted
Ġreprodu z
Ġsubsc ribe
Ġtail ored
Ġupgr ades
Ġberg en
Ġidos as
Ġaccid ent
Ġcongreg aÃ§Ã£o
Ġmultid iscipl
Ġwiz ard
ĠpÃ¡ss aros
Ġcarto on
Ġcoinc id
Ġpitt s
Ġhazard ous
Ġzin co
Ġsalam anca
i Ã³n
n ote
v pn
om al
Ġr w
Ġus os
Ġar ame
Ġmar sel
Ġbr l
Ġbo asts
Ġvi eram
Ġdist Ãºr
Ġdesc ritas
Ġaqu a
Ġfol d
Ġrespons es
Ġdays weather
Ġci ente
Ġtransm iss
Ġconect ados
Ġmand atory
Ġinfer no
Ġaux ÃŃlio
Ġabra Ã£o
Ġpreench a
Ġbelong ing
Ġcomit Ã©
uter ol
Ġpeda Ã§o
Ġbalan Ã§o
Ġmarsel ha
r ator
Ġh its
Ġl ak
Ġv ivos
Ġest o
ab o
Ġbe au
Ġdes m
Ġsh im
Ġsh and
Ġgr en
Ġsa iling
Ġx t
Ġvi ra
Ġvari edades
Ġcontin ent
Ġrespons ibilities
Ġprofess ion
ĠprÃ³ximos veja
Ġmaxim izar
Ġhip ert
ald i
icl op
Ġenorm ous
Ġxclus ivo
Ġtransvers al
Ġimmig ration
f ire
Ġa riz
Ġc g
Ġm og
Ġpar ecia
Ġest u
ud ing
Ġyour s
Ġcar lo
Ġall ah
ong e
Ġart work
Ġtec las
Ġbel Ã©m
Ġdec ent
Ġjun ta
ict ions
Ġcoll ins
Ġparticip ante
Ġrefer ido
Ġregist rado
Ġemb ut
Ġpet it
Ġcolor ed
Ġglobal ly
Ġideal ly
Ġgrav idade
Ġabr ange
Ġconfid ent
Ġcheg aram
Ġpronunci ar
Ġton er
ĠdomÃ©st ico
Ġirrit ante
Ġceleb rar
Ġstrict ly
Ġfestiv als
ĠincÃªn dio
Ġpizzer ia
a ire
c ot
Ġp ills
Ġb ones
Ġv t
Ġas ide
ap h
ci Ã³n
Ġman or
Ġinter aÃ§Ãµes
Ġco bra
Ġpe ito
Ġdist ribute
Ġher d
Ġprom ises
Ġhom enagem
Ġpress ing
Ġrad iaÃ§Ã£o
Ġtermin ou
Ġminim izar
Ġinser Ã§Ã£o
Ġscen ic
Ġrepar ar
Ġoccup ation
Ġtoilet ries
Ġwikip Ã©dia
ĠtÃŃp ico
Ġchass is
ĠhambÃºrgu eres
Ġclenb uterol
Ġnorweg ian
Ġd ys
Ġb angu
ad uras
Ġl ud
Ġl embro
Ġg ates
ra h
Ġj ol
ab et
Ġdes pre
Ġfl as
Ġpe er
Ġval ves
Ġpes ado
Ġbel oved
Ã©s io
Ġview er
Ġenerg ias
Ġprojet ar
Ġprojet or
Ġpoint ed
Ġsens o
Ġpont es
Ġder rot
Ġce bu
Ġprec on
Ġrecommend ation
Ġdeal er
Ġdeclar ou
Ġguer ras
Ġgb p
Ġwhe at
Ġcolle agues
Ġrefor Ã§o
Ġpaint ings
Ġinj ust
Ġcher ry
Ġcompost ela
Ġkrak ow
w ed
Ġp k
Ġp ied
Ġn Ã©
Ġin take
ec emos
um er
um an
Ġes f
Ġtr ic
Ġtr ilha
Ġinst rut
Ġmod ification
Ġmed ina
Ġjog ando
Ġcal ma
Ġgl uc
Ġbase ia
Ġcontact ing
Ġactiv ate
Ġrefer entes
Ġtecn olÃ³gico
rodu cts
Ġindic am
Ġnight life
Ġconvers as
Ġsurf ing
Ġfort une
Ġden unci
Ġinici ou
Ġfarm ing
Ġrelev Ã¢ncia
Ġdimens ional
Ġinteg ra
Ġmediterr Ã¢neo
Ġluc ros
Ġcapit Ã£o
Ġgather ing
Ġsai u
Ġaconselh amento
Ġbarre ira
Ġsorr iso
Ġtherapeut ic
r ase
z an
Ġa onde
Ġt ed
it ura
Ġn ose
Ġl ips
Ġg iov
Ã¡ vamos
Ġes fera
th m
Ġman kind
ok ed
Ġtra um
Ġind emn
Ġpa u
Ã¢n d
Ġprof issÃ£o
Ġimport ed
ios as
Ġid Ãªn
app ing
Ġresearch er
Ġstat s
Ġprev ents
Ġfort emente
Ġbab ies
Ġprest adores
ĠhÃ³sped e
Ġdemonst raÃ§Ã£o
Ġsen Ã£o
Ġmort al
Ġram o
Ġvag as
Ġadvis e
Ġconcert s
Ġmerch and
Ġpeda Ã§os
Ġescolhe u
ĠmÃ¡r more
Ġtelh ado
Ġsemicon duct
Ġtroubleshoot ing
Ġelectrol ux
p ected
ar f
Ġf ract
Ġthe ft
Ġan ger
am ina
Ġj ub
Ġk le
Ġor qu
ip her
Ġsh ep
Ġtra g
Ġsem inar
Ġnew port
Ġpol e
Ġpol Ã³nia
Ġpass es
Ġact ualmente
Ġexp orter
Ġtur in
Ġday light
Ġatual izados
Ġsex uais
Ġexpress ar
Ġq ing
Ġhy pot
ĠaÃ© reo
Ġlegal ly
Ġsam ui
Ġoptim ized
Ġbegin ners
Ġdiam antes
Ġpon der
ĠclÃŃn icas
Ġconstit ute
Ġdelet ion
Ġenorm es
Ġdissert aÃ§Ã£o
Ġctr l
c ra
r ene
Ġp anc
Ġo it
en ne
Ġth m
Ġde do
em en
ig i
ÃŃ cias
Ġres ide
Ġdes empre
ud ia
Ġso ap
Ġgr ate
Ġqual ification
ian e
Ġenc iclop
aliz ados
Ġrep aro
Ġorg Ã¢nico
Ġsegu em
Ġhome page
Ġtal ento
Ġig uais
Ġremo ving
Ġsouth east
Ġcontent a
Ġcham ou
Ġmem e
Ġpract ition
Ġsac ramento
Ġviaj ante
Ġmund os
Ġavi Ãµes
Ġmaxim ize
Ġmec Ã¢nico
Ġjunt as
Ġfair y
ĠsuÃŃ te
ĠclÃ¡ss icos
Ġbroch ura
Ġbull et
Ġsurpr ised
Ġthr one
Ġmultifun cional
Ġboliv ia
Ġgale Ã£o
Ġeix os
Ġwond ers
Ġd ame
Ġde er
it ra
Ġan ot
ol ta
Ġal av
Ġal ban
ig ue
Ġch ess
ip ur
Ġro uge
Ġport Ã¡teis
Ġbl anc
Ġmes qu
Ġlim pos
Ġmodel ing
Ġste f
Ġconstru Ã§Ãµes
Ġparticip aram
Ġder mat
Ġpast el
Ġic eland
Ġplane je
ĠgrÃ¡f ica
Ġfus o
Ġmotiv ation
Ġcidad ania
Ġdestac ar
ĠlÃ¢m ina
ĠmÃº t
Ġvinc ent
Ġprime iramente
Ġlam ps
Ġlor enzo
Ġflav or
Ġrg b
Ġvolunte ers
Ġdour ado
Ġcilind ro
Ġlent amente
Ġlaborator ies
Ġresurre ction
i Ã¡rios
t os
Ġo re
Ġo ro
Ġf rota
as i
Ġv ing
Ġg um
Ġch eiro
ip es
per ia
Ġne x
Ġsol ares
Ġaut Ã´n
Ġprov ed
ese x
Ġger ador
Ġsal Ã¡rio
ÃŃn s
Ġorg ulhos
Ġpal azzo
Ġbra cket
Ġgre go
Ġregard s
Ġguar ulhos
Ġdistribu ir
Ġalmo Ã§ar
ĠhistÃ³r icas
Ġevid Ãªncia
Ġram ada
Ġexplic aÃ§Ã£o
Ġchain s
Ġapropri ada
Ġrib eira
Ġcolum ns
Ġinic iais
Ġexplos Ã£o
Ġintu ito
Ġalexand ria
Ġsuced ida
Ġbutter fly
Ġinvis ible
Ġprocl aim
Ġmicrof one
Ġgamb ling
Ġnutric ional
Ġrodovi Ã¡rio
Ġpatt aya
p u
v idos
er ias
Ġs is
or ros
Ġe os
Ġn j
ro ws
ip a
Ġne ur
op a
Ġinter s
Ġob ed
Ġmu hammad
Ġequ ality
Ġlu ke
Ġfer rar
Ġautom obile
Ġcost ura
Ġconsider able
Ġwould n
Ġeduc acionais
Ġtom b
Ġcompet ence
Ġsignific ance
word s
Ġextrem idade
Ġkn ife
Ġreceb emos
Ġdivid ido
Ġvas os
Ġpreserv ed
iling ual
Ġbless ing
Ġsemin Ã¡rio
Ġsubsid iar
wal k
Ġpedag Ã³g
Ġrestor ation
Ġtrin idad
Ġunem ploy
or ini
Ġth ess
Ġn ost
Ġh et
Ġv ascular
ac co
Ġdo z
oc aÃ§Ã£o
Ġj en
Ã³ b
Ġch and
Ġat om
Ġen de
Ġfr atern
Ġdes erve
Ġtr ono
Ġle ak
Ġro ver
art en
Ġsem an
Ġph nom
Ġesc av
Ġav ast
Ġimp ec
Ġsub terr
se is
Ġwork out
Ġfol k
Ġprom ised
ron es
Ġhor ror
Ġfund ador
rom ass
Ġpi et
Ġfew er
Ġdecl ine
Ġsand wich
Ġwel com
Ġliber aÃ§Ã£o
Ġbad en
Ġspeak s
Ġran ch
Ġabord agens
Ġgast os
Ġlag una
Ġbb c
Ġconstruct ed
ĠvÃŃtim a
Ġnutri entes
Ġsatan Ã¡s
Ġhort a
Ġmathemat ics
Ġencam inh
a velmente
b ur
v em
Ġt ido
Ġt ie
Ġp ÃŃl
Ġo vel
Ġw ilson
Ġl ust
Ġl ace
Ġem per
Ġcon go
ia b
Ġse Ã§Ãµes
Ġma pe
Ġst roll
Ġbe ac
Ġap os
Ġad idas
Ġcl ipe
Ġab ol
Ġsp ider
Ġmet als
Ġint it
Ġbu cket
Ġwell s
Ġmodel agem
Ġaccess ory
Ġactiv ated
Ġintegr ados
Ġcompet ente
Ġresist entes
Ġevent ualmente
Ġrecomend ados
Ġfort una
Ġwall et
Ġcompre ende
Ġles Ã£o
Ġposition ing
ÃŃg io
Ġgradu ates
Ġaudio vis
Ġgast ar
Ġpert in
Ġplanej ando
Ġmanifest aÃ§Ãµes
Ġextre ma
Ġfog Ã£o
Ġnev ada
ĠhipÃ³t ese
Ġrecru it
Ġreh abil
Ġtelecommunic ations
Ġpab lo
j s
l av
Ġa ro
Ġt ack
Ġe ly
Ġn b
Ġv es
Ġv ault
Ġma us
Ġres ume
Ġim ers
Ġcas ca
Ġx ero
Ġele iÃ§Ã£o
Ġany time
Ġer p
Ġorg ans
Ġpartic les
Ġgovern ed
Ġfa Ã§am
Ġju iz
Ġload s
Ġreb u
Ġfamos as
Ġisl amic
Ġcoc on
pi ece
Ġgon z
Ġsha ft
Ġinns bruck
Ġsimplic idade
Ġunex pected
Ġatmospher ic
Ġt elas
Ġp enc
ar r
Ġin er
Ġg and
Ġat ende
Ġbe a
Ġbe an
Ġdes igual
Ġpor cel
Ġcan Ã§Ãµes
Ġpod cast
Ġvis ÃŃveis
ph is
Ġgre enh
Ġcert s
ĠmÃ©d icas
gar ian
Ġgovern or
Ġbab ylon
Ġjud Ã¡
Ġarri ving
Ġpul mon
ĠeconÃ³m icos
Ġmur cia
Ġpopul ations
Ġventil ation
rob ras
Ġneck l
ÃŃss ima
Ġprestig e
Ġcorrel ation
Ġcobr anÃ§a
Ġcamps ite
ĠteÃ³r ico
Ġsteph en
Ġindese j
Ġcarboid ratos
t om
Ġc ag
ic an
Ġl ula
ec ch
Ġr ick
Ġdo ha
Ġout let
Ġcol Ã´nia
Ġbl ank
Ġneg ativos
red os
Ġconfig ured
Ġtransfer Ãªncias
Ġrap idez
Ġconnect s
Ġcabe Ã§al
Ġregular es
Ġatra c
Ġcic los
Ġessencial mente
Ġpalest ras
Ġadvers e
Ġchec ks
Ġcem it
Ġmetabol ismo
Ġcamps ites
Ġafili ados
ĠÃªx ito
Ġpenins ula
s ance
Ġp w
Ġp unch
Ġh pe
Ġl end
Ġl arn
Ġv amp
Ġk um
Ġres fri
Ġnot ices
Ġro cket
Ġbar ro
Ġer n
Ġgen Ã©tica
Ġdesign ated
Ġbas ically
Ġfir ms
Ġvers us
Ġpublic ly
Ġsab ores
Ġprote ins
Ġconsum ing
Ġtro jan
Ġfabric ados
Ġbenef icial
Ġconsegu imos
Ġexig entes
Ġincorpor ate
Ġimagin aÃ§Ã£o
Ġcitizens hip
Ġgan he
Ġweap on
Ġtall inn
Ġdesconhec ida
Ġalgorith m
Ġdemas iado
Ġlibrar ies
b is
j on
Ġt ch
in Ã¡rios
Ġm ing
Ġf Ãªme
Ġb ers
Ġn isso
Ġh f
Ġr al
Ġse quer
Ġdes esper
Ġtr iste
Ġam ort
Ġdis rupt
Ġdis plac
av or
Ġpes ados
Ġdesign ing
Ġsk f
Ġinclu ÃŃda
Ġdisc om
Ġmal a
Ġfal am
Ġsant orini
Ġdiv erg
Ġhuman itarian
Ġtom ado
Ġlig ada
Ġtent ou
Ġauthor ization
Ġconsegu inte
Ġdistribu idores
Ġarchitect s
aca o
Ġja queta
Ġvulner abilidade
ni us
Ġreflet ir
Ġanalis ados
Ġberg amo
Ġpuzz les
Ġaccid ents
Ġintim ate
Ġcair ns
Ġrey k
Ġbackpack ers
Ġdioc ese
Ġhygi ene
Ġbrill iant
Ġcondomin ium
Ġariz ona
t c
t ech
Ġto ps
Ġat e
ei am
Ġbus cam
Ġsal ve
ps on
Ġnas ce
Ġplay back
Ġcer ve
Ġste ve
Ġri m
Ġedit ed
Ġsalv os
Ġapo ia
Ġexport s
Ġavoid ing
Ġcai u
ĠquÃŃm icas
Ġbri an
Ġproteg idos
Ġanunci ar
Ġdelici oso
Ġpav ilion
Ġinaug ur
ĠÃ¡c idos
Ġines per
Ġkel ly
Ġsebast ian
i Ãªncia
z ing
en al
ar us
Ġn ode
Ġin hib
Ġw er
Ġv ici
id i
Ġy og
Ġus ou
Ġad visor
Ġnot ificado
Ġro berto
Ġev ite
Ġair fare
Ġequ ity
Ġsub mar
anc ement
Ġref use
Ġdu o
Ġaccess ing
Ġfal so
Ġrepresent ar
Ġprepar ados
Ġwal ks
Ġcru el
Ġded icaÃ§Ã£o
Ġestrut ural
Ġben Ã©f
Ġpergunt ou
Ġescrit uras
Ġcross ing
Ġmc c
Ġdesfr ut
Ġengenh eiro
Ġsurve ys
Ġdomain s
Ġimpression antes
Ġcidad Ã£o
Ġreflet e
Ġdescar ga
Ġadvis ed
Ġreut il
Ġbarre iras
Ġatras o
Ġplen amente
Ġfilip inas
Ġsettl ement
r c
Ġp og
Ġf itting
Ġb ento
Ġh m
Ġl ava
qu eira
Ġr umo
ess en
Ġest al
Ġex pon
pl at
Ġper if
Ġun pre
Ġdis able
Ġbr est
Ġass ust
ional mente
Ġcor fu
Ġesc apar
Ġcri am
Ġdec re
Ġprecis as
Ġleg umes
Ġlar eira
Ġwest in
Ġbi otec
Ġobserv ou
Ġgard a
Ġpen gu
Ġta hoe
Ġdisp omos
Ġcus h
Ġband as
Ġmulti player
Ġobt Ã©m
ĠplÃ¡st ica
Ġenvolv ido
Ġfern and
Ġabund Ã¢ncia
Ġadvertis ements
Ġsecund Ã¡rio
Ġrang es
Ġdaugh ters
Ġalexand re
Ġarrang ements
Ġassem bl
Ġbranc os
Ġrefres h
Ġrefug iados
c us
Ġa in
Ġt ier
Ġc ep
Ġp ell
Ġs ist
Ġe ve
Ġn ude
Ġh ud
Ġv ÃŃn
il as
Ġg f
Ġg ur
ec l
ow a
te k
Ġro pe
Ġcons p
mo bil
Ġprof ound
Ġdur ad
Ġhol ders
Ġgar otas
Ġorig ens
Ġorig ins
Ġpc b
ÃŃd ios
Ġhy p
Ġexecut ivos
Ġfix es
Ġsport ing
Ġju ven
Ġsoci eties
Ġpropos e
Ġconect ividade
Ġenvolv idas
Ġapost les
Ġajust es
Ġcollabor ative
Ġadicional mente
ĠaÃ§ ores
Ġgd p
Ġcondut or
Ġbrun o
ĠÃ³pt ica
Ġvess el
Ġaesth etic
Ġheath row
Ġaccor hotels
Ġporcent agem
Ġxero x
b at
d m
f il
l ie
s al
re iros
Ġb ist
Ġb av
Ġn ederlands
Ġun ified
Ġcar ls
Ġmar bella
Ġhe al
Ġlo an
Ġext raÃ§Ã£o
Ġcur va
Ġwork place
Ġget away
Ġlim p
Ġdem ol
Ġcontrol ado
Ġlog s
Ġlog ical
Ġregist rada
Ġfuncion ando
Ġdestin y
Ġgost ou
Ġoferec idas
Ġgol pe
Ġestim ate
Ġfig u
Ġcum pre
Ġconcept ual
Ġregr esso
Ġpossibil ita
Ġnegoc i
Ġsurg iu
Ġrol amentos
Ġreact ions
Ġvil nius
Ġbibliot ecas
Ġcomplic ated
Ġdrag Ã£o
Ġhack ers
Ġbrinc ar
Ġcogn itive
Ġcongreg ation
ĠapÃ³st olos
Ġfabul ous
Ġcelest ial
Ġloyal ty
Ġrena ult
Ġdiscom fort
Ġf ones
ut os
Ġis abel
Ġj erez
Ġno bre
iz amos
Ġar om
Ġgr ama
ak h
Ã§a o
Ġgu ys
Ġenc ycl
Ġconf ir
Ġfaz ia
Ġadicion ados
Ġsex ualmente
Ġpopular izada
Ġexclus ivas
Ġvac c
Ġcann ab
Ġmid st
Ġoptim um
Ġmad ison
Ġviv endo
Ġplug ins
Ġroll s
Ġswitch es
Ġincom pat
Ġcres ceu
Ġupload ed
Ġurg ent
Ġcorrel aÃ§Ã£o
Ġtig er
ambu co
Ġbatt les
mand u
Ġstom ach
Ġconci erge
Ġgiov anni
Ġt ende
in ing
ar te
Ġf g
Ġk ate
Ġac Ã§Ãµes
Ġac rob
ay o
Ġpor men
Ġad her
Ġmar ÃŃa
Ġhe ated
so ft
az ar
Ġbr us
Ġcor o
Ġx c
Ġseg redos
Ġpal ais
Ġanal Ã³g
Ġcontrol a
Ġatual izada
Ġacess Ã³rio
Ġimpress oras
Ġcreat ures
Ġdou bl
Ġpron ta
Ġperman ently
Ġviaj ando
Ġestim ular
Ġrelax ed
Ġconsist ency
Ġcompos ite
Ġsho e
Ġali ados
Ġsatisf y
Ġaudi Ãªncia
Ġhun ger
Ġiron ing
Ġemiss or
Ġgig ante
Ġrecre ational
Ġabund ant
Ġsemin Ã¡rios
Ġsimplic ity
Ġstro ke
Ġingles a
Ġdecorr entes
Ġarquitect ura
Ġderr ub
Ġsevent h
o pl
Ġ Ã³s
Ġd ha
Ġc ds
Ġe cho
os ph
Ġb Ã³n
Ġn ass
Ġh ed
el ier
Ġqu in
Ġy o
per u
Ġam antes
Ġsa ÃŃdas
Ġte ar
Ġprof ici
min i
ern e
Ġher ze
cul a
ict ed
Ġexpress amente
Ġautor izados
Ġsenh as
Ġconvers or
Ġfire place
Ġinflu ences
Ġrespe itar
ĠlÃ¡ bios
Ġcorr idas
Ġdiam ante
Ġsaud ita
Ġprevent ing
Ġcontempor Ã¢neo
Ġcomport amentos
Ġannoun cement
Ġencer rar
Ġsau ce
Ġchurras co
Ġimobili Ã¡ria
Ġcolleg es
Ġcocon ut
d Ã£
m Ã£o
Ġth ri
Ġf ÃŃg
Ġb eng
Ġn ÃŃ
Ġin box
Ġr ato
ag na
Ġcont ou
Ġdis charge
Ġro los
Ġent emente
Ġtra y
ub ishi
ell ed
Ġcri aturas
Ġmed itation
Ġhow ard
Ġorg Ã¢nicos
hn ess
Ġmelhor ando
Ġconv enÃ§Ãµes
Ġgl oves
Ġprojet ada
Ġunder lying
Ġip v
Ġlev arÃ¡
Ġbi oc
Ġmuse o
Ġappro x
Ġexpress ly
Ġdiret ores
Ġtor r
Ġvirt ude
Ġlan zar
Ġsor v
Ġkill ing
Ġunif orme
Ġdescobri u
Ġbrid ges
Ġfach ada
ĠfÃŃg ado
Ġm ug
Ġf ara
Ġw ider
Ġh oc
Ġpar Ã¡
ul ose
Ġpr is
Ġac on
Ġap ocal
Ġinst ances
Ġsa vi
Ġop press
Ġmed itaÃ§Ã£o
Ġrecom endo
Ġgame play
Ġcard inal
Ġmem phis
Ġcy cles
Ġcaf es
Ġsepar ada
Ġfat ty
Ġtermin ais
Ġexplor ation
Ġintens o
Ġreceb endo
Ġga ul
Ġcant os
Ġlandsc apes
Ġpair s
Ġbis pos
Ġpern ambuco
Ġkra bi
Ġmosqu ito
Ġwelcom ed
ĠbÃ³n us
Ġd ior
Ġc ure
Ġm amm
it em
Ġb res
Ġem s
Ġpro ches
un o
Ġon d
Ġk de
Ġk art
og ical
Ġle Ã³n
ros pect
Ġloc als
Ġz end
Ġpol onÃªs
ff y
Ġvi i
Ġsal do
Ġmon key
Ġche v
Ġresult antes
Ġconst at
Ġbec k
Ġgar g
Ġprom ete
Ġet i
da o
Ġdom ing
Ġcert ificar
Ġlog ging
ogra pher
Ġrest art
Ġfuncion ais
Ġtv s
Ġexpress ions
Ġcontinu ou
Ġpens ei
Ġmill s
Ġrap ids
Ġaument am
Ġfix a
Ġlivre mente
Ġinteress a
ĠlanÃ§ ada
Ġmist akes
Ġminim ize
Ġcontribu em
Ġcul p
Ġham mer
Ġinsert ed
Ġsacrif ÃŃcio
Ġavan Ã§os
Ġvl ad
Ġembaix ada
Ġdominic ana
Ġdisord er
Ġpatr ick
Ġcicl ismo
Ġunauthor ized
y ers
Ġc ing
Ġf Ã³s
at us
Ġw ax
Ġv oto
im s
Ã¡ p
Ġpro d
us ing
ess as
Ġal mer
Ġex aust
Ġser p
and as
Ġcont am
Ġcomp ound
Ġfil has
Ġform am
Ġbar rel
Ġz um
Ġoff shore
Ġneed le
ath an
Ġprecis ava
Ġcost umes
Ġdifferent i
Ġrom anos
ĠsÃ³ dio
Ġpot ter
Ġsouth west
af one
other apy
Ġcombin aÃ§Ãµes
Ġru pt
Ġbag gage
Ġsn ork
Ġdistribu ÃŃdos
Ġsof itel
Ġbill ing
Ġinvolv ement
Ġsuperf icial
Ġformul Ã¡rios
Ġvic ino
Ġlit urg
Ġavent uras
Ġvulner ability
Ġincid ent
ih ad
Ġvibr ante
ĠjurÃŃd ico
Ġguitar ra
Ġforg otten
Ġacrescent ou
Ġcock tail
Ġemo Ã§Ã£o
Ġfras co
Ġvod afone
gov ina
Ġalme ida
Ġdescobert as
Ġhypot hes
Ġlanzar ote
b en
e b
Ġp ib
Ġe ars
Ġm ord
am ine
Ġg ut
Ġsu ited
Ġch ak
Ġk aw
Ġres in
Ġad iante
Ġsh ade
Ġun cle
ta ils
Ġmar ques
ang an
Ġte at
Ġconf eder
Ġtri un
erg y
Ġbas in
Ġlim Ã£o
Ġvol at
Ġjun ction
Ġhand y
Ġsent em
Ġtom Ã©
Ġnort on
Ġoffer ings
Ġmor ro
Ġmont ene
Ġtro c
Ġregul aÃ§Ã£o
Ġaff irm
Ġarr ast
Ġscreen ing
Ġrob ots
Ġcarreg ado
Ġmys ter
Ġtun nel
Ġbah Ã¡
Ġouv idos
Ġelectr Ã³nico
Ġsched ules
Ġpanor Ã¢mica
Ġrenew al
Ġhorm one
Ġadot ar
Ġmetabol ic
Ġile g
Ġdevol uÃ§Ã£o
Ġoxig Ãªnio
Ġhelicop ter
Ġmits ubishi
Ġreabil itaÃ§Ã£o
j ana
l Ã©
Ġt ing
Ġt Ã©n
or il
Ġf uma
ic ul
Ġl ix
il aÃ§Ã£o
Ġr aro
Ġy ard
ch os
Ġdes vant
Ġcomp ounds
Ġar Ã¡
Ġar ist
Ġpl c
all ow
Ġco berta
Ġob l
ign ano
Ġsem estre
Ġacc ent
Ġprocess ados
Ġmon as
Ġsec urities
Ġsc rap
Ġconst antes
Ġdep Ã³sitos
Ġgre l
Ġpost ado
Ġgal way
Ġdepart ments
Ġcomplex as
Ġmaj est
Ġflo ating
Ġtend em
Ġrock y
Ġposition ed
Ġhabit at
Ġiv an
Ġradi us
Ġdesenh ar
Ġsupl ement
Ġconvenc ionais
Ġgig antes
Ġtum or
Ġinic ia
Ġbog ota
Ġtob acco
Ġench imento
Ġefect u
Ġhb f
Ġincentiv ar
Ġomb ro
Ġmandar in
Ġemocion ante
Ġpursu ant
Ġshand ong
h and
p in
Ġd ul
Ġw ides
Ġw oven
Ġg is
ri um
Ġbe ans
Ġcont idos
ap se
Ġcar av
Ġag en
Ġcons elh
gu i
Ġph enter
Ġpers ec
Ġeng aging
Ġespec ificado
Ġbu car
Ġli Ã§Ãµes
Ġrespon de
Ġproc eder
Ġlocal idades
Ġsocial ist
Ġge o
Ã´m ica
Ġsus cept
Ġsing ing
Ġhead phones
Ġmicro phone
Ġjour n
Ġrot ation
Ġlt da
Ġacont ecimentos
Ġrod rigo
Ġload ed
Ġenh ancing
Ġbarb ados
ef ici
Ġcant on
Ġmarav ilhas
Ġbear ings
Ġbak er
Ġsurg ir
Ġlarg ely
Ġfum ar
Ġconcl ude
Ġdescar gar
Ġvine yard
ĠclÃ¡ us
ĠmuÃ§ulman os
romass agem
Ġherze govina
j amos
k ir
Ġo vo
Ġb are
Ġof ens
ec oque
Ġy ok
Ġos sos
Ġk no
ht en
ib o
Ġi ec
our t
Ġrel ie
Ġmin isters
Ġnew ton
erv ille
Ġca ut
Ġvia ja
Ġprof etas
Ġdec om
Ġmat ure
Ġplac ing
Ġsl iding
Ġguest houses
Ġideal mente
Ġobserv ado
Ã³l ogo
Ġexig ido
Ġfarm s
Ġalb u
Ġevid ente
Ġoh io
Ġpint uras
Ġvegetarian as
ĠcientÃŃf icas
Ġestre ita
Ġswe ats
Ġjurisd iÃ§Ã£o
Ġwil der
Ġreconstru Ã§Ã£o
Ġmate us
Ġsurpreend ente
Ġved aÃ§Ã£o
Ġdefect s
Ġcondom ÃŃnio
Ġbangu ecoque
Ġthess alon
u cho
Ġt ies
Ġd adas
Ġe in
at el
Ġb g
Ġb ert
Ġse q
ÃŃ metro
Ġar uba
ht ub
Ġnot re
Ġhe p
ind ade
Ġass inal
Ġfe ast
Ġposs e
Ġdel i
Ġbu c
Ġbat ch
Ġbi ology
Ġindic ation
Ġaccommod ate
Ã¡f ico
Ġinici antes
Ġguard ados
Ġhid romassagem
Ġintens a
Ġcomprom issos
Ġbang al
Ġconsequ ence
Ġpros ec
Ġchamp agne
Ġencontr Ã¡
gues ia
Ġdirig ido
Ġadolesc ente
Ġincid Ãªncia
Ġcharl ie
Ġpy thon
Ġhyper t
Ġhes itate
Ġappoint ment
Ġaffili ate
Ġasi Ã¡tica
Ġvocab ular
Ġsupermer cado
ĠcÃ³r doba
Ġimpul so
ĠgÃ©ner o
Ġenciclop Ã©dia
ĠarÃ¡ bia
f ig
m ost
s ky
Ġt ender
in ian
Ġe i
Ġm uggy
Ġde vi
Ġw ag
Ġpar c
if ilm
Ġac as
Ġel sa
ber ts
Ġfind er
Ġnecess itam
Ġquer es
be y
Ġanim ated
Ġang ol
Ġindic ando
ĠmÃºs culo
Ġdepart amentos
Ġdou b
Ġtransform ed
Ġcoloc ando
Ġpois on
Ġsqu ares
Ġsof rem
Ġjud ici
Ġminist ros
Ġkitch ena
Ġadministr ativa
Ġcompr adores
Ġasc end
Ġconvenc ional
uf eira
Ġrespir atory
Ġrazo Ã¡veis
Ġspons ors
ĠsÃŃn drome
Ġmerch ant
Ġquantit ative
Ã¢ng ulo
Ġniss an
Ġgrate ful
d ham
p ora
y ards
Ġp ose
Ġs az
Ġh end
Ġh atch
Ġl iÃ§Ã£o
il eno
Ġr amb
Ġest Ã´m
Ġj al
Ġbe verage
Ġfr ango
Ġtr it
Ġab n
Ġass ent
Ġport os
Ġsup press
Ġperm e
Ġmaior ca
Ġmap uto
Ġsent ence
Ġsex ually
Ġcorre ction
Ġcare ers
Ġindic ating
Ġhard cover
Ġdecor rer
Ġdesta ques
Ġta j
Ġacad Ã©m
Ġmagn es
Ġalb ufeira
Ġobt ida
Ġefet iva
Ġham m
Ġcorrespond entes
Ġpassword s
Ġafric ana
Ġah med
Ġress urreiÃ§Ã£o
Ġmich igan
Ġamarillas peru
Ġcampe Ã£o
Ġphilip pe
Ġtoler Ã¢ncia
Ġcb d
Ġjung le
Ġgorge ous
Ġremark able
Ġprefect ure
Ġnia gara
Ġphenter mine
Ġkitchena id
Ġo reg
Ġto ken
Ġg usta
est ar
Ġse ul
Ġex alt
ag ua
Ġpr ud
Ġbe e
Ġap agar
Ġag ar
Ġbo v
Ġcor redor
Ġsobre mes
Ġair pl
Ġval idity
ys ter
Ġger min
Ġbest e
Ġcontrol ling
Ġgovern ing
Ġorganiz acional
Ġdefin idas
Ġfuncion Ã¡rio
Ġeconom ize
Ġtab ern
Ġcast ing
Ġren nes
Ġanaly st
Ġtiver em
Ġcell ular
Ġsyn drome
Ġviv emos
Ġacompanh am
Ġcatal un
Ġvene zia
Ġpropriet ary
Ġhabit ual
Ġsd k
Ġdivert ida
rÃ³ i
Ġvil as
Ġpy ram
Ġfantas ia
Ġolymp us
Ġdelic ate
Ġhob by
Ġrecolh idos
Ġachiev ement
Ġinterag ir
Ġsobremes as
f en
p Ã§Ãµes
u ous
Ġc k
Ġc enas
Ġm ull
Ġin al
Ġl Ãº
Ġv inha
em ical
Ġcon de
ul Ã¡rio
Ġda va
Ġj enn
if ax
st ed
Ġen lar
Ġk ur
Ġdes emb
Ġim igr
Ġle ip
Ġag il
Ġra cional
Ġeng rav
ira ble
Ġsign ing
Ġtorn Ã¡
Ġmus h
Ġperf eiÃ§Ã£o
Ġadicion a
Ġcaus ado
Ġmach u
Ġbat htub
Ġbal con
Ġresid ual
Ġcrist ina
Ġtransform a
Ġrecord er
Ġconce ption
Ġinteress adas
Ġdesco bre
Ġexport ar
Ġexport ador
Ġofficial ly
ĠalcanÃ§ ado
Ġfair ly
Ġfair field
Ġtap ete
Ġpreserv ar
Ġdivert ir
Ġsag rado
Ġtribun ais
Ġespect ro
Ġdiscrimin ation
Ġanth rop
ĠesterÃ³ ide
Ġparafus os
ĠmÃ¡g ico
Ġbenjam in
Ġrenais sance
Ġdoz ens
r ade
Ġd iox
Ġth al
re cht
Ġl endo
id orm
ing a
em or
Ġre organ
Ġas ter
Ġtr en
Ġsh out
Ġbr no
Ġserv os
ov Ã¡
Ġpa ula
Ġemp acot
Ġcur ve
Ġweb cams
Ġinv alid
Ġdef ina
Ġsome where
Ġpoder osos
Ġret ard
Ġsl a
Ġcat ania
Ġfran ch
Ġcompan heiros
Ġconj unt
Ġrev it
Ġord in
Ġdan i
Ġic l
Ġben idorm
Ġjud ah
Ġgerm ain
Ġrespond ed
Ġreceb imento
Ġdol or
Ġcontract ors
Ġreconhec idos
Ġtraff icking
Ġdiet ary
Ġcanc un
Ġelement ary
Ġress usc
Ġconqu ista
Ġproph ets
Ġautonom ous
Ġbasket ball
ĠhidrÃ¡ul ica
Ġcolch Ãµes
Ġwyn dham
Ġintervent ions
Ġmonas tery
Ġjourn als
Ġleip zig
c ter
y u
Ġ ente
Ġt ic
Ġs ass
Ġm ild
as a
om ot
Ġr ost
ir th
ant h
Ġst al
Ġj c
if a
Ġdes ist
ap ura
ill ing
Ġle u
Ġter rible
Ġgu imar
Ġdel la
Ġsal va
Ġsup rimentos
Ġprof its
Ġdist o
Ġeconom ical
Ġaz ores
Ġcheg am
Ġcalcul ador
Ġrecogn ised
Ġjack pot
Ġok lah
ĠespaÃ§os os
Ġexperim ents
Ġcaps ule
Ġtes ouro
Ġsubse q
Ġdescobri rem
Ġinterval os
Ġfulfill ed
ĠhidrÃ¡ul ico
Ġbulg Ã¡ria
Ġsod ium
Ġgoi Ã¢nia
Ġbiss au
Ġoklah oma
p ower
q ing
t ron
Ġd ort
Ġd ome
Ġs ene
id al
Ġap is
and ex
Ġar sen
Ġsh rine
ha w
Ġaf g
Ġsub jet
Ġorg Ã¢nica
Ġdesenvolv endo
Ġlight ning
Ġfa una
Ġcompar ando
Ġmul house
Ã³n icas
Ġassist indo
Ġdecor ados
Ġobserv atory
Ġrecon st
Ġmonitor izaÃ§Ã£o
Ġnews papers
Ġindepend ently
Ġinsp ire
Ġcro c
Ġmight y
Ġconver ting
Ġliter ally
Ġproduz ida
Ġexpect ativa
Ġagrad ecer
Ġproporcion am
Ġoficial mente
Ġax ial
Ġpray ers
Ġvil am
Ġtrop as
Ġmanip ulaÃ§Ã£o
Ġrab at
Ġencar reg
Ġfuj ifilm
Ġrivers ide
ĠmÃ¡g ica
Ġbranc as
Ġpassap orte
Ġvocabular y
b ano
r ug
Ġt enh
Ġc antar
ad Ã©l
am el
Ġre aÃ§Ãµes
Ġal s
ag os
Ġtr Ã¡fico
Ġle Ã£o
Ġam ber
Ġsp ra
Ġro ger
Ġfl ix
az e
Ġass entos
Ġgo zo
bl o
Ġcap as
Ġintern ship
Ġmed iÃ§Ãµes
Ġca Ã§
Ġequ ally
Ġgl ow
Ġcab el
Ġfre d
Ġfre io
Ġste ering
Ġbre ed
Ġvel as
ĠsÃ³ cio
Ġdispos able
Ġtro ops
Ġfabric s
Ġtempor al
Ġlaw rence
Ġtreat ing
Ġsubm eter
Ġdedic ation
Ġdedic ados
Ġhospital idade
Ġliter almente
Ġcapt urar
Ġdress es
Ġsufici entemente
Ġassess ed
Ġtrack er
Ġswitch ing
Ġinvent Ã¡rio
Ġdil do
Ġzh ong
Ġheads et
Ġbob ina
Ġeb ay
Ġacceler ation
Ġsynth esis
Ġfuj itsu
Ġsincron izaÃ§Ã£o
Ġtamp Ã£o
Ġabdom inal
Ġa wa
Ġd ure
Ġp ilha
Ġb v
Ġn es
Ġn vid
Ġu i
ci ano
Ġim igraÃ§Ã£o
Ġro g
Ġco berto
Ġform ada
Ġbl ues
Ġra id
Ġmon s
Ġins ol
Ġcer am
Ġref Ãº
Ġrecom pensa
Ġrom ana
Ġregist rados
Ġindic ados
Ġfat igue
Ġveget ar
Ġcresc endo
Ġestim ativa
Ġprest es
Ġrelax ante
Ġconect a
Ġmission ary
Ġmount ing
Ġsusp ended
Ġimposs ibilidade
Ġatribu ÃŃdo
Ġmosc ou
Ġft p
Ġprivile ged
Ġventil ador
Ġtoler ance
Ġmast urb
Ġvolunte er
Ġsobr en
Ġply mouth
Ġmontene gro
Ġguimar Ã£es
Ġnvid ia
i ya
o e
t icos
w iki
Ġp ue
Ġp estic
Ġo us
Ġm oc
Ġf itt
ut ch
od ge
Ã³ xido
st an
Ġat uar
Ġser en
Ġsh ades
Ġsh elf
Ġlo ire
Ġnew ark
Ġant im
Ġsal om
Ġdist intas
Ġvo am
Ġer os
Ġtrad utor
Ġend ors
Ġpat io
Ġwater front
Ġadicion ando
Ġchr om
Ġativ as
Ġbi ologia
Ġdestin ados
Ġbrand ing
Ġsepar adamente
Ġprem iere
Ġguard ian
Ġharm less
Ġkar l
Ġassin aturas
Ġestabelec imentos
fol k
Ġfisc ais
Ġasi Ã¡tico
Ġnutri ents
Ġreject ed
vide o
Ġguin Ã©
u ana
Ġc ct
Ġp inc
Ġe cts
Ġde pri
Ġf Ã£
Ġf aria
as er
Ġin gr
Ġw v
el et
Ġand rea
Ġre z
Ã¡ cias
us et
Ġest oril
Ġes bo
Ġun a
Ġcar de
her o
Ġfil ed
Ġnew er
ca o
Ġmon o
Ġmon sters
Ġjog a
Ġutil ities
Ġneg ativa
Ġident ificados
br and
ĠÃ³ dio
Ġperf ection
Ġens ina
Ġorganiz ing
Ġativ amente
Ġmac os
Ġaer o
Ġalter e
Ġrede fin
Ġtermin ation
ĠelÃ©t ricas
Ġrein stall
Ġcompetit ividade
Ġretorn a
Ġtraz endo
Ġpresc ription
Ġimpos ed
Ġexcl uded
Ġpurs ue
Ġpublish ers
Ġconcess Ã£o
ĠprÃ©m ios
Ġmetall ic
Ġpercept ÃŃvel
ĠestÃ´m ago
c ana
j in
j ust
v ania
Ġc ativ
Ġin e
Ġse aling
Ġfor s
Ġk han
Ġpart idos
Ġcol o
esta ur
Ġlo ose
Ġph rase
Ġpass ages
Ġdist ort
Ġbu ilder
Ġperm issÃµes
Ġsystem atic
Ġfol ders
Ġret rospect
Ġcommun ist
Ġorganiz ada
Ã³r cio
Ġgest or
Ġaz erb
Ġelev adas
Ġaff ection
Ġcum ul
yl ene
Ġguer r
Ġpropos to
Ġcomprom eter
Ġdepos its
Ġprovin cial
Ġmachin ing
Ġconclu iu
ien ne
Ġextre mo
bu ild
Ġasc ensÃ£o
Ġcapit ais
Ġdram atic
ĠdomÃ©st ica
ĠcarÃ¡ cter
Ġabus o
Ġwithdra wal
Ġsuced ido
Ġsatisfe itos
Ġpertenc em
Ġholand Ãªs
Ġmyr tle
Ġgadget s
Ġendu re
Ġbangl adesh
Ġmyster ious
c ro
r ite
Ġs ult
Ġs ake
it iva
Ġr enas
Ġis bn
Ġest amp
Ġus ern
Ġser emos
Ġne gr
Ġag ile
Ġinform ou
Ġmod em
Ġfil adÃ©l
Ġph osph
ja vik
Ġcr enÃ§a
Ġpers ever
Ġdist or
Ġinf ilt
Ġdest ro
arch y
Ġbro ker
Ġnome ado
ann on
Ġcrist ian
Ġfra ude
lin ed
Ġphys ically
Ġmagn Ã©sio
Ġcit ro
Ġconsist Ãªncia
Ã³t ipos
Ġisol ado
Ġau ction
Ġsort ed
Ġbrilh antes
Ġconcl ui
Ġoak land
Ġrecre ation
Ġmexic ana
Ġcalib ration
Ġautonom y
Ġteles cope
Ġdiscrimin aÃ§Ã£o
ĠdÃ© b
Ġdesapar ecer
Ġlect ures
quis ite
Ġreyk javik
ĠfiladÃ©l fia
d c
g ement
p it
Ġa ix
Ġt Ãºn
Ġc ree
Ġs x
Ġm our
Ġn omin
Ġcom ics
Ġand amento
Ġand erson
ul ated
Ġal ertas
Ġun cover
vi ra
vi ol
Ġme ados
Ġaf eg
Ġdi Ã¡rios
Ġover l
Ġreserv ado
Ġarm adas
Ġcat tle
Ġgest ores
Ġlot es
Ġrecomend ada
Ġship ped
Ġven er
Ġstra in
Ġsuggest ion
Ġeleg ance
Ġtu rim
Ġnar iz
Ġobt idas
Ġunit Ã¡rio
Ġacid ental
Ġvul c
Ġvin yl
Ġreligios o
Ġcampe Ãµes
Ġcere bral
Ġinterfer ence
Ġnegoti ations
Ġconcess ion
Ġgalvan ized
Ġretir ada
stad t
Ġcomplain ts
Ġbelgr ade
Ġheb ei
Ġmanusc ript
Ġrecharge able
Ġnurem berg
Ġspat ial
Ġsubstan cial
Ġevitam ins
Ġmagnes ium
z ano
Ġ ria
Ġt ony
Ġs eda
an za
Ġde du
ad ar
Ġu z
em aker
ac ha
ul ate
iz ations
Ġbe ast
Ġnot Ã¡vel
ast es
av o
fer ence
Ġreg ency
Ġev apor
Ġra par
Ġvo y
Ġer rada
tim a
Ġpoder ÃŃamos
Ġdu plos
Ġgra pe
Ġdiv or
ua Ã§u
Ġcu jas
Ġenvi ando
Ġcorre ios
Ġsignific ativos
Ã³n icos
Ġprev Ãª
Ġexecut ed
Ġmicro ondas
Ġbelie vers
Ġfic Ã§Ã£o
Ġmist ake
Ġod ont
Ġfrank lin
Ġwhe y
Ġcompr idas
Ġencom endar
Ġheaven ly
Ġtras eiro
Ġproib ido
Ġdesconhec ido
Ġfascin ating
Ġmonet ary
Ġzomb ie
Ġvocab ulÃ¡rio
Ġdir ty
Ġporqu Ãª
Ġalgorit mo
Ġalmof ada
ĠdanÃ§ ar
Ġmillenn ium
Ġribe irÃ£o
Ġshep her
Ġazerb ai
e on
f le
j es
u ation
Ġt ide
Ġc imento
Ġf erv
Ġn ativos
Ġh w
Ġh ib
ec idas
Ġr v
Ġpro ver
ul ia
Ġsh i
Ġtem pt
Ġro land
Ġinter ativo
ast ro
Ġtra uma
Ġdel ine
Ġsel va
Ġdi odo
ne ys
Ġsign at
Ġdep ender
Ġempres Ã¡rios
Ġpublic ou
Ġrem ota
Ġgre g
Ġinvest ing
Ġol he
Ġrefer idos
Ġexc ited
Ġenvironment ally
Ġcamp bell
rad er
Ġtend s
Ġcul min
Ġposit ivas
Ġabord ar
Ġpotencial mente
Ġicon ic
Ġcres ce
Ġvot aÃ§Ã£o
Ġpharm acy
Ġbb q
Ġinher it
Ġslov ak
Ġabaix ar
Ġcrypt oc
Ġdevot ed
Ġsweats h
Ġafg han
f ree
r ost
y i
Ġa ed
Ġf ps
Ġin und
Ġl ighth
el ly
Ġv ence
ing e
Ġem er
Ġch f
Ġcl er
Ġmar inho
Ġco elho
res posta
Ġmin ne
Ġimp ede
Ġtri es
Ġpres um
Ġcur sor
Ġrep ente
Ġinf rar
Ġreal istic
Ġfer iados
Ġjan e
Ġback ing
Ġconstru ÃŃdos
Ġident ifiable
Ġplac ement
Ġrefer ring
iro u
Ġcart ridge
Ġgrav ity
Ã¡st ico
Ġperman entemente
Ġcut s
board s
Ġescrit or
Ġreceb idos
Ġcomprim ido
Ġprofund as
Ġjournal ist
Ġscript ure
Ġdiscipl inas
Ġtrend y
Ġtow el
Ġdish was
Ġrecus ar
Ġplast ics
Ġpitts burgh
Ġgreenh ouse
Ġsene gal
h are
Ġt ard
Ġc ine
Ġs amba
Ġf ond
Ġan ualmente
Ġda iry
Ġj Ãº
Ġen co
Ġac et
Ġna ils
ate ur
Ġel ena
Ġag rup
Ġcam pon
Ġmon umento
Ġexp or
ino is
Ġrequ iring
ÃŃt es
Ġrem ed
cul as
Ġri mini
Ġdias clima
Ġsens ual
Ġexecut iva
Ġaz ule
Ġace ite
Ġbon itas
Ġlegal mente
Ġbor bol
Ġhal ifax
Ġcic at
ÃŃg ios
Ġros es
Ġagricult ores
Ġentr ando
Ġcurr encies
Ġom n
Ġalber to
Ġreflect s
Ġrib eiro
Ġoccup ied
Ġkid ney
Ġsemin ars
Ġdistingu ish
Ġphilos oph
Ġxvi ii
Ġlex mark
Ġtong ue
Ġmonst ros
iloc he
Ġbret anha
Ġkenn edy
u ke
es y
Ġs ys
Ġe au
Ġn w
Ġh Ã³
est im
Ġem an
Ġse ios
Ġest ender
Ġen ver
Ġen zy
Ġk t
and y
ok er
Ġev itando
Ġcri ativas
Ġla us
Ġger ado
Ġsal mon
Ġmo ore
Ġdi ant
erg ia
Ġexperi ente
Ġconc erto
Ġprot et
Ġmal es
Ġfal antes
Ġmap ping
Ġparticip ou
Ġparticip ant
Ġdar win
Ġcolor ing
Ġimpress Ãµes
Ġrestaurant er
Ġmak ers
Ġfarm Ã¡cia
ĠlÃ¡ pis
Ġros ario
Ġtran st
Ġamster dÃ£
Ġcup s
Ġvic inity
Ġeth iop
Ġdigit alizaÃ§Ã£o
Ġlago on
Ġocup a
Ġski ing
Ġbil ateral
Ġstick er
Ġclip es
Ġesg ot
Ġmante iga
Ġmodal idades
Ġdespert ador
Ġincre ment
a q
k or
n em
p orn
Ġc rav
Ġo rel
Ġm peg
Ġn ab
Ġn ancy
Ġl n
am ps
Ġdo aÃ§Ã£o
Ġdo ente
Ġno iva
Ġhot s
Ġk ub
Ġun ir
Ġsp here
Ġall en
Ġinform ativo
Ġmod ificada
ry s
Ġconf usÃ£o
Ġcap ela
Ġmet ab
Ġint end
Ġcr ises
Ġemp ur
Ġir Ã£
Ġsom a
Ġescol ares
Ġencontrar am
Ġadv ances
Ġsent i
Ġmant Ãªm
Ġdetermin ing
Ġextra ction
Ġampl ificador
Ġanaly zes
Ġsqu ad
Ġdv r
Ġseason al
hol der
Ġresp iraÃ§Ã£o
Ġmr s
Ġclaim ed
Ġoccup ational
ĠacadÃªm icos
Ġnig eria
Ġfraud ul
Ġunw anted
Ġsket ch
Ġbalcon ies
Ġinfrar ed
l on
l ive
t urn
Ġb j
Ġcom ic
ot els
Ġr eno
Ġr ides
Ġda kar
Ġj usta
st ra
ch ild
Ġdes ast
Ġcl or
ĠÃ ¶
Ġme ado
Ġbr ide
pon ente
Ġmod ifications
Ġop el
Ġsol da
Ġte ens
bl ue
Ġbar iloche
Ġx v
Ġsc at
Ġche er
quer que
Ġaqu Ã¡ticos
me iras
Ġtechn icians
Ġlocaliz adas
Ġtom ate
Ġextens a
Ġdiz ia
Ġled s
Ġconj unta
Ġace ito
Ġhar ris
Ġperman ecem
Ġclos ure
Ġarmazen adas
Ġcele bra
Ġprotocol os
Ġjornal ista
Ġtestemun has
Ġgon na
Ġdiscl aim
Ġchef es
Ġsupermer cados
ĠhelicÃ³p tero
f ect
h m
y t
Ġp x
Ġo ste
ar el
Ġb ail
Ġal amo
Ġk ak
Ġac ute
Ġpre vail
Ġcar ries
Ġsp onge
Ġinter romp
Ġmar rom
Ġcol Ã©gio
ew are
Ġhotels see
Ġnew est
Ġra ces
Ġvi king
Ġger ados
Ġdesc ent
Ġclass ificada
Ġexpl ÃŃcito
Ġanim ados
Ġregist radas
Ġwal ter
Ġresid ences
Ġresol vido
Ġcin z
au kee
Ġwr est
isc op
Ġnorth west
Ġfat al
Ġta Ã§a
Ġdocument ary
Ġinvestig ated
Ġmel an
Ġteach ings
Ġbeb Ã©
Ġmort es
Ġrub y
Ġspl end
Ġaceit Ã¡vel
bul k
Ġfeliz mente
Ġjoint s
Ġlub rific
Ġades ivo
Ġduro bolin
Ġcay man
Ġgostar ÃŃamos
Ġmaqu in
Ġfragr ance
Ġinflamm atory
Ġoppon ent
Ġrecrut amento
ĠbÃªn Ã§Ã£o
Ġih g
Ġmattress es
Ġcorromp ido
Ġchel sea
Ġrehabil itation
ĠtÃ©n is
Ġdort mund
p cion
Ġt enda
an ema
Ġthe ories
Ġal ÃŃvio
Ġst o
Ġno Ã§Ã£o
ver m
op her
Ġam y
Ġmar Ã©
Ġel vis
Ġrec ur
Ġrec ess
Ġass ured
Ġrel ate
Ġcor inth
Ġmod alidade
Ġcr Ã´nica
Ġvo zes
Ġec cles
ath on
Ġvers Ã¡til
Ġbre th
Ġsl ave
Ġmont ado
Ġfact ories
Ġverdade iros
Ġexecut ando
Ġcaf et
Ġtermin ate
Ġveget aÃ§Ã£o
Ġmiss ed
Ġfall en
Ġmulti pl
Ġinterpre tar
Ġescre ve
Ġcolet adas
Ġating e
Ġatribu iÃ§Ã£o
Ġinfant is
Ġconstit utes
Ġintroduc ing
Ġreconstru ction
Ġespet acular
Ġbarri ers
Ġgaul le
Ġminne apolis
g is
n ap
w id
z on
Ġp ounds
Ġn ago
Ġw isc
Ġg ai
Ġg uru
em on
Ã© ter
Ġdo b
ÃŃ mer
Ġen do
Ġper de
Ġle o
Ġout do
Ġinform ations
Ġesc ur
Ġx xi
Ġra k
Ġmed ell
he ets
Ġaqu Ã¡rio
Ġpra zos
fe e
Ġtrad er
Ġatt ribute
Ġgener ous
Ġlocal ly
Ġred ondo
Ġpet ition
Ġdeix am
Ġassist ed
Ġach ei
Ġps d
Ġfoc al
Ġgost ei
Ġcompan ion
Ġdepend Ãªncia
Ġfort ress
Ġmaj estic
Ġcompanh eiro
Ġacr ÃŃlico
Ġjur os
Ġfilt rar
gon ha
Ġperd Ã£o
Ġcompr ises
Ġvas to
Ġfram ed
Ġsit em
Ġcopenh ague
ĠacadÃªm ica
Ġcrazy bulk
Ġshado ws
Ġshel ter
ĠrÃ© plica
Ġanth ony
Ġparcial mente
Ġaccompl ish
Ġkne e
Ġmonst ro
Ġarchip roducts
Ġhann over
Ġalbu querque
re w
ent ed
Ġl lo
Ġv imos
Ġr ud
Ġar rum
Ġna ked
Ġle go
Ġam ado
Ġman if
Ġgr Ã£
Ġbl as
Ġcri amos
Ġdur ban
Ġfer iado
Ġprot oc
Ġfi at
Ġinstal e
Ġfound ations
Ġcoloc ou
Ġsum mar
Ġdisp Ãµem
Ġregard ed
Ġfres cos
Ġcort esia
Ġhosped ou
Ġincorpor ar
Ġcs v
Ġwheel chair
Ġkh z
Ġrh in
cop ic
Ġadqui ri
Ġenvel ope
Ġlegend ado
Ġforb id
Ġwilder ness
Ġicl oud
Ġbreth ren
Ġescur idÃ£o
l ion
t one
on na
Ġde emed
Ġf ancy
it ious
Ġb ce
Ġh q
qu Ãªs
Ã§ amos
ol er
Ġr x
Ġas ton
Ġest ima
Ġch ant
Ġdes ped
oss e
Ġcar c
Ġou ve
Ġdis postos
gr am
mo on
Ġind ie
Ġfo ol
Ġcap o
Ġca ffe
Ġant rop
igh ters
Ġpes os
Ġworld cat
ele iras
Ġvol cano
Ġtravel er
Ġarm ad
Ġlook outs
Ġfran z
Ġartic ulaÃ§Ã£o
Ġregul ated
Ġwin ners
Ġaument arÃ¡
Ġprec oce
Ġsty l
Ġmedic inal
Ġdan ish
Ġje ovÃ¡
Ġhostels club
Ġsafe guard
Ġflu or
Ġcomum ente
Ġperd idos
Ġamster dÃ£o
Ġnegoc iar
Ġsilic on
Ġremov ido
Ġterr ÃŃvel
Ġantiv ÃŃrus
Ġdobr Ã¡veis
Ġpenal ty
Ġfec ho
Ġsorr ento
Ġovers eas
Ġtraduz ido
Ġurugu ai
Ġhug o
Ġtok ens
Ġingest Ã£o
Ġdesbloque ar
Ġembroider y
c ente
Ġc if
Ġc ain
Ġp iv
Ġl ento
Ġl itoral
Ġof ere
est res
ac Ã§Ã£o
oc om
Ġsu ÃŃtes
Ġk od
Ġes a
Ġper ipher
Ġun has
Ġdis ability
Ġsp ear
Ġeu cal
Ġind es
Ġsol te
Ġdif f
Ġsm d
Ġke vin
Ġpublic adas
Ġbre w
Ġbrasil ia
Ġtorn ado
Ġig uaÃ§u
Ġesper am
Ġquant ities
Ġfrequ ente
Ġshort ly
ago za
Ġmel t
no va
Ġcorpor ativos
Ġcapt ured
Ġchap a
ott ed
Ġvene z
Ġexce eding
Ġneigh b
Ġlegisl ative
Ġcompetit iveness
Ġamazon as
Ġcoach ing
Ġreflect ive
Ġescolh idos
Ġlen in
Ġdistribut ors
Ġderiv ados
Ġtn t
Ġstartup s
Ġdecreas ed
Ġdissert ation
Ġamino Ã¡c
Ġcannab is
Ġbucar este
Ġfitt ings
Ġcryptoc urr
p ay
r m
Ġc ube
Ġf eix
it amento
Ġl enta
Ġv wr
ou ri
ra va
Ġr ca
ur ismo
Ġfor sk
Ġal ba
Ġch um
Ġch Ã¢
Ãº b
Ġout lets
Ġel ast
Ġag adir
Ġsol omon
Ġph ases
Ġtri angle
Ġpo z
Ġsup ers
Ġsc p
Ġwho ever
Ġnecess ity
Ġsm ar
Ġbas ÃŃlica
Ġvol te
Ġgl ue
Ġsom bras
Ġsan e
Ġdem ora
Ġped imos
Ġbaix ado
Ġgovern anÃ§a
Ġbat alhas
Ġcapac itaÃ§Ã£o
Ġdeter mina
Ġsuport am
Ġren ome
Ġfoc ar
Ġimpress ed
Ġalem Ã£es
Ġdeb it
Ġcompartilh ada
Ġadministr ators
Ġclim b
Ġliter ary
Ġsix t
Ġrenov Ã¡veis
Ġelimin ated
Ġdrop ping
Ġsubsc riÃ§Ã£o
Ġsuje ita
Ġworth y
Ġetern o
Ġmencion ados
Ġvot ing
Ġmetod ologias
Ġensin amentos
Ġira que
Ġwitness es
Ġcha os
Ġzar agoza
lat inas
Ġrodri gues
Ġthessalon iki
g ir
g ie
u Ã¡ria
Ġl itu
Ġl emos
ec cion
Ġest aria
Ã³ ide
Ġres ina
Ġes feras
Ġman cha
all a
Ġrec orde
gu ei
Ġsa fer
act iv
Ġaut odes
Ġte orias
Ġra iva
Ġmo ham
Ġdia gon
Ġmat ur
Ġrem et
Ġconsider Ã¡vel
Ġinstal ada
Ġedit ores
Ġorder ing
less ly
Ġlev aram
elf are
Ġpag os
car as
Ġgal erias
Ġobserv ations
Ġperg unte
Ġru ÃŃnas
Ġep iscop
Ġconsult ores
Ġeg ÃŃp
Ġsimilar ly
Ġtub er
Ġacomp anha
Ġagrad Ã¡veis
Ġabsol uta
Ġbern ard
Ġcript omo
Ġstimul ate
Ġtru ques
Ġaeron ave
Ġhenri que
Ġparagu ay
Ġrighte ousness
Ġestu fa
Ġsubsidiar ies
Ġatrac Ã§Ãµes
b ang
c f
g il
m ans
p ix
u v
w ith
w ald
Ġt rio
Ġp Ãµe
en co
Ġm ei
Ġf ence
Ġin ju
Ġl om
Ġl anc
Ġl una
Ġv ita
Ġcom issÃµes
us o
Ġas a
Ġsu Ã©ter
Ġch oc
st ore
Ġser bia
Ġdes ag
op y
Ġcar ing
Ġcar ca
ast ed
av ail
Ġver bal
Ġesp ont
ong a
Ġgo a
Ġgo ji
Ġgu an
Ġx iam
Ġant ique
Ġcr ane
Ġwork load
ilh Ã£o
Ġliv ely
Ġgen esis
Ġmil w
Ġpack s
Ġanim ado
rom agn
Ġlic enses
Ġbuy ers
Ġalc al
Ġvac cin
Ġden y
Ġbon Ã©
Ġnor folk
Ġdeg ust
Ġsam pling
Ġcra c
Ġconcent rated
Ġrod ada
Ġemerg ed
Ġtan ques
Ġnam orada
Ġsold ado
Ġevid enci
Ġgall eries
Ġrequis ito
Ġcach orro
Ġdescar regar
Ġsnap chat
Ġamarillas latinas
Ġprivile ge
Ġverific ou
Ġregulament aÃ§Ã£o
Ġdescript ive
Ġdescul pe
Ġjon athan
Ġaar on
Ġwick ed
Ġenthus i
Ġaccumul ated
Ġvilam oura
ĠrefÃº gio
b ath
b ound
f y
h c
p en
x is
Ġc ear
ar quia
Ġf ate
Ġw elfare
Ġat itudes
Ġfr u
Ġsh ei
Ġdis por
Ġdis abilities
Ġmar i
Ġloc ked
Ġtri be
Ġger entes
Ġprocess adores
Ġnov idade
Ġperm issions
Ġsch l
Ġhand held
Ġvir al
Ġbom be
Ġrest riÃ§Ã£o
Ġcombin ations
Ġgal ile
Ġbeg un
Ġber ry
Ġviol aÃ§Ãµes
Ġpain ful
Ġprin ters
Ġfot ogrÃ¡fica
Ġexport aÃ§Ãµes
Ġexib idos
Ġill inois
Ġpad s
Ġcarre iras
isl ava
Ġlit ers
Ġpun ishment
Ġbul b
Ġexamin ar
Ġmetabol ism
Ġslov enia
ĠolÃŃmp icos
Ġlucr ativos
Ġhai er
Ġmann heim
Ġneckl ace
Ġsalom Ã£o
Ġlighth ouse
Ġinju ries
r ill
v ard
Ġt ango
Ġm ca
Ġde an
Ġb k
Ġn ÃŃt
Ġg im
em er
et i
Ġr ut
Ġex otic
iz able
Ġus in
Ġle op
Ġam Ã©ricas
Ġve ga
Ġx peria
Ġdif fus
orn os
Ġmay a
Ġvers e
Ġprom inent
ons in
Ġfund ado
Ġlast s
Ġtro l
Ġcompet entes
Ġcontinu ity
Ġcontinu arÃ¡
Ġappl iance
Ġpolic iais
Ġcivil izaÃ§Ã£o
Ġeleg Ã¢ncia
Ġrain fall
Ġcaminh Ãµes
Ġtrein ador
omet ric
Ġpok Ã©m
ĠvÃ¡l ida
ĠquÃŃm ico
Ġmanifest aÃ§Ã£o
ĠÃ©p ocas
Ġinfra verm
Ġfing ers
Ġinscre veu
Ġress al
Ġperigos o
Ġabandon ed
Ġpom p
Ġadvog ado
Ġtrav ess
iat ric
Ġbura co
Ġrhy thm
Ġt ah
Ġd ona
Ġc ia
Ġin jet
Ġl enn
od ing
Ã³ cio
Ġna iro
Ġpl um
Ġam ament
ib u
Ġtra Ã§Ã£o
Ġnew born
Ġmet ric
Ġele ito
Ġtri este
Ġsal tar
Ġbet ting
Ġpal ms
Ġgener ates
Ġsab endo
Ġfund amentos
Ġexc av
Ġdon o
Ġambi ent
Ġhead ing
Ġsac rific
Ġprefer ence
Ġfix ing
Ġestabel eceu
Ġrot eiro
Ġfarm Ã¡cias
Ġevid ent
Ġcolet amos
Ġating iu
Ġconclu ÃŃda
ĠpÃ´ sters
Ġjornal ismo
Ġantig ua
Ġora Ã§Ãµes
Ġterror ism
Ġbac ia
ĠsÃ³l idos
Ġcarn ival
Ġcontamin aÃ§Ã£o
Ġqueim ar
Ġcock tails
Ġsocio econ
Ġdesloc amento
Ġrhod es
Ġincon ven
Ġbrat islava
Ġarchae ological
Ġsemiconduct or
Ġoutdo ors
f ter
r ata
Ġt ÃŃn
Ġt iago
Ġc out
er m
Ġs ilh
en berg
Ġm ell
el ia
Ġg om
Ġch ong
Ġor ph
Ġtr icks
Ġad words
Ġna k
Ġtem Ã¡tica
Ġgr ams
Ġcri adores
erv ice
Ġca ution
Ġint enc
Ġsal ad
ile y
Ġsub jac
Ġmon aco
Ġoper ado
Ġmat s
Ġhere in
Ġdesenvolv emos
Ġedit ora
Ġtre inar
Ġpont ific
Ġpract ically
Ġmethod ologies
Ġcaracter izaÃ§Ã£o
Ġmicro bi
Ġtent ativas
Ġdesemp enha
Ġperman Ãªncia
Ġgir ona
Ġrot or
Ġdeb ug
Ġgrad ual
Ġther ap
Ġmart ÃŃn
Ġmechan ics
Ġcelebr ity
Ġurban os
Ã¶ n
Ġgirl friend
Ġalp ine
Ġdesper d
Ġneighborhood s
Ġnerv ous
Ġsurv iv
Ġoccas ionally
Ġvive u
Ġdistingu ished
Ġrevolucion Ã¡ria
Ġmotoc iclet
Ġprefe itura
Ġthorough ly
Ġdesenc ade
ĠdistÃºr bios
Ġoreg on
Ġdishwas her
Ġwisc onsin
b ie
v ens
Ġo val
on ial
is ha
Ġn icar
Ġto alha
Ġac ert
Ġsh ame
Ġel og
Ġhe ater
Ġtrans gress
Ġaf ro
Ġph ar
Ġmet h
Ġla ura
Ġhel ena
Ġcomplet ing
Ġher bs
Ġgar min
Ġmil ag
Ġatt ent
Ġcontrol ada
Ġred onda
Ġinvest ed
[...]
