{"<s>":0,"<pad>":1,"</s>":2,"<unk>":3,"<mask>":4,"!":5,"\"":6,"#":7,"$":8,"%":9,"&":10,"'":11,"(":12,")":13,"*":14,"+":15,",":16,"-":17,".":18,"/":19,"0":20,"1":21,"2":22,"3":23,"4":24,"5":25,"6":26,"7":27,"8":28,"9":29,":":30,";":31,"<":32,"=":33,">":34,"?":35,"@":36,"A":37,"B":38,"C":39,"D":40,"E":41,"F":42,"G":43,"H":44,"I":45,"J":46,"K":47,"L":48,"M":49,"N":50,"O":51,"P":52,"Q":53,"R":54,"S":55,"T":56,"U":57,"V":58,"W":59,"X":60,"Y":61,"Z":62,"[":63,"\\":64,"]":65,"^":66,"_":67,"`":68,"a":69,"b":70,"c":71,"d":72,"e":73,"f":74,"g":75,"h":76,"i":77,"j":78,"k":79,"l":80,"m":81,"n":82,"o":83,"p":84,"q":85,"r":86,"s":87,"t":88,"u":89,"v":90,"w":91,"x":92,"y":93,"z":94,"{":95,"|":96,"}":97,"~":98,"¡":99,"¢":100,"£":101,"¤":102,"¥":103,"¦":104,"§":105,"¨":106,"©":107,"ª":108,"«":109,"¬":110,"®":111,"¯":112,"°":113,"±":114,"²":115,"³":116,"´":117,"µ":118,"¶":119,"·":120,"¸":121,"¹":122,"º":123,"»":124,"¼":125,"½":126,"¾":127,"¿":128,"À":129,"Á":130,"Â":131,"Ã":132,"Ä":133,"Å":134,"Æ":135,"Ç":136,"È":137,"É":138,"Ê":139,"Ë":140,"Ì":141,"Í":142,"Î":143,"Ï":144,"Ð":145,"Ñ":146,"Ò":147,"Ó":148,"Ô":149,"Õ":150,"Ö":151,"×":152,"Ø":153,"Ù":154,"Ú":155,"Û":156,"Ü":157,"Ý":158,"Þ":159,"ß":160,"à":161,"á":162,"â":163,"ã":164,"ä":165,"å":166,"æ":167,"ç":168,"è":169,"é":170,"ê":171,"ë":172,"ì":173,"í":174,"î":175,"ï":176,"ð":177,"ñ":178,"ò":179,"ó":180,"ô":181,"õ":182,"ö":183,"÷":184,"ø":185,"ù":186,"ú":187,"û":188,"ü":189,"ý":190,"þ":191,"ÿ":192,"Ā":193,"ā":194,"Ă":195,"ă":196,"Ą":197,"ą":198,"Ć":199,"ć":200,"Ĉ":201,"ĉ":202,"Ċ":203,"ċ":204,"Č":205,"č":206,"Ď":207,"ď":208,"Đ":209,"đ":210,"Ē":211,"ē":212,"Ĕ":213,"ĕ":214,"Ė":215,"ė":216,"Ę":217,"ę":218,"Ě":219,"ě":220,"Ĝ":221,"ĝ":222,"Ğ":223,"ğ":224,"Ġ":225,"ġ":226,"Ģ":227,"ģ":228,"Ĥ":229,"ĥ":230,"Ħ":231,"ħ":232,"Ĩ":233,"ĩ":234,"Ī":235,"ī":236,"Ĭ":237,"ĭ":238,"Į":239,"į":240,"İ":241,"ı":242,"Ĳ":243,"ĳ":244,"Ĵ":245,"ĵ":246,"Ķ":247,"ķ":248,"ĸ":249,"Ĺ":250,"ĺ":251,"Ļ":252,"ļ":253,"Ľ":254,"ľ":255,"Ŀ":256,"ŀ":257,"Ł":258,"ł":259,"Ń":260,"Ġa":261,"Ġt":262,"Ġd":263,"es":264,"in":265,"Ġc":266,"er":267,"Ġp":268,"Ġs":269,"čĊ":270,"en":271,"Ġo":272,"ar":273,"or":274,"on":275,"Ġe":276,"ĠčĊ":277,"os":278,"Ġm":279,"an":280,"is":281,"Ġde":282,"re":283,"as":284,"he":285,"Ġf":286,"al":287,"at":288,"it":289,"Ġb":290,"om":291,"Ġn":292,"ad":293,"ic":294,"ent":295,"Ġthe":296,"Ġin":297,"Ġw":298,"ro":299,"qu":300,"Ġl":301,"el":302,"Ġan":303,"Ã£":304,"ou":305,"Ã£o":306,"Ġu":307,"Ġh":308,"Ã§":309,"ed":310,"Ġv":311,"ion":312,"am":313,"id":314,"il":315,"Ġto":316,"Ġof":317,"ing":318,"em":319,"Ġcom":320,"Ġg":321,"est":322,"ri":323,"Ġand":324,"Ġre":325,"ra":326,"Ġqu":327,"im":328,"ot":329,"Ġpar":330,"ec":331,"ol":332,"Ã¡":333,"et":334,"Ã©":335,"ia":336,"Ġem":337,"Ġcon":338,"ur":339,"ac":340,"ut":341,"iv":342,"Ġr":343,"Ġth":344,"us":345,"Ġdo":346,"Ã§Ã£o":347,"Ġpro":348,"le":349,"Ġse":350,"ess":351,"Ġum":352,"ir":353,"Ġpara":354,"Ġfor":355,"Ġy":356,"ul":357,"Ġque":358,"ig":359,"ant":360,"od":361,"oc":362,"un":363,"Ġal":364,"ÃŃ":365,"Ġas":366,"Ġyou":367,"ist":368,"ation":369,"do":370,"Ġda":371,"Ġis":372,"ter":373,"Ġma":374,"Ġsu":375,"if":376,"Ãª":377,"ers":378,"Ġst":379,"ort":380,"ag":381,"Ġex":382,"Ġon":383,"Ġest":384,"um":385,"Ġj":386,"Ġno":387,"ce":388,"Ã³":389,"aÃ§Ã£o":390,"ve":391,"ab":392,"st":393,"ith":394,"pl":395,"ente":396,"ade":397,"iz":398,"ho":399,"ado":400,"Ġwith":401,"Ãµ":402,"Ġat":403,"Ġbe":404,"Ãµes":405,"th":406,"Ġpr":407,"Ġen":408,"Ġac":409,"Ġk":410,"Ġus":411,"ch":412,"ver":413,"and":414,"ap":415,"Ġos":416,"ay":417,"Ġser":418,"Ġuma":419,"Ġor":420,"Ġap":421,"ect":422,"Ġfr":423,"ly":424,"Ġch":425,"ĠÃ©":426,"ip":427,"per":428,"Ġhot":429,"Ġcont":430,"for":431,"Ã§Ãµes":432,"to":433,"Ġres":434,"ento":435,"Ġit":436,"idade":437,"og":438,"Ġthat":439,"ow":440,"ens":441,"Ġdes":442,"Ġwh":443,"end":444,"ud":445,"ill":446,"ados":447,"Ġes":448,"Ġne":449,"ity":450,"ada":451,"Ġar":452,"ct":453,"vel":454,"Ġcomp":455,"ica":456,"Ġtr":457,"ci":458,"ta":459,"Ġper":460,"oss":461,"port":462,"Ġare":463,"ob":464,"Ġpor":465,"Ġim":466,"Ġad":467,"Ġna":468,"ate":469,"Ġhotel":470,"te":471,"igh":472,"Ġcl":473,"Ġun":474,"se":475,"Ġpl":476,"du":477,"ere":478,"Ġyour":479,"ost":480,"the":481,"Ġpre":482,"op":483,"ais":484,"Ġcan":485,"ocÃª":486,"Ġou":487,"Ġfrom":488,"vi":489,"ib":490,"Ġwe":491,"ial":492,"de":493,"Ġle":494,"Ġcar":495,"Ãº":496,"ĠnÃ£o":497,"form":498,"Ġab":499,"ies":500,"Ã¡ri":501,"Ġam":502,"Ġhe":503,"ug":504,"Ġpod":505,"Ġdis":506,"io":507,"ust":508,"Ġmais":509,"Ġsp":510,"Ġby":511,"ire":512,"ha":513,"con":514,"ine":515,"Ġtem":516,"ando":517,"Ġman":518,"cia":519,"cl":520,"ite":521,"ts":522,"ores":523,"av":524,"ok":525,"all":526,"Ġnot":527,"Ġinter":528,"Ġro":529,"ĠvocÃª":530,"ast":531,"ive":532,"art":533,"our":534,"ito":535,"ure":536,"so":537,"ment":538,"Ġout":539,"com":540,"ei":541,"ual":542,"res":543,"Ġgr":544,"Ġdos":545,"Ġcomo":546,"Ãªn":547,"Ġent":548,"ass":549,"ans":550,"ore":551,"Ġthis":552,"ang":553,"ke":554,"Ġme":555,"ave":556,"Ġmar":557,"bl":558,"ard":559,"ind":560,"Ġag":561,"Ġtra":562,"fer":563,"ld":564,"az":565,"ide":566,"oun":567,"po":568,"Ġel":569,"Ġall":570,"Ġpart":571,"Ġter":572,"Ġi":573,"ult":574,"Ã§a":575,"ura":576,"Ġsh":577,"ice":578,"ĠÃ":579,"ions":580,"ico":581,"ido":582,"pt":583,"amento":584,"co":585,"Ġwill":586,"Ġwor":587,"ific":588,"Ġfl":589,"ook":590,"ai":591,"Ġbr":592,"age":593,"ante":594,"hot":595,"ew":596,"Ġao":597,"tr":598,"amente":599,"Ġcol":600,"esta":601,"cess":602,"ell":603,"Ġqual":604,"gr":605,"ĠÃł":606,"Ġesp":607,"ina":608,"Ġpel":609,"her":610,"Ġseu":611,"aÃ§Ãµes":612,"Ã©m":613,"ain":614,"gu":615,"Ġver":616,"und":617,"ome":618,"Ġinform":619,"ach":620,"ated":621,"va":622,"ong":623,"pon":624,"Ġrel":625,"ida":626,"ional":627,"Ġhave":628,"que":629,"ros":630,"ign":631,"ase":632,"able":633,"are":634,"Ġcons":635,"Ġsob":636,"ich":637,"Ġwas":638,"Ġgo":639,"Ġsua":640,"ĠsÃ£o":641,"entes":642,"Ġcor":643,"Ġco":644,"Ãªncia":645,"Ġtod":646,"Ã©is":647,"out":648,"Ġmin":649,"pe":650,"mo":651,"ical":652,"ance":653,"adas":654,"Ġso":655,"ack":656,"Ã§o":657,"rig":658,"Ġass":659,"Ġob":660,"ber":661,"we":662,"ru":663,"ater":664,"Ġprodu":665,"ador":666,"Ġinst":667,"ak":668,"Ã¢":669,"par":670,"Ġpode":671,"Ġfil":672,"ight":673,"ations":674,"Ġpri":675,"elh":676,"Ġreg":677,"Ġmod":678,"wn":679,"Ġsobre":680,"Ġmu":681,"pos":682,"Ġloc":683,"ades":684,"Ġpe":685,"ree":686,"act":687,"Ġsa":688,"one":689,"Ġour":690,"Ġind":691,"ivo":692,"Ġev":693,"ian":694,"ence":695,"Ġform":696,"Ġeu":697,"esso":698,"Ġtrans":699,"Ġdas":700,"Ġnoss":701,"amb":702,"Ġcas":703,"mente":704,"Ġfo":705,"ord":706,"Ġve":707,"Ġcent":708,"Ġport":709,"ous":710,"Ġdire":711,"Ġtim":712,"Ġfe":713,"antes":714,"Ġcam":715,"Ġmore":716,"Ġsem":717,"Ġsol":718,"Ġte":719,"Ġop":720,"ther":721,"Ġbl":722,"agem":723,"Ġaut":724,"Ġrec":725,"Ġgu":726,"iss":727,"ias":728,"ace":729,"ue":730,"Ġincl":731,"ov":732,"Ġnew":733,"Ġvis":734,"ub":735,"Ġwhich":736,"Ġserv":737,"ff":738,"int":739,"aliz":740,"ents":741,"pr":742,"ge":743,"entos":744,"imento":745,"icas":746,"der":747,"ick":748,"Ġposs":749,"ish":750,"Ġhotels":751,"estaur":752,"dit":753,"pro":754,"Ġhas":755,"ear":756,"idades":757,"Ġmon":758,"vis":759,"Ġbar":760,"Ġche":761,"Ã³s":762,"Ġla":763,"Ġdif":764,"ata":765,"Ġx":766,"ca":767,"Ã¡rio":768,"indo":769,"ĠestÃ¡":770,"Ġsc":771,"ĠÃ¡":772,"ary":773,"ja":774,"Ġup":775,"til":776,"up":777,"ks":778,"plic":779,"Ġmelh":780,"Ġfaz":781,"Ġconf":782,"Ġra":783,"ings":784,"xim":785,"Ġz":786,"icos":787,"Ġesc":788,"Ġintern":789,"ame":790,"ior":791,"ould":792,"ular":793,"Ġmas":794,"rio":795,"Ġpol":796,"Ġmet":797,"Ġcap":798,"olog":799,"ose":800,"Ã¢n":801,"Ġone":802,"por":803,"Ġcri":804,"ys":805,"ÃŃvel":806,"Ġair":807,"ert":808,"Ġprov":809,"Ġval":810,"ora":811,"ie":812,"Ġcr":813,"ese":814,"Ġbut":815,"Ġproduct":816,"ambÃ©m":817,"erv":818,"Ġtime":819,"amos":820,"Ã¡rios":821,"dut":822,"ativ":823,"ras":824,"Ġav":825,"Ġaf":826,"veis":827,"ices":828,"idos":829,"cis":830,"este":831,"Ġpesso":832,"vol":833,"Ġdel":834,"Ġnos":835,"ft":836,"Ã§os":837,"ile":838,"no":839,"Ġtec":840,"bal":841,"Ġentre":842,"Ġother":843,"Ġalso":844,"anto":845,"Ġpres":846,"Ġfun":847,"Ġprogr":848,"Ġmes":849,"ix":850,"aix":851,"Ġca":852,"Ġlo":853,"Ġtri":854,"itos":855,"Ġprocess":856,"Ġart":857,"Ġsho":858,"iÃ§Ã£o":859,"Ġmed":860,"emb":861,"Ġtheir":862,"ele":863,"use":864,"Ġsy":865,"Ġpa":866,"Ġcomm":867,"Ġfoi":868,"Ġger":869,"ĠtambÃ©m":870,"Ġvi":871,"ry":872,"Ġele":873,"Ġnov":874,"ria":875,"Ġmost":876,"Ġalg":877,"Ġsal":878,"Ġequ":879,"els":880,"Ġsim":881,"pres":882,"Ġfin":883,"ne":884,"Ġuse":885,"ors":886,"Ġant":887,"Ġexper":888,"Ġits":889,"Ġprodut":890,"quer":891,"ont":892,"ric":893,"Ġany":894,"Ġpers":895,"pre":896,"reat":897,"Ġsub":898,"gl":899,"now":900,"Ġabout":901,"Ġencon":902,"enc":903,"Ãªs":904,"Ġsec":905,"Ġtodos":906,"Ġta":907,"ck":908,"min":909,"ubl":910,"ps":911,"Ġrestaur":912,"Ġprof":913,"Ġpo":914,"Ġseus":915,"ph":916,"eiro":917,"Ġact":918,"view":919,"ĠprÃ³":920,"Ġvia":921,"endo":922,"Ġbus":923,"Ġdist":924,"Ã´":925,"eira":926,"Ġespec":927,"Ġbook":928,"Ġprogram":929,"Ġbo":930,"anc":931,"ista":932,"ita":933,"ws":934,"ivers":935,"fe":936,"Ġbu":937,"ÃŃn":938,"Ġsoc":939,"ory":940,"rib":941,"ari":942,"me":943,"ond":944,"Ġseg":945,"Ġint":946,"gan":947,"Ġsup":948,"Ġgl":949,"Ġer":950,"ject":951,"Ġweb":952,"Ġoff":953,"ities":954,"Ġpass":955,"Ġwork":956,"Ġext":957,"Ġthey":958,"Ġfree":959,"ights":960,"jet":961,"lo":962,"ira":963,"Ġservi":964,"ecess":965,"ex":966,"ece":967,"Ġbest":968,"ates":969,"ici":970,"Ġinformation":971,"Ã§as":972,"Ġset":973,"Ġmen":974,"Ġutil":975,"ants":976,"Ġtrabal":977,"har":978,"inc":979,"ild":980,"Ġcompl":981,"Ġinf":982,"Ġfazer":983,"Ġmuito":984,"pa":985,"Ġess":986,"ĠhotÃ©is":987,"ugh":988,"Ã¡vel":989,"ato":990,"Ġcur":991,"ise":992,"Ġli":993,"Ġlin":994,"iro":995,"Ġliv":996,"Ġlu":997,"line":998,"man":999,"orn":1000,"ero":1001,"ely":1002,"Ġdi":1003,"hn":1004,"Ã¡t":1005,"Ġjog":1006,"Ġmay":1007,"ino":1008,"Ġcli":1009,"Ġyear":1010,"Ġconst":1011,"Ġpra":1012,"ational":1013,"Ġnum":1014,"this":1015,"ement":1016,"enas":1017,"Ġthere":1018,"Ġnecess":1019,"Ġmil":1020,"Ġinc":1021,"anÃ§a":1022,"pri":1023,"Ġreal":1024,"itu":1025,"Ġoper":1026,"Ġperson":1027,"Ġnas":1028,"hotÃ©is":1029,"ios":1030,"Ġwho":1031,"Ġdur":1032,"tal":1033,"istem":1034,"Ġhigh":1035,"Ġutiliz":1036,"ount":1037,"Ġcontro":1038,"Ġdesc":1039,"Ġimport":1040,"ma":1041,"Ġrece":1042,"Ġgrand":1043,"Ġmelhor":1044,"Ġif":1045,"Ġph":1046,"Ġbet":1047,"Ġvo":1048,"Ġkm":1049,"cer":1050,"atur":1051,"Ġhis":1052,"Ġsuas":1053,"Ġpelo":1054,"Ġaqu":1055,"erg":1056,"wh":1057,"Ġgro":1058,"tain":1059,"Ġhel":1060,"Ġfam":1061,"Ġir":1062,"Ġtempo":1063,"Ġmy":1064,"Ġpodem":1065,"Ġequip":1066,"adores":1067,"rar":1068,"Ġsel":1069,"Ġeuro":1070,"Ġdev":1071,"Ġdata":1072,"Ġgen":1073,"tim":1074,"ĠÃº":1075,"Ġcal":1076,"bo":1077,"Ġexperi":1078,"als":1079,"Ġencontr":1080,"ple":1081,"Ġins":1082,"press":1083,"ares":1084,"Ġwhen":1085,"Ġthem":1086,"Ġacc":1087,"Ġcity":1088,"land":1089,"Ġdesign":1090,"idas":1091,"Ġthan":1092,"Ġconv":1093,"way":1094,"Ġknow":1095,"abil":1096,"Ġpes":1097,"Ġsite":1098,"Ġdados":1099,"Ġinv":1100,"stem":1101,"ana":1102,"get":1103,"ulo":1104,"Ġvez":1105,"rav":1106,"za":1107,"Ġeste":1108,"ware":1109,"Ġspec":1110,"Ġdia":1111,"Ġpela":1112,"righ":1113,"na":1114,"Ġcre":1115,"Ġlong":1116,"Ġmun":1117,"Ġnear":1118,"rough":1119,"Ġworld":1120,"Ġpal":1121,"ature":1122,"ital":1123,"very":1124,"pect":1125,"blem":1126,"ket":1127,"Ġsm":1128,"Ã¡l":1129,"ds":1130,"Ġaj":1131,"enh":1132,"Ġneed":1133,"Ġhum":1134,"Ġdef":1135,"ange":1136,"go":1137,"Ġarqu":1138,"ites":1139,"Ġofer":1140,"Ġover":1141,"Ġsystem":1142,"Ġonly":1143,"Ġsur":1144,"Ġfind":1145,"Ġplay":1146,"Ġstud":1147,"Ġid":1148,"Ġdec":1149,"mos":1150,"Ġtw":1151,"Ã©s":1152,"Ġmot":1153,"Ġinclud":1154,"Ġcompan":1155,"Ġfir":1156,"Ġproblem":1157,"agens":1158,"Ġrespon":1159,"king":1160,"volv":1161,"ped":1162,"you":1163,"Ġbel":1164,"Ġpubl":1165,"Ġbas":1166,"ible":1167,"Ġorgan":1168,"ton":1169,"cel":1170,"arch":1171,"ĠatÃ©":1172,"Ġoc":1173,"ection":1174,"Ġpriv":1175,"Ġwere":1176,"ene":1177,"Ġpartic":1178,"Ġcer":1179,"ÃŃs":1180,"Ġplan":1181,"iros":1182,"ath":1183,"ied":1184,"quis":1185,"cio":1186,"ople":1187,"ating":1188,"Ġbec":1189,"Ġwhat":1190,"para":1191,"ages":1192,"Ġcomplet":1193,"Ġmater":1194,"ĠmÃ©":1195,"Ġsee":1196,"ments":1197,"ÃŃt":1198,"Ġdest":1199,"cias":1200,"Ġlim":1201,"iver":1202,"Ġsk":1203,"Ġforn":1204,"ider":1205,"has":1206,"Ġfol":1207,"ning":1208,"ics":1209,"Ġfic":1210,"Ġqualquer":1211,"Ġprim":1212,"Ġhist":1213,"plo":1214,"ivos":1215,"ibil":1216,"ĠinformaÃ§Ãµes":1217,"ily":1218,"Ġoutros":1219,"ower":1220,"udo":1221,"ga":1222,"emos":1223,"Ġquando":1224,"Ġsign":1225,"Ġfer":1226,"ela":1227,"Ġpoder":1228,"hos":1229,"cion":1230,"ouse":1231,"Ġonline":1232,"Ġsistem":1233,"Ġpeople":1234,"Ġdown":1235,"Ġdispon":1236,"Ġhow":1237,"Ġlike":1238,"Ġfac":1239,"Ġresult":1240,"Ġdesen":1241,"Ġban":1242,"Ġaos":1243,"Ġvol":1244,"cur":1245,"Ġinclu":1246,"ĠprÃ³xim":1247,"Ġbem":1248,"Ġget":1249,"Ġsuper":1250,"icion":1251,"Ġreview":1252,"Ġthrough":1253,"Ġcust":1254,"iness":1255,"Ġsome":1256,"Ġempres":1257,"vocÃª":1258,"reas":1259,"itar":1260,"ÃŃveis":1261,"acion":1262,"Ġref":1263,"rit":1264,"Ġwell":1265,"Ġbot":1266,"les":1267,"Ġtemper":1268,"Ġpop":1269,"ound":1270,"ction":1271,"Ġvers":1272,"tod":1273,"ram":1274,"Ġopt":1275,"Ġdu":1276,"ute":1277,"Ġtip":1278,"tra":1279,"Ġsegu":1280,"Ġmer":1281,"Ġtrip":1282,"Ġhol":1283,"car":1284,"Ġstr":1285,"Ġused":1286,"vail":1287,"Ġtrad":1288,"ife":1289,"velop":1290,"ather":1291,"ral":1292,"Ġher":1293,"Ã¡s":1294,"des":1295,"Ġjust":1296,"Ġprecis":1297,"Ġlist":1298,"Ġjan":1299,"Ġgar":1300,"low":1301,"Ġbra":1302,"Ġbeen":1303,"Ġajud":1304,"its":1305,"Ġsuch":1306,"Ġthese":1307,"gh":1308,"Ġtechn":1309,"be":1310,"jo":1311,"Ġavail":1312,"ful":1313,"Ġanos":1314,"Ġprom":1315,"hed":1316,"ental":1317,"enci":1318,"Ġnet":1319,"Ġadd":1320,"Ġneg":1321,"Ġviag":1322,"Ġfirst":1323,"Ġmo":1324,"ced":1325,"Ġpos":1326,"Ġrequ":1327,"fr":1328,"air":1329,"Ġshow":1330,"Ġway":1331,"Ġfile":1332,"ep":1333,"Ġnosso":1334,"Ġportug":1335,"da":1336,"Ġcab":1337,"uns":1338,"iÃ§Ãµes":1339,"Ġprinc":1340,"comm":1341,"ins":1342,"Ġjo":1343,"Ġday":1344,"Ġvari":1345,"Ġanal":1346,"Ġpessoas":1347,"orm":1348,"ited":1349,"Ġwindo":1350,"Ġdevelop":1351,"Ġsom":1352,"Ġperm":1353,"Ġchar":1354,"Ġcomput":1355,"Ġtur":1356,"Ġdep":1357,"Ġke":1358,"Ġrigh":1359,"Ġafter":1360,"Ġaccess":1361,"Ġfre":1362,"Ġtravel":1363,"ner":1364,"ique":1365,"Ġservice":1366,"let":1367,"Ġaplic":1368,"ty":1369,"Ġroom":1370,"ecer":1371,"Ġmesmo":1372,"Ġdem":1373,"ock":1374,"atos":1375,"Ġevery":1376,"Ġvery":1377,"amentos":1378,"ll":1379,"Ġapart":1380,"igo":1381,"Ġdirect":1382,"Ġreserv":1383,"Ġunivers":1384,"izaÃ§Ã£o":1385,"Ġsoft":1386,"Ġeff":1387,"ons":1388,"Ġautom":1389,"Ġwhere":1390,"Ġet":1391,"Ġencontrar":1392,"Ġflights":1393,"Ġdiffer":1394,"uma":1395,"Ġmake":1396,"ĠestÃ£o":1397,"ano":1398,"Ġjun":1399,"Ġapenas":1400,"Ġinto":1401,"Ġsan":1402,"Ġhelp":1403,"Ġmat":1404,"Ġgood":1405,"Ġprot":1406,"Ġcontin":1407,"ier":1408,"Ġprodutos":1409,"Ġty":1410,"Ġdifer":1411,"Ġmade":1412,"Ġbras":1413,"ail":1414,"lex":1415,"Ġescol":1416,"Ġeurope":1417,"ution":1418,"Ġbro":1419,"Ġwebs":1420,"Ġmundo":1421,"Ġsou":1422,"Ġmaior":1423,"cum":1424,"Ġview":1425,"Ġqualidade":1426,"hec":1427,"Ġtest":1428,"Ġaval":1429,"Ġonde":1430,"Ġespecial":1431,"Ġpublic":1432,"Ġbre":1433,"ours":1434,"Ġmarket":1435,"ress":1436,"eng":1437,"visor":1438,"iais":1439,"Ġgrande":1440,"Ġavailable":1441,"Ġbusiness":1442,"Ġecon":1443,"Ã¡g":1444,"Ġeng":1445,"ena":1446,"Ġcustom":1447,"cios":1448,"load":1449,"Ġide":1450,"ork":1451,"Ġlug":1452,"Ġcond":1453,"Ġcidade":1454,"Ġcome":1455,"elo":1456,"gar":1457,"Ġforma":1458,"ember":1459,"ines":1460,"acional":1461,"Ġrem":1462,"Ġwindows":1463,"Ġisso":1464,"Ġped":1465,"Ġcasa":1466,"Ġgener":1467,"itt":1468,"br":1469,"ms":1470,"Ġtwo":1471,"fore":1472,"Ġtrabalho":1473,"itas":1474,"ĠÃłs":1475,"ik":1476,"ateg":1477,"Ġmaterial":1478,"Ġcada":1479,"advisor":1480,"inda":1481,"Ã¢m":1482,"ux":1483,"ition":1484,"Ã¡ria":1485,"cul":1486,"Ġfot":1487,"Ġgra":1488,"Ġproducts":1489,"ween":1490,"Ġback":1491,"Ġestr":1492,"ize":1493,"Ġleg":1494,"Ġmal":1495,"Ġquality":1496,"Ġbase":1497,"Ġinte":1498,"duc":1499,"Ġnow":1500,"Ġend":1501,"Ġhom":1502,"Ã©r":1503,"Ġlocal":1504,"je":1505,"Ġhor":1506,"Ġphot":1507,"Ġvida":1508,"Ġenerg":1509,"Ġprovid":1510,"Ġpesquis":1511,"atura":1512,"Ġbetween":1513,"inal":1514,"ender":1515,"red":1516,"Ġpat":1517,"isto":1518,"iva":1519,"Ġopen":1520,"Ġeas":1521,"ua":1522,"aram":1523,"ten":1524,"Ġmic":1525,"Ġlar":1526,"ĠserviÃ§os":1527,"Ġfav":1528,"Ġed":1529,"ets":1530,"Ãªncias":1531,"ĠhÃ¡":1532,"ern":1533,"iÃ£o":1534,"Ġamb":1535,"Ġsoftware":1536,"Ġservices":1537,"uÃ§Ã£o":1538,"Ġshould":1539,"tern":1540,"Ġfi":1541,"Ġhad":1542,"Ġyears":1543,"Ġbeach":1544,"Ġfal":1545,"Ġhome":1546,"Ġprincip":1547,"ote":1548,"Ġspe":1549,"Ġadv":1550,"mas":1551,"Ġparte":1552,"af":1553,"adr":1554,"ood":1555,"Ġtodas":1556,"Ġsab":1557,"Ġcomb":1558,"Ġsupport":1559,"Ġpower":1560,"Ġmany":1561,"Ġcult":1562,"cil":1563,"xt":1564,"Ġdig":1565,"Ã³g":1566,"Ġdocum":1567,"ative":1568,"Ġbrasil":1569,"Ġcontrol":1570,"Ġwant":1571,"ough":1572,"alth":1573,"Ġesta":1574,"Ġquest":1575,"Ġminut":1576,"Ġdom":1577,"Ġnossos":1578,"Ġmain":1579,"Ġmanual":1580,"resent":1581,"Ġgre":1582,"Ġinn":1583,"Ġsocial":1584,"Ġdesenvolv":1585,"ures":1586,"sos":1587,"Ġconstru":1588,"Ġlife":1589,"Ġclass":1590,"Ġwebsite":1591,"Ġret":1592,"Ã³r":1593,"Ġstay":1594,"Ġsant":1595,"inha":1596,"Ġmelhores":1597,"inas":1598,"Ġsistema":1599,"ĠpaÃŃs":1600,"Ġorig":1601,"esse":1602,"ples":1603,"ption":1604,"Ġste":1605,"ima":1606,"Ġdifferent":1607,"Ġgreat":1608,"round":1609,"Ġimp":1610,"acter":1611,"Ã¢ncia":1612,"ission":1613,"Ġcoll":1614,"Ġfollow":1615,"Ġinvest":1616,"Ġwar":1617,"val":1618,"Ġapplic":1619,"uss":1620,"Ġsearch":1621,"ict":1622,"ravÃ©s":1623,"ona":1624,"Ġprojet":1625,"Ãªm":1626,"Ġhost":1627,"che":1628,"Ġchild":1629,"Ġgroup":1630,"hotels":1631,"Ġwould":1632,"Ġdisc":1633,"Ġconsider":1634,"Ġcomun":1635,"Ġfavor":1636,"Ġfar":1637,"Ġident":1638,"Ġdiv":1639,"hes":1640,"ull":1641,"enda":1642,"Ġapresent":1643,"Ġcoun":1644,"ren":1645,"Ġhand":1646,"anÃ§":1647,"ger":1648,"ven":1649,"Ġassoc":1650,"Ġtripadvisor":1651,"Ġnossa":1652,"istas":1653,"Ġrio":1654,"Ġsw":1655,"dia":1656,"Ġarquivo":1657,"Ġpap":1658,"hing":1659,"ĠserÃ¡":1660,"Ġcondit":1661,"atic":1662,"Ġwater":1663,"hip":1664,"Ġlook":1665,"Ġtotal":1666,"Ġindust":1667,"Ġbaix":1668,"Ġproject":1669,"Ġeven":1670,"Ã´n":1671,"ĠserviÃ§o":1672,"ÃŃst":1673,"ames":1674,"Ġshe":1675,"Ġdri":1676,"Ġrealiz":1677,"Ġusu":1678,"ator":1679,"Ġexpl":1680,"Ġread":1681,"Ġreviews":1682,"ron":1683,"Ġforam":1684,"ness":1685,"Ġregist":1686,"Ġpur":1687,"ause":1688,"Ġri":1689,"cont":1690,"Ġown":1691,"Ġparticip":1692,"Ã©c":1693,"ĠmÃ¡":1694,"Ãºm":1695,"Ġmult":1696,"Ġsent":1697,"Ġtake":1698,"Ġcommun":1699,"Ã©ri":1700,"ava":1701,"atu":1702,"ĠatravÃ©s":1703,"Ġainda":1704,"glish":1705,"ÃŃl":1706,"Ġhuman":1707,"Ġlog":1708,"Ġmus":1709,"cas":1710,"gua":1711,"Ġsitu":1712,"Ġatt":1713,"ismo":1714,"Ġplace":1715,"Ġrespons":1716,"Ġelect":1717,"mar":1718,"Ġsin":1719,"Ġeduc":1720,"ret":1721,"Ġavalia":1722,"Ġdias":1723,"Ġfri":1724,"almente":1725,"Ġpequ":1726,"Ġproper":1727,"Ġgover":1728,"Ġunder":1729,"Ġsegur":1730,"ology":1731,"Ġlocaliz":1732,"Ġtodo":1733,"rel":1734,"Ġviagem":1735,"dade":1736,"Ġef":1737,"Ġtransport":1738,"Ġvisit":1739,"old":1740,"Ġamer":1741,"Ġexist":1742,"ium":1743,"Ġcle":1744,"Ġproduto":1745,"Ġcho":1746,"Ġcert":1747,"cri":1748,"ltim":1749,"Ġnort":1750,"sel":1751,"Ġol":1752,"Ġvoos":1753,"Ġfacil":1754,"Ġcat":1755,"ĠnÃ³s":1756,"Ġnova":1757,"Ġens":1758,"Ġtop":1759,"Ġris":1760,"Ġinstal":1761,"Ã³ria":1762,"Ġtal":1763,"Ġeles":1764,"Ġdeve":1765,"Ġstand":1766,"Ġmemb":1767,"inho":1768,"Ġhim":1769,"cent":1770,"Ġcompar":1771,"ĠpÃ¡g":1772,"Ġmom":1773,"abor":1774,"aria":1775,"zil":1776,"Ġperf":1777,"pois":1778,"Ġgod":1779,"Ġvel":1780,"icial":1781,"Ġthen":1782,"Ġhouse":1783,"Ġoffer":1784,"Ġmerc":1785,"ĠjÃ¡":1786,"Ġtom":1787,"ting":1788,"Ġperto":1789,"Ġinternational":1790,"ues":1791,"Ġarm":1792,"Ġfornec":1793,"fl":1794,"Ġprote":1795,"iar":1796,"Ġhere":1797,"restaur":1798,"anÃ§as":1799,"Ġsl":1800,"Ġrestaurants":1801,"ils":1802,"Ġdurante":1803,"Ġvai":1804,"Ġsens":1805,"Ġmap":1806,"rea":1807,"Ġjaneiro":1808,"Ġrom":1809,"eld":1810,"Ġcu":1811,"Ġstar":1812,"Ġconn":1813,"Ġtorn":1814,"Ġsuppl":1815,"ols":1816,"Ġdownload":1817,"less":1818,"ama":1819,"Ġorganiz":1820,"Ġactiv":1821,"Ġairport":1822,"Ġrefer":1823,"ale":1824,"posit":1825,"Ġquer":1826,"ologia":1827,"eles":1828,"Ġten":1829,"Ġil":1830,"Ġpartir":1831,"Ġsex":1832,"heiro":1833,"Ġprofess":1834,"Ġedit":1835,"Ġperform":1836,"Ġcontra":1837,"Ġconsum":1838,"Ġfund":1839,"ĠsÃ³":1840,"Ġwithout":1841,"Ġdeus":1842,"Ġmm":1843,"Ġcheap":1844,"Ġright":1845,"ety":1846,"Ġcaus":1847,"Ġvir":1848,"Ġanim":1849,"Ġlight":1850,"Ġfab":1851,"Ġorder":1852,"Ġplac":1853,"ĠprÃ³ximos":1854,"ble":1855,"Ġinternet":1856,"Ġip":1857,"Ã¡veis":1858,"Ġassim":1859,"Ġchina":1860,"Ã³ri":1861,"Ġusing":1862,"Ġhealth":1863,"anha":1864,"icaÃ§Ãµes":1865,"Ġfa":1866,"ters":1867,"Ġpost":1868,"ogra":1869,"iam":1870,"cial":1871,"Ġredu":1872,"Ã³rio":1873,"Ġpon":1874,"Ġfound":1875,"ham":1876,"Ġbrazil":1877,"aut":1878,"vo":1879,"Ġextens":1880,"Ġdin":1881,"led":1882,"Ġpack":1883,"Ġatual":1884,"ries":1885,"Ġgru":1886,"Ġfriend":1887,"Ġagora":1888,"Ġconhec":1889,"Ġstart":1890,"arÃ¡":1891,"Ġbecause":1892,"uf":1893,"Ġclientes":1894,"ĠfÃ¡":1895,"Ġmach":1896,"iras":1897,"read":1898,"Ġtele":1899,"Ġbed":1900,"Ġfut":1901,"todos":1902,"Ġeach":1903,"ĠvÃŃ":1904,"other":1905,"Ġred":1906,"enta":1907,"ink":1908,"equ":1909,"Ġthose":1910,"igos":1911,"vir":1912,"Ġpark":1913,"ward":1914,"nÃ£o":1915,"ativo":1916,"Ġrest":1917,"ected":1918,"Ġlhe":1919,"Ġtipo":1920,"Ġmor":1921,"Ġcentro":1922,"ribu":1923,"rem":1924,"Ġano":1925,"Ġcost":1926,"Ġcook":1927,"ash":1928,"Ġpesquisa":1929,"by":1930,"Ã¡rias":1931,"ificaÃ§Ã£o":1932,"ults":1933,"Ġingl":1934,"Ġcham":1935,"ara":1936,"Ġoutras":1937,"urn":1938,"ĠÃ³":1939,"itor":1940,"Ġallow":1941,"Ġsame":1942,"Ġpress":1943,"Ġwest":1944,"Ãºbl":1945,"Ġcompany":1946,"Ġdr":1947,"eu":1948,"Ġindiv":1949,"Ġarea":1950,"ural":1951,"Ġpan":1952,"Ġline":1953,"Ġbom":1954,"room":1955,"Ġchr":1956,"Ġgratu":1957,"Ġaqui":1958,"como":1959,"ping":1960,"Ġglob":1961,"Ġdays":1962,"Ġpersonal":1963,"Ġuso":1964,"Ġcir":1965,"Ġtrain":1966,"ĠrÃ¡":1967,"Ġapro":1968,"fort":1969,"ĠÃºltim":1970,"Ġacesso":1971,"Ġig":1972,"Ġpropri":1973,"Ġestab":1974,"reg":1975,"raÃ§Ã£o":1976,"ativa":1977,"ĠseguranÃ§a":1978,"ency":1979,"there":1980,"Ġvide":1981,"Ġsat":1982,"Ġalguns":1983,"Ġnumber":1984,"cept":1985,"clus":1986,"Ġfuncion":1987,"Ġdoes":1988,"Ġenvi":1989,"Ġspecial":1990,"Ġcall":1991,"Ġtar":1992,"Ġlevel":1993,"ba":1994,"Ġmust":1995,"ete":1996,"ordo":1997,"Ġdefin":1998,"unt":1999,"book":2000,"Ġcop":2001,"Ġvezes":2002,"Ġnovo":2003,"Ġenglish":2004,"imentos":2005,"Ġpot":2006,"Ġseja":2007,"Ġinstall":2008,"Ġpac":2009,"ech":2010,"Ġagain":2011,"ĠnegÃ³":2012,"Ġlast":2013,"Ġlib":2014,"arn":2015,"Ġadicion":2016,"Ġcapac":2017,"ĠnÃºm":2018,"Ġcontact":2019,"Ġdiz":2020,"Ġlev":2021,"Ġbat":2022,"Ġmov":2023,"dio":2024,"Ġpou":2025,"Ġeconom":2026,"Ġge":2027,"Ġur":2028,"Ġbefore":2029,"rir":2030,"Ġalgum":2031,"ĠpreÃ§os":2032,"Ġjul":2033,"Ġassoci":2034,"bur":2035,"Ġrep":2036,"Ġpopular":2037,"ests":2038,"Ġincluding":2039,"entar":2040,"not":2041,"Ġrepres":2042,"ÃŃcio":2043,"gn":2044,"Ġintegr":2045,"Ġantes":2046,"Ġfinal":2047,"Ġtudo":2048,"Ġimpl":2049,"Ġexp":2050,"Ġempresa":2051,"Ã´m":2052,"Ġnatur":2053,"Ġtax":2054,"ane":2055,"ism":2056,"app":2057,"play":2058,"Ġprice":2059,"ams":2060,"era":2061,"Ġfact":2062,"Ġll":2063,"Ġtecn":2064,"Ġbal":2065,"Ġwithin":2066,"Ġvill":2067,"Ġambi":2068,"Ġlead":2069,"ille":2070,"Ġcount":2071,"Ġbi":2072,"Ġtor":2073,"Ġmob":2074,"Ġtro":2075,"Ġeffect":2076,"ze":2077,"eta":2078,"Ġgame":2079,"Ġmodel":2080,"ĠÃ¡gua":2081,"Ġdois":2082,"Ġcompet":2083,"Ġetc":2084,"ÃŃf":2085,"Ġmac":2086,"Ġsempre":2087,"Ġalta":2088,"Ġson":2089,"Ġativ":2090,"Ġexec":2091,"ces":2092,"aint":2093,"Ġmont":2094,"Ġrequire":2095,"fa":2096,"ruct":2097,"Ġprices":2098,"enÃ§a":2099,"iu":2100,"enef":2101,"Ġfabric":2102,"Ġtv":2103,"ody":2104,"izar":2105,"Ġdon":2106,"ode":2107,"Ġdeter":2108,"portun":2109,"comp":2110,"Ġhar":2111,"try":2112,"agement":2113,"vers":2114,"Ġexperience":2115,"Ġexpress":2116,"embro":2117,"Ġtam":2118,"Ġspeed":2119,"Ġappro":2120,"Ġapr":2121,"anh":2122,"earch":2123,"Ġcentral":2124,"Ġcour":2125,"Ġenc":2126,"Ġpay":2127,"Ġportugal":2128,"Ġnome":2129,"Ġtour":2130,"cle":2131,"Ġho":2132,"Ġunited":2133,"Ġbeing":2134,"Ġstre":2135,"Ġlig":2136,"ĠÃ¡rea":2137,"Ġrestaurantes":2138,"ves":2139,"Ġobjet":2140,"Ġmuse":2141,"Ġpas":2142,"ently":2143,"quanto":2144,"ung":2145,"Ġdeta":2146,"Ġexem":2147,"emente":2148,"angu":2149,"ized":2150,"Ġprograma":2151,"Ġremo":2152,"Ġoffers":2153,"Ġpc":2154,"Ġital":2155,"ank":2156,"Ġlux":2157,"Ġpoint":2158,"isa":2159,"ories":2160,"Ġmonth":2161,"Ġmud":2162,"Ġtak":2163,"Ġquart":2164,"Ãºs":2165,"Ġalt":2166,"Ġcurr":2167,"issÃ£o":2168,"ĠpolÃŃt":2169,"Ġinde":2170,"Ġestud":2171,"Ġbenef":2172,"Ġusar":2173,"ogle":2174,"Ġpresent":2175,"cos":2176,"Ġduring":2177,"Ġresort":2178,"Ġsmall":2179,"Ġdesenvolvimento":2180,"ying":2181,"Ġera":2182,"Ġdiferentes":2183,"ences":2184,"Ġaum":2185,"Ġterra":2186,"Ġgarant":2187,"Ġnatural":2188,"Ġprovide":2189,"Ġespa":2190,"ended":2191,"pes":2192,"Ġcould":2193,"of":2194,"Ġmenos":2195,"Ġbuild":2196,"Ġexam":2197,"Ġtrat":2198,"Ġcomer":2199,"Ġlat":2200,"Ġobs":2201,"Ġdar":2202,"Ġface":2203,"Ġfull":2204,"la":2205,"esus":2206,"Ġresearch":2207,"Ġquais":2208,"Ġcenter":2209,"rom":2210,"Ġpet":2211,"Ġsing":2212,"Ġdigital":2213,"ason":2214,"Ġsil":2215,"Ġmant":2216,"Ġestar":2217,"ways":2218,"Ġporque":2219,"Ġacordo":2220,"Ġsay":2221,"Ġsus":2222,"Ġsignific":2223,"Ġadmin":2224,"Ġlas":2225,"Ġmanagement":2226,"Ġspecific":2227,"day":2228,"Ġsaid":2229,"Ġfotos":2230,"ula":2231,"iday":2232,"Ġesper":2233,"ĠaÃ©":2234,"Ġci":2235,"Ġindic":2236,"Ġchildren":2237,"ĠpÃºbl":2238,"oria":2239,"ĠpÃ¡gina":2240,"ĠinglÃªs":2241,"Ġquar":2242,"ording":2243,"Ã³rios":2244,"ĠpreÃ§o":2245,"Ġsites":2246,"Ãºde":2247,"but":2248,"Ġdesde":2249,"Ġlos":2250,"Ġtab":2251,"Ġoutro":2252,"ĠrelaÃ§Ã£o":2253,"Ġconse":2254,"Ġcheck":2255,"Ġpag":2256,"Ġprocesso":2257,"with":2258,"Ġdepois":2259,"enÃ§Ã£o":2260,"Ġuser":2261,"Ġsecond":2262,"Ġcateg":2263,"ders":2264,"Ġlove":2265,"Ġcontinu":2266,"Ġveloc":2267,"Ġphotos":2268,"olÃ³g":2269,"Ġpage":2270,"Ã³n":2271,"Ġear":2272,"Ġvisual":2273,"Ġcaso":2274,"gest":2275,"Ġaud":2276,"Ġple":2277,"loc":2278,"ĠapÃ³s":2279,"Ġbased":2280,"edade":2281,"Ġreser":2282,"Ġdevelopment":2283,"ĠpossÃŃvel":2284,"Ġexc":2285,"Ġcare":2286,"Ġlugar":2287,"ola":2288,"Ġfood":2289,"Ġclick":2290,"Ġdent":2291,"ĠrÃ¡p":2292,"edi":2293,"Ġenter":2294,"ĠsaÃºde":2295,"Ġconfig":2296,"Ġgovern":2297,"ĠnÃºmero":2298,"Ġhy":2299,"Ġadequ":2300,"Ġwom":2301,"Ġtype":2302,"iter":2303,"ĠvÃŃde":2304,"Ġconte":2305,"Ġcontent":2306,"Ġsouth":2307,"Ġstate":2308,"Ġmeio":2309,"Ġmapa":2310,"Ġmul":2311,"Ġgeral":2312,"Ġresults":2313,"Ġhav":2314,"Ġgoogle":2315,"Ã©cn":2316,"Ġindivid":2317,"Ġmail":2318,"Ġcart":2319,"Ġang":2320,"ufact":2321,"Ġpaulo":2322,"su":2323,"Ġpont":2324,"elho":2325,"ole":2326,"Ġstat":2327,"gas":2328,"ential":2329,"ved":2330,"ĠtÃªm":2331,"Ġdisposit":2332,"Ġengine":2333,"viron":2334,"ala":2335,"Ġgeneral":2336,"how":2337,"ically":2338,"Ġbreak":2339,"itch":2340,"ude":2341,"Ġhos":2342,"Ġwhile":2343,"ao":2344,"Ġjogo":2345,"ones":2346,"Ġlive":2347,"Ġtre":2348,"Ġnational":2349,"ĠconteÃº":2350,"Ġacess":2351,"Ġtemperature":2352,"Ġrele":2353,"Ġchrist":2354,"Ġprepar":2355,"Ġincluindo":2356,"Ġland":2357,"Ġadminist":2358,"Ġtemperatura":2359,"ĠexperiÃªncia":2360,"Ġparis":2361,"ĠÃºn":2362,"Ġmem":2363,"eno":2364,"Ġnorm":2365,"Ġrelacion":2366,"Ġlink":2367,"Ġdivers":2368,"Ġcolor":2369,"Ġdiret":2370,"Ã¡tica":2371,"ention":2372,"Ġaddit":2373,"Ġcontr":2374,"Ġrecur":2375,"utions":2376,"Ġmotor":2377,"abilidade":2378,"Ġacom":2379,"Ġemb":2380,"Ġwal":2381,"Ġking":2382,"Ġcountry":2383,"ĠavaliaÃ§Ãµes":2384,"ugu":2385,"ĠtÃ©cn":2386,"ified":2387,"ĠcondiÃ§Ãµes":2388,"Ġenviron":2389,"Ġmanufact":2390,"Ġexcel":2391,"Ġquartos":2392,"Ġoferece":2393,"Ġdeix":2394,"Ġfollowing":2395,"Ġjogos":2396,"comend":2397,"Ġthings":2398,"mer":2399,"Ġcard":2400,"Ġreport":2401,"Ġimpro":2402,"Ġname":2403,"Ġela":2404,"Ġprimeiro":2405,"Ġable":2406,"ibilidade":2407,"irm":2408,"uras":2409,"Ġpossible":2410,"ually":2411,"Ġpermit":2412,"Ġjesus":2413,"Ġfamily":2414,"Ġconta":2415,"Ġferram":2416,"Ġcast":2417,"Ġmeu":2418,"atch":2419,"Ġrent":2420,"uro":2421,"Ġnetw":2422,"Ġassist":2423,"uais":2424,"Ġboth":2425,"inter":2426,"Ġvelocidade":2427,"tar":2428,"Ġapar":2429,"Ġauth":2430,"rim":2431,"Ġquant":2432,"ann":2433,"Ġold":2434,"Ġbooking":2435,"pend":2436,"Ġflight":2437,"Ġglobal":2438,"Ġficar":2439,"Ġlet":2440,"Ġthree":2441,"Ġimportant":2442,"Ġha":2443,"ĠinformaÃ§Ã£o":2444,"ĠfamÃŃl":2445,"Ġren":2446,"ides":2447,"Ġblack":2448,"Ġpelos":2449,"atures":2450,"Ġresultados":2451,"Ġaround":2452,"Ġameric":2453,"Ġfoc":2454,"Ġhard":2455,"Ġwee":2456,"hotel":2457,"Ġgiv":2458,"ished":2459,"anda":2460,"ĠdisponÃŃvel":2461,"Ġmeet":2462,"Ġisland":2463,"Ġcombin":2464,"zo":2465,"Ġtimes":2466,"ability":2467,"osa":2468,"Ġrad":2469,"Ġnature":2470,"sh":2471,"Ġpalav":2472,"Ġdetal":2473,"Ġq":2474,"Ġstation":2475,"Ġlis":2476,"Ġhapp":2477,"Ġmulher":2478,"Ġpens":2479,"ativos":2480,"Ġresid":2481,"Ġstandard":2482,"Ġartic":2483,"Ġestado":2484,"Ġsuport":2485,"anho":2486,"Ġsci":2487,"ney":2488,"ĠfÃ¡cil":2489,"Ġresol":2490,"Ġscho":2491,"Ġinfl":2492,"ĠentÃ£o":2493,"commod":2494,"Ġstates":2495,"Ġsenh":2496,"Ġchang":2497,"ah":2498,"Ġalter":2499,"vert":2500,"Ġmass":2501,"Ġemail":2502,"Ġexemplo":2503,"when":2504,"Ġps":2505,"Ġdestin":2506,"Ġlocated":2507,"Ġrepresent":2508,"essa":2509,"ĠcrianÃ§as":2510,"ĠtrÃªs":2511,"orr":2512,"Ġlond":2513,"Ġkey":2514,"uraÃ§Ã£o":2515,"Ġchange":2516,"Ġupd":2517,"Ġmuch":2518,"Ġcase":2519,"Ġeasy":2520,"Ġparticular":2521,"ĠproduÃ§Ã£o":2522,"Ġmens":2523,"Ġdescri":2524,"Ġconditions":2525,"ui":2526,"rag":2527,"Ġconc":2528,"Ġdese":2529,"Ġverdade":2530,"Ġwind":2531,"Ġimpress":2532,"Ġec":2533,"ements":2534,"Ġcorre":2535,"Ġextra":2536,"Ġautor":2537,"rito":2538,"visÃ£o":2539,"urity":2540,"Ġregul":2541,"Ã³d":2542,"Ġtransfer":2543,"ars":2544,"Ġgrupo":2545,"ĠopÃ§Ãµes":2546,"Ġobject":2547,"Ġprofessional":2548,"ĠcÃ©":2549,"dom":2550,"Ġestados":2551,"Ġminutos":2552,"met":2553,"Ġcin":2554,"Ġresist":2555,"Ġsul":2556,"ili":2557,"ĠnÃŃvel":2558,"Ġpolic":2559,"ply":2560,"ques":2561,"Ġmercado":2562,"Ġtechnology":2563,"ube":2564,"Ġempresas":2565,"Ġopin":2566,"Ġmill":2567,"Ġduas":2568,"ecion":2569,"Ġponto":2570,"Ġaccount":2571,"Ġcookies":2572,"Ġprimeira":2573,"Ġgames":2574,"irit":2575,"Ġlangu":2576,"Ġrecomm":2577,"Ġhead":2578,"au":2579,"ify":2580,"ĠprÃ³p":2581,"fo":2582,"Ġdou":2583,"Ġsever":2584,"ird":2585,"Ġinstit":2586,"Ġnight":2587,"Ġprivac":2588,"Ġminha":2589,"ĠcomeÃ§":2590,"rop":2591,"Ġtempor":2592,"ificar":2593,"ists":2594,"odo":2595,"Ġapplication":2596,"Ġenvironment":2597,"ury":2598,"Ġber":2599,"Ġdat":2600,"ĠnegÃ³cios":2601,"Ġpessoa":2602,"Ġestrel":2603,"Ġgest":2604,"porto":2605,"pen":2606,"Ġtick":2607,"Ġlow":2608,"Ġquick":2609,"isc":2610,"Ġoriginal":2611,"Ġsimples":2612,"Ã£os":2613,"ration":2614,"ĠmÃ¡qu":2615,"ilo":2616,"Ġvideo":2617,"bon":2618,"Ġdecis":2619,"ÃŃd":2620,"Ġbody":2621,"Ġshall":2622,"Ġcontain":2623,"gue":2624,"Ġpract":2625,"eni":2626,"Ġapp":2627,"ery":2628,"sc":2629,"Ġcru":2630,"hod":2631,"Ġfiles":2632,"Ġprojeto":2633,"Ã©t":2634,"Ġdetermin":2635,"ĠdisponÃŃveis":2636,"iÃµes":2637,"Ġcomputer":2638,"Ãºn":2639,"Ġpadr":2640,"Ġcentre":2641,"Ġsecurity":2642,"ners":2643,"Ġconvers":2644,"Ġstudy":2645,"Ġsi":2646,"Ġjap":2647,"Ġmess":2648,"Ġdepend":2649,"Ġdim":2650,"Ġlaw":2651,"Ġdid":2652,"df":2653,"Ġled":2654,"Ġbooks":2655,"rum":2656,"ances":2657,"Ġrooms":2658,"urch":2659,"Ġexpect":2660,"Ġideal":2661,"find":2662,"ĠaÃ©reas":2663,"ious":2664,"Ġprop":2665,"ĠversÃ£o":2666,"Ġitem":2667,"Ġrelated":2668,"Ġalways":2669,"Ġaust":2670,"Ġpu":2671,"Ġvista":2672,"terior":2673,"Ã³l":2674,"rado":2675,"Ġweather":2676,"ley":2677,"Ġder":2678,"what":2679,"Ġproduction":2680,"Ġoptions":2681,"entÃ¡rios":2682,"Ġsomet":2683,"Ġsac":2684,"iment":2685,"Ġdentro":2686,"Ġaccommod":2687,"ĠconteÃºdo":2688,"mb":2689,"Ġaero":2690,"Ġgard":2691,"Ġrecon":2692,"Ġanother":2693,"bus":2694,"Ġcres":2695,"Ġrede":2696,"sw":2697,"Ġsubst":2698,"ilh":2699,"onte":2700,"leg":2701,"Ġesse":2702,"rip":2703,"Ġdisso":2704,"erto":2705,"Ġobserv":2706,"Ġprefer":2707,"Ġdireito":2708,"Ġflor":2709,"Ġexecut":2710,"Ġib":2711,"ĠmÃºs":2712,"col":2713,"ayak":2714,"Ġmuitos":2715,"rad":2716,"Ġindividual":2717,"Ġcamp":2718,"Ġmomento":2719,"sp":2720,"Ġenergia":2721,"ville":2722,"ĠpaÃŃses":2723,"Ġluz":2724,"Ġinternacional":2725,"undo":2726,"Ġhoras":2727,"more":2728,"qui":2729,"Ġfim":2730,"quando":2731,"Ġusers":2732,"Ġscre":2733,"Ġdeste":2734,"Ġtit":2735,"cover":2736,"Ġproblemas":2737,"Ġcomfort":2738,"Ġrap":2739,"ility":2740,"Ġfrequ":2741,"Ġlista":2742,"acionais":2743,"Ġsegund":2744,"Ġwi":2745,"Ġabs":2746,"Ġviol":2747,"Ġcomputador":2748,"Ġperformance":2749,"itaÃ§Ã£o":2750,"Ġporto":2751,"isas":2752,"ĠanÃ¡l":2753,"Ġportugu":2754,"ench":2755,"Ġvalor":2756,"Ġconce":2757,"Ġinterest":2758,"Ġmanufactur":2759,"Ġwhite":2760,"oper":2761,"feito":2762,"Ġprecisa":2763,"ax":2764,"Ġunders":2765,"Ġorg":2766,"thing":2767,"Ġce":2768,"Ġdet":2769,"Ġplaces":2770,"ĠperÃŃ":2771,"Ã¡tis":2772,"rada":2773,"Ġsanta":2774,"aixo":2775,"Ã¡f":2776,"Ġmostrar":2777,"Ġtoda":2778,"Ġfeatures":2779,"mes":2780,"ago":2781,"ume":2782,"osto":2783,"Ġalgumas":2784,"ense":2785,"Ġaddress":2786,"ats":2787,"oth":2788,"Ġlic":2789,"Ġru":2790,"row":2791,"orte":2792,"Ġcreate":2793,"ling":2794,"Ġsize":2795,"Ġbeaut":2796,"Ġplant":2797,"ĠgrÃ¡tis":2798,"Ġmodo":2799,"Ġpi":2800,"aixa":2801,"Ġbran":2802,"Ġrun":2803,"Ġevent":2804,"ativas":2805,"Ġarch":2806,"Ġnorth":2807,"li":2808,"umin":2809,"gin":2810,"Ġobter":2811,"top":2812,"Ġcreat":2813,"Ġdepart":2814,"Ġnoite":2815,"sa":2816,"tle":2817,"Ġdesem":2818,"Ġbig":2819,"Ġenquanto":2820,"Ġfew":2821,"Ġpain":2822,"alÃ©m":2823,"Ġii":2824,"Ġwhe":2825,"Ġperg":2826,"Ġajudar":2827,"Ġaway":2828,"Ġpresid":2829,"Ġimagens":2830,"Ġbetter":2831,"Ġnu":2832,"Ġcompon":2833,"Ġrecursos":2834,"Ġteam":2835,"Ġless":2836,"Ġcm":2837,"Ġcos":2838,"Ġcob":2839,"unto":2840,"ids":2841,"Ġcriar":2842,"Ġstill":2843,"Ġexer":2844,"Ġmuitas":2845,"Ġaz":2846,"Ġlivros":2847,"ĠusuÃ¡rio":2848,"Ġexclus":2849,"aro":2850,"Ġprivate":2851,"Ġheart":2852,"Ġlot":2853,"Ġnovos":2854,"Ġdecor":2855,"Ġpast":2856,"Ġmodern":2857,"yn":2858,"ape":2859,"Ġenergy":2860,"ograph":2861,"Ġnext":2862,"Ġdevice":2863,"ye":2864,"Ġbaratos":2865,"Ġadap":2866,"Ġsystems":2867,"Ã³p":2868,"roid":2869,"Ġcarro":2870,"fic":2871,"Ġapo":2872,"Ġtreat":2873,"Ġlugares":2874,"Ġelev":2875,"Ġmarketing":2876,"Ġmonitor":2877,"Ġholiday":2878,"Ġbath":2879,"ÃŃp":2880,"encia":2881,"ogo":2882,"Ġsenhor":2883,"Ġvalue":2884,"Ġpen":2885,"Ġsam":2886,"Ġconj":2887,"Ġimplement":2888,"ately":2889,"Ġfran":2890,"Ġsince":2891,"ector":2892,"posta":2893,"Ġamong":2894,"Ġmethod":2895,"Ġdisse":2896,"come":2897,"Ġcy":2898,"Ġimportante":2899,"ulaÃ§Ã£o":2900,"Ġpermite":2901,"jam":2902,"iaÃ§Ã£o":2903,"Ġdetails":2904,"Ġclose":2905,"ror":2906,"Ġace":2907,"eto":2908,"Ġversion":2909,"iores":2910,"Ġhoje":2911,"Ġperi":2912,"uÃ§Ãµes":2913,"vent":2914,"Ġtransm":2915,"Ġlarge":2916,"verage":2917,"ength":2918,"face":2919,"lin":2920,"rodu":2921,"Ġshort":2922,"Ġessa":2923,"Ġnon":2924,"Ġfeira":2925,"joy":2926,"ittle":2927,"ester":2928,"Ġdeliver":2929,"Ġsalv":2930,"Ġworks":2931,"eder":2932,"Ġindustri":2933,"ibility":2934,"bia":2935,"ledge":2936,"Ġstock":2937,"Ġlocation":2938,"Ġaccording":2939,"Ġtransform":2940,"ctions":2941,"Ġori":2942,"ceiros":2943,"oj":2944,"Ġtecnologia":2945,"unci":2946,"ints":2947,"Ġagainst":2948,"Ġuniversity":2949,"Ġappe":2950,"Ġoferec":2951,"Ġcoloc":2952,"Ġtown":2953,"Ġsepar":2954,"Ġcontrole":2955,"fast":2956,"Ġwomen":2957,"tand":2958,"Ġchurch":2959,"Ġep":2960,"Ġrev":2961,"produ":2962,"Ġalc":2963,"ertas":2964,"Ġpromo":2965,"itive":2966,"zer":2967,"Ġtoday":2968,"Ġhora":2969,"ÃŃdo":2970,"Ġbox":2971,"Ġcharacter":2972,"Ġmachine":2973,"Ġsimil":2974,"entemente":2975,"Ġrecomend":2976,"Ġpossa":2977,"amp":2978,"pass":2979,"Ġbit":2980,"Ġestabel":2981,"Ġmanag":2982,"Ġselecion":2983,"Ġgerman":2984,"zir":2985,"Ġnetwork":2986,"Ġsaf":2987,"Ġmeas":2988,"Ġlongo":2989,"Ġauthor":2990,"Ġconcer":2991,"Ġpron":2992,"Ġsuc":2993,"Ġbol":2994,"Ġequipment":2995,"Ġeuropean":2996,"Ġhours":2997,"ĠalÃ©m":2998,"Ġfeel":2999,"Ġdireitos":3000,"Ġgrow":3001,"Ġlearn":3002,"Ġtermos":3003,"Ġdisplay":3004,"Ġshare":3005,"ĠdistÃ¢ncia":3006,"Ġcapital":3007,"ving":3008,"astic":3009,"Ġgive":3010,"Ġstreet":3011,"Ġfu":3012,"they":3013,"mais":3014,"eter":3015,"Ġproperty":3016,"most":3017,"Ġsty":3018,"Ã©rias":3019,"ally":3020,"ĠvÃ¡rios":3021,"Ġunidos":3022,"Ġlittle":3023,"Ġboa":3024,"ĠfamÃŃlia":3025,"Ġschool":3026,"Ġcaracter":3027,"via":3028,"Ã¡st":3029,"Ġhomem":3030,"Ġsaint":3031,"Ġcoz":3032,"Ġbag":3033,"Ġmak":3034,"Ġpdf":3035,"Ġminutes":3036,"Ġfix":3037,"Ġimages":3038,"ification":3039,"Ġtext":3040,"Ġwall":3041,"Ġdesta":3042,"Ġintel":3043,"Ġperman":3044,"dis":3045,"Ġord":3046,"Ġmedic":3047,"Ġterms":3048,"Ġvento":3049,"ourses":3050,"Ã¡lia":3051,"Ġyork":3052,"Ġtamanho":3053,"Ġtex":3054,"Ġgal":3055,"ĠvÃŃdeo":3056,"Ġmuseum":3057,"Ġclou":3058,"ila":3059,"Ġnave":3060,"Ġclear":3061,"Ġded":3062,"atÃ³rio":3063,"Ġshop":3064,"Ġcaf":3065,"ĠusuÃ¡rios":3066,"Ġcou":3067,"Ġroad":3068,"Ġprincipal":3069,"Ġreserva":3070,"ban":3071,"Ġworking":3072,"Ġminist":3073,"Ġnenh":3074,"search":3075,"Ġajuda":3076,"oso":3077,"Ġcompanies":3078,"Ġarquivos":3079,"Ġdecl":3080,"Ġnecessary":3081,"ÃŃsticas":3082,"Ġaff":3083,"bor":3084,"Ġanalys":3085,"ng":3086,"Ġindustry":3087,"Ġsteel":3088,"Ġden":3089,"ready":3090,"izado":3091,"Ġforneced":3092,"Ġbay":3093,"Ġcomprar":3094,"Ġapartment":3095,"Ġcommunic":3096,"bit":3097,"thers":3098,"Ġsky":3099,"Ġgrav":3100,"Ġmusic":3101,"Ġconveni":3102,"Ġbuy":3103,"Ġpersonaliz":3104,"ĠmÃ©d":3105,"Ġconsult":3106,"Ġunderstand":3107,"Ġmaioria":3108,"Ġindepend":3109,"restaurantes":3110,"Ġimm":3111,"ls":3112,"Ġcountries":3113,"Ġcourse":3114,"ĠhistÃ³ria":3115,"Ġpessoais":3116,"ĠcÃ¢m":3117,"Ġlivre":3118,"Ġoutra":3119,"ĠperÃŃodo":3120,"Ġandroid":3121,"atÃ©":3122,"oney":3123,"Ġprem":3124,"isso":3125,"Ãºst":3126,"Ġbrand":3127,"ĠanÃ¡lise":3128,"Ġmodelo":3129,"Ġneste":3130,"Ġthird":3131,"inst":3132,"see":3133,"respon":3134,"ka":3135,"Ġquarto":3136,"Ġlinha":3137,"esses":3138,"flights":3139,"Ġcourses":3140,"Ġcomunic":3141,"Ġlado":3142,"Ġpouco":3143,"Ġspirit":3144,"Ġmicro":3145,"ĠestaÃ§Ã£o":3146,"cional":3147,"Ġnacional":3148,"Ġgold":3149,"Ġdesempen":3150,"Ġseveral":3151,"Ġmag":3152,"Ġtermin":3153,"Ġsatis":3154,"Ġareas":3155,"Ġproblema":3156,"Ġrange":3157,"ĠpoderÃ¡":3158,"Ġkeep":3159,"Ġalem":3160,"Ġpontos":3161,"ival":3162,"Ġic":3163,"Ġlanguage":3164,"Ġknowledge":3165,"Ġcliente":3166,"Ġmid":3167,"Ġentanto":3168,"Ġsend":3169,"ever":3170,"Ġsendo":3171,"tem":3172,"Ġsport":3173,"Ġfra":3174,"atro":3175,"Ġmenu":3176,"Ġpois":3177,"Ġjour":3178,"Ġgratuito":3179,"Ġambiente":3180,"Ġrespect":3181,"Ġmobile":3182,"Ġfour":3183,"uc":3184,"ĠnecessÃ¡rio":3185,"Ġvac":3186,"Ġgir":3187,"gen":3188,"Ġnovas":3189,"Ġrights":3190,"Ġestudo":3191,"Ġarmaz":3192,"Ġperfect":3193,"Ġexample":3194,"Ġbon":3195,"melh":3196,"Ġrestaurant":3197,"best":3198,"Ġcomplex":3199,"inform":3200,"Ġaeroporto":3201,"Ġperiod":3202,"Ġpapel":3203,"elas":3204,"Ġmaneira":3205,"Ġcondition":3206,"Ġquem":3207,"Ġexplor":3208,"Ġampl":3209,"ĠgestÃ£o":3210,"Ġalready":3211,"Ġsum":3212,"Ġcompart":3213,"Ġparty":3214,"Ġsistemas":3215,"Ġabrir":3216,"add":3217,"Ġplease":3218,"Ġdisp":3219,"Ġcoisas":3220,"ecimento":3221,"Ġdocument":3222,"Ġcustomer":3223,"adia":3224,"Ġprovides":3225,"ensÃ£o":3226,"ĠtÃ£o":3227,"ips":3228,"Ġnor":3229,"Ġcorpo":3230,"Ġdan":3231,"Ġnem":3232,"Ġusa":3233,"Ġweek":3234,"Ġdescob":3235,"Ġprincipais":3236,"Ġmeans":3237,"oft":3238,"Ġregion":3239,"Ġamor":3240,"ĠespecÃŃf":3241,"Ġveget":3242,"Ġproced":3243,"Ġfire":3244,"Ġwatch":3245,"Ġpraia":3246,"Ġsido":3247,"ĠespaÃ§o":3248,"Ġcompre":3249,"Ġmaj":3250,"Ġsmart":3251,"Ġdra":3252,"Ġhosp":3253,"iers":3254,"Ġann":3255,"Ġspa":3256,"Ġbud":3257,"entas":3258,"Ġchoose":3259,"Ġfort":3260,"Ġsubject":3261,"ibus":3262,"ĠlÃŃ":3263,"uto":3264,"gether":3265,"Ġseries":3266,"Ġigre":3267,"culos":3268,"ivas":3269,"Ġiss":3270,"Ġspace":3271,"Ġinvestig":3272,"Ġprovided":3273,"Ġcapacidade":3274,"Ġclean":3275,"Ġcus":3276,"Ġanaly":3277,"Ġproxim":3278,"Ġdeal":3279,"Ġdam":3280,"Ġconfort":3281,"Ġput":3282,"Ġstor":3283,"Ġcampo":3284,"Ġshar":3285,"ns":3286,"restaurants":3287,"Ġpurpos":3288,"Ġconnect":3289,"bra":3290,"Ġlt":3291,"Ġoil":3292,"Ġfinan":3293,"Ġexcell":3294,"back":3295,"ereÃ§o":3296,"Ġreceber":3297,"Ġestrut":3298,"Ġprint":3299,"Ġlocais":3300,"Ġinclude":3301,"Ġcustomers":3302,"rael":3303,"Ġrelig":3304,"Ġkind":3305,"Ġfica":3306,"Ġestava":3307,"inte":3308,"rict":3309,"Ġfat":3310,"Ġsolutions":3311,"ĠaÃ§o":3312,"ilhe":3313,"Ġfrance":3314,"inh":3315,"Ġsuperior":3316,"Ġphil":3317,"Ġneeds":3318,"Ġsun":3319,"Ġviagens":3320,"ĠvÃ¡rias":3321,"tro":3322,"Ġplat":3323,"Ġmicros":3324,"Ġflex":3325,"Ġcontato":3326,"Ġbur":3327,"ĠcoraÃ§Ã£o":3328,"cip":3329,"ĠpolÃŃtica":3330,"mon":3331,"Ġdrive":3332,"ingu":3333,"Ġdetalhes":3334,"Ġciv":3335,"Ġserver":3336,"Ġamerican":3337,"just":3338,"Ġkayak":3339,"iba":3340,"oma":3341,"Ġstore":3342,"Ġestrelas":3343,"iga":3344,"Ġinflu":3345,"Ġmaster":3346,"Ġimagem":3347,"Ġlord":3348,"encial":3349,"Ġside":3350,"Ġhd":3351,"ler":3352,"Ġeast":3353,"ring":3354,"Ġword":3355,"Ġanalysis":3356,"ifica":3357,"Ġnuma":3358,"Ġvirt":3359,"map":3360,"Ġlooking":3361,"ope":3362,"ĠregiÃ£o":3363,"Ġtransporte":3364,"ĠserÃ£o":3365,"Ġsuf":3366,"Ġdevem":3367,"ising":3368,"nÃ³s":3369,"Ġgas":3370,"howe":3371,"Ġreservas":3372,"Ġopportun":3373,"Ġcondu":3374,"lines":3375,"oda":3376,"Ġoffice":3377,"however":3378,"Ġlimit":3379,"itted":3380,"Ġrat":3381,"ÃŃnio":3382,"Ġlab":3383,"ots":3384,"can":3385,"ove":3386,"idor":3387,"inar":3388,"Ġinstrum":3389,"ĠsÃ©ri":3390,"Ġquanto":3391,"Ġmaking":3392,"Ġbelie":3393,"vious":3394,"Ġbab":3395,"ĠmÃ£o":3396,"voos":3397,"yal":3398,"pir":3399,"Ġenjoy":3400,"ovo":3401,"Ġdesempenho":3402,"Ġquestion":3403,"Ġisrael":3404,"Ġmb":3405,"ianÃ§a":3406,"Ġrecord":3407,"Ġnews":3408,"ea":3409,"Ġinici":3410,"Ġarg":3411,"imos":3412,"Ġhostel":3413,"Ġsand":3414,"ford":3415,"Ġacont":3416,"culo":3417,"Ġansw":3418,"posiÃ§Ã£o":3419,"Ġju":3420,"ming":3421,"Ġprotection":3422,"ĠlocalizaÃ§Ã£o":3423,"Ġcertain":3424,"Ġwin":3425,"Ġsuites":3426,"Ġsqu":3427,"burg":3428,"ĠprÃ©":3429,"Ġpolicy":3430,"Ġeducation":3431,"Ġconfer":3432,"iano":3433,"self":3434,"fia":3435,"iful":3436,"Ġtogether":3437,"ee":3438,"ĠmÃ¡quina":3439,"ÃŃda":3440,"Ġamar":3441,"Ġmetal":3442,"Ġmedia":3443,"Ġtou":3444,"Ġhistory":3445,"ĠprÃ³ximo":3446,"Ġelet":3447,"ulation":3448,"Ġaltern":3449,"Ġgol":3450,"ources":3451,"Ġregard":3452,"ser":3453,"Ġrot":3454,"Ġfast":3455,"Ġmeses":3456,"Ġincreas":3457,"Ġsuporte":3458,"Ġgrandes":3459,"Ġje":3460,"Ġguard":3461,"Ġabr":3462,"Ġbutton":3463,"iana":3464,"Ġtools":3465,"Ġdeals":3466,"Ġvarious":3467,"Ġfel":3468,"Ġdez":3469,"Ġtrabalh":3470,"bu":3471,"Ġmol":3472,"Ġvoo":3473,"Ġsegundo":3474,"asse":3475,"Ġsea":3476,"ked":3477,"Ġnossas":3478,"Ġestiver":3479,"elf":3480,"Ġgreen":3481,"Ġimage":3482,"Ġach":3483,"Ġfuture":3484,"Ġscreen":3485,"Ġmilh":3486,"Ġbelow":3487,"boa":3488,"cons":3489,"ĠconstruÃ§Ã£o":3490,"Ġbarcel":3491,"Ġgrad":3492,"Ġtratamento":3493,"aces":3494,"Ġbuilding":3495,"leo":3496,"Ġrequest":3497,"Ġclos":3498,"Ġclique":3499,"things":3500,"oca":3501,"enos":3502,"Ġcuid":3503,"Ġintrodu":3504,"Ġsingle":3505,"idence":3506,"jas":3507,"Ġarr":3508,"ĠÃŃn":3509,"ators":3510,"these":3511,"Ġselect":3512,"Ġdispositivo":3513,"Ġempre":3514,"ĠÃ¡reas":3515,"ince":3516,"ament":3517,"ift":3518,"Ġrelations":3519,"Ġficheiro":3520,"Ġmund":3521,"Ġabaixo":3522,"Ġusado":3523,"Ġestim":3524,"ering":3525,"Ġconhe":3526,"ological":3527,"Ġconhecimento":3528,"acto":3529,"ĠutilizaÃ§Ã£o":3530,"Ġplane":3531,"Ġatividades":3532,"Ġvit":3533,"uring":3534,"Ġattra":3535,"ĠpadrÃ£o":3536,"Ġmulheres":3537,"Ġfora":3538,"Ġproblems":3539,"Ġviaj":3540,"Ġfamil":3541,"Ġexcelente":3542,"Ġcresc":3543,"Ġarmazen":3544,"ush":3545,"Ġtransl":3546,"point":3547,"Ġul":3548,"Ġrapid":3549,"Ġglass":3550,"Ġclub":3551,"Ġblog":3552,"Ġtipos":3553,"Ġwa":3554,"Ġgarden":3555,"Ġsav":3556,"ield":3557,"Ġsta":3558,"Ġautomatic":3559,"Ġfriendly":3560,"Ġcommunity":3561,"Ġsegunda":3562,"Ġsuccess":3563,"adamente":3564,"veja":3565,"ĠcomentÃ¡rios":3566,"ulas":3567,"Ġwr":3568,"Ġcorpor":3569,"Ġsaber":3570,"Ġmight":3571,"Ġado":3572,"Ġparts":3573,"ĠlanÃ§":3574,"Ġtiver":3575,"Ġstudents":3576,"Ġknown":3577,"Ġben":3578,"Ġmembros":3579,"Ġfinance":3580,"Ġcancel":3581,"Ġapl":3582,"Ġfacebook":3583,"Ġguar":3584,"Ġlegal":3585,"ende":3586,"Ġtenha":3587,"Ġusando":3588,"Ġago":3589,"Ġsoci":3590,"ede":3591,"Ã©rica":3592,"Ġlondon":3593,"Ġagre":3594,"Ġpartners":3595,"Ġactivities":3596,"Ġcommon":3597,"ĠaplicaÃ§Ã£o":3598,"Ġsle":3599,"Ġindustrial":3600,"Ġrecommend":3601,"Ġba":3602,"Ġnut":3603,"Ġelectron":3604,"lim":3605,"Ġtemporada":3606,"unch":3607,"Ġjud":3608,"Ġbecome":3609,"Ġemplo":3610,"Ġcidades":3611,"Ġnever":3612,"Ġstruct":3613,"ĠindÃºst":3614,"Ġcalled":3615,"Ġnaveg":3616,"Ġalto":3617,"Ġtelef":3618,"ĠirÃ¡":3619,"unca":3620,"Ġpurch":3621,"ogn":3622,"Ġsatisf":3623,"idge":3624,"istic":3625,"Ġphys":3626,"Ġcertific":3627,"esc":3628,"Ġcover":3629,"Ġthough":3630,"Ġtool":3631,"Ġconform":3632,"Ġdeb":3633,"Ġspain":3634,"Ġmonths":3635,"Ġavi":3636,"ised":3637,"Ġcot":3638,"Ġfem":3639,"Ġpresente":3640,"Ġsolic":3641,"Ġaloj":3642,"Ġferramentas":3643,"Ġtickets":3644,"bol":3645,"gra":3646,"Ġreturn":3647,"descri":3648,"ization":3649,"Ġcaixa":3650,"intes":3651,"Ġdistribu":3652,"Ġmel":3653,"ills":3654,"Ġtas":3655,"onst":3656,"Ġcapaz":3657,"Ġwon":3658,"Ġbarcelona":3659,"ĠsoluÃ§Ãµes":3660,"Ġothers":3661,"Ġlabor":3662,"Ġeg":3663,"Ġdever":3664,"ÃŃcios":3665,"Ġexig":3666,"Ġobjetivo":3667,"Ġcompos":3668,"right":3669,"Ġcut":3670,"ilt":3671,"Ġpartner":3672,"Ġconsegu":3673,"Ġfocus":3674,"Ġbor":3675,"Ġexped":3676,"ource":3677,"Ġguest":3678,"Ġfornecer":3679,"Ġstrateg":3680,"ster":3681,"izados":3682,"Ġsale":3683,"Ġhab":3684,"Ġdedic":3685,"Ġappl":3686,"itation":3687,"Ġwrit":3688,"Ġestabl":3689,"son":3690,"Ġthink":3691,"hol":3692,"Ġmi":3693,"Ġstop":3694,"Ġofertas":3695,"Ġtemos":3696,"Ġguide":3697,"Ġsala":3698,"ison":3699,"Ġsure":3700,"Ġtraining":3701,"Ġmembers":3702,"Ġmajor":3703,"Ġsemana":3704,"Ġprocur":3705,"Ġartigo":3706,"Ġmete":3707,"Ġinfo":3708,"Ġequipe":3709,"Ġprest":3710,"ualmente":3711,"Ġrespe":3712,"ribut":3713,"Ġsch":3714,"rease":3715,"una":3716,"Ġaplicativo":3717,"Ġdue":3718,"Ġdiscuss":3719,"ives":3720,"atÃ©g":3721,"adora":3722,"Ġcrit":3723,"cu":3724,"ya":3725,"Ġsomething":3726,"Ġwood":3727,"Ġlake":3728,"Ġproc":3729,"ĠmÃ¡xim":3730,"ĠsÃ©rie":3731,"Ġoportun":3732,"after":3733,"Ġcooper":3734,"oque":3735,"word":3736,"Ġaccommodation":3737,"Ġaspect":3738,"Ġmos":3739,"Ġinov":3740,"Ġfriends":3741,"Ġjard":3742,"alu":3743,"Ġfield":3744,"Ġalugu":3745,"Ġsimilar":3746,"Ġsug":3747,"Ġmoder":3748,"Ġigreja":3749,"ij":3750,"Ġinnov":3751,"Ġnesta":3752,"esa":3753,"Ġball":3754,"Ġreally":3755,"Ġpoints":3756,"Ġcurrent":3757,"Ġmest":3758,"uta":3759,"Ġjov":3760,"Ġpropriedade":3761,"Ġmoney":3762,"ules":3763,"ĠsoluÃ§Ã£o":3764,"Ġliber":3765,"Ġlou":3766,"Ġdate":3767,"Ġvend":3768,"oto":3769,"Ġeur":3770,"Ã³sped":3771,"Ġpodemos":3772,"bre":3773,"ientes":3774,"Ã¡ticas":3775,"Ġoferta":3776,"Ġage":3777,"ned":3778,"Ġacad":3779,"Ġcompanh":3780,"Ġbeautiful":3781,"Ġband":3782,"Ġzo":3783,"cam":3784,"ĠhÃ³sped":3785,"Ġfur":3786,"Ġcities":3787,"oid":3788,"wor":3789,"inhos":3790,"Ġallows":3791,"Ġblue":3792,"Ġtoo":3793,"ĠfÃ©rias":3794,"Ġchat":3795,"ĠbotÃ£o":3796,"Ġjohn":3797,"Ġaverage":3798,"Ġperfe":3799,"Ġexport":3800,"Ġcerca":3801,"Ġdirectly":3802,"xico":3803,"anced":3804,"ĠestratÃ©g":3805,"Ġdll":3806,"Ġmiss":3807,"Ġfall":3808,"den":3809,"Ġsn":3810,"Ġuntil":3811,"Ġguests":3812,"ĠmÃ©dia":3813,"Ġeuropa":3814,"Ġseguintes":3815,"Ġadequado":3816,"ĠproteÃ§Ã£o":3817,"Ġbeb":3818,"cesso":3819,"Ġcand":3820,"ocol":3821,"ĠconfianÃ§a":3822,"ÃŃm":3823,"Ġcomplete":3824,"Ġcabe":3825,"inta":3826,"Ġship":3827,"Ġteach":3828,"inos":3829,"Ġchu":3830,"Ġpict":3831,"Ġdeg":3832,"ding":3833,"Ġhistor":3834,"Ã©tr":3835,"Ġaction":3836,"Ġpt":3837,"yl":3838,"Ġmember":3839,"atory":3840,"wards":3841,"ĠmilhÃµes":3842,"Ġexch":3843,"Ġvest":3844,"Ġrisk":3845,"Ġadapt":3846,"Ġbreakfast":3847,"ises":3848,"Ġcontex":3849,"Ġfig":3850,"noss":3851,"Ġpropor":3852,"Ġminute":3853,"Ġtela":3854,"Ġevol":3855,"Ġapplications":3856,"Ġchave":3857,"Ġpelas":3858,"Ġsop":3859,"Ġtechnical":3860,"imo":3861,"Ġparcer":3862,"idro":3863,"idores":3864,"Ġplata":3865,"cheap":3866,"Ġfrancis":3867,"Ġconfirm":3868,"Ġpequeno":3869,"Ġaug":3870,"Ġvenda":3871,"Ġtanto":3872,"Ġcollect":3873,"Ġltd":3874,"Ġprogramas":3875,"Ġful":3876,"board":3877,"Ġlisboa":3878,"urt":3879,"Ġreach":3880,"iser":3881,"ases":3882,"Ġven":3883,"where":3884,"arning":3885,"Ġmesma":3886,"eline":3887,"down":3888,"ountain":3889,"Ġjet":3890,"zh":3891,"Ġmadeira":3892,"ĠÃºltima":3893,"Ġcultural":3894,"Ġvisitar":3895,"Ġpalavras":3896,"ota":3897,"Ġmini":3898,"Ġsecret":3899,"Ġconjunto":3900,"Ġcra":3901,"Ġaddition":3902,"Ġsolution":3903,"Ġhon":3904,"Ġrate":3905,"Ġextension":3906,"Ġisto":3907,"Ġoften":3908,"Ġcannot":3909,"ÃŃtulo":3910,"Ġeffici":3911,"Ġabove":3912,"Ã©l":3913,"Ġappear":3914,"Ġarticle":3915,"Ġhair":3916,"Ġmist":3917,"Ġanti":3918,"Ġnunca":3919,"seg":3920,"Ġgovernment":3921,"Ã©rio":3922,"pal":3923,"Ġcele":3924,"Ġpromot":3925,"Ġhomens":3926,"ients":3927,"new":3928,"Ġconsist":3929,"Ġliving":3930,"Ġplayer":3931,"Ġpergunt":3932,"ĠcÃ©u":3933,"ĠcafÃ©":3934,"Ġtais":3935,"Ġcro":3936,"Ġdemonst":3937,"Ġflo":3938,"ĠcÃ³d":3939,"Ġmagn":3940,"avam":3941,"Ġmadr":3942,"anas":3943,"Ġarte":3944,"Ġrelax":3945,"Ġaim":3946,"Ġevents":3947,"Ġrequired":3948,"Ġcreated":3949,"Ġreun":3950,"issionais":3951,"Ġdeclar":3952,"ĠavaliaÃ§Ã£o":3953,"ived":3954,"Ġonce":3955,"Ġmunic":3956,"Ã³veis":3957,"Ã¡tico":3958,"ostas":3959,"ired":3960,"tes":3961,"ĠlÃ¡":3962,"Ġeverything":3963,"Ġlater":3964,"Ġsess":3965,"Ġprofiss":3966,"Ġprior":3967,"Ġwalk":3968,"Ġconcent":3969,"Ġmarca":3970,"box":3971,"Ġtinha":3972,"Ġmicrosoft":3973,"Ġmim":3974,"Ġfront":3975,"Ġescolha":3976,"Ġestadia":3977,"pÃ§Ã£o":3978,"ĠrÃ¡pido":3979,"Ġtel":3980,"Ġkitch":3981,"Ġusb":3982,"Ġobrig":3983,"Ġleft":3984,"Ġestes":3985,"Ġcit":3986,"iedade":3987,"Ġacomod":3988,"ĠmÃºsica":3989,"Ġcompat":3990,"Ġairlines":3991,"Ġnorte":3992,"Ġensure":3993,"Ġaccept":3994,"Ġrelev":3995,"Ġcivil":3996,"Ġcell":3997,"sk":3998,"aba":3999,"Ġflash":4000,"Ġalgo":4001,"Ġprofissionais":4002,"Ġoptim":4003,"Ġsafety":4004,"clu":4005,"Ġmateriais":4006,"Ġstrong":4007,"Ġamaz":4008,"Ġinterior":4009,"Ġraz":4010,"Ġtable":4011,"Ġdinheiro":4012,"Ġinstru":4013,"Ġlinks":4014,"ties":4015,"Ġexcellent":4016,"cre":4017,"Ġmaterials":4018,"pool":4019,"Ġpessoal":4020,"vision":4021,"pet":4022,"ĠinstalaÃ§Ã£o":4023,"ĠvisÃ£o":4024,"Ġcum":4025,"Ġbegin":4026,"alizaÃ§Ã£o":4027,"Ġphone":4028,"Ġchanges":4029,"cursos":4030,"Ġreino":4031,"wa":4032,"icional":4033,"ĠamÃ©rica":4034,"Ġinteress":4035,"Ġfeder":4036,"Ġmanter":4037,"ĠhÃ³spedes":4038,"Ġprofissional":4039,"Ġrevol":4040,"Ġusados":4041,"Ġmind":4042,"Ġcheg":4043,"Ġitaly":4044,"Ġterm":4045,"ificaÃ§Ãµes":4046,"Ġefici":4047,"istics":4048,"ĠespÃŃ":4049,"Ġnote":4050,"irt":4051,"Ġsof":4052,"Ġremain":4053,"Ġgost":4054,"house":4055,"Ġrisco":4056,"Ġrental":4057,"hÃ¡":4058,"Ġstra":4059,"ĠhistÃ³r":4060,"Ġbaixo":4061,"Ġhospital":4062,"Ġspan":4063,"Ġhal":4064,"Ġruss":4065,"Ġapartments":4066,"Ġpric":4067,"Ġpret":4068,"Ġsimple":4069,"Ġfoot":4070,"Ġcorr":4071,"cha":4072,"Ġmadrid":4073,"anhar":4074,"Ġgiven":4075,"Ġupon":4076,"omas":4077,"Ġmakes":4078,"ox":4079,"over":4080,"ema":4081,"sia":4082,"Ġatr":4083,"Ġprecip":4084,"Ġadministr":4085,"ĠÃºnico":4086,"key":4087,"Ġcultura":4088,"Ġchegar":4089,"Ġboard":4090,"Ġcrist":4091,"Ġhaving":4092,"Ġreason":4093,"Ġvar":4094,"Ġlay":4095,"zz":4096,"Ġemp":4097,"Ġescrit":4098,"Ġwhy":4099,"vid":4100,"Ġweight":4101,"Ġbranco":4102,"tery":4103,"mu":4104,"bi":4105,"Ġdecid":4106,"Ġescolher":4107,"Ġvilla":4108,"ulho":4109,"Ġriver":4110,"cr":4111,"zes":4112,"Ġadded":4113,"Ġexib":4114,"Ġregular":4115,"apart":4116,"Ġmaintain":4117,"rica":4118,"iza":4119,"Ġlei":4120,"feitos":4121,"Ġhp":4122,"Ġmillion":4123,"Ġplatform":4124,"Ġmec":4125,"Ġmaxim":4126,"Ġself":4127,"Ġquatro":4128,"Ġtry":4129,"Ġkingdom":4130,"Ġrock":4131,"Ġproximidades":4132,"Ġfeito":4133,"Ġfacilities":4134,"Ġincor":4135,"Ġrepl":4136,"Ġroyal":4137,"Ġcaminho":4138,"ĠterÃ¡":4139,"ilhar":4140,"Ġdesigned":4141,"Ġcel":4142,"Ġpeso":4143,"Ġachie":4144,"Ġeventos":4145,"Ġgroups":4146,"ĠcomunicaÃ§Ã£o":4147,"izada":4148,"bar":4149,"Ġchall":4150,"nes":4151,"Ġidade":4152,"ĠindÃºstria":4153,"Ġbrazilian":4154,"Ġml":4155,"Ġperce":4156,"ured":4157,"ĠfunÃ§Ã£o":4158,"Ġtend":4159,"Ġcabo":4160,"ym":4161,"Ġfit":4162,"Ġpaper":4163,"Ġnecessidades":4164,"Ġfinancial":4165,"Ġinstitu":4166,"hi":4167,"Ġsave":4168,"ecÃ§Ã£o":4169,"men":4170,"eias":4171,"Ġcross":4172,"Ġmig":4173,"Ġespanha":4174,"Ġestilo":4175,"ĠprÃ³prio":4176,"Ġparceria":4177,"ĠeducaÃ§Ã£o":4178,"cie":4179,"ti":4180,"ump":4181,"Ġfilho":4182,"ĠcartÃ£o":4183,"Ġcorrespon":4184,"Ġspeak":4185,"cal":4186,"Ġill":4187,"Ġreceive":4188,"ime":4189,"Ġinit":4190,"Ġguer":4191,"Ġacima":4192,"Ġcontribu":4193,"Ġconver":4194,"rooms":4195,"Ġtent":4196,"itect":4197,"Ġstyle":4198,"Ġliter":4199,"Ġcozinha":4200,"Ġbad":4201,"Ġleast":4202,"Ġtradit":4203,"ishing":4204,"Ġplano":4205,"Ġmundial":4206,"Ġpais":4207,"phone":4208,"Ġaproxim":4209,"Ġobtain":4210,"Ġfant":4211,"Ġcode":4212,"Ġquestions":4213,"Ġplataform":4214,"Ġminim":4215,"Ġeasily":4216,"Ġchin":4217,"Ġdesenvol":4218,"Ġguarante":4219,"ĠinÃŃcio":4220,"Ġoferecer":4221,"Ġyoung":4222,"Ġpolit":4223,"hel":4224,"Ġplus":4225,"omet":4226,"Ġincrease":4227,"encont":4228,"Ġalun":4229,"Ġprograms":4230,"Ġenviar":4231,"Ġbir":4232,"Ġtu":4233,"Ġbanco":4234,"Ġdemand":4235,"Ġprotect":4236,"Ġwords":4237,"Ġgoing":4238,"ĠpÃºblico":4239,"Ġdry":4240,"unta":4241,"Ġbrows":4242,"uel":4243,"Ġtub":4244,"Ġprime":4245,"ĠpeÃ§as":4246,"Ġfeed":4247,"Ġfib":4248,"gs":4249,"rol":4250,"illa":4251,"Ġrentals":4252,"Ġprevious":4253,"Ġstudies":4254,"ĠopÃ§Ã£o":4255,"Ġlocalizado":4256,"Ġmulti":4257,"rut":4258,"Ġlav":4259,"bru":4260,"Ġjune":4261,"Ġadditional":4262,"Ġalmo":4263,"ilidade":4264,"Ġfrente":4265,"ither":4266,"Ġprivacy":4267,"itude":4268,"Ġfly":4269,"Ġtypes":4270,"Ġdizer":4271,"Ġcloud":4272,"ges":4273,"Ġtreatment":4274,"Ġclim":4275,"Ġesses":4276,"Ġcollection":4277,"Ġsquare":4278,"yes":4279,"izaÃ§Ãµes":4280,"Ġofficial":4281,"Ġexchange":4282,"Ġfornece":4283,"Ġdescription":4284,"side":4285,"Ġtarif":4286,"cy":4287,"Ġgran":4288,"Ġnice":4289,"Ġauto":4290,"ubro":4291,"ased":4292,"aves":4293,"eros":4294,"ĠmÃªs":4295,"Ġnuv":4296,"ĠpÃ©":4297,"ĠeconÃ´m":4298,"Ġmountain":4299,"Ġsyn":4300,"Ġstaff":4301,"Ġtag":4302,"Ġmodelos":4303,"ĠacessÃ³rios":4304,"Ġarri":4305,"Ġvolta":4306,"Ġoce":4307,"Ġfest":4308,"Ġmart":4309,"Ġuk":4310,"sim":4311,"esp":4312,"utenÃ§Ã£o":4313,"Ġcarri":4314,"Ġcomfortable":4315,"bs":4316,"Ġkitchen":4317,"ĠanÃºn":4318,"urg":4319,"Ġfunction":4320,"Ġexpedia":4321,"Ġestudos":4322,"Ġmean":4323,"Ġprivacidade":4324,"Ġfrancisco":4325,"Ġpisc":4326,"Ġapartamento":4327,"Ġcredit":4328,"Ġautomat":4329,"Ġever":4330,"ĠitÃ¡lia":4331,"expl":4332,"ĠfÃŃs":4333,"ocar":4334,"Ġmort":4335,"Ġroup":4336,"ged":4337,"Ġwel":4338,"Ġanimais":4339,"Ġvan":4340,"Ġcole":4341,"Ġalong":4342,"aging":4343,"here":4344,"Ġdiscover":4345,"vas":4346,"Ġsust":4347,"Ġacr":4348,"ensive":4349,"Ġdispositivos":4350,"Ġjulho":4351,"Ġquantidade":4352,"action":4353,"ches":4354,"Ġbring":4355,"Ġwire":4356,"Ġcul":4357,"qual":4358,"ocity":4359,"Ġsubm":4360,"Ġatl":4361,"Ġles":4362,"Ġunion":4363,"Ġcommer":4364,"idity":4365,"Ġpool":4366,"ĠorganizaÃ§Ã£o":4367,"bel":4368,"hop":4369,"Ġposition":4370,"Ġjapan":4371,"Ġamerica":4372,"ires":4373,"cast":4374,"omes":4375,"any":4376,"Ġbasic":4377,"Ġexpected":4378,"ublic":4379,"das":4380,"Ġformat":4381,"Ġdistance":4382,"Ġuniversidade":4383,"Ġjob":4384,"Ġamigos":4385,"ÃŃstica":4386,"Ġcruz":4387,"Ġwhether":4388,"Ġsignificant":4389,"enÃ§as":4390,"Ġcasos":4391,"Ġcort":4392,"Ġvivo":4393,"Ġther":4394,"encontre":4395,"door":4396,"uar":4397,"ipe":4398,"imes":4399,"Ġcoisa":4400,"Ġextrem":4401,"Ġpalavra":4402,"onom":4403,"Ġcomprom":4404,"edades":4405,"Ġdaily":4406,"Ġmanh":4407,"Ġcusto":4408,"Ġvariedade":4409,"ania":4410,"Ġsett":4411,"Ġmelhorar":4412,"Ġwide":4413,"ĠÃºnica":4414,"Ġdro":4415,"Ġdv":4416,"my":4417,"ĠmanutenÃ§Ã£o":4418,"Ġcomunidade":4419,"heiros":4420,"Ġpropos":4421,"Ġprojetos":4422,"urar":4423,"Ġcontem":4424,"ĠendereÃ§o":4425,"Ġwhole":4426,"melhores":4427,"Ġacomp":4428,"hy":4429,"Ġgoverno":4430,"ging":4431,"Ġsen":4432,"Ġinclui":4433,"ĠatrÃ¡s":4434,"Ã±":4435,"Ġfres":4436,"Ġtrabalhar":4437,"ĠextensÃ£o":4438,"ĠrÃ¡pida":4439,"Ġly":4440,"Ġrevel":4441,"Ġtravelocity":4442,"Ġpasse":4443,"ilha":4444,"Ġconect":4445,"Ġnatureza":4446,"Ġeleg":4447,"Ġmp":4448,"Ġsignifica":4449,"Ġgrupos":4450,"Ġdiretamente":4451,"light":4452,"Ġhund":4453,"Ġadm":4454,"Ġcausa":4455,"Ġmix":4456,"Ġalguma":4457,"ĠcÃ³digo":4458,"eda":4459,"Ġevalu":4460,"ulos":4461,"Ġdevices":4462,"Ġfever":4463,"Ġfuturo":4464,"Ġemerg":4465,"Ġhour":4466,"ingo":4467,"Ġpedido":4468,"urs":4469,"ark":4470,"Ġhid":4471,"Ġelectric":4472,"Ġadicionar":4473,"ĠprÃ³pria":4474,"cular":4475,"Ġsucesso":4476,"Ġunique":4477,"Ġcama":4478,"Ġentrar":4479,"Ġferramenta":4480,"Ġfarm":4481,"Ã³vel":4482,"bour":4483,"Ġsafe":4484,"ĠaplicaÃ§Ãµes":4485,"erta":4486,"Ġgerenci":4487,"Ġreservar":4488,"Ġstrength":4489,"cin":4490,"Ġdise":4491,"Ġdesaf":4492,"Ġearth":4493,"Ġmessage":4494,"Ġrestaurante":4495,"Ġpagamento":4496,"Ġposit":4497,"amin":4498,"Ġterrit":4499,"Ġconstruction":4500,"Ġgos":4501,"Ġessas":4502,"Ġorient":4503,"Ġatra":4504,"Ġsubs":4505,"selves":4506,"Ġtexto":4507,"Ġflow":4508,"Ġdiferente":4509,"Ġmensagem":4510,"Ġirm":4511,"Ġstorage":4512,"antar":4513,"Ġelim":4514,"gress":4515,"Ġdevido":4516,"Ġrecogn":4517,"ĠÃ³leo":4518,"Ġtell":4519,"Ġdeveloped":4520,"Ġchoice":4521,"ively":4522,"Ġdesk":4523,"Ġalojamento":4524,"uri":4525,"Ġdouble":4526,"Ġportuguese":4527,"Ġgermany":4528,"Ġvolume":4529,"Ġhigher":4530,"Ġgarantir":4531,"ivamente":4532,"Ġvaria":4533,"tas":4534,"Ġsound":4535,"Ġtelefone":4536,"Ġmad":4537,"Ġheav":4538,"Ġcommit":4539,"Ġresources":4540,"Ġrespond":4541,"Ġlivro":4542,"Ġentrada":4543,"Ġrealmente":4544,"Ġefet":4545,"uper":4546,"Ġdone":4547,"Ġflu":4548,"Ġsetembro":4549,"Ġeconomic":4550,"ground":4551,"Ġspanish":4552,"wood":4553,"Ġcla":4554,"ficult":4555,"cost":4556,"Ġprocessing":4557,"todo":4558,"ny":4559,"hood":4560,"put":4561,"Ġsept":4562,"ĠÃ´":4563,"ĠforÃ§a":4564,"Ġespanh":4565,"wire":4566,"Ġeua":4567,"Ġfrench":4568,"Ġcores":4569,"Ġhear":4570,"Ġmanager":4571,"Ġton":4572,"prim":4573,"hib":4574,"Ġdifficult":4575,"eria":4576,"Ġjur":4577,"Ġproduz":4578,"Ġresultado":4579,"Ġaccessories":4580,"Ãł":4581,"Ġsurf":4582,"Ġconsci":4583,"ĠespÃŃrito":4584,"bn":4585,"Ġapoio":4586,"Ġincludes":4587,"Ġinvolv":4588,"Ġkg":4589,"Ġamount":4590,"Ġsociais":4591,"Ġtitle":4592,"Ġlc":4593,"Ġfilhos":4594,"Ġincluded":4595,"Ġfilm":4596,"Ġrapidamente":4597,"entÃ£o":4598,"ĠprÃ³pri":4599,"Ġlearning":4600,"Ġimprove":4601,"Ġrich":4602,"Ġprojects":4603,"Ġinclus":4604,"Ġsuppliers":4605,"Ġespeciais":4606,"Ġbuilt":4607,"Ġjuly":4608,"Ġload":4609,"ball":4610,"Ġdimens":4611,"Ġconstitu":4612,"Ġsomente":4613,"Ġwestern":4614,"Ġmeteor":4615,"Ġfive":4616,"ĠfranÃ§a":4617,"Ġadvert":4618,"Ġconstant":4619,"Ġbank":4620,"ificado":4621,"ĠalcanÃ§":4622,"Ġimpact":4623,"Ġrelationship":4624,"Ġjoin":4625,"Ġskin":4626,"Ġsociety":4627,"Ġregister":4628,"Ġcopy":4629,"bec":4630,"Ġporta":4631,"Ġtraditional":4632,"Ġutilizar":4633,"Ġcasino":4634,"nibus":4635,"isl":4636,"Ġeletr":4637,"Ġnada":4638,"Ġsell":4639,"Ġmand":4640,"Ġtrack":4641,"Ġcomum":4642,"ÃŃdu":4643,"Ġparque":4644,"Ġcontinue":4645,"ĠavanÃ§":4646,"Ġsociedade":4647,"Ġcic":4648,"Ġing":4649,"ini":4650,"Ġbill":4651,"that":4652,"Ġcapt":4653,"Ã¢nt":4654,"redit":4655,"atamente":4656,"rou":4657,"Ġorigin":4658,"amental":4659,"Ġentire":4660,"Ġdeath":4661,"Ġinterpre":4662,"Ġcases":4663,"Ġlod":4664,"tros":4665,"Ġscience":4666,"Ġphoto":4667,"Ġnormal":4668,"uary":4669,"Ġbrit":4670,"Ġcristo":4671,"Ġrecuper":4672,"Ġreceb":4673,"Ġpele":4674,"Ġaustral":4675,"ÃŃg":4676,"Ġproperties":4677,"Ġfather":4678,"ĠbÃ¡s":4679,"Ġbanho":4680,"Ġpai":4681,"Ġwik":4682,"Ġcombo":4683,"Ġquad":4684,"Ġapple":4685,"curs":4686,"Ġupdate":4687,"uck":4688,"Ġfonte":4689,"Ġestacion":4690,"icionado":4691,"Ġperfil":4692,"Ġpul":4693,"ĠpÃ¡ginas":4694,"Ġdatab":4695,"Ġjack":4696,"Ġsupply":4697,"Ġnar":4698,"Ġnenhum":4699,"Ġespecially":4700,"di":4701,"Ġue":4702,"Ġhou":4703,"Ġseason":4704,"ribution":4705,"Ġacab":4706,"Ġvale":4707,"Ġsports":4708,"hic":4709,"ounts":4710,"ĠveÃŃ":4711,"xy":4712,"echan":4713,"passagens":4714,"Ġforec":4715,"Ġchann":4716,"Ġvib":4717,"eth":4718,"Ġelem":4719,"look":4720,"Ġquase":4721,"Ġinstallation":4722,"ĠÃ´nibus":4723,"Ġoption":4724,"Ġrole":4725,"Ġcompletamente":4726,"Ġmission":4727,"Ġturn":4728,"Ġinstant":4729,"Ġpovo":4730,"Ġhong":4731,"amic":4732,"Ġagoda":4733,"pol":4734,"Ġsales":4735,"sem":4736,"Ġfurther":4737,"ette":4738,"Ġactivity":4739,"Ġmeeting":4740,"Ġrob":4741,"esar":4742,"Ġnam":4743,"please":4744,"Ġtornar":4745,"antic":4746,"Ġfevereiro":4747,"Ġvidro":4748,"Ġkong":4749,"Ġpartes":4750,"Ġjunho":4751,"Ġfacilmente":4752,"Ġyet":4753,"Ġestrutura":4754,"aza":4755,"Ġtrade":4756,"ĠcriaÃ§Ã£o":4757,"Ġpossui":4758,"Ġconfidence":4759,"Ġnav":4760,"Ġtow":4761,"amsung":4762,"ĠelÃ©tr":4763,"Ġbast":4764,"Ġconsul":4765,"Ġconfl":4766,"Ġrail":4767,"Ġavoid":4768,"Ġpages":4769,"ky":4770,"ĠaÃ§Ã£o":4771,"Ġagrad":4772,"Ġtaxa":4773,"teis":4774,"Ġstep":4775,"ĠplÃ¡st":4776,"Ã©d":4777,"Ġratio":4778,"Ġsustent":4779,"Ġpriceline":4780,"ening":4781,"Ġsold":4782,"Ġmetros":4783,"Ġteste":4784,"Ġrefl":4785,"Ġcd":4786,"Ġmarc":4787,"from":4788,"Ġguia":4789,"Ġfornecedores":4790,"orial":4791,"Ġdetail":4792,"ifi":4793,"ĠportuguÃªs":4794,"ĠformaÃ§Ã£o":4795,"Ġaliment":4796,"Ġcame":4797,"Ġstatus":4798,"Ġdre":4799,"Ġdescon":4800,"Ġrequirements":4801,"ĠcaracterÃŃsticas":4802,"Ġgot":4803,"Ġvirtual":4804,"Ġitems":4805,"Ġviv":4806,"Ġgb":4807,"Ġacqu":4808,"Ġcarre":4809,"Ġprova":4810,"Ġintens":4811,"aga":4812,"Ġdesej":4813,"Ġloss":4814,"Ġoperation":4815,"Ġjardim":4816,"Ġwish":4817,"Ġseptember":4818,"orias":4819,"Ġverde":4820,"Ġenough":4821,"Ġlevels":4822,"Ġinicial":4823,"Ġcamera":4824,"Ġenvolv":4825,"Ġcolabor":4826,"ĠtÃŃtulo":4827,"anta":4828,"Ġbusca":4829,"Ġsource":4830,"Ġresposta":4831,"frica":4832,"Ġarchitect":4833,"Ġefeito":4834,"ugar":4835,"Ġpequena":4836,"Ġvillage":4837,"Ġsejam":4838,"Ġblood":4839,"Ġcrescimento":4840,"iram":4841,"Ġali":4842,"Ġusd":4843,"Ġler":4844,"Ġalemanha":4845,"otes":4846,"Ġbeh":4847,"vc":4848,"Ġcompleto":4849,"Ġcasas":4850,"ĠfuncionÃ¡rios":4851,"Ġcommunication":4852,"explore":4853,"Ã³t":4854,"Ġjetcost":4855,"Ġdol":4856,"Ġshows":4857,"Ġcause":4858,"Ġprocura":4859,"tos":4860,"Ġbang":4861,"your":4862,"ĠduraÃ§Ã£o":4863,"alg":4864,"enciais":4865,"Ġestat":4866,"Ġchap":4867,"ĠcomeÃ§ar":4868,"dam":4869,"Ġrar":4870,"Ġacadem":4871,"eo":4872,"weather":4873,"Ġmanage":4874,"Ġessential":4875,"Ġimportantes":4876,"Ġquickly":4877,"Ġcomes":4878,"Ġaprender":4879,"ki":4880,"uaÃ§Ã£o":4881,"Ġsustain":4882,"Ãµe":4883,"Ġimper":4884,"Ġadult":4885,"itter":4886,"Ġevitar":4887,"Ġmanufacturer":4888,"rÃ¡f":4889,"Ġdatas":4890,"Ġsuperf":4891,"Ġextern":4892,"Ġsolar":4893,"los":4894,"Ġesfor":4895,"Ġunido":4896,"Ġist":4897,"download":4898,"host":4899,"mod":4900,"Ġpronunci":4901,"itamente":4902,"Ġalunos":4903,"Ġpil":4904,"Ġpeace":4905,"sol":4906,"Ġara":4907,"uge":4908,"Ġdress":4909,"ĠlÃŃn":4910,"Ġembal":4911,"Ġplastic":4912,"Ġdiam":4913,"Ġperfeita":4914,"Ġcalcul":4915,"Ġcosta":4916,"Ġproporcion":4917,"assim":4918,"Ġmechan":4919,"Ġaprend":4920,"dr":4921,"essas":4922,"ffee":4923,"Ġjourney":4924,"ĠmanhÃ£":4925,"Ġhall":4926,"Ġabord":4927,"Ġtomar":4928,"Ġiso":4929,"Ġdocumentos":4930,"bruary":4931,"Ġwine":4932,"Ġblow":4933,"ĠnegÃ³cio":4934,"ĠvÃ£o":4935,"Ġmedical":4936,"Ġjer":4937,"Ġuses":4938,"Ġtrue":4939,"aval":4940,"osco":4941,"Ġcompra":4942,"Ġimedi":4943,"ĠcabeÃ§a":4944,"Ġreservations":4945,"Ġpayment":4946,"Ġefeitos":4947,"Ġproud":4948,"Ġsuggest":4949,"Ġforecast":4950,"Ġconselho":4951,"Ġprocessos":4952,"Ġcatal":4953,"Ġcurso":4954,"Ġpropriedades":4955,"trip":4956,"char":4957,"ologies":4958,"Ġnecessidade":4959,"Ġvariety":4960,"med":4961,"Ġsuit":4962,"Ġhotwire":4963,"Ġavis":4964,"Ġfair":4965,"mat":4966,"Ġafrica":4967,"Ġscient":4968,"Ġcore":4969,"Ġreprodu":4970,"Ġsufici":4971,"ĠdescriÃ§Ã£o":4972,"hone":4973,"eness":4974,"Ġparceiros":4975,"Ġaleg":4976,"Ġvehic":4977,"Ġartigos":4978,"Ġimag":4979,"Ġviews":4980,"Ġsaud":4981,"otos":4982,"ĠlÃŃder":4983,"Ġfeature":4984,"Ġintell":4985,"tambÃ©m":4986,"Ġcontract":4987,"mp":4988,"ĠnÃŃveis":4989,"ĠdifÃŃ":4990,"Ġcinco":4991,"Ġcompare":4992,"Ġunit":4993,"ĠÃ³tim":4994,"atas":4995,"Ġequipamento":4996,"Ġtouch":4997,"Ġterceiros":4998,"Ġsanto":4999,"Ġestas":5000,"Ġmc":5001,"Ġhip":5002,"utar":5003,"Ġprofile":5004,"inary":5005,"Ġms":5006,"Ġclic":5007,"Ġculture":5008,"Ġoutubro":5009,"Ġengen":5010,"ji":5011,"Ġwid":5012,"Ġmodels":5013,"ĠmÃ£":5014,"Ġrain":5015,"Ġjogar":5016,"Ġestamos":5017,"Ġespecialmente":5018,"Ġfabricante":5019,"Ġclaro":5020,"Ġdiagn":5021,"Ġpropriet":5022,"Ġmg":5023,"Ġunidade":5024,"Ġtaking":5025,"Ġfebruary":5026,"ĠsituaÃ§Ã£o":5027,"Ġequipamentos":5028,"Ġreserve":5029,"aps":5030,"Ġpanel":5031,"Ġcorrect":5032,"arian":5033,"Ġht":5034,"trans":5035,"Ġcommission":5036,"fin":5037,"Ġcai":5038,"Ġvene":5039,"Ġintelig":5040,"part":5041,"Ġorgulho":5042,"Ġros":5043,"Ġescre":5044,"Ġjovens":5045,"onde":5046,"Ġmarch":5047,"Ġfaith":5048,"Ġexce":5049,"Ġmaria":5050,"Ġeat":5051,"ott":5052,"izes":5053,"weet":5054,"Ġod":5055,"Ġinteresse":5056,"fas":5057,"Ġamost":5058,"Ġcolet":5059,"Ġacross":5060,"ef":5061,"Ġways":5062,"ray":5063,"Ġok":5064,"Ġdeles":5065,"Ġhostels":5066,"Ġrelacionados":5067,"enced":5068,"Ġphysical":5069,"Ġapps":5070,"Ġescola":5071,"ogrÃ¡f":5072,"Ġsap":5073,"ĠatenÃ§Ã£o":5074,"fol":5075,"Ġtaken":5076,"ĠaviÃ£o":5077,"home":5078,"Ġbilhe":5079,"Ġsolid":5080,"Ġpec":5081,"Ġthroughout":5082,"Ġflat":5083,"depois":5084,"Ġgrowth":5085,"Ġcient":5086,"Ġcad":5087,"Ã³m":5088,"Ġmonte":5089,"estes":5090,"Ġpreto":5091,"Ġcoord":5092,"Ġtotalmente":5093,"ofer":5094,"osos":5095,"Ġhous":5096,"ĠmÃŃn":5097,"eler":5098,"ifique":5099,"Ġapproach":5100,"Ġpaz":5101,"outh":5102,"ĠcomissÃ£o":5103,"endimento":5104,"ĠÃ¡frica":5105,"Ġconsequ":5106,"Ġfrank":5107,"valho":5108,"Ġshopping":5109,"Ġhowever":5110,"Ġterce":5111,"Ġvas":5112,"Ġneigh":5113,"Ġclar":5114,"Ġforte":5115,"Ġlogo":5116,"Ġattack":5117,"icamente":5118,"Ġcelebr":5119,"Ġgall":5120,"ativamente":5121,"ĠajudÃ¡":5122,"Ġroma":5123,"Ġaugust":5124,"Ġestacionamento":5125,"Ġvig":5126,"Ġbater":5127,"Ġroll":5128,"inhas":5129,"Ġprev":5130,"Ġregional":5131,"Ġordem":5132,"high":5133,"Ġorbit":5134,"ĠmÃ©dio":5135,"gem":5136,"ĠcontÃ©m":5137,"Ġdescrib":5138,"Ġsabe":5139,"rant":5140,"Ġround":5141,"Ġencontra":5142,"Ġprogress":5143,"ĠÃºtil":5144,"Ġanimal":5145,"Ġconnection":5146,"Ġcapacity":5147,"Ġperguntas":5148,"Ġcade":5149,"Ġrespeito":5150,"Ġblock":5151,"Ġram":5152,"tober":5153,"Ġactive":5154,"Ġcontroll":5155,"iting":5156,"Ġbord":5157,"Ġaqueles":5158,"Ġham":5159,"vez":5160,"Ġsection":5161,"Ġinternacionais":5162,"Ġbaixar":5163,"Ġpiscina":5164,"cop":5165,"free":5166,"Ġaltura":5167,"velmente":5168,"rados":5169,"ĠÃ¢":5170,"Ġcompletely":5171,"aqui":5172,"Ġbib":5173,"ivity":5174,"Ġitself":5175,"Ġpressure":5176,"lands":5177,"Ã©tica":5178,"Ġseguinte":5179,"Ġverm":5180,"iab":5181,"Ġjorn":5182,"Ġbaby":5183,"Ġsamsung":5184,"ĠgrÃ¡f":5185,"berg":5186,"Ġsint":5187,"Ġformato":5188,"iance":5189,"Ġmark":5190,"cing":5191,"estas":5192,"Ġrout":5193,"eds":5194,"Ġtran":5195,"Ġconex":5196,"Ġrota":5197,"Ġvos":5198,"atÃ³rios":5199,"Ġselected":5200,"asons":5201,"Ġcry":5202,"Ġnat":5203,"aco":5204,"Ġroute":5205,"Ġobt":5206,"Ġmode":5207,"Ġsector":5208,"Ġseguida":5209,"ĠvÃŃdeos":5210,"Ġfilter":5211,"fre":5212,"Ġlisbon":5213,"Ġexistem":5214,"Ġpreoc":5215,"ricult":5216,"ella":5217,"Ġeffects":5218,"Ġopportunity":5219,"ografia":5220,"Ġwashing":5221,"orre":5222,"Ġenh":5223,"Ġluxury":5224,"ken":5225,"Ġdatabase":5226,"Ġtut":5227,"Ġtare":5228,"Ġanterior":5229,"Ġluxo":5230,"Ġquaisquer":5231,"Ġresponsible":5232,"Ġfez":5233,"Ġaudio":5234,"ĠdÃ¡":5235,"Ġfavorite":5236,"Ġpresidente":5237,"ĠprÃ¡tica":5238,"ashion":5239,"Ġmilit":5240,"Ġanalis":5241,"Ġdriver":5242,"net":5243,"Ġbul":5244,"nal":5245,"Ġpaul":5246,"Ġmount":5247,"Ġassociated":5248,"Ġmunicip":5249,"Ġinstalled":5250,"aster":5251,"Ġpoderia":5252,"uit":5253,"orge":5254,"encies":5255,"Ġadvant":5256,"Ġfill":5257,"Ġlegisl":5258,"Ġtarde":5259,"Ã¢met":5260,"idad":5261,"Ġingred":5262,"ient":5263,"vida":5264,"Ġpurpose":5265,"bas":5266,"Ġjos":5267,"Ġapply":5268,"Ġreconhec":5269,"Ġtranspar":5270,"tre":5271,"Ġstory":5272,"Ġsemelh":5273,"Ġhosped":5274,"iqu":5275,"Ġsix":5276,"Ġvalores":5277,"pair":5278,"ÃŃdos":5279,"Ġexpos":5280,"Ġissues":5281,"Ġdezembro":5282,"bnb":5283,"ividade":5284,"ĠverÃ£o":5285,"Ġcabelo":5286,"ĠcomparaÃ§Ã£o":5287,"Ġcalif":5288,"Ġoficial":5289,"Ġcommand":5290,"Ġthing":5291,"iff":5292,"Ġfemin":5293,"ml":5294,"erve":5295,"Ġdoct":5296,"Ġevento":5297,"xi":5298,"Ġplug":5299,"Ġoperating":5300,"Ġfamiliar":5301,"Ġyourself":5302,"Ġhumanos":5303,"aca":5304,"Ġprevent":5305,"Ġmeus":5306,"ĠreferÃªncia":5307,"Ġpath":5308,"ostos":5309,"oke":5310,"Ġelas":5311,"Ġreceived":5312,"Ġumidade":5313,"Ġseem":5314,"Ġmiles":5315,"Ġexercis":5316,"orth":5317,"Ġeuropeia":5318,"eceu":5319,"Ġexterior":5320,"Ġexpand":5321,"Ġbloc":5322,"Ġsummer":5323,"Ġtrein":5324,"Ġpractice":5325,"Ġrenov":5326,"Ġassess":5327,"Ġdocuments":5328,"otec":5329,"vio":5330,"Ġdocumento":5331,"Ã¨":5332,"Ġdistrict":5333,"ule":5334,"uth":5335,"ends":5336,"Ġrecol":5337,"Ã¶":5338,"Ġfm":5339,"ione":5340,"ĠuniÃ£o":5341,"Ġlonger":5342,"ĠposiÃ§Ã£o":5343,"Ġeffective":5344,"etas":5345,"Ã©n":5346,"Ġsexo":5347,"Ġvoss":5348,"Ġoctober":5349,"Ġmultip":5350,"Ġbrowser":5351,"Ġcarros":5352,"Ġmother":5353,"Ġdie":5354,"iable":5355,"Ġrome":5356,"ably":5357,"Ġconvert":5358,"Ġleve":5359,"ertura":5360,"Ġgarantia":5361,"Ġbelieve":5362,"Ġgraph":5363,"Ġactual":5364,"ĠoperaÃ§Ã£o":5365,"ĠinstruÃ§Ãµes":5366,"Ġenvironmental":5367,"bio":5368,"Ġtours":5369,"ĠresponsÃ¡vel":5370,"Ġsettings":5371,"Ġdesfr":5372,"covery":5373,"Ġtablet":5374,"she":5375,"Ġpopulares":5376,"Ġlondres":5377,"ologias":5378,"Ġvolt":5379,"Ġangeles":5380,"Ġwifi":5381,"Ġisol":5382,"Ġseria":5383,"Ġhumidity":5384,"Ġplataforma":5385,"Ġnovembro":5386,"Ġjanuary":5387,"Ġpacote":5388,"ĠespaÃ§os":5389,"abol":5390,"Ġdomin":5391,"Ġreduz":5392,"Ġbathroom":5393,"Ġesqu":5394,"ĠalmoÃ§o":5395,"Ġidi":5396,"Ġapartamentos":5397,"Ġdraw":5398,"Ġagricult":5399,"Ġpurchase":5400,"Ġespanhol":5401,"fil":5402,"Ġrealizar":5403,"Ġaumentar":5404,"Ġurban":5405,"Ġlimited":5406,"Ġlower":5407,"Ġcarreg":5408,"Ġvisita":5409,"Ġtaxas":5410,"Ġtakes":5411,"Ġpin":5412,"Ġmaio":5413,"Ġcoffee":5414,"Ġhabit":5415,"Ġclot":5416,"ians":5417,"ifest":5418,"umo":5419,"Ġcup":5420,"eram":5421,"Ġbair":5422,"adoras":5423,"Ġexerc":5424,"Ġmidd":5425,"Ã¡ss":5426,"Ġexiste":5427,"Ġrecommended":5428,"Ġguerra":5429,"Ġparking":5430,"Ġvalid":5431,"Ġiphone":5432,"Ġga":5433,"Ġfine":5434,"Ġdelivery":5435,"Ġconcerning":5436,"Ġdor":5437,"Ġask":5438,"Ġadjust":5439,"Ġmaiores":5440,"Ġmedida":5441,"Ġbanc":5442,"Ġfranc":5443,"illas":5444,"tur":5445,"Ġcanada":5446,"Ġdisponibil":5447,"och":5448,"ĠmarÃ§o":5449,"Ġautocar":5450,"Ġhappy":5451,"Ġformul":5452,"Ġfundamental":5453,"Ġargent":5454,"ĠsuperfÃŃ":5455,"Ġamster":5456,"Ġcanad":5457,"Ġveja":5458,"Ġcompleta":5459,"Ġcheapest":5460,"Ġuniversal":5461,"Ġentrega":5462,"Ġsteps":5463,"Ġsays":5464,"olÃ³gicas":5465,"ĠimpressÃ£o":5466,"Ġorbitz":5467,"reds":5468,"Ġdecember":5469,"Ġcosts":5470,"Ġdescobrir":5471,"Ġfurn":5472,"Ġfore":5473,"orning":5474,"Ġsong":5475,"Ġstudio":5476,"Ġferro":5477,"Ġorganization":5478,"Ġsurface":5479,"Ġrequis":5480,"Ġcentenas":5481,"fully":5482,"Ġapresenta":5483,"Ġdegree":5484,"field":5485,"Ġti":5486,"Ġdorm":5487,"Ġinterface":5488,"Ġconcord":5489,"ĠinstalaÃ§Ãµes":5490,"Ġcontinuar":5491,"Ġseguir":5492,"Ġjunto":5493,"ened":5494,"Ġloja":5495,"Ġeffort":5496,"Ġlatest":5497,"pers":5498,"Ġability":5499,"Ġfilme":5500,"Ġgreater":5501,"Ġredes":5502,"Ġincorpor":5503,"Ġexplic":5504,"Ġincluem":5505,"Ġsetor":5506,"Ġdial":5507,"Ġedif":5508,"Ġdesenvolver":5509,"Ġensino":5510,"Ġinox":5511,"ched":5512,"acc":5513,"Ġimmedi":5514,"Ġinfer":5515,"ainless":5516,"Ġfully":5517,"Ġautomatically":5518,"Ġfiz":5519,"Ġpercent":5520,"Ġtap":5521,"Ġfail":5522,"Ġalb":5523,"Ġkn":5524,"Ġerro":5525,"Ġfederal":5526,"ellow":5527,"iami":5528,"Ġatividade":5529,"ĠaÃ§Ãµes":5530,"Ġlemb":5531,"Ġcarbon":5532,"Ġblu":5533,"Ġobras":5534,"Ġprazo":5535,"Ġeither":5536,"Ġvic":5537,"Ġerror":5538,"Ġadicionais":5539,"ensa":5540,"Ġox":5541,"Ġcompr":5542,"ĠmÃ©todo":5543,"Ġdemoc":5544,"Ġtook":5545,"ĠtÃ©cnicas":5546,"Ġchem":5547,"Ġvem":5548,"aming":5549,"Ġpotential":5550,"Ġcable":5551,"Ġfashion":5552,"Ġconduct":5553,"ecem":5554,"Ġhoriz":5555,"Ġsubstitu":5556,"Ġbroad":5557,"Ġfato":5558,"quia":5559,"Ġgain":5560,"Ġvoltar":5561,"Ġconsidered":5562,"Ġlhes":5563,"Ġacid":5564,"Ã¢ncias":5565,"Ġquiser":5566,"Ġchi":5567,"Ġdeixar":5568,"ĠeletrÃ´n":5569,"ĠpolÃŃticas":5570,"entre":5571,"Ġhundreds":5572,"arm":5573,"Ġleave":5574,"Ã³rias":5575,"Ġcool":5576,"Ã¢ndia":5577,"Ġsituation":5578,"Ġcontains":5579,"Ġconhecer":5580,"Ġfuncionamento":5581,"Ġanswer":5582,"Ġdessa":5583,"Ġabsol":5584,"ĠmÃ¡ximo":5585,"Ġpolitical":5586,"dos":5587,"pode":5588,"ĠfÃ³r":5589,"ĠligaÃ§Ã£o":5590,"Ġlaser":5591,"descriÃ§Ã£o":5592,"Ġcouncil":5593,"cipl":5594,"bro":5595,"Ġaplicativos":5596,"atives":5597,"ĠprincÃŃp":5598,"ĠpressÃ£o":5599,"Ġradio":5600,"Ġexperim":5601,"Ġtherefore":5602,"vido":5603,"ĠfÃ¡br":5604,"sm":5605,"ousand":5606,"Ġprocesses":5607,"Ġarmazenamento":5608,"gos":5609,"Ġvul":5610,"Ġcategoria":5611,"Ġpow":5612,"Ġdeseja":5613,"orar":5614,"Ġrub":5615,"Ġmove":5616,"Ġadvanced":5617,"Ġpremium":5618,"ĠmÃ£e":5619,"Ġcolom":5620,"Ġspr":5621,"abilidades":5622,"Ġagreement":5623,"Ġminer":5624,"Ġdyn":5625,"ĠÃŃnd":5626,"Ġpm":5627,"Ġvict":5628,"Ġclient":5629,"Ġtyp":5630,"ĠquestÃ£o":5631,"Ġcandid":5632,"Ġchuva":5633,"Ġmunicipal":5634,"ciais":5635,"Ġadvent":5636,"olÃ³gica":5637,"lar":5638,"Ġmovimento":5639,"some":5640,"Ġmorte":5641,"ĠpresenÃ§a":5642,"Ġformas":5643,"Ġemploye":5644,"Ġgama":5645,"Ġcontempor":5646,"ads":5647,"Ġserve":5648,"ĠtraduÃ§Ã£o":5649,"ev":5650,"Ġzoom":5651,"ponline":5652,"riger":5653,"Ġtriponline":5654,"Ġoverview":5655,"Ġelimin":5656,"Ġinterpret":5657,"Ġbis":5658,"Ġgast":5659,"Ġestou":5660,"Ġseguro":5661,"Ġpermitir":5662,"Ġautomaticamente":5663,"ĠrelÃ³g":5664,"Ġencontro":5665,"Ã¡logo":5666,"Ġregarding":5667,"eras":5668,"anger":5669,"guÃ©m":5670,"Ġorigem":5671,"Ġcurrently":5672,"gio":5673,"Ġground":5674,"gi":5675,"ague":5676,"Ġrates":5677,"Ġdoor":5678,"Ġmedidas":5679,"Ġesperado":5680,"Ġpuerto":5681,"Ġtin":5682,"ĠcrianÃ§a":5683,"Ġtendo":5684,"Ġcorret":5685,"Ġtechnologies":5686,"Ġstructure":5687,"usa":5688,"Ġpequenas":5689,"Ġpok":5690,"att":5691,"Ġpassar":5692,"Ġedition":5693,"inten":5694,"Ġpatients":5695,"iago":5696,"Ġconsent":5697,"Ġpresented":5698,"Ġelectronic":5699,"edo":5700,"Ġneeded":5701,"avail":5702,"prise":5703,"Ġabril":5704,"Ġfloor":5705,"Ġcoast":5706,"Ġconverter":5707,"stru":5708,"Ġdivid":5709,"iÃ§a":5710,"Ġmainten":5711,"ĠtÃ©cnica":5712,"Ġmeasure":5713,"Ġforce":5714,"Ġrecebe":5715,"cho":5716,"Ġdub":5717,"Ġparede":5718,"Ġprob":5719,"tom":5720,"Ġrecent":5721,"Ġutilize":5722,"Ġatmos":5723,"Ġconserv":5724,"ĠresistÃªncia":5725,"ii":5726,"Ġverificar":5727,"ju":5728,"Ġdew":5729,"Ġtrust":5730,"avil":5731,"Ġcustos":5732,"comenda":5733,"Ġbudget":5734,"iso":5735,"Ġsimply":5736,"Ġvideos":5737,"Ġearly":5738,"Ġoportunidade":5739,"Ġcommercial":5740,"Ġthousand":5741,"Ġoutside":5742,"Ġolhos":5743,"Ġazul":5744,"Ġporn":5745,"Ġfalar":5746,"ables":5747,"Ġagosto":5748,"Ġitalian":5749,"Ġlov":5750,"Ġalber":5751,"town":5752,"Ġpackage":5753,"Ġpoly":5754,"Ġinside":5755,"ĠjoÃ£o":5756,"Ġmiami":5757,"Ġnenhuma":5758,"Ġfundo":5759,"Ġbic":5760,"leia":5761,"Ġalmost":5762,"Ġaument":5763,"Ġberlin":5764,"Ġticket":5765,"Ġsecure":5766,"Ġpassado":5767,"Ġcursos":5768,"Ġajust":5769,"Ġmembro":5770,"Ġperu":5771,"Ġmaintenance":5772,"Ġcub":5773,"Ġsearches":5774,"Ġilha":5775,"oh":5776,"well":5777,"enham":5778,"Ġcompetit":5779,"Ġcategory":5780,"Ġastr":5781,"ident":5782,"Ġasseg":5783,"Ġaumento":5784,"Ġfornecedor":5785,"Ġvegetarian":5786,"mal":5787,"Ġperspect":5788,"Ġvent":5789,"ached":5790,"wise":5791,"Ġrod":5792,"Ġtenho":5793,"Ġready":5794,"Ġpurposes":5795,"tical":5796,"ancy":5797,"ĠvocÃªs":5798,"Ġleis":5799,"Ġapril":5800,"english":5801,"Ġmesa":5802,"Ġnovember":5803,"Ġkit":5804,"Ġdestru":5805,"Ġmensagens":5806,"Ġdamage":5807,"ogue":5808,"Ġdura":5809,"Ġrua":5810,"Ġupdated":5811,"Ġultra":5812,"Ġalugar":5813,"Ġrefriger":5814,"Ġsentido":5815,"Ġhope":5816,"baix":5817,"ĠdÃº":5818,"Ġlik":5819,"Ġdrop":5820,"Ġthin":5821,"Ġentr":5822,"Ġweeks":5823,"Ġsha":5824,"idÃ¡vel":5825,"Ã¢nia":5826,"Ġalimentos":5827,"Ġchance":5828,"Ġmenor":5829,"Ġpasso":5830,"Ġrecentes":5831,"Ġmaximum":5832,"Ġster":5833,"Ġobra":5834,"Ġinser":5835,"cada":5836,"Ġmax":5837,"Ġassin":5838,"Ġkmh":5839,"Ġgolf":5840,"Ġlap":5841,"Ġparl":5842,"mapa":5843,"ker":5844,"inqu":5845,"Ġating":5846,"Ġsusp":5847,"ani":5848,"Ġtarget":5849,"Ġminube":5850,"Ġquil":5851,"ĠÃºltimos":5852,"Ġmiddle":5853,"Ġtrib":5854,"stra":5855,"ipo":5856,"Ġlinhas":5857,"Ġcounty":5858,"inÃ¡ria":5859,"quest":5860,"Ġguid":5861,"Ġpalace":5862,"Ġmemory":5863,"ste":5864,"then":5865,"Ġkill":5866,"Ġpleas":5867,"Ġpictures":5868,"Ġmultiple":5869,"Ġpratos":5870,"Ġacredit":5871,"Ġorvalho":5872,"Ġpcs":5873,"Ġvant":5874,"etes":5875,"ificados":5876,"Ġcondicionado":5877,"nas":5878,"Ġregr":5879,"onia":5880,"Ġwed":5881,"acy":5882,"Ġdrug":5883,"Ġprin":5884,"Ġappropri":5885,"Ġcant":5886,"Ġlength":5887,"Ġrules":5888,"Ġchic":5889,"Ġparties":5890,"Ġpros":5891,"Ġconsumo":5892,"Ġoh":5893,"pts":5894,"Ġpint":5895,"Ã©ria":5896,"haria":5897,"Ġmovi":5898,"Ġpiece":5899,"Ġaven":5900,"Ġstarting":5901,"Ġwonder":5902,"udio":5903,"Ġhavia":5904,"Ġhalf":5905,"osse":5906,"Ġposso":5907,"while":5908,"Ġfalta":5909,"Ġclasse":5910,"Ġcaminh":5911,"Ġfuncional":5912,"Ġfactory":5913,"Ġcomboio":5914,"Ġtir":5915,"Ġservidor":5916,"Ġeconomia":5917,"Ġusually":5918,"Ġnovamente":5919,"Ġcomercial":5920,"ĠinoxidÃ¡vel":5921,"agora":5922,"Ġmarri":5923,"Ġvalley":5924,"Ġoccur":5925,"Ġsemanas":5926,"elos":5927,"ĠmudanÃ§a":5928,"Ġdubl":5929,"Ġjew":5930,"Ġdivis":5931,"Ġaw":5932,"eix":5933,"Ġselection":5934,"Ġteve":5935,"Ġrig":5936,"Ġmatch":5937,"Ġvila":5938,"Ġconcept":5939,"Ġpartida":5940,"Ġlevar":5941,"Ġpossibil":5942,"Ġholy":5943,"ĠopiniÃµes":5944,"ÃŃa":5945,"take":5946,"Ġfont":5947,"Ġoutdoor":5948,"ĠprÃ³xima":5949,"Ġmatter":5950,"dispon":5951,"Ġsd":5952,"ony":5953,"Ġseen":5954,"Ã³sito":5955,"Ġsometimes":5956,"Ġblowing":5957,"Ġparam":5958,"ĠÃ¡r":5959,"Ġsang":5960,"olo":5961,"Ġitens":5962,"Ġprocessamento":5963,"ĠdifÃŃcil":5964,"Ġfight":5965,"Ġlit":5966,"Ġideia":5967,"dra":5968,"Ġut":5969,"guas":5970,"Ġcentury":5971,"Ġmanuals":5972,"Ġmys":5973,"Ġfazem":5974,"Ġdigit":5975,"ÃŃduos":5976,"Ġads":5977,"Ġstarted":5978,"Ã©dito":5979,"han":5980,"Ġvoc":5981,"Ġlisted":5982,"Ġideas":5983,"Ġstrip":5984,"azer":5985,"Ġfamous":5986,"Ġequipped":5987,"Ġdc":5988,"Ġmorning":5989,"etic":5990,"Ġperda":5991,"Ġmir":5992,"Ġdiante":5993,"Ġinstruct":5994,"Ġresponder":5995,"ĠassociaÃ§Ã£o":5996,"sÃ£o":5997,"used":5998,"Ġskills":5999,"ĠtelevisÃ£o":6000,"Ġreasons":6001,"Ġplayers":6002,"ography":6003,"iner":6004,"Ġgeralmente":6005,"Ġcamb":6006,"Ġsuite":6007,"Ġutilizador":6008,"Ġzona":6009,"know":6010,"Ġpena":6011,"ĠfunÃ§Ãµes":6012,"Ġwelcome":6013,"Ġfish":6014,"Ġcompanhias":6015,"iente":6016,"ĠalguÃ©m":6017,"Ġesport":6018,"Ġdestino":6019,"Ġhardware":6020,"Ġsimplesmente":6021,"Ġlack":6022,"Ġjantar":6023,"ĠquestÃµes":6024,"Ġbenefits":6025,"Ġtun":6026,"Ã¡b":6027,"Ġfeita":6028,"Ġreference":6029,"ĠplÃ¡stico":6030,"Ġflux":6031,"Ġmoment":6032,"Ġbaixa":6033,"Ġresponsabilidade":6034,"Ġdesse":6035,"ÃŃcias":6036,"astre":6037,"Ġdvd":6038,"available":6039,"Ġdele":6040,"Ġsoon":6041,"Ġpacientes":6042,"Ġtan":6043,"aya":6044,"Ġcomport":6045,"Ġarticles":6046,"Ġinsp":6047,"Ġaustralia":6048,"Ġduration":6049,"Ġexplain":6050,"ĠmemÃ³ria":6051,"Ġchalleng":6052,"Ġelementos":6053,"Ġkar":6054,"Ġthemselves":6055,"Ġautocarro":6056,"cies":6057,"yer":6058,"Ġbree":6059,"Ġwent":6060,"Ġwoman":6061,"Ġax":6062,"ĠopiniÃ£o":6063,"ĠfÃ©":6064,"Ġcomponentes":6065,"Ġbibli":6066,"Ġprofund":6067,"Ġdark":6068,"Ġbrisa":6069,"Ġanswers":6070,"Ġsopra":6071,"atar":6072,"Ġcomprim":6073,"iado":6074,"Ġpresident":6075,"post":6076,"rus":6077,"Ġswitch":6078,"Ġrepublic":6079,"Ġfamos":6080,"xic":6081,"Ġouro":6082,"Ġpopulation":6083,"ĠediÃ§Ã£o":6084,"Ġpainel":6085,"ĠmÃ¡quinas":6086,"Ġarquit":6087,"Ġpedro":6088,"Ġlost":6089,"ĠpopulaÃ§Ã£o":6090,"Ġmachin":6091,"Ġgor":6092,"Ġcc":6093,"ĠquÃŃm":6094,"Ġchamp":6095,"Ġremove":6096,"Ġdut":6097,"amar":6098,"encion":6099,"Ġcomponents":6100,"zhou":6101,"Ġrepair":6102,"hai":6103,"Ġleading":6104,"Ġpick":6105,"Ġestudantes":6106,"Ġslee":6107,"wide":6108,"Ġrei":6109,"Ġleaders":6110,"gues":6111,"Ġvalues":6112,"Ġtarifas":6113,"ending":6114,"Ġreduzir":6115,"Ġindex":6116,"Ġaprov":6117,"Ġcourt":6118,"Ġengineering":6119,"Ġelements":6120,"Ġapplied":6121,"mine":6122,"Ġheat":6123,"Ġeuropeu":6124,"ship":6125,"Ġuseful":6126,"Ġnavegador":6127,"pted":6128,"Ġbastante":6129,"Ġlg":6130,"Ġattract":6131,"isation":6132,"Ġsuje":6133,"mark":6134,"ĠanÃºncios":6135,"Ġstainless":6136,"ĠconfortÃ¡vel":6137,"pack":6138,"Ġwebsites":6139,"Ġconfigur":6140,"Ġissue":6141,"Ġtrem":6142,"edia":6143,"Ġhelps":6144,"ĠrelaÃ§Ãµes":6145,"Ġportanto":6146,"Ġutilizado":6147,"Ġtorna":6148,"Ġmethods":6149,"Ġbout":6150,"Ġpossu":6151,"tudo":6152,"Ġeth":6153,"Ġrequer":6154,"Ġgives":6155,"Ġforum":6156,"don":6157,"alugu":6158,"Ġrare":6159,"Ġdoing":6160,"Ġhands":6161,"Ġsexual":6162,"ss":6163,"Ġlad":6164,"Ġrepar":6165,"ĠÃ©p":6166,"Ġspot":6167,"Ġimposs":6168,"Ġefica":6169,"Ġdecision":6170,"Ġpun":6171,"Ġlag":6172,"Ġcorrespond":6173,"Ã£s":6174,"ÃŃcia":6175,"ĠprÃ¡ticas":6176,"Ġboas":6177,"Ġoffered":6178,"ĠcrÃ©dito":6179,"Ġgerais":6180,"ored":6181,"raft":6182,"Ġnasc":6183,"Ġcod":6184,"Ġbirth":6185,"Ġplaza":6186,"compl":6187,"Ġocorr":6188,"Ġeveryone":6189,"ĠalteraÃ§Ãµes":6190,"het":6191,"Ġcolle":6192,"Ġnotice":6193,"Ġlives":6194,"bers":6195,"Ġbreeze":6196,"zy":6197,"ĠsuÃŃ":6198,"Ġinspir":6199,"Ġbattery":6200,"iterr":6201,"Ġembora":6202,"neste":6203,"arem":6204,"Ġthus":6205,"Ġaudi":6206,"Ġviajantes":6207,"Ġeyes":6208,"Ġfazendo":6209,"Ġjogadores":6210,"pooling":6211,"Ġremote":6212,"ĠcombinaÃ§Ã£o":6213,"Ġincreasing":6214,"Ġinnovation":6215,"ĠespÃ©":6216,"Ġimpacto":6217,"Ġze":6218,"Ġactions":6219,"inu":6220,"Ġproviding":6221,"Ġbeha":6222,"uraÃ§Ãµes":6223,"Ġpublished":6224,"Ġnegoc":6225,"Ġestabelec":6226,"Ã¡ticos":6227,"ĠdistribuiÃ§Ã£o":6228,"views":6229,"Ġata":6230,"todas":6231,"Ġsomos":6232,"Ġconfi":6233,"Ġfoto":6234,"rary":6235,"ination":6236,"Ġpad":6237,"Ġalum":6238,"Ġattention":6239,"ĠassistÃªncia":6240,"foi":6241,"Ġcolors":6242,"Ġpassagens":6243,"Ġidea":6244,"compare":6245,"ĠsuperfÃŃcie":6246,"Ġalib":6247,"Ġexhib":6248,"Ġnatura":6249,"Ġlojas":6250,"Ġcalend":6251,"ĠeconÃ³m":6252,"Ġfabricantes":6253,"Ġnuvens":6254,"ĠrelatÃ³rio":6255,"Ġeram":6256,"Ġvacation":6257,"ĠmÃ£os":6258,"Ġhill":6259,"Ġinver":6260,"elhos":6261,"Ġpreserv":6262,"Ġmostra":6263,"jud":6264,"Ġconclus":6265,"Ġign":6266,"Ġassum":6267,"Ġiniti":6268,"Ġfares":6269,"Ġsurround":6270,"Ġattractions":6271,"tripadvisor":6272,"iles":6273,"Ġfunctions":6274,"Ġartes":6275,"Ġassociation":6276,"Ġdrag":6277,"ĠvÃ¡l":6278,"Ġexact":6279,"Ġjose":6280,"Ġclients":6281,"Ġresorts":6282,"Ġwritten":6283,"set":6284,"Ġquente":6285,"Ġperfeito":6286,"Ġconforme":6287,"Ġcold":6288,"Ġhistorical":6289,"hab":6290,"enn":6291,"ilton":6292,"Ġgel":6293,"Ġserem":6294,"Ġwireless":6295,"Ġcorte":6296,"ĠfrancÃªs":6297,"Ġappropriate":6298,"Ġalibaba":6299,"Ġleit":6300,"Ġbairro":6301,"Ġcarpooling":6302,"Ġpresence":6303,"Ġforeign":6304,"ead":6305,"furt":6306,"Ġborn":6307,"clique":6308,"Ġnothing":6309,"eteo":6310,"tempo":6311,"omos":6312,"Ġtruth":6313,"Ġgoal":6314,"Ġabsor":6315,"ĠjosÃ©":6316,"Ġiv":6317,"Ġcp":6318,"dur":6319,"iling":6320,"akes":6321,"Ġamarillas":6322,"det":6323,"oura":6324,"plos":6325,"ĠimportÃ¢ncia":6326,"Ġnetwor":6327,"Ġath":6328,"Ġsleep":6329,"Ġshirt":6330,"Ã©rcio":6331,"ĠciÃªncia":6332,"xx":6333,"ĠsÃ©c":6334,"rece":6335,"irect":6336,"Ġconnected":6337,"oms":6338,"Ġairbnb":6339,"Ã¢mica":6340,"Ġilumin":6341,"Ġwashington":6342,"erd":6343,"Ġpsy":6344,"Ġheld":6345,"Ġscen":6346,"Ġexpert":6347,"Ġom":6348,"Ġdeep":6349,"teza":6350,"ĠÃ¡l":6351,"ĠhistÃ³rico":6352,"Ġsuficiente":6353,"Ġmuseu":6354,"Ġcreation":6355,"ĠpÃ³s":6356,"Ġlago":6357,"emeteo":6358,"Ġcharge":6359,"veu":6360,"Ġtranqu":6361,"lug":6362,"Ġrealidade":6363,"ĠoperaÃ§Ãµes":6364,"Ġbedroom":6365,"Ġargentina":6366,"Ġprincipalmente":6367,"Ġoffering":6368,"ĠcientÃŃf":6369,"Ġbear":6370,"Ġcompras":6371,"anos":6372,"Ġdivul":6373,"Ġtecnologias":6374,"Ġclaim":6375,"Ġassemb":6376,"ĠdecisÃ£o":6377,"ĠlÃŃngua":6378,"Ġvou":6379,"Ġforest":6380,"Ġbackup":6381,"Ġerros":6382,"itting":6383,"Ġalex":6384,"ardo":6385,"Ġfech":6386,"itado":6387,"Ġkids":6388,"apa":6389,"apÃ³s":6390,"Ġhighly":6391,"ĠeficiÃªncia":6392,"click":6393,"ĠencontrarÃ¡":6394,"Ġgirl":6395,"Ġrequisitos":6396,"Ġspring":6397,"mont":6398,"Ġexter":6399,"Ġevang":6400,"Ġvendas":6401,"Ġreduce":6402,"Ġaux":6403,"orf":6404,"Ġjac":6405,"olÃ³gico":6406,"Ġdisease":6407,"Ġcompress":6408,"Ġcurta":6409,"iction":6410,"Ġdates":6411,"Ġcomments":6412,"Ġstri":6413,"Ġscan":6414,"Ġfins":6415,"ĠpÃºblica":6416,"Ġestablished":6417,"cles":6418,"Ġgirls":6419,"Ġhun":6420,"aqu":6421,"iel":6422,"Ġesquer":6423,"obre":6424,"ĠfÃ¡brica":6425,"riz":6426,"ĠdoenÃ§a":6427,"Ġperd":6428,"Ġsupplier":6429,"Ġengenharia":6430,"Ġamsterdam":6431,"Ġoperations":6432,"uz":6433,"Ġsaw":6434,"Ġrunning":6435,"Ġplanej":6436,"Ġvamos":6437,"Ġmarcas":6438,"Ġlines":6439,"Ġchristian":6440,"ĠinovaÃ§Ã£o":6441,"note":6442,"ono":6443,"ĠfaÃ§a":6444,"iet":6445,"ĠprÃ³prios":6446,"Ġreform":6447,"grad":6448,"ubra":6449,"ĠsÃ©culo":6450,"bul":6451,"ko":6452,"Ġarts":6453,"Ġcalor":6454,"ĠconfiguraÃ§Ã£o":6455,"Ġsele":6456,"spec":6457,"Ġpreocup":6458,"cor":6459,"ctional":6460,"onto":6461,"Ġunidades":6462,"cks":6463,"hold":6464,"iramente":6465,"Ã³st":6466,"Ġclin":6467,"Ã¢neo":6468,"ĠorganizaÃ§Ãµes":6469,"jÃ¡":6470,"Ġcarry":6471,"Ġvegas":6472,"Ġexpans":6473,"Ġalterar":6474,"Ġdific":6475,"Ġjogador":6476,"Ġdetalh":6477,"idÃ£o":6478,"Ġclouds":6479,"pod":6480,"Ġideias":6481,"Ġefficiency":6482,"ĠgeraÃ§Ã£o":6483,"Ã´nia":6484,"ĠcomÃ©rcio":6485,"umb":6486,"eios":6487,"Ġrelacionadas":6488,"Ġdiversas":6489,"Ġstrategy":6490,"Ġconclu":6491,"Ġtail":6492,"Ġavailability":6493,"Ġhold":6494,"ĠfamÃŃlias":6495,"list":6496,"Ġgene":6497,"Ġmanufacturers":6498,"Ġire":6499,"ĠpÃ´":6500,"Ġesteja":6501,"ĠconexÃ£o":6502,"Ġparece":6503,"ĠÃºltimo":6504,"Ġviver":6505,"Ġstars":6506,"Ġcelular":6507,"Ġhire":6508,"places":6509,"Ġdicas":6510,"Ġsor":6511,"Ġrd":6512,"entÃ¡rio":6513,"Ġchamado":6514,"serv":6515,"paign":6516,"aturas":6517,"Ġdeparture":6518,"lugares":6519,"Ġmaravil":6520,"Ġperder":6521,"Ġsprings":6522,"Ġquinta":6523,"Ġmediterr":6524,"Ġmudar":6525,"ĠconfiguraÃ§Ãµes":6526,"vey":6527,"venÃ§Ã£o":6528,"Ġcomparison":6529,"ĠmudanÃ§as":6530,"Ġcuidados":6531,"Ġrelease":6532,"Ġcontext":6533,"Ġvindo":6534,"Ġuns":6535,"Ġwear":6536,"ĠdomÃŃnio":6537,"ilhas":6538,"Ġkb":6539,"Ġcarr":6540,"berry":6541,"Ġpassword":6542,"Ġmovement":6543,"Ġneighbor":6544,"Ã§ar":6545,"Ġsony":6546,"Ġclicking":6547,"Ġrein":6548,"Ġstandards":6549,"eces":6550,"Ġcarga":6551,"Ġdestes":6552,"Ġwarm":6553,"entic":6554,"Ġthought":6555,"Ġhamb":6556,"Ġedge":6557,"informaÃ§Ãµes":6558,"Ġextr":6559,"Ġmeasures":6560,"fs":6561,"ĠdÃ©c":6562,"Ġquadr":6563,"Ġpratic":6564,"Ġproperly":6565,"Ġaberto":6566,"Ġfirm":6567,"ĠalcanÃ§ar":6568,"Ġsnow":6569,"Ġadol":6570,"Ġdistribution":6571,"Ġcreative":6572,"Ġnatal":6573,"itam":6574,"Ġopening":6575,"Ġresp":6576,"igation":6577,"Ġpositive":6578,"Ġcompanhia":6579,"Ġmur":6580,"Ġwindow":6581,"Ġprofessionals":6582,"Ġnaturais":6583,"Ġmexico":6584,"Ġfreed":6585,"Ġwarrant":6586,"Ġcompartilh":6587,"Ġthreat":6588,"Ġcontas":6589,"Ġdispos":6590,"Ġcerto":6591,"Ġconference":6592,"ĠprecipitaÃ§Ã£o":6593,"during":6594,"Ġsud":6595,"Ġstage":6596,"chester":6597,"Ġpreciso":6598,"dura":6599,"Ġdetect":6600,"Ġamazon":6601,"Ġarquitet":6602,"Ġexcept":6603,"ĠmÃ©todos":6604,"contact":6605,"Ġtranslation":6606,"Ġquite":6607,"Ġsense":6608,"ĠadministraÃ§Ã£o":6609,"Ġdiversos":6610,"ĠnecessÃ¡rios":6611,"Ġclassic":6612,"Ġsentir":6613,"work":6614,"uso":6615,"Ġexperiences":6616,"ĠacomodaÃ§Ãµes":6617,"ariamente":6618,"Ġcolum":6619,"Ġrecente":6620,"Ġcomerciais":6621,"Ġye":6622,"Ġsuitable":6623,"Ġfram":6624,"Ġtalk":6625,"Ġboutique":6626,"Ġliqu":6627,"Ġbecame":6628,"Ġacompanh":6629,"Ġavent":6630,"Ġfreemeteo":6631,"Ġbeginning":6632,"Ġfestival":6633,"Ġbols":6634,"Ġemiss":6635,"uts":6636,"Ġlimpe":6637,"Ġbeauty":6638,"Ġpossam":6639,"Ġdublin":6640,"Ġbasis":6641,"ĠromÃ¢nt":6642,"Ġaluguer":6643,"Ġdubai":6644,"Ġisl":6645,"Ġworkers":6646,"Ġhimself":6647,"Ġinterested":6648,"Ġchain":6649,"Ġmente":6650,"Ġvision":6651,"Ġvermelho":6652,"Ġproduced":6653,"Ġregras":6654,"anca":6655,"ension":6656,"Ġafric":6657,"Ġthanks":6658,"Ġworldwide":6659,"ĠdireÃ§Ã£o":6660,"Ġlargest":6661,"Ġlibrary":6662,"Ġsect":6663,"Ġestablish":6664,"Ġbateria":6665,"head":6666,"real":6667,"Ġfrut":6668,"Ġbrinqu":6669,"Ġinfra":6670,"alha":6671,"olis":6672,"ificada":6673,"Ġampla":6674,"Ġlcd":6675,"quar":6676,"Ġclima":6677,"tec":6678,"Ġexercise":6679,"Ġinteract":6680,"Ġsingap":6681,"Ġscientific":6682,"ĠÃºteis":6683,"Ġdisponibilidade":6684,"utebol":6685,"product":6686,"Ġot":6687,"Ġpred":6688,"rs":6689,"ĠgÃ¡s":6690,"Ġtwitter":6691,"Ġcollabor":6692,"Ġcampaign":6693,"Ġbalance":6694,"Ġbarato":6695,"ĠparticipaÃ§Ã£o":6696,"Ġphar":6697,"own":6698,"Ġwhose":6699,"Ġliberdade":6700,"cript":6701,"Ġaer":6702,"Ġatribu":6703,"Ġpert":6704,"comentÃ¡rios":6705,"ĠexperiÃªncias":6706,"Ġproteger":6707,"Ġyes":6708,"iste":6709,"Ġlingu":6710,"apar":6711,"Ġteu":6712,"curso":6713,"Ġgoods":6714,"ĠbenefÃŃcios":6715,"ĠÃŃ":6716,"ĠcrÃŃt":6717,"ĠestratÃ©gia":6718,"ĠmÃ©xico":6719,"Ġregistro":6720,"Ġdirector":6721,"Ġsensor":6722,"Ġdesfrutar":6723,"Ġtempos":6724,"Ġconvid":6725,"Ġbehavi":6726,"ris":6727,"quick":6728,"Ġvisto":6729,"Ġpossibilidade":6730,"ĠmÃ³veis":6731,"Ġbarb":6732,"Ġafet":6733,"Ġvs":6734,"amo":6735,"Ġdisco":6736,"vest":6737,"ĠsaÃŃda":6738,"Ġimprov":6739,"Ġaward":6740,"acts":6741,"ĠchÃ¡":6742,"Ġganhar":6743,"ĠexposiÃ§Ã£o":6744,"Ġimpr":6745,"idez":6746,"ĠcÃ¢mera":6747,"works":6748,"ĠrazÃ£o":6749,"ĠmissÃ£o":6750,"ĠnecessÃ¡ria":6751,"Ġpronunciation":6752,"cert":6753,"Ġaires":6754,"bes":6755,"ius":6756,"Ġfis":6757,"Ġiron":6758,"Ġdomain":6759,"Ġjournal":6760,"ĠseleÃ§Ã£o":6761,"Ġvinho":6762,"ancing":6763,"Ġphen":6764,"rif":6765,"Ġfec":6766,"Ġdavid":6767,"Ġcoach":6768,"Ġprogramme":6769,"Ġremember":6770,"Ġmental":6771,"Ġemployees":6772,"Ġbegan":6773,"Ġconsol":6774,"Ġcerteza":6775,"Ġdoesn":6776,"Ġlinked":6777,"Ġocean":6778,"jos":6779,"Ġfio":6780,"Ġincr":6781,"lett":6782,"Ġmanuais":6783,"Ġcampos":6784,"Ġpattern":6785,"Ġcarried":6786,"Ġtentar":6787,"outros":6788,"Ġpequenos":6789,"Ġcontrato":6790,"Ġconforto":6791,"Ġembalagem":6792,"Ġotim":6793,"Ġtraff":6794,"ĠpromoÃ§Ã£o":6795,"Ġcomida":6796,"Ġamea":6797,"Ġfiel":6798,"ĠÃºltimas":6799,"ĠinvestigaÃ§Ã£o":6800,"Ġreflect":6801,"roll":6802,"Ġshipping":6803,"Ġimediatamente":6804,"Ġcards":6805,"Ġprivado":6806,"travel":6807,"Ġbackground":6808,"Ġpolicies":6809,"Ã©st":6810,"mail":6811,"Ġmotiv":6812,"Ġharmon":6813,"ĠalimentaÃ§Ã£o":6814,"Ġpvc":6815,"ogos":6816,"Ġrefei":6817,"Ġsantiago":6818,"ĠresoluÃ§Ã£o":6819,"Ġchemical":6820,"ĠprevisÃ£o":6821,"Ġestrela":6822,"Ġcolocar":6823,"Ġintellig":6824,"Ġcen":6825,"description":6826,"Ġshower":6827,"near":6828,"Ġestavam":6829,"Ġsym":6830,"Ġgeneration":6831,"Ġunderstanding":6832,"Ġrailway":6833,"Ġau":6834,"Ġescala":6835,"Ġelectr":6836,"Ġtornou":6837,"tenha":6838,"Ġhaver":6839,"Ġfoundation":6840,"Ġgab":6841,"Ġlatin":6842,"Ġcompartilhar":6843,"Ġinvolved":6844,"Ġdesses":6845,"Ġmessages":6846,"Ã¡til":6847,"Ġcong":6848,"anal":6849,"umes":6850,"interest":6851,"Ġdanos":6852,"nos":6853,"Ġocup":6854,"Ġsilver":6855,"Ġcontrib":6856,"Ġlogin":6857,"Ġkil":6858,"Ġtea":6859,"Ġcombust":6860,"Ġsegundos":6861,"Ġeuros":6862,"ĠÃŃndice":6863,"eiras":6864,"though":6865,"according":6866,"Ġimmediately":6867,"Ġvoz":6868,"Ġsuffer":6869,"une":6870,"Ġspl":6871,"Ġrecovery":6872,"Ġresidence":6873,"Ġelectronics":6874,"Ġfitness":6875,"Ġones":6876,"Ãºr":6877,"Ġagree":6878,"Ġinvestment":6879,"ÃŃsticos":6880,"Ġamigo":6881,"ĠmÃ©dico":6882,"Ġgradu":6883,"Ġaviso":6884,"omb":6885,"Ġshown":6886,"Ġextre":6887,"unes":6888,"pas":6889,"Ġlider":6890,"Ġreve":6891,"Ġmetro":6892,"Ġpowerful":6893,"Ġeditor":6894,"Ġmention":6895,"Ġfrankfurt":6896,"Ġlimpeza":6897,"clud":6898,"Ġprotocol":6899,"ĠÃ¡rv":6900,"hor":6901,"Ġlan":6902,"Ġvag":6903,"Ġdiet":6904,"Ġsalvador":6905,"Ġinteiro":6906,"Ãºblica":6907,"Ġcf":6908,"Ġpassage":6909,"faÃ§a":6910,"Ġtestes":6911,"ĠalumÃŃnio":6912,"Ġcomment":6913,"Ġbehind":6914,"reek":6915,"Ġanything":6916,"Ġcreating":6917,"Ġcidad":6918,"Ġtecido":6919,"Ġapropri":6920,"Ġunits":6921,"Ġphilips":6922,"ault":6923,"place":6924,"izing":6925,"Ġmilan":6926,"Ġmassa":6927,"Ġguarantee":6928,"ĠpossÃŃveis":6929,"Ġcancelon":6930,"Ġfutebol":6931,"Ġfunciona":6932,"edor":6933,"Ã©cia":6934,"agen":6935,"Ġcircu":6936,"Ġexternal":6937,"quir":6938,"Ġgratuitamente":6939,"Ġaprove":6940,"gal":6941,"pap":6942,"Ġbele":6943,"Ġindia":6944,"Ġsomeone":6945,"Ġrelevant":6946,"Ġmachinery":6947,"Ġsar":6948,"Ġequival":6949,"Ġproteg":6950,"Ġlodge":6951,"fun":6952,"Ġdead":6953,"ĠclÃŃn":6954,"Ġshared":6955,"wal":6956,"Ġtowards":6957,"Ġdestac":6958,"Ġapresentar":6959,"Ġpassos":6960,"Ġambiental":6961,"ciples":6962,"Ġsetting":6963,"Ã¢nica":6964,"ĠdiferenÃ§a":6965,"Ġclasses":6966,"Ġconsumption":6967,"hem":6968,"Ġcoming":6969,"ston":6970,"Ġmanifest":6971,"Ġmonum":6972,"Ġhumano":6973,"Ġdemais":6974,"Ġbah":6975,"Ġelabor":6976,"Ġvisitors":6977,"Ġinstalar":6978,"Ġgent":6979,"Ġreading":6980,"Ġpractices":6981,"Ġpergunta":6982,"Ġconditioning":6983,"pare":6984,"Ġtraz":6985,"Ġmedi":6986,"Ġimpression":6987,"rate":6988,"Ġdefinit":6989,"Ġincreased":6990,"Ġdream":6991,"ĠmÃ³d":6992,"Ġbuenos":6993,"sl":6994,"Ã¡cia":6995,"Ġarchitecture":6996,"vidas":6997,"Ġvin":6998,"produt":6999,"Ġplaya":7000,"pi":7001,"util":7002,"Ġportal":7003,"Ġswim":7004,"ĠpadrÃµes":7005,"Ġsample":7006,"Ġciclo":7007,"cup":7008,"anhas":7009,"Ġbarra":7010,"Ġcrimin":7011,"ĠculinÃ¡ria":7012,"bed":7013,"Ġrodo":7014,"ĠpeÃ§a":7015,"durante":7016,"Ġsequ":7017,"Ġconhecido":7018,"Ġicon":7019,"izadas":7020,"Ġnumer":7021,"Ġdificul":7022,"aw":7023,"Ġcn":7024,"Ġerr":7025,"iture":7026,"eg":7027,"Ġtree":7028,"uls":7029,"Ġvoice":7030,"Ġseconds":7031,"every":7032,"Ġpiz":7033,"usion":7034,"Ġcars":7035,"nia":7036,"Ġwinter":7037,"Ġprovince":7038,"Ġjunt":7039,"localiz":7040,"Ġreports":7041,"Ġbm":7042,"Ã£es":7043,"Ġtradicional":7044,"Ġhew":7045,"enna":7046,"tease":7047,"Ġdirig":7048,"Ġresistance":7049,"ĠmÃ³vel":7050,"Ġturismo":7051,"dney":7052,"Ġcorru":7053,"ously":7054,"Ġfilmes":7055,"Ġresponse":7056,"Ġgetting":7057,"Ġtua":7058,"Ġcanal":7059,"Ġevid":7060,"Ġsituado":7061,"ĠpromoÃ§Ãµes":7062,"onal":7063,"Ġworth":7064,"Ġasked":7065,"Ġambos":7066,"ĠciÃªncias":7067,"Ġcitiz":7068,"Ġreality":7069,"Ġski":7070,"Ġspiritual":7071,"estrut":7072,"Ġlonga":7073,"Ġpalm":7074,"Ġparticipar":7075,"hz":7076,"Ġpackard":7077,"ĠtransferÃªncia":7078,"cap":7079,"Ġimportance":7080,"Ġapproxim":7081,"Ġgala":7082,"ĠrepÃºblica":7083,"Ġloun":7084,"Ġfunctional":7085,"Ġpoor":7086,"Ã´met":7087,"dades":7088,"Ġsurg":7089,"Ġwat":7090,"Ġhabilidades":7091,"Ġalumin":7092,"Ġanimals":7093,"Ġbey":7094,"stand":7095,"Ġmoda":7096,"van":7097,"Ġfase":7098,"time":7099,"Ġjanela":7100,"ĠgraÃ§as":7101,"Ġfactors":7102,"ÃŃdas":7103,"ĠseÃ§Ã£o":7104,"Ġdesl":7105,"ief":7106,"uk":7107,"Ġlisting":7108,"Ġsantos":7109,"Ġcategories":7110,"Ġcorretamente":7111,"ĠtÃ³p":7112,"Ġobl":7113,"Ġanunci":7114,"Ġmeters":7115,"Ġutilizando":7116,"Ġhouses":7117,"Ġrib":7118,"Ġbri":7119,"ĠvisualizaÃ§Ã£o":7120,"Ġdeposit":7121,"Ġspecifications":7122,"Ġpud":7123,"Ġnacionais":7124,"otel":7125,"Ġpoucos":7126,"Ġannoun":7127,"Ġenfr":7128,"Ġstudent":7129,"Ġcirc":7130,"Ġaproximadamente":7131,"aling":7132,"aged":7133,"Ġshang":7134,"rought":7135,"Ġplanning":7136,"Ġhighest":7137,"Ġtower":7138,"Ġintegrated":7139,"ĠrazÃµes":7140,"Ġfeedback":7141,"Ã´nibus":7142,"Ġprofessor":7143,"Ġfalls":7144,"ĠescritÃ³rio":7145,"nam":7146,"Ġry":7147,"ĠporÃ©m":7148,"Ġexisting":7149,"ĠrecomendaÃ§Ãµes":7150,"Ġgift":7151,"Ġseat":7152,"Ġinternal":7153,"irÃ¡":7154,"Ġguarda":7155,"Ġcontexto":7156,"Ġprecipitation":7157,"ĠaÃ§":7158,"Ġdesper":7159,"untos":7160,"unday":7161,"Ġdetailed":7162,"ĠproprietÃ¡rio":7163,"Ġwild":7164,"Ġfortal":7165,"Ġrevolution":7166,"anhos":7167,"Ġvisa":7168,"Ġrural":7169,"ÃŃdia":7170,"ĠcÃ©l":7171,"Ġsr":7172,"Ġeye":7173,"Ġaccord":7174,"Ġenterprise":7175,"Ġseis":7176,"Ġtrail":7177,"omo":7178,"enses":7179,"Ġpicture":7180,"Ġchinese":7181,"Ġgerenciamento":7182,"Ġadultos":7183,"wan":7184,"Ġnesse":7185,"estic":7186,"deu":7187,"Ġmarkets":7188,"Ġterminal":7189,"Ġnec":7190,"mic":7191,"temos":7192,"ĠjustiÃ§a":7193,"Ġatualmente":7194,"viÃ¡ria":7195,"Ã¢nea":7196,"Ġtransmit":7197,"Ġak":7198,"Ġcanais":7199,"Ġinstructions":7200,"lando":7201,"ĠcomeÃ§ou":7202,"Ġforms":7203,"Ġdivert":7204,"Ġcompared":7205,"burgo":7206,"ÃŃc":7207,"Ġdifference":7208,"Ġpieces":7209,"ĠinstituiÃ§Ãµes":7210,"Ġchannel":7211,"ectual":7212,"Ġparticipantes":7213,"Ġtoronto":7214,"Ġvehicle":7215,"Ġabra":7216,"Ġobst":7217,"Ġplaying":7218,"Ġachieve":7219,"ĠÃ©poca":7220,"Ġnic":7221,"Ġapre":7222,"Ġunto":7223,"Ġidentify":7224,"Ġscale":7225,"Ġmesmos":7226,"Ġportugues":7227,"ey":7228,"zu":7229,"Ġlaws":7230,"Ġtrading":7231,"Ġdepartment":7232,"Ġsche":7233,"Ġillust":7234,"ĠcanadÃ¡":7235,"Ġupper":7236,"Ġdestination":7237,"Ġhewlett":7238,"Ġzip":7239,"Ġocorre":7240,"Ġjerus":7241,"Ġmilitary":7242,"Ġvulner":7243,"Ġchicago":7244,"iving":7245,"Ġsolo":7246,"Ġactually":7247,"Ġcima":7248,"ĠclÃ¡ss":7249,"Ġprimeiros":7250,"Ġlid":7251,"adeira":7252,"oga":7253,"ounds":7254,"Ġteaching":7255,"Ġquadro":7256,"bt":7257,"ops":7258,"kok":7259,"Ġpsych":7260,"long":7261,"quem":7262,"Ġutilizados":7263,"ĠreduÃ§Ã£o":7264,"ĠtÃ©cnicos":7265,"Ġparad":7266,"Ġextract":7267,"Ã©tico":7268,"Ġlaunch":7269,"ĠexecuÃ§Ã£o":7270,"Ġrecommendations":7271,"Ġmaravilhos":7272,"Ġbeleza":7273,"Ġtrabalhos":7274,"Ġinfant":7275,"Ġconstit":7276,"Ġmachines":7277,"Ġfresh":7278,"Ġsangue":7279,"Ġadolesc":7280,"rÃ³":7281,"Ġbil":7282,"ache":7283,"ĠnotÃŃcias":7284,"ien":7285,"Ġdil":7286,"Ãºl":7287,"share":7288,"Ġnutrit":7289,"Ġentender":7290,"Ġinstitutions":7291,"Ġseven":7292,"Ġfluxo":7293,"pto":7294,"rich":7295,"iclet":7296,"Ġxp":7297,"Ġnearby":7298,"Ġcycle":7299,"fit":7300,"log":7301,"Ġchile":7302,"Ġcontents":7303,"Ġanton":7304,"ĠpÃºblicos":7305,"ĠagradÃ¡vel":7306,"Ġeficaz":7307,"Ġsag":7308,"oster":7309,"Ġeditar":7310,"Ġchamada":7311,"Ġadvantage":7312,"Ġequil":7313,"ĠacomodaÃ§Ã£o":7314,"Ġinclusive":7315,"Ġbio":7316,"water":7317,"Ġrather":7318,"ister":7319,"Ġcontacto":7320,"Ġtema":7321,"Ġelse":7322,"ĠclassificaÃ§Ã£o":7323,"Ġfatores":7324,"Ġpp":7325,"Ġmis":7326,"Ġlif":7327,"usÃ£o":7328,"ĠcontÃŃn":7329,"Ġinstitute":7330,"Ġindividuals":7331,"oy":7332,"tail":7333,"Ġentrev":7334,"caso":7335,"Ġresponsibility":7336,"ĠcontrÃ¡rio":7337,"ĠsÃŃ":7338,"Ġsuits":7339,"Ġlinux":7340,"Ġmale":7341,"Ġpackaging":7342,"Ġpanor":7343,"Ġcomerci":7344,"Ġfamilies":7345,"Ġjornal":7346,"ceu":7347,"ards":7348,"aka":7349,"Ġsydney":7350,"Ġwalking":7351,"Ãºncia":7352,"band":7353,"sub":7354,"adicion":7355,"bert":7356,"Ġrequires":7357,"Ġdesktop":7358,"rific":7359,"ĠorÃ§":7360,"contr":7361,"Ġconformidade":7362,"categ":7363,"fotos":7364,"Ġengl":7365,"Ġproduce":7366,"Ġrecently":7367,"also":7368,"Ġpure":7369,"Ġforward":7370,"through":7371,"Ġfruit":7372,"rat":7373,"raÃ§Ãµes":7374,"Ġhappens":7375,"Ġconosco":7376,"ĠdoenÃ§as":7377,"Ġconcre":7378,"Ġpresentes":7379,"Ġgallery":7380,"Ġcaliforn":7381,"Ġpous":7382,"Ġaquele":7383,"Ġtalvez":7384,"ĠrÃ¡dio":7385,"Ġbod":7386,"Ġdiscipl":7387,"Ġestabelecimento":7388,"Ġoportunidades":7389,"Ġreplac":7390,"Ġgi":7391,"Ġimped":7392,"Ġantec":7393,"Ġpermitem":7394,"Ġnames":7395,"Ġdelici":7396,"Ġemploy":7397,"Ġbac":7398,"omin":7399,"Ġapost":7400,"Ġbroch":7401,"Ġaustr":7402,"Ġopportunities":7403,"Ġmestrado":7404,"ograf":7405,"Ġeconomy":7406,"Ġresolution":7407,"Ġminimum":7408,"iados":7409,"Ġnord":7410,"Ġbattle":7411,"Ġlanguages":7412,"Ġgave":7413,"comments":7414,"ĠespecificaÃ§Ãµes":7415,"Ġstress":7416,"Ġsain":7417,"Ġasia":7418,"Ġmencion":7419,"Ġstone":7420,"orme":7421,"Ġdeu":7422,"bem":7423,"Ġsed":7424,"ĠparÃ¢met":7425,"Ġyellow":7426,"Ġspread":7427,"ĠgraÃ§a":7428,"Ġiii":7429,"iques":7430,"embora":7431,"ĠjapÃ£o":7432,"ĠedifÃŃcio":7433,"ql":7434,"rando":7435,"Ġrefor":7436,"Ġwrite":7437,"ĠmÃ¡xima":7438,"Ġpaint":7439,"Ġdirection":7440,"Ġantig":7441,"Ġmecan":7442,"Ġluta":7443,"Ġcriado":7444,"hares":7445,"Ġmt":7446,"ingham":7447,"information":7448,"Ġterceiro":7449,"ĠformulÃ¡rio":7450,"rent":7451,"Ġprinting":7452,"each":7453,"ritos":7454,"Ġislands":7455,"Ġfreedom":7456,"Ġpasseng":7457,"many":7458,"ĠcomeÃ§a":7459,"Ġlibert":7460,"Ġserious":7461,"Ġinstalado":7462,"Ġsatell":7463,"bat":7464,"pn":7465,"iciais":7466,"ĠvÃª":7467,"Ġras":7468,"conf":7469,"Ġencontrados":7470,"Ġrevest":7471,"Ġfontes":7472,"phot":7473,"enge":7474,"Ġring":7475,"Ġdining":7476,"Ġaffect":7477,"eas":7478,"Ġky":7479,"Ġusada":7480,"Ġrepet":7481,"ĠdecoraÃ§Ã£o":7482,"Ġdedicated":7483,"oral":7484,"Ġfing":7485,"grade":7486,"Ġlima":7487,"Ġdens":7488,"urance":7489,"Ġefficient":7490,"Ġgate":7491,"bles":7492,"world":7493,"Ġchron":7494,"ĠÃ¡udio":7495,"ĠprecisÃ£o":7496,"Ġcoc":7497,"Ġbridge":7498,"Ġlarg":7499,"Ġadicional":7500,"Ġcollege":7501,"oro":7502,"ĠlÃ¢m":7503,"Ãºssia":7504,"Ġframew":7505,"rist":7506,"emun":7507,"Ġdomingo":7508,"Ġsalvar":7509,"ĠÃ³r":7510,"Ġencontre":7511,"Ġlonge":7512,"Ġtips":7513,"rated":7514,"Ġconvenient":7515,"Ġraros":7516,"since":7517,"pla":7518,"Ġobjetivos":7519,"Ġbibliotec":7520,"jac":7521,"esis":7522,"ario":7523,"alidade":7524,"Ġran":7525,"ined":7526,"Ġgiving":7527,"Ġgolden":7528,"Ġdrops":7529,"Ġnumbers":7530,"Ã©rios":7531,"Ġcircul":7532,"heim":7533,"Ġvil":7534,"endereÃ§o":7535,"Ġfavoritos":7536,"graÃ§Ã£o":7537,"Ġtold":7538,"Ġterror":7539,"Ġzero":7540,"ĠmilÃ£o":7541,"Ġapplicable":7542,"Ġmonitoring":7543,"ĠveÃŃculos":7544,"Ġmeios":7545,"pat":7546,"edos":7547,"Ġlocations":7548,"Ġespirit":7549,"Ġxbox":7550,"Ġdistribut":7551,"Ġsupports":7552,"Ġselecione":7553,"ĠpÃ³":7554,"Ġbak":7555,"Ġplayed":7556,"Ġorganizations":7557,"Ġcuidado":7558,"Ġice":7559,"escol":7560,"Ġpic":7561,"Ġwaste":7562,"Ġcategorias":7563,"Ġnormalmente":7564,"Ġhumana":7565,"tw":7566,"Ġhu":7567,"Ġcolon":7568,"Ġscri":7569,"Ġplanet":7570,"Ġvot":7571,"ecom":7572,"Ġvont":7573,"Ġchegada":7574,"Ġsort":7575,"Ġouvir":7576,"Ġtelevision":7577,"Ġaccommodations":7578,"Ġclicando":7579,"off":7580,"orno":7581,"Ġtabela":7582,"Ġstriptease":7583,"Ġbeg":7584,"desde":7585,"servi":7586,"idental":7587,"ĠnaÃ§Ãµes":7588,"Ġpsic":7589,"ĠmeteorolÃ³gicas":7590,"ĠmÃŃnimo":7591,"Ġtreinamento":7592,"mi":7593,"Ġestate":7594,"ĠpoderÃ£o":7595,"Ġconceito":7596,"ĠrelÃ³gio":7597,"Ġrs":7598,"Ġlen":7599,"Ġalone":7600,"Ġreflet":7601,"Ġterrace":7602,"etooth":7603,"Ġmr":7604,"Ġreliable":7605,"icionais":7606,"Ġestrada":7607,"Ġcharacteristics":7608,"ofertas":7609,"Ġdescribed":7610,"iber":7611,"pload":7612,"Ġplaca":7613,"Ġnations":7614,"Ġdiss":7615,"Ġcomplement":7616,"ĠdeverÃ¡":7617,"Ġtiv":7618,"ality":7619,"icl":7620,"Ġorlando":7621,"Ġbrux":7622,"Ġtravelers":7623,"Ġabordagem":7624,"once":7625,"rap":7626,"Ġsete":7627,"Ġsustainable":7628,"Ġchallenges":7629,"Ġaus":7630,"Ġpix":7631,"Ġshut":7632,"Ġprecisam":7633,"Ġallowed":7634,"ĠveÃŃculo":7635,"iaÃ§Ãµes":7636,"Ġmodos":7637,"Ġpotencial":7638,"Ġfuel":7639,"Ġtrabalhadores":7640,"Ġcalifornia":7641,"hl":7642,"Ġinvent":7643,"check":7644,"Ġdepending":7645,"alguns":7646,"Ġnetworks":7647,"Ġsupl":7648,"Ġsimpl":7649,"uxe":7650,"Ġolh":7651,"Ġviajar":7652,"Ġinferior":7653,"ĠiluminaÃ§Ã£o":7654,"Ġleste":7655,"airs":7656,"Ġrealizado":7657,"Ġperformed":7658,"Ġimplementation":7659,"Ġbeyond":7660,"Ã¢nico":7661,"Ġcastle":7662,"ĠlÃŃqu":7663,"jar":7664,"Ġpeix":7665,"Ġmerg":7666,"Ġcomuns":7667,"Ġstick":7668,"Ġgrau":7669,"Ġexcurs":7670,"Ġrecip":7671,"Ġdrivers":7672,"ĠvisualizaÃ§Ãµes":7673,"Ġroupa":7674,"ran":7675,"pton":7676,"nosso":7677,"baixar":7678,"alt":7679,"Ġatender":7680,"Ġinterm":7681,"ÃŃna":7682,"Ġidentificar":7683,"Ġresolver":7684,"like":7685,"ĠfÃŃsica":7686,"Ġbrought":7687,"ĠconteÃºdos":7688,"Ġelement":7689,"Ġspecies":7690,"ded":7691,"Ġmaps":7692,"Ġcurto":7693,"Ġexplore":7694,"Ġexclusive":7695,"ĠcoleÃ§Ã£o":7696,"Ġvontade":7697,"tica":7698,"Ġsinal":7699,"Ġavaliar":7700,"Ġtask":7701,"Ġprocurar":7702,"necess":7703,"esper":7704,"osas":7705,"Ġbou":7706,"Ġmercados":7707,"Ġradi":7708,"Ġwheel":7709,"Ġwarranty":7710,"alta":7711,"ĠalemÃ£o":7712,"words":7713,"Ġlikely":7714,"tics":7715,"eters":7716,"Ġatac":7717,"pesquis":7718,"Ġinstead":7719,"Ġescolh":7720,"itÃ¡rio":7721,"marks":7722,"Ġvitam":7723,"Ġlounge":7724,"Ġhomes":7725,"Ġcaused":7726,"ĠnÃºmeros":7727,"Ġschools":7728,"Ġcolombia":7729,"even":7730,"Ġadvance":7731,"Ġny":7732,"ĠatualizaÃ§Ã£o":7733,"Ġaltamente":7734,"Ġentertain":7735,"Ġportas":7736,"ĠhorÃ¡rio":7737,"ĠconversÃ£o":7738,"Ġdiminu":7739,"Ġinitial":7740,"itzer":7741,"Ġagr":7742,"Ġcompetitive":7743,"Ġalco":7744,"Ġcanc":7745,"Ġleva":7746,"ĠregiÃµes":7747,"Ġvisitantes":7748,"Ġhealthy":7749,"Ġobjective":7750,"saiba":7751,"Ġfas":7752,"Ġacres":7753,"Ġocas":7754,"Ġpartnership":7755,"final":7756,"ffici":7757,"Ġdeveloping":7758,"Ġmeaning":7759,"ĠrecuperaÃ§Ã£o":7760,"Ġreduc":7761,"compart":7762,"Ġroupas":7763,"Ġmall":7764,"ifying":7765,"Ġrussia":7766,"Ġsoul":7767,"pite":7768,"Ġoz":7769,"Ġyouth":7770,"Ġinvestimento":7771,"Ġredor":7772,"Ġsugar":7773,"gener":7774,"kayak":7775,"Ġgram":7776,"Ġlicense":7777,"Ġgrowing":7778,"Ġplants":7779,"Ġintended":7780,"Ġprocurando":7781,"roy":7782,"Ġagencies":7783,"phere":7784,"Ġtradicionais":7785,"Ġreligios":7786,"Ġbloque":7787,"Ġrecurso":7788,"Ġfootball":7789,"ays":7790,"ĠapresentaÃ§Ã£o":7791,"Ġrealizada":7792,"ĠeconÃ´mico":7793,"Ġbangkok":7794,"Ġscript":7795,"pel":7796,"inn":7797,"rog":7798,"Ġacer":7799,"Ġfaro":7800,"Ġpromover":7801,"Ġmut":7802,"Ġrf":7803,"Ġcontagem":7804,"Ġinnovative":7805,"tube":7806,"vamos":7807,"Ġtoque":7808,"ĠmatÃ©ria":7809,"itage":7810,"Ġcomod":7811,"Ġacol":7812,"Ġmarina":7813,"Ġespecialistas":7814,"Ġremover":7815,"ĠÃŃndia":7816,"Ġapproximately":7817,"ĠaustrÃ¡lia":7818,"sua":7819,"Ġcinema":7820,"Ġminhas":7821,"Ġcasal":7822,"ĠÃ¢mb":7823,"var":7824,"ĠestarÃ¡":7825,"ander":7826,"aixas":7827,"cs":7828,"Ã¡n":7829,"Ġbuff":7830,"ĠtÃ©r":7831,"Ġhen":7832,"Ġcomplic":7833,"Ġquero":7834,"Ġsmok":7835,"Ġwhom":7836,"Ġcape":7837,"rita":7838,"ypt":7839,"Ġalthough":7840,"Ġleia":7841,"Ġdipl":7842,"Ġoccup":7843,"whe":7844,"ĠforÃ§as":7845,"Ġbeij":7846,"Ġbedrooms":7847,"Ġaspectos":7848,"Ġneighborhood":7849,"del":7850,"Ġsatur":7851,"itando":7852,"olic":7853,"Ġmascul":7854,"ploy":7855,"Ġadicionado":7856,"Ġmouse":7857,"Ġbright":7858,"Ġtemple":7859,"Ġpromote":7860,"Ġattem":7861,"Ġcombination":7862,"Ġcommitte":7863,"Ġsao":7864,"Ġiniciar":7865,"Ġvolunt":7866,"Ġigual":7867,"Ġafirm":7868,"Ġequipa":7869,"Ġquerem":7870,"Ġcertificate":7871,"rast":7872,"aled":7873,"uten":7874,"Ġdaqu":7875,"Ġresulting":7876,"Ġmoon":7877,"Ġdesenh":7878,"Ġpreval":7879,"Ġamostra":7880,"using":7881,"irst":7882,"Ġsymb":7883,"ek":7884,"Ġtat":7885,"ĠcomentÃ¡rio":7886,"ĠmÃ©dicos":7887,"Ġcritical":7888,"enquanto":7889,"Ġpregn":7890,"Ġshape":7891,"Ġsair":7892,"Ġtourism":7893,"Ġrussian":7894,"cat":7895,"Ġbell":7896,"about":7897,"ĠlicenÃ§a":7898,"Ġgosto":7899,"Ġberlim":7900,"Ġtraffic":7901,"Ġfields":7902,"hs":7903,"illo":7904,"therefore":7905,"Ġregulation":7906,"Ġheaven":7907,"Ġrespostas":7908,"Ġress":7909,"Ġconstante":7910,"Ġja":7911,"Ġamen":7912,"ifications":7913,"Ġatualizar":7914,"Ġjapanese":7915,"ni":7916,"sur":7917,"Ġinim":7918,"Ġdirectory":7919,"Ġcollected":7920,"Ġbenefit":7921,"Ġsatellite":7922,"ĠmÃŃdia":7923,"Ġfif":7924,"Ġbow":7925,"Ġcarib":7926,"Ġtestemun":7927,"stract":7928,"sup":7929,"Ġguang":7930,"Ġaccordance":7931,"itzerland":7932,"Ġdog":7933,"ÃŃstico":7934,"ĠdispÃµe":7935,"atem":7936,"quickly":7937,"Ġdessas":7938,"Ġlut":7939,"Ġtoy":7940,"design":7941,"Ġepis":7942,"Ġsimilares":7943,"Ġchallenge":7944,"last":7945,"Ġspect":7946,"Ġcasamento":7947,"ussels":7948,"criÃ§Ã£o":7949,"Ġadvertising":7950,"Ġshanghai":7951,"dec":7952,"ĠdÃ³l":7953,"Ġbanda":7954,"Ġnomes":7955,"ĠtransmissÃ£o":7956,"Ġmit":7957,"Ġmary":7958,"ixo":7959,"Ġsmartphone":7960,"Ġadventure":7961,"Ġcompens":7962,"ĠhorÃ¡rios":7963,"Ġbilhetes":7964,"Ġtenham":7965,"alem":7966,"Ġcarne":7967,"Ġoferecem":7968,"Ġinverno":7969,"enty":7970,"Ġenable":7971,"phones":7972,"Ġopinion":7973,"Ġwriting":7974,"enter":7975,"Ġtrips":7976,"Ġmanufacturing":7977,"Ġwrong":7978,"Ġrating":7979,"Ġgrant":7980,"inder":7981,"Ġsupported":7982,"ĠexercÃŃcio":7983,"Ġior":7984,"Ġtorno":7985,"Ġbluetooth":7986,"Ġtrying":7987,"trad":7988,"Ġincent":7989,"Ġcontrolo":7990,"Ġcris":7991,"Ġgeorge":7992,"Ġpensar":7993,"zas":7994,"Ġqueen":7995,"Ġtorre":7996,"Ġfoco":7997,"Ġconced":7998,"Ġrit":7999,"Ġdefesa":8000,"Ġjoy":8001,"Ġevening":8002,"Ġlandsc":8003,"Ġaspects":8004,"Ġgalaxy":8005,"ĠcondiÃ§Ã£o":8006,"ructure":8007,"Ġconseguir":8008,"Ġtempl":8009,"ĠrealizaÃ§Ã£o":8010,"ÃŃlia":8011,"Ġposts":8012,"Ġcareer":8013,"ĠmÃºsicas":8014,"Ġdesafios":8015,"ĠsuÃŃÃ§a":8016,"sal":8017,"Ġfrances":8018,"Ġchocol":8019,"Ġincluir":8020,"mond":8021,"Ġningu":8022,"oter":8023,"Ġemir":8024,"Ġdivulg":8025,"gle":8026,"Ġbrasileira":8027,"metros":8028,"Ġibis":8029,"Ġacontece":8030,"Ġadobe":8031,"Ġclothing":8032,"disponÃŃveis":8033,"ĠninguÃ©m":8034,"Ġcomprimento":8035,"Ġfogo":8036,"Ġrid":8037,"oston":8038,"Ġpreench":8039,"Ġshoes":8040,"Ġutilizadores":8041,"Ġreconhe":8042,"Ġbritish":8043,"dÃ£o":8044,"oa":8045,"heira":8046,"Ġalma":8047,"encer":8048,"Ġpeter":8049,"Ġinstituto":8050,"Ġinteresting":8051,"Ġindependent":8052,"Ġriscos":8053,"Ġsilic":8054,"Ġparticularly":8055,"ĠfrequÃªncia":8056,"Ġcleaning":8057,"Ġframework":8058,"Ġsinc":8059,"ĠvÃ³s":8060,"unte":8061,"ÃŃamos":8062,"cond":8063,"Ġolhar":8064,"Ġexpensive":8065,"ographic":8066,"ĠespecÃŃficos":8067,"ington":8068,"Ġparents":8069,"uses":8070,"Ġzone":8071,"ĠidentificaÃ§Ã£o":8072,"Ġarrival":8073,"Ġcs":8074,"enha":8075,"Ġoem":8076,"Ġvital":8077,"Ġexclu":8078,"Ġcarta":8079,"herlands":8080,"Ġclimate":8081,"Ġenhance":8082,"Ġnerv":8083,"Ġcorrig":8084,"Ġplaced":8085,"Ġslow":8086,"ismos":8087,"Ġtourist":8088,"Ġburn":8089,"Ġtoil":8090,"aving":8091,"Ġpagar":8092,"Ġnuvem":8093,"Ġheavy":8094,"Ġapesar":8095,"Ġcorporate":8096,"Ġemit":8097,"star":8098,"iraÃ§Ã£o":8099,"endedor":8100,"fox":8101,"Ġsolicitar":8102,"Ġoppos":8103,"Ġsaying":8104,"ĠlanÃ§amento":8105,"Ġvon":8106,"ĠtrÃ¡s":8107,"cient":8108,"Ġadults":8109,"Ġflores":8110,"Ġinfrast":8111,"Ġreservation":8112,"Ġpne":8113,"Ġvegan":8114,"Ġdelivered":8115,"Ġchannels":8116,"iability":8117,"Ġdormir":8118,"ivel":8119,"Ġalar":8120,"rics":8121,"Ġbaixos":8122,"Ġcooperation":8123,"ĠcooperaÃ§Ã£o":8124,"ecido":8125,"Ġecr":8126,"Ġpractical":8127,"pÃ¡g":8128,"onas":8129,"teriores":8130,"Ġreleased":8131,"Ġembar":8132,"Ġchanged":8133,"Ġobtained":8134,"Ġfurniture":8135,"bras":8136,"estre":8137,"Ġaband":8138,"desc":8139,"amentais":8140,"ĠcÃ¡":8141,"itions":8142,"Ġgig":8143,"oles":8144,"Ġatendimento":8145,"Ġadministration":8146,"Ġiorque":8147,"lu":8148,"pu":8149,"Ġquiet":8150,"Ġmedium":8151,"Ġalternative":8152,"Ġfeliz":8153,"inf":8154,"Ġpersonalizado":8155,"ĠpotÃªncia":8156,"burgh":8157,"Ġengland":8158,"ĠcÃ³p":8159,"Ġrh":8160,"Ġforces":8161,"portos":8162,"Ġcontribut":8163,"Ġprazer":8164,"Ġemot":8165,"Ġrose":8166,"ĠintegraÃ§Ã£o":8167,"Ġsuns":8168,"Ġmold":8169,"Ġft":8170,"Ġabertura":8171,"onda":8172,"Ġempresar":8173,"olÃ³gicos":8174,"Ġplantas":8175,"fill":8176,"Ġviz":8177,"Ġpair":8178,"abilities":8179,"Ġdrink":8180,"Ġintegral":8181,"ĠcompatÃŃvel":8182,"Ġsignificantly":8183,"inaÃ§Ã£o":8184,"Ġbens":8185,"Ġexcess":8186,"Ġregions":8187,"Ġbaseado":8188,"hu":8189,"Ġcarlos":8190,"fera":8191,"Ġdescre":8192,"Ġlisten":8193,"Ġtesting":8194,"Ġopened":8195,"Ã´mbia":8196,"pg":8197,"Ġbelong":8198,"Ġexplorar":8199,"hou":8200,"Ġhotelquickly":8201,"comfort":8202,"Ġfan":8203,"Ġexperiment":8204,"Ġinfluence":8205,"Ġcoorden":8206,"Ġtribun":8207,"Ġaprim":8208,"Ġsalt":8209,"Ġaquecimento":8210,"Ġemprego":8211,"aug":8212,"fri":8213,"edas":8214,"uly":8215,"Ġdela":8216,"Ġbookings":8217,"Ġlistados":8218,"Ġviewed":8219,"Ġilust":8220,"Ġcopenh":8221,"Ġconveniente":8222,"Ġtos":8223,"olina":8224,"ĠrÃºssia":8225,"ĠprÃªm":8226,"Ġcanon":8227,"Ġoutput":8228,"ĠcalÃ§as":8229,"Ġbrown":8230,"Ġrestrict":8231,"Ġpasta":8232,"Ġcurrency":8233,"Ġtags":8234,"uÃ¡rio":8235,"iveness":8236,"ĠtÃ©cnico":8237,"quist":8238,"Ġoptional":8239,"ĠÃ¢mbito":8240,"Ġvinc":8241,"ĠagÃªncias":8242,"Ġsharing":8243,"Ġcarreira":8244,"Ġprimary":8245,"Ġdetermine":8246,"Ġpassageiros":8247,"Ġfum":8248,"hael":8249,"Ġmodule":8250,"Ġpassagem":8251,"Ġluc":8252,"Ġanalisar":8253,"zar":8254,"Ġoperacional":8255,"Ġbrasileiro":8256,"Ġwanted":8257,"Ġanalytics":8258,"Ġidioma":8259,"ceed":8260,"Ġlabel":8261,"Ġbrinquedos":8262,"Ġia":8263,"Ġdisap":8264,"Ġni":8265,"Ġbecomes":8266,"ĠreuniÃ£o":8267,"atÃ³ria":8268,"Ġmilhares":8269,"Ġnucle":8270,"Ġefetuar":8271,"abled":8272,"cher":8273,"Ġalbum":8274,"Ġswe":8275,"Ġov":8276,"Ġfc":8277,"atis":8278,"Ġstations":8279,"Ġraw":8280,"Ġsurv":8281,"ĠautomÃ¡tica":8282,"espec":8283,"fam":8284,"Ġrosa":8285,"clos":8286,"Ġmuita":8287,"Ġswitzerland":8288,"Ġcovered":8289,"pra":8290,"Ġlob":8291,"Ġhit":8292,"Ġficheiros":8293,"Ġpowerpoint":8294,"Ġenem":8295,"proof":8296,"Ġfosse":8297,"Ġcompact":8298,"ĠcolÃ´mbia":8299,"ulares":8300,"Ġcapit":8301,"Ġipad":8302,"Ġhistoric":8303,"ĠsessÃ£o":8304,"Ġliquid":8305,"lev":8306,"str":8307,"Ġheating":8308,"Ġinfin":8309,"ĠdefiniÃ§Ã£o":8310,"Ġleader":8311,"Ġpharm":8312,"mater":8313,"oul":8314,"ĠgÃªn":8315,"Ġsimult":8316,"body":8317,"Ġbos":8318,"igi":8319,"ĠagÃªncia":8320,"Ġfear":8321,"Ġpaid":8322,"Ġsegura":8323,"Ġlighting":8324,"Ġvestido":8325,"Ġespiritual":8326,"arÃ£o":8327,"Ġadvis":8328,"Ġdistin":8329,"Ġconstruir":8330,"ĠdeclaraÃ§Ã£o":8331,"Ġgordura":8332,"Ġboston":8333,"Ġroyalty":8334,"Ġgps":8335,"Ġdesigns":8336,"Ġdecided":8337,"Ġcerta":8338,"Ġbudap":8339,"Ġjuan":8340,"Ġdual":8341,"portanto":8342,"Ġprotected":8343,"Ġlevant":8344,"Ġintegration":8345,"Ġauthority":8346,"Ġtarefas":8347,"edores":8348,"ĠÃ¡sia":8349,"Ġsimul":8350,"Ġautoridades":8351,"Ġconversion":8352,"Ġcertainly":8353,"Ġerrors":8354,"Ġhuge":8355,"Ġrica":8356,"Ġgarra":8357,"ĠesforÃ§o":8358,"Ġsources":8359,"Ġeco":8360,"Ġbin":8361,"Ġinterests":8362,"Ġfeitas":8363,"looking":8364,"Ġaprendiz":8365,"learn":8366,"Ġphu":8367,"Ġreflex":8368,"Ġcharl":8369,"Ġescolas":8370,"Ġjovem":8371,"Ġarab":8372,"Ġpip":8373,"Ġsmo":8374,"agram":8375,"Ġnetherlands":8376,"Ġcertamente":8377,"Ġseparate":8378,"Ġroutes":8379,"Ġave":8380,"plan":8381,"mentos":8382,"Ġregistration":8383,"Ġprepared":8384,"ĠanÃºncio":8385,"ĠdÃºvida":8386,"Ġlate":8387,"Ã§am":8388,"Ġast":8389,"under":8390,"Ã³lica":8391,"Ġmoderno":8392,"Ġabsolut":8393,"Ġpizza":8394,"Ġpoc":8395,"ĠinÃºm":8396,"Ġenvol":8397,"Ġframe":8398,"Ġdireita":8399,"Ġantigo":8400,"Ġboy":8401,"ĠsatÃ©l":8402,"Ġgosta":8403,"tag":8404,"Ġhero":8405,"ĠnecessÃ¡rias":8406,"master":8407,"Ġassociados":8408,"ĠespecÃŃfico":8409,"Ġavenue":8410,"aux":8411,"arily":8412,"Ġdesigner":8413,"Ġcomando":8414,"Ġparce":8415,"Ġstatement":8416,"ĠnavegaÃ§Ã£o":8417,"Ġbiciclet":8418,"Ġthinking":8419,"Ġcommittee":8420,"Ġsit":8421,"rec":8422,"Ġchos":8423,"seu":8424,"Ġproduzir":8425,"Ġfees":8426,"ĠversÃµes":8427,"Ġtests":8428,"Ġpesquisas":8429,"anhÃ£":8430,"Ġvisualizar":8431,"localizaÃ§Ã£o":8432,"Ġdj":8433,"Ġperigos":8434,"informaÃ§Ã£o":8435,"Ġempreg":8436,"Ġwonderful":8437,"Ġesquerda":8438,"Ġswimming":8439,"Ġultim":8440,"compan":8441,"Ġdepartamento":8442,"organ":8443,"Ġrc":8444,"Ġreligious":8445,"Ġnutri":8446,"Ġbrussels":8447,"ĠrelatÃ³rios":8448,"Ġgoes":8449,"Ġeducational":8450,"Ġindividuais":8451,"Ġextremamente":8452,"Ġrecebeu":8453,"Ġuv":8454,"Ġgd":8455,"Ġalde":8456,"apesar":8457,"Ġpalest":8458,"bourne":8459,"gro":8460,"Ġfrio":8461,"Ġka":8462,"Ġtelephone":8463,"ĠterraÃ§o":8464,"Ġrenew":8465,"mbh":8466,"ĠimplementaÃ§Ã£o":8467,"Ġetern":8468,"ĠrevisÃ£o":8469,"utes":8470,"Ġappearance":8471,"Ġrand":8472,"Ġcrime":8473,"make":8474,"Ġcutting":8475,"Ġlyon":8476,"Ġbilhete":8477,"Ġgather":8478,"Ġleather":8479,"Ġowner":8480,"casa":8481,"Ġobjetos":8482,"Ġupdates":8483,"Ġleitura":8484,"Ġpier":8485,"Ġearn":8486,"Ġsei":8487,"apro":8488,"Ġotherwise":8489,"Ġponte":8490,"ĠfabricaÃ§Ã£o":8491,"Ġlouis":8492,"ĠbebÃª":8493,"mag":8494,"Ġenvio":8495,"Ġsingapore":8496,"show":8497,"Ġpub":8498,"Ġsons":8499,"Ġvistas":8500,"Ġken":8501,"Ġdiscounts":8502,"Ġbrother":8503,"Ġdefined":8504,"Ġassegurar":8505,"ĠÃŃcon":8506,"Ġrico":8507,"Ġprepare":8508,"Ġhorm":8509,"Ġdesenvolvido":8510,"ĠcÃ¢mara":8511,"Ġargum":8512,"Ġclosed":8513,"pan":8514,"Ġts":8515,"Ġfinish":8516,"Ġbenefici":8517,"Ġfinanci":8518,"Ġamazing":8519,"Ġpy":8520,"ĠvÃ¡":8521,"Ġreais":8522,"Ġclip":8523,"Ġgrade":8524,"Ġmodes":8525,"Ġanyone":8526,"Ġgmbh":8527,"Ġservidores":8528,"Ġstored":8529,"Ġtarefa":8530,"pop":8531,"sec":8532,"aries":8533,"amm":8534,"Ġestre":8535,"Ġusadas":8536,"guia":8537,"Ġaudit":8538,"Ġcumpri":8539,"Ġseems":8540,"Ġdemocr":8541,"ceis":8542,"ditional":8543,"Ġcompliance":8544,"Ġjoint":8545,"igar":8546,"Ġios":8547,"Ġvertical":8548,"Ġformer":8549,"Ġfern":8550,"Ġpopul":8551,"front":8552,"Ġmontagem":8553,"ĠcÃ¢mbio":8554,"Ġmosc":8555,"Ġarquitetura":8556,"dist":8557,"envi":8558,"Ã©ticos":8559,"Ġextremely":8560,"Ġtopo":8561,"Ġphase":8562,"Ġprivile":8563,"Ġferry":8564,"Ġsemi":8565,"Ġpolice":8566,"Ġtinham":8567,"Ġsweet":8568,"Ġnd":8569,"Ġhat":8570,"Ġoccas":8571,"Ġmusical":8572,"Ġbike":8573,"Ġfemale":8574,"ifer":8575,"Ġprinter":8576,"rigo":8577,"Ġdefici":8578,"Ġassistance":8579,"Ġcommunications":8580,"Ġcomportamento":8581,"hoje":8582,"ĠportÃ¡til":8583,"Ġprague":8584,"pressÃ£o":8585,"Ġdecide":8586,"Ġmotel":8587,"Ġchanging":8588,"rees":8589,"etor":8590,"Ġsuger":8591,"Ġleague":8592,"Ġliga":8593,"Ġgardens":8594,"Ġvenice":8595,"Ġfen":8596,"thus":8597,"cionais":8598,"Ġdoctor":8599,"turismo":8600,"tel":8601,"vide":8602,"Ġhan":8603,"Ġentry":8604,"Ġcriter":8605,"Ġthousands":8606,"Ġester":8607,"Ġarc":8608,"Ġutiliza":8609,"Ġtechniques":8610,"Ġigualmente":8611,"ĠmunicÃŃp":8612,"Ġregistered":8613,"Ġah":8614,"Ġale":8615,"ĠdanÃ§a":8616,"ilho":8617,"imentar":8618,"Ġaceler":8619,"Ġment":8620,"Ġlam":8621,"Ġgon":8622,"Ġyoutube":8623,"Ġheight":8624,"Ġartific":8625,"today":8626,"Ġconsolid":8627,"lers":8628,"Ġmanchester":8629,"coming":8630,"Ġteams":8631,"Ġpersons":8632,"Ġheritage":8633,"Ġsituated":8634,"ĠindivÃŃduos":8635,"Ġpreparar":8636,"craft":8637,"Ġbond":8638,"Ġku":8639,"Ġboat":8640,"Ġamericana":8641,"Ġabrang":8642,"Ġbreat":8643,"Ġasc":8644,"Ġshowed":8645,"Ġvibr":8646,"estÃ¡":8647,"Ġsets":8648,"Ġjustice":8649,"ĠespecÃŃficas":8650,"Ġhospit":8651,"ĠromÃ¢nticos":8652,"Ġbirm":8653,"why":8654,"Ġdrin":8655,"Ġdiretor":8656,"Ġpasseio":8657,"ati":8658,"although":8659,"ĠministÃ©rio":8660,"Ġevaluation":8661,"because":8662,"lic":8663,"Ġhop":8664,"ango":8665,"acher":8666,"Ġagentes":8667,"Ġreput":8668,"Ġverdadeiro":8669,"Ġaprendizagem":8670,"Ġcaval":8671,"orrow":8672,"Ġlose":8673,"Ġsugest":8674,"Ġunif":8675,"Ġexperts":8676,"Ġgarante":8677,"Ġparticipation":8678,"Ġmedicine":8679,"Ġupload":8680,"Ġgam":8681,"Ġprofessores":8682,"Ġobjects":8683,"Ġcotton":8684,"lor":8685,"gram":8686,"Ġplanos":8687,"Ġswed":8688,"Ġcastelo":8689,"Ġcommitment":8690,"Ġsunday":8691,"recomend":8692,"Ġagency":8693,"Ġfotograf":8694,"rie":8695,"Ġregime":8696,"Ġserved":8697,"Ġcafe":8698,"Ġfollowed":8699,"Ġcomunidades":8700,"Ġlaptop":8701,"Ġlamp":8702,"Ġmalware":8703,"Ġdram":8704,"Ġpit":8705,"Ġdireto":8706,"Ġdiab":8707,"Ġbuildings":8708,"Ġprovavelmente":8709,"import":8710,"hops":8711,"existem":8712,"Ġeasier":8713,"Ġidentity":8714,"Ġsuccessful":8715,"Ġinfrastructure":8716,"Ġservers":8717,"Ġbottle":8718,"ĠpÃºblicas":8719,"Ġauthorities":8720,"Ġcompreh":8721,"Ġireland":8722,"Ġbug":8723,"Ġponta":8724,"ĠfÃ³rum":8725,"ĠamanhÃ£":8726,"Ġbrilh":8727,"Ġcampanha":8728,"ĠecrÃ£":8729,"Ġsolve":8730,"ancou":8731,"Ġessencial":8732,"Ġrol":8733,"ertos":8734,"Ġjuntamente":8735,"Ġrace":8736,"Ġpoll":8737,"Ġsolicit":8738,"Ġcontroller":8739,"rak":8740,"Ġgoals":8741,"Ġpublicidade":8742,"Ġhyd":8743,"Ġvaz":8744,"asonic":8745,"ĠaÃ©rea":8746,"ĠcombustÃŃvel":8747,"Ġantonio":8748,"poss":8749,"yle":8750,"Ġprovider":8751,"Ġchosen":8752,"care":8753,"Ġpump":8754,"Ġpossibility":8755,"Ġsession":8756,"rupt":8757,"Ġcontinua":8758,"Ġobjeto":8759,"Ġdestinia":8760,"Ġfantas":8761,"Ġconsulte":8762,"ĠlÃ¢mp":8763,"road":8764,"Ġthick":8765,"Ġdowntown":8766,"Ġadequada":8767,"Ġmah":8768,"ello":8769,"Ġrelation":8770,"Ġadvice":8771,"Ġparticipants":8772,"Ġmovie":8773,"Ġbless":8774,"Ġscore":8775,"Ġworked":8776,"lla":8777,"Ġdiseases":8778,"ĠprincÃŃpios":8779,"ĠirmÃ£os":8780,"Ġtai":8781,"Ġans":8782,"Ġhilton":8783,"Ġprima":8784,"Ġairports":8785,"Ġeficiente":8786,"gica":8787,"ÃŃtim":8788,"Ġimplant":8789,"Ġsaved":8790,"Ġcells":8791,"Ġdigitais":8792,"Ġchocolate":8793,"Ġleite":8794,"Ġtasks":8795,"Ġhtml":8796,"Ġtheme":8797,"Ġacord":8798,"Ġoperate":8799,"ĠquilÃ´met":8800,"quais":8801,"ami":8802,"Ãªut":8803,"Ġcauses":8804,"gow":8805,"eliz":8806,"Ġhang":8807,"Ġva":8808,"Ġgross":8809,"ĠpraÃ§a":8810,"Ġfolha":8811,"iki":8812,"Ġdestinos":8813,"Ġaceita":8814,"Ġventil":8815,"uo":8816,"Ġdado":8817,"Ġlac":8818,"urgo":8819,"udes":8820,"Ġplans":8821,"Ã©rc":8822,"Ġadvers":8823,"Ġidentidade":8824,"iliares":8825,"Ġdidn":8826,"Ġprocedure":8827,"Ġcitizens":8828,"idi":8829,"Ġespera":8830,"Ġangel":8831,"Ġindependente":8832,"Ġimperial":8833,"Ġwis":8834,"Ġdose":8835,"Ġwilliam":8836,"Ġcash":8837,"Ġmilk":8838,"Ġcred":8839,"Ġdefault":8840,"Ġconsumer":8841,"Ġinteligente":8842,"Ġtutors":8843,"ĠorÃ§amento":8844,"rias":8845,"Ġrepe":8846,"ĠincluÃŃdo":8847,"Ġbreve":8848,"Ġcommunities":8849,"Ġcookie":8850,"ĠcartÃµes":8851,"Ġkinds":8852,"ĠsustentÃ¡vel":8853,"ĠlÃŃderes":8854,"idel":8855,"ÃŃb":8856,"sequ":8857,"Ġassunto":8858,"Ġfacilit":8859,"Ġlandmarks":8860,"Ġexecutive":8861,"muitas":8862,"Ġassembly":8863,"ancouver":8864,"jan":8865,"Ãªnio":8866,"Ġmoz":8867,"uesday":8868,"Ġexecutar":8869,"ĠfantÃ¡st":8870,"proc":8871,"Ġmedo":8872,"Ġentertainment":8873,"nel":8874,"iti":8875,"iced":8876,"ught":8877,"Ġaims":8878,"Ġcompromisso":8879,"Ġdiego":8880,"ĠparÃ¢metros":8881,"Ġagents":8882,"Ġdireta":8883,"Ġsemelhante":8884,"Ġpir":8885,"apy":8886,"graph":8887,"Ġprinciples":8888,"Ġstad":8889,"Ġprivada":8890,"Ġprecisar":8891,"Ġvirgin":8892,"Ġitaliano":8893,"Ġcertificado":8894,"Ġconsulta":8895,"Ġbirmingham":8896,"public":8897,"Ġfriday":8898,"Ġador":8899,"Ġseco":8900,"Ġorganic":8901,"Ġtaste":8902,"pens":8903,"Ġfisc":8904,"ĠsituaÃ§Ãµes":8905,"Ġpacotes":8906,"Ġletter":8907,"Ġministry":8908,"Ġcarrinho":8909,"cido":8910,"Ġwit":8911,"Ġhi":8912,"Ġencar":8913,"Ġbelo":8914,"Ġsympt":8915,"Ġbiblioteca":8916,"Ġregisto":8917,"Ġurb":8918,"Ġsaco":8919,"pot":8920,"ecendo":8921,"Ġobserved":8922,"Ġbillion":8923,"Ġparameters":8924,"Ġcomodidades":8925,"Ġproposta":8926,"ĠexÃ©rc":8927,"ĠÃ¡guas":8928,"porque":8929,"Ġshops":8930,"Ġcounter":8931,"Ġindustries":8932,"Ġchristmas":8933,"ĠprÃ³prias":8934,"ĠelÃ©trica":8935,"ucion":8936,"Ġmistura":8937,"ĠincrÃŃvel":8938,"Ġgif":8939,"tras":8940,"Ġmomentos":8941,"Ġaumenta":8942,"Ġcryst":8943,"west":8944,"Ġnik":8945,"Ġbaratas":8946,"Ġchal":8947,"Ġpatient":8948,"Ġstream":8949,"Ġacessar":8950,"first":8951,"Ã©dia":8952,"apt":8953,"Ġoferecemos":8954,"Ġdign":8955,"Ġexatamente":8956,"Ġlists":8957,"Ġlatina":8958,"Ġdesejo":8959,"Ġegypt":8960,"Ġmestre":8961,"nis":8962,"Ġdanger":8963,"imate":8964,"ĠestaÃ§Ãµes":8965,"Ġenorme":8966,"Ġaberta":8967,"market":8968,"ĠfundaÃ§Ã£o":8969,"Ġcouro":8970,"Ġgostaria":8971,"Ġveneza":8972,"Ġexactly":8973,"Ġfeitos":8974,"Ġconfid":8975,"ĠpublicaÃ§Ã£o":8976,"Ġguaranteed":8977,"Ġds":8978,"Ġtheat":8979,"Ġlunch":8980,"uda":8981,"Ġmoral":8982,"Ġsignificativamente":8983,"Ġcopyright":8984,"ĠsÃ©":8985,"Ġadot":8986,"cars":8987,"Ġespecializados":8988,"ĠreuniÃµes":8989,"Ġalegre":8990,"Ġdynamic":8991,"ĠsÃ¡b":8992,"Ġana":8993,"Ġabund":8994,"Ġflag":8995,"Ġalgod":8996,"Ġbelg":8997,"Ġcultiv":8998,"Ġtomorrow":8999,"ĠaparÃªncia":9000,"Ġspac":9001,"Ġbanheiro":9002,"ĠprincÃŃpio":9003,"Ġpossuem":9004,"rÃ¡":9005,"Ġcz":9006,"Ġfrag":9007,"Ġlocalizada":9008,"Ġstatistics":9009,"Ġtoler":9010,"abl":9011,"Ġkore":9012,"Ġspaces":9013,"procur":9014,"fur":9015,"lock":9016,"additional":9017,"sex":9018,"Ġplate":9019,"defin":9020,"Ġinterv":9021,"ĠatualizaÃ§Ãµes":9022,"Ġharm":9023,"ali":9024,"Ġtras":9025,"Ġtruck":9026,"class":9027,"Ġidentific":9028,"Ġurl":9029,"Ġalf":9030,"Ġescrito":9031,"ĠirÃ£o":9032,"Ġteachers":9033,"ĠinstituiÃ§Ã£o":9034,"ĠbÃ¡sico":9035,"san":9036,"Ġoak":9037,"Ġbuying":9038,"Ġhyip":9039,"ĠgrÃ¡ficos":9040,"ĠcÃ©lulas":9041,"sor":9042,"Ġaid":9043,"Ġtens":9044,"usta":9045,"Ġjam":9046,"Ġallowing":9047,"Ġalternativa":9048,"bc":9049,"ĠpÃ©s":9050,"Ġinteresses":9051,"Ġvienna":9052,"Ġwants":9053,"force":9054,"ĠsÃ³l":9055,"Ġgeor":9056,"Ġfirefox":9057,"uros":9058,"Ġexe":9059,"Ġoffic":9060,"ĠdecisÃµes":9061,"Ġberg":9062,"oting":9063,"Ã¡cio":9064,"Ġcongr":9065,"Ġcommitted":9066,"Ġoverall":9067,"Ġlayer":9068,"got":9069,"clam":9070,"ĠaluguÃ©is":9071,"Ġvantagens":9072,"Ġexhibition":9073,"las":9074,"Ġadqui":9075,"nesday":9076,"Ġrefrigerator":9077,"Ãºlti":9078,"ĠcÃ¡l":9079,"Ġvancouver":9080,"Ġglas":9081,"Ġliver":9082,"Ġinstruments":9083,"Ġpretende":9084,"Ġvehicles":9085,"Ġnan":9086,"Ġpref":9087,"Ġspend":9088,"Ġinfect":9089,"Ġlistas":9090,"Ġviolence":9091,"Ġaceit":9092,"Ġsumm":9093,"Ġmiguel":9094,"mant":9095,"Ġagu":9096,"Ġtopic":9097,"Ġbalcon":9098,"Ġclara":9099,"oph":9100,"ovos":9101,"Ġmetod":9102,"business":9103,"Ġfixed":9104,"Ġoly":9105,"users":9106,"phas":9107,"Ġespecific":9108,"Ġorange":9109,"Ġrecre":9110,"Ġensin":9111,"ragem":9112,"Ġannual":9113,"Ġbruxelas":9114,"Ġbeijing":9115,"ĠsatÃ©lite":9116,"Ġfornecidos":9117,"ĠatraÃ§Ãµes":9118,"Ġbancos":9119,"file":9120,"Ġinstrument":9121,"eccion":9122,"Ġrosto":9123,"Ġpartido":9124,"Ġcompleted":9125,"Ġquarta":9126,"ĠconferÃªncia":9127,"nossa":9128,"ĠaÃ§Ãº":9129,"tour":9130,"Ġvive":9131,"Ġprejud":9132,"Ġsobrev":9133,"Ġray":9134,"Ġprofit":9135,"Ġgreece":9136,"Ġcontemporary":9137,"Ġpoker":9138,"ĠÃ³rg":9139,"Ġdeleg":9140,"Ġcampe":9141,"Ġthank":9142,"Ġpedra":9143,"Ġanteriores":9144,"Ġrecomenda":9145,"Ġtech":9146,"Ġsubmet":9147,"Ġurg":9148,"ĠviolÃªncia":9149,"alo":9150,"itiba":9151,"Ġmotivo":9152,"Ġbusinesses":9153,"choose":9154,"ae":9155,"Ġss":9156,"Ġbars":9157,"Ġregistry":9158,"Ġpowder":9159,"Ġfaixa":9160,"unic":9161,"Ġko":9162,"Ġmaneiras":9163,"ĠesforÃ§os":9164,"zuela":9165,"Ġvall":9166,"Ġrus":9167,"unst":9168,"ĠficarÃ¡":9169,"Ġestabelecer":9170,"Ġcere":9171,"Ġbes":9172,"Ġtrop":9173,"ĠexcelÃªncia":9174,"Ġphuket":9175,"life":9176,"Ġpill":9177,"asing":9178,"iesel":9179,"Ġolive":9180,"Ġdeterminar":9181,"Ġflexible":9182,"Ġpassengers":9183,"fund":9184,"Ġaware":9185,"obili":9186,"ĠprovÃŃn":9187,"atividade":9188,"cription":9189,"Ġcompetition":9190,"Ġfeeling":9191,"Ġsmoking":9192,"ows":9193,"cla":9194,"Ġinstagram":9195,"ystem":9196,"Ġeld":9197,"Ġrecentemente":9198,"Ġdeixe":9199,"tic":9200,"uan":9201,"inhar":9202,"Ġversions":9203,"Ġjuntos":9204,"Ġbrasile":9205,"Ġlegend":9206,"Ġpreparation":9207,"ĠsatisfaÃ§Ã£o":9208,"Ġbour":9209,"Ġdesire":9210,"Ġassign":9211,"Ġsexta":9212,"Ġreported":9213,"Ġacontecer":9214,"Ġconfiguration":9215,"gy":9216,"oming":9217,"Ġgmail":9218,"Ġparar":9219,"Ġbarco":9220,"manual":9221,"Ġencontram":9222,"Ġdesenho":9223,"Ġlady":9224,"zia":9225,"edes":9226,"Ġfronte":9227,"Ġretir":9228,"instal":9229,"Ġtelecom":9230,"ĠespÃ©cies":9231,"Ġolymp":9232,"Ġbob":9233,"Ġitunes":9234,"Ġsenha":9235,"Ġrastre":9236,"Ġtermo":9237,"ĠdiÃ¡logo":9238,"Ġtornando":9239,"Ġclinical":9240,"idamente":9241,"rais":9242,"exper":9243,"Ġsinais":9244,"ĠjurÃŃd":9245,"Ġabandon":9246,"ĠmÃºlti":9247,"Ġmeia":9248,"uba":9249,"Ġalgar":9250,"Ġexcelentes":9251,"Ġevolution":9252,"Ġpleasant":9253,"Ġtoilet":9254,"ĠalgodÃ£o":9255,"onÃªs":9256,"onÃ´m":9257,"recomm":9258,"ĠbÃŃ":9259,"Ġvice":9260,"Ġexplo":9261,"Ġshowing":9262,"ĠexistÃªncia":9263,"Ġgratuita":9264,"Ġchampions":9265,"ining":9266,"Ġades":9267,"Ġconvention":9268,"Ġmainly":9269,"Ġhappen":9270,"Ġpuzz":9271,"fficient":9272,"Ġforget":9273,"Ġleon":9274,"Ġficou":9275,"Ġpedir":9276,"Ġsupplement":9277,"Ġmentioned":9278,"itz":9279,"Ġvind":9280,"Ġconhecida":9281,"Ġphilip":9282,"Ġpav":9283,"Ġantiga":9284,"Ġnormas":9285,"Ġcharacters":9286,"Ġjuris":9287,"Ġescrever":9288,"ĠtÃ¡":9289,"Ġdb":9290,"Ġheard":9291,"Ġcream":9292,"Ġnegative":9293,"Ġacrescent":9294,"Ġtes":9295,"Ġdun":9296,"Ġcondut":9297,"ĠdiagnÃ³st":9298,"Ġsede":9299,"only":9300,"ogram":9301,"Ġsubmitted":9302,"Ġsmooth":9303,"zi":9304,"print":9305,"Ġdizendo":9306,"Ġlicenci":9307,"Ġdiamond":9308,"Ġmechanical":9309,"Ġvictoria":9310,"Ġneck":9311,"gia":9312,"wel":9313,"Ġinch":9314,"erson":9315,"Ġsher":9316,"tenÃ§Ã£o":9317,"Ġrecords":9318,"ĠevoluÃ§Ã£o":9319,"page":9320,"Ġpig":9321,"olos":9322,"Ġstores":9323,"Ġseek":9324,"Ġcircum":9325,"ÃŃfico":9326,"Ġsuplem":9327,"aland":9328,"Ġrevis":9329,"Ġcentros":9330,"ĠdomÃ©st":9331,"agre":9332,"Ġcontrols":9333,"ĠexpressÃ£o":9334,"Ġautoridade":9335,"install":9336,"Ġaluguel":9337,"Ġclicar":9338,"escolha":9339,"Ġacerca":9340,"omen":9341,"Ġsecund":9342,"bury":9343,"Ġinfraestrut":9344,"lux":9345,"main":9346,"reserv":9347,"Ġmetres":9348,"Ġpalma":9349,"Ġopinions":9350,"Ġcompatible":9351,"ĠterritÃ³rio":9352,"ĠcolaboraÃ§Ã£o":9353,"Ġartificial":9354,"Ġissu":9355,"Ġapi":9356,"aker":9357,"ĠresponsÃ¡veis":9358,"Ġmagaz":9359,"ĠlaboratÃ³rio":9360,"ald":9361,"Ġaccur":9362,"Ġfax":9363,"Ġpaypal":9364,"Ġmagic":9365,"Ġfigure":9366,"ĠconsciÃªncia":9367,"special":9368,"Ġneut":9369,"okan":9370,"coin":9371,"ĠautomÃ¡tico":9372,"Ġreduction":9373,"ĠquilÃ´metros":9374,"Ġglasgow":9375,"Ġdelet":9376,"Ã´nio":9377,"Ġdesconto":9378,"card":9379,"Ġnit":9380,"alization":9381,"ĠturÃŃsticos":9382,"Ġbeaches":9383,"Ġexistentes":9384,"Ġmajority":9385,"Ġsemelhantes":9386,"material":9387,"Ġprovis":9388,"Ġchair":9389,"Ġconhecimentos":9390,"Ġdegrees":9391,"Ġingredients":9392,"Ġlip":9393,"ĠvÃŃrus":9394,"Ġidos":9395,"Ġhub":9396,"uste":9397,"plas":9398,"Ġfeet":9399,"Ġbags":9400,"Ġdesafio":9401,"Ġsight":9402,"Ġmartin":9403,"Ġcorner":9404,"Ġaccounts":9405,"Ġsurvey":9406,"Ġrule":9407,"ĠsaudÃ¡vel":9408,"pad":9409,"heet":9410,"Ġandar":9411,"ÃŃcul":9412,"Ġtrata":9413,"Ġmeter":9414,"Ġdestroy":9415,"Ġdriving":9416,"Ġhyper":9417,"Ġbranca":9418,"Ġprocedures":9419,"Ġcapazes":9420,"Ġalimentar":9421,"elling":9422,"Ġguitar":9423,"Ġaltas":9424,"Ġstrategic":9425,"ĠÃ³tima":9426,"Ġassessment":9427,"Ġcav":9428,"Ġfrig":9429,"Ġteen":9430,"Ġprotein":9431,"Ġlaboratory":9432,"Ġintelligence":9433,"olit":9434,"Ġmeal":9435,"Ġcenters":9436,"Ġprocedimentos":9437,"Ġefforts":9438,"ycl":9439,"Ġbs":9440,"thern":9441,"ika":9442,"ogrÃ¡fica":9443,"Ġimprovement":9444,"gre":9445,"elha":9446,"Ġfrequency":9447,"Ġjobs":9448,"ĠbÃŃbl":9449,"Ġfle":9450,"Ġreached":9451,"oli":9452,"Ġbron":9453,"Ġeurop":9454,"Ġcomputadores":9455,"Ġshel":9456,"Ġbeds":9457,"nota":9458,"Ġluxemb":9459,"Ġcouple":9460,"Ġgraphics":9461,"Ġlargura":9462,"bet":9463,"isco":9464,"Ġoral":9465,"Ġorders":9466,"icks":9467,"Ġviet":9468,"Ġrefere":9469,"Ġcirurg":9470,"ĠremoÃ§Ã£o":9471,"elle":9472,"Ġsev":9473,"Ġira":9474,"Ġmeninas":9475,"Ġpermitindo":9476,"ĠgraduaÃ§Ã£o":9477,"Ġparliam":9478,"ĠconfiÃ¡vel":9479,"Ġpiso":9480,"Ġlift":9481,"ustom":9482,"Ġpraga":9483,"Ġowners":9484,"Ġinstrumentos":9485,"ĠrÃŃg":9486,"apor":9487,"Ġbarata":9488,"Ġtroca":9489,"Ġconnecting":9490,"whether":9491,"ĠsÃŃt":9492,"estamos":9493,"Ġrated":9494,"Ġevil":9495,"Ġinscre":9496,"Ġmoderna":9497,"Ġfesta":9498,"Ġalp":9499,"umas":9500,"Ġimpos":9501,"ĠcarÃ¡":9502,"pron":9503,"Ġbomba":9504,"Ġambient":9505,"ĠbenefÃŃcio":9506,"Ġatmosphere":9507,"pher":9508,"ĠtensÃ£o":9509,"Ġcath":9510,"Ġpull":9511,"Ġretail":9512,"Ġnotes":9513,"Ġroot":9514,"aterra":9515,"Ġprodutividade":9516,"Ġnavigation":9517,"ĠpÃ´r":9518,"gate":9519,"Ġemphas":9520,"Ġpassa":9521,"Ġcalls":9522,"Ġrepresenta":9523,"Ġinstitution":9524,"consul":9525,"primir":9526,"his":9527,"esh":9528,"ourag":9529,"Ġinsert":9530,"Ġdefinir":9531,"Ġbatalha":9532,"Ġtrees":9533,"Ġexplorer":9534,"Ġwait":9535,"alhas":9536,"Ġkw":9537,"Ġrespir":9538,"Ġvalle":9539,"Ġesteve":9540,"Ġlimpo":9541,"Ġetiqu":9542,"Ġamericano":9543,"Ġdestinations":9544,"Ġselecionar":9545,"Ġingredientes":9546,"Ġtum":9547,"Ġprata":9548,"Ġdelic":9549,"Ġcontrat":9550,"Ġremains":9551,"eis":9552,"tam":9553,"Ġbern":9554,"Ġnota":9555,"Ġroof":9556,"Ġsemin":9557,"Ġnumerous":9558,"Ġwol":9559,"Ġstories":9560,"Ġdescont":9561,"Ġexperienced":9562,"Ġposterior":9563,"Ġdefinition":9564,"Ġtarifa":9565,"Ġappoint":9566,"Ġunless":9567,"Ġdiscut":9568,"ĠespecÃŃfica":9569,"Ġpromotion":9570,"Ġaventura":9571,"Ġrecover":9572,"Ġnaqu":9573,"pson":9574,"Ġhighlight":9575,"Ġstrug":9576,"Ġcontrolar":9577,"Ġslight":9578,"Ġpeters":9579,"Ġauthentic":9580,"Ġdance":9581,"izando":9582,"depend":9583,"ext":9584,"Ġutilizada":9585,"Ġtransportation":9586,"nossos":9587,"ursday":9588,"fc":9589,"hist":9590,"ales":9591,"Ġinaug":9592,"Ġancient":9593,"Ġemoc":9594,"Ġarmas":9595,"Ġsoz":9596,"Ġchrome":9597,"Ġassociado":9598,"ĠesperanÃ§a":9599,"Ġdependendo":9600,"ĠÃ¡lb":9601,"mot":9602,"vin":9603,"Ġpris":9604,"Ġdefine":9605,"Ġsheet":9606,"Ġstrategies":9607,"Ġelegante":9608,"Ġadvertis":9609,"Ġsilicone":9610,"ku":9611,"Ġaulas":9612,"Ġescal":9613,"Ġsalas":9614,"Ġopera":9615,"Ġtwin":9616,"Ġcompreender":9617,"data":9618,"Ġjar":9619,"atever":9620,"Ġclube":9621,"Ġcolour":9622,"Ġcabin":9623,"Ġnewslet":9624,"Ġcontribute":9625,"Ġlub":9626,"Ġvip":9627,"Ġmanip":9628,"Ġfotografia":9629,"Ġhandle":9630,"Ġdeixa":9631,"Ġsatisfaction":9632,"Ġstraight":9633,"Ġbehavior":9634,"ĠmÃ³dulo":9635,"Ġcriteria":9636,"Ġdoc":9637,"noon":9638,"Ġbanheira":9639,"Ġambientes":9640,"Ġrubber":9641,"situ":9642,"wall":9643,"Ġlazer":9644,"Ġbrings":9645,"Ġcobertura":9646,"Ġacademic":9647,"Ġkilomet":9648,"hous":9649,"win":9650,"Ġct":9651,"Ġrang":9652,"irem":9653,"Ġshap":9654,"Ġconsiderado":9655,"Ġataque":9656,"Ġay":9657,"Ġenf":9658,"Ġirland":9659,"super":9660,"Ġmountains":9661,"Ġcatalog":9662,"user":9663,"Ġalic":9664,"atively":9665,"Ġmilhas":9666,"ĠcompreensÃ£o":9667,"ylon":9668,"venda":9669,"avor":9670,"Ġpray":9671,"Ġexpression":9672,"Ġtx":9673,"Ġrise":9674,"Ġimpostos":9675,"Ġastronom":9676,"Ġaa":9677,"Ġeight":9678,"Ġtruly":9679,"ĠcatÃ¡logo":9680,"Ġsacrif":9681,"Ġconduz":9682,"Ġlidar":9683,"fac":9684,"ener":9685,"Ġjames":9686,"Ġalgor":9687,"Ġcustomized":9688,"Ġswiss":9689,"Ġfactor":9690,"ĠÃ³timo":9691,"iada":9692,"Ġthy":9693,"Ġagenda":9694,"ĠaÃ§Ãºcar":9695,"nic":9696,"Ġleaving":9697,"Ġterr":9698,"Ġlua":9699,"Ġapreci":9700,"Ġwave":9701,"ĠrecepÃ§Ã£o":9702,"Ġsms":9703,"Ġhumanidade":9704,"Ġcuis":9705,"anean":9706,"Ġpresentation":9707,"Ġpraias":9708,"Ġduplo":9709,"ĠdepÃ³sito":9710,"ought":9711,"Ġsciences":9712,"porte":9713,"Ġindian":9714,"ĠglÃº":9715,"Ġpedidos":9716,"Ġmuscular":9717,"Ġextraord":9718,"Ġsaving":9719,"Ġparliament":9720,"pc":9721,"oras":9722,"Ġcomit":9723,"Ġgm":9724,"Ġforem":9725,"Ġconsole":9726,"Ġinspect":9727,"reno":9728,"Ġmobil":9729,"Ġmelbourne":9730,"Ġliterature":9731,"Ġinput":9732,"amer":9733,"Ġspent":9734,"Ġvalu":9735,"Ġlooks":9736,"Ġregulamento":9737,"bud":9738,"zone":9739,"ĠoraÃ§Ã£o":9740,"emia":9741,"Ġash":9742,"Ġfertil":9743,"Ġmorr":9744,"ĠinfluÃªncia":9745,"Ġdece":9746,"Ġitiner":9747,"Ġtrend":9748,"Ġinglaterra":9749,"Ġrevista":9750,"Ġdescobri":9751,"may":9752,"outs":9753,"ĠmediÃ§Ã£o":9754,"before":9755,"Ġgenerally":9756,"Ġagreed":9757,"quise":9758,"Ġchip":9759,"issÃµes":9760,"Ġartist":9761,"Ġpassou":9762,"Ġbottom":9763,"Ġmedicamentos":9764,"Ġwedding":9765,"Ã§ado":9766,"Ġvidas":9767,"Ġsituations":9768,"Ġkal":9769,"Ġinterval":9770,"Ġoffices":9771,"Ġdomestic":9772,"ĠcertificaÃ§Ã£o":9773,"Ġfiber":9774,"Ġamostras":9775,"rot":9776,"Ġveio":9777,"Ġmetabol":9778,"Ġprayer":9779,"Ġexplos":9780,"Ġcertification":9781,"Ġwordpress":9782,"Ġborra":9783,"ĠgrÃ¡fico":9784,"norm":9785,"war":9786,"Ġcem":9787,"Ġcass":9788,"Ġpom":9789,"adi":9790,"Ġgente":9791,"Ġkid":9792,"Ġmilitar":9793,"Ġdefense":9794,"Ġmuscle":9795,"Ġroman":9796,"located":9797,"ĠintroduÃ§Ã£o":9798,"kt":9799,"Ġmira":9800,"rios":9801,"Ġtradu":9802,"Ġtroubl":9803,"Ġquantity":9804,"produtos":9805,"Ġpia":9806,"ican":9807,"roz":9808,"Ġverify":9809,"Ġdistingu":9810,"ĠvitÃ³ria":9811,"ĠcritÃ©rios":9812,"ĠvÃ¡lv":9813,"dire":9814,"Ġlock":9815,"Ġappears":9816,"rian":9817,"Ġautonom":9818,"jeto":9819,"Ġfacul":9820,"Ġgets":9821,"Ġtradem":9822,"Ġelevado":9823,"ĠestratÃ©gias":9824,"Ġcorrida":9825,"Ġbmw":9826,"ĠglÃºten":9827,"Ġsai":9828,"ilos":9829,"Ġondas":9830,"Ġboost":9831,"Ġafternoon":9832,"Ġoriente":9833,"below":9834,"ĠtÃ©rm":9835,"Ġlor":9836,"Ġgan":9837,"odes":9838,"Ġsuced":9839,"Ġirrit":9840,"Ġplaneta":9841,"copy":9842,"nesta":9843,"Ġhes":9844,"otic":9845,"usto":9846,"apas":9847,"Ġcorrel":9848,"Ġbaseada":9849,"Ġproviders":9850,"Ġindu":9851,"Ġenfer":9852,"Ġcheia":9853,"Ġcarbono":9854,"Ġconducted":9855,"Ġamenities":9856,"kes":9857,"nik":9858,"reu":9859,"Ġproib":9860,"Ġsupre":9861,"Ġminas":9862,"Ġreduced":9863,"Ġcombined":9864,"Ġverdadeira":9865,"Ġpainting":9866,"Ġaceitar":9867,"Ġminister":9868,"oo":9869,"Ġinj":9870,"Ġretorn":9871,"Ġluxu":9872,"wer":9873,"inais":9874,"Ġhob":9875,"Ġcamas":9876,"ĠÃ¡ra":9877,"Ġcharles":9878,"Ġaccessible":9879,"Ġapproved":9880,"Ġfrequentemente":9881,"Ġexcellence":9882,"Ġcott":9883,"Ġtiss":9884,"Ġintr":9885,"Ġfraca":9886,"Ġballs":9887,"Ġbebidas":9888,"Ġvigor":9889,"Ġtons":9890,"osis":9891,"alf":9892,"Ġbons":9893,"Ġgear":9894,"Ġmails":9895,"preci":9896,"aturing":9897,"Ġpackages":9898,"itÃ¡ria":9899,"Ġlumin":9900,"have":9901,"Ġmanner":9902,"Ġterap":9903,"Ġdelete":9904,"ĠpreparaÃ§Ã£o":9905,"Ġbrands":9906,"Ġalegria":9907,"Ġdm":9908,"Ġagent":9909,"Ġmenores":9910,"ughter":9911,"Ġdieta":9912,"Ġpatrim":9913,"Ġlarger":9914,"Ġusage":9915,"ĠchÃ£o":9916,"Ġweak":9917,"Ġoutlook":9918,"Ġformatos":9919,"Ġdell":9920,"Ġpesquisar":9921,"saw":9922,"Ġelevada":9923,"Ġindustriais":9924,"Ġimprensa":9925,"Ġinterc":9926,"Ġinterview":9927,"Ġcheaper":9928,"ĠpropÃ³sito":9929,"Ġlinguagem":9930,"Ġchart":9931,"Ġcancer":9932,"avas":9933,"Ġshen":9934,"Ġportable":9935,"Ġmoments":9936,"Ġphilos":9937,"ÃŃbrio":9938,"Ġpipe":9939,"Ġhus":9940,"Ġganh":9941,"Ġativos":9942,"actions":9943,"Ġupgrade":9944,"select":9945,"Ġarmy":9946,"Ġmeetings":9947,"ilhÃµes":9948,"Ġket":9949,"Ġtrabalha":9950,"Ġbrain":9951,"Ġpreferred":9952,"zhen":9953,"serviÃ§os":9954,"Ġrank":9955,"Ġleads":9956,"Ġoferecendo":9957,"fall":9958,"Ġparal":9959,"Ġopens":9960,"Ġdescar":9961,"Ġsouthern":9962,"Ġpronto":9963,"Ġtirar":9964,"Ġmediante":9965,"mor":9966,"conn":9967,"compar":9968,"Ġgospel":9969,"aluguÃ©is":9970,"Ġfals":9971,"Ġhs":9972,"eding":9973,"Ġrue":9974,"Ġscene":9975,"Ġinterno":9976,"Ġmoeda":9977,"Ġwikip":9978,"Ġportuguesa":9979,"jogos":9980,"Ġcv":9981,"Ġmd":9982,"another":9983,"Ġreb":9984,"ulado":9985,"Ġcalib":9986,"Ġilhas":9987,"Ã³nia":9988,"ĠrodoviÃ¡ria":9989,"anbul":9990,"ecut":9991,"Ġcongress":9992,"Ġstim":9993,"Ġmichael":9994,"Ġentering":9995,"Ġconcorr":9996,"Ġrigor":9997,"hd":9998,"Ġfishing":9999,"Ġinstitut":10000,"Ġpermanente":10001,"Ġplataformas":10002,"ĠfÃŃsico":10003,"Ġduty":10004,"intern":10005,"Ġora":10006,"Ġhr":10007,"Ġhung":10008,"pm":10009,"urb":10010,"Ġjava":10011,"Ġzel":10012,"Ġgn":10013,"eller":10014,"fego":10015,"Ġduro":10016,"Ġaluminum":10017,"Ġtribunal":10018,"Ġsimultane":10019,"dri":10020,"aton":10021,"Ġisn":10022,"Ġfee":10023,"Ġlegais":10024,"Ġsabor":10025,"Ġtrabalhando":10026,"Ġaccepted":10027,"ĠestatÃŃsticas":10028,"orado":10029,"Ġgord":10030,"Ġidentified":10031,"Ġtampa":10032,"Ġsacerd":10033,"Ġsamples":10034,"Ġgastron":10035,"flow":10036,"rations":10037,"uters":10038,"Ġkh":10039,"canner":10040,"Ġhouve":10041,"pac":10042,"Ġnessa":10043,"Ġgem":10044,"Ġcontamin":10045,"Ġneve":10046,"Ġinterna":10047,"Ġlagos":10048,"descubra":10049,"fly":10050,"Ġcamping":10051,"Ġteatro":10052,"Ġproductivity":10053,"Ġpersist":10054,"Ġmelhoria":10055,"Ġaplicar":10056,"Ġfala":10057,"Ġwars":10058,"Ġruas":10059,"Ġrequested":10060,"Ġcadeia":10061,"Ġcalendar":10062,"ĠcenÃ¡rio":10063,"aj":10064,"Ġlum":10065,"Ġveter":10066,"Ã¡fego":10067,"Ġsurpre":10068,"Ġjean":10069,"doc":10070,"Ġnubl":10071,"Ġwife":10072,"agu":10073,"Ġkl":10074,"Ġpanama":10075,"Ġmanaged":10076,"Ġexperimental":10077,"Ġlandscape":10078,"Ġborracha":10079,"custom":10080,"lado":10081,"sign":10082,"agon":10083,"ainted":10084,"ĠlegislaÃ§Ã£o":10085,"Ġdemocra":10086,"ĠdÃ³lares":10087,"adel":10088,"Ġjord":10089,"abaixo":10090,"Ġbeat":10091,"chain":10092,"Ġresumo":10093,"Ġformal":10094,"Ġcaps":10095,"Ġwooden":10096,"Ġadvantages":10097,"snow":10098,"Ġfios":10099,"Ã³is":10100,"Ġclock":10101,"Ġcuritiba":10102,"Ġlimite":10103,"Ġdisplayed":10104,"Ġassinatura":10105,"Ġwitness":10106,"quet":10107,"Ã³via":10108,"Ġespect":10109,"yscanner":10110,"icians":10111,"equip":10112,"Ġaffili":10113,"Ġprobably":10114,"reviews":10115,"Ġparecer":10116,"Ġenables":10117,"Ġestrange":10118,"Ġcathed":10119,"ĠdisposiÃ§Ã£o":10120,"Ġmonday":10121,"Ġartists":10122,"Ġcontaining":10123,"Ġafrican":10124,"ĠprovÃŃncia":10125,"Ġpunta":10126,"Ġboca":10127,"ĠestÃº":10128,"Ġorgas":10129,"Ġencontrado":10130,"Ġbrothers":10131,"Ġaffected":10132,"Ġdeveria":10133,"jiang":10134,"Ġmovies":10135,"Ġintermedi":10136,"Ġcrisis":10137,"hp":10138,"icia":10139,"rov":10140,"Ġcarn":10141,"Ġconfir":10142,"Ġdefend":10143,"ÃŃss":10144,"Ġpaciente":10145,"Ġcomplexo":10146,"Ġinteressante":10147,"Ġalgarve":10148,"cp":10149,"tex":10150,"Ġestudar":10151,"Ġelectrical":10152,"fu":10153,"Ã´nica":10154,"Ġfibra":10155,"watch":10156,"Ġbound":10157,"Ġcarte":10158,"Ġdepth":10159,"Ġprestig":10160,"Ġvantagem":10161,"Ġbog":10162,"Ġumbre":10163,"Ġvalve":10164,"ĠdiÃ¡ria":10165,"Ġincred":10166,"desen":10167,"Ġdinner":10168,"Ġuefa":10169,"Ġdesejos":10170,"atemala":10171,"Ġtank":10172,"Ġsoil":10173,"Ġblind":10174,"Ġdeterminado":10175,"Ġfelt":10176,"Ġpaisagem":10177,"primento":10178,"Ġnascimento":10179,"pÃ¡gina":10180,"Ġdifferences":10181,"redores":10182,"Ġdecisions":10183,"Ġreconhecimento":10184,"hire":10185,"Ġile":10186,"Ġrt":10187,"Ġdestas":10188,"Ġfolder":10189,"Ġsigns":10190,"Ġtransmission":10191,"Ġhonor":10192,"ĠorientaÃ§Ã£o":10193,"Ġmoscow":10194,"adv":10195,"idente":10196,"Ġdoors":10197,"iox":10198,"Ġestruturas":10199,"Ġnutrition":10200,"Ġstadium":10201,"Ġjurisd":10202,"Ġleitor":10203,"Ġtrazer":10204,"Ġfornecido":10205,"Ġcomprehensive":10206,"Ġpend":10207,"stre":10208,"priv":10209,"Ġturned":10210,"Ġgrey":10211,"Ġterritory":10212,"Ġhorizont":10213,"Ġconsentimento":10214,"Ġpintura":10215,"Ġhamburg":10216,"Ġsymptoms":10217,"dig":10218,"ĠtÃŃp":10219,"eres":10220,"ÃŃmetros":10221,"Ġcargo":10222,"Ġexclusivo":10223,"Ġtypically":10224,"ridge":10225,"ĠcÃŃ":10226,"Ġkr":10227,"Ġcrise":10228,"Ġhidden":10229,"Ġtypical":10230,"ivelmente":10231,"Ġpocket":10232,"Ġinterfer":10233,"Ġcair":10234,"Ġoperators":10235,"Ġovercast":10236,"mesmo":10237,"Ġbonus":10238,"Ġchegou":10239,"Ġnation":10240,"eca":10241,"Ġconsegue":10242,"Ġcrown":10243,"Ġmirror":10244,"Ġalcohol":10245,"Ġfotografias":10246,"mel":10247,"Ġdeploy":10248,"recent":10249,"Ġfaster":10250,"Ġlights":10251,"Ġcara":10252,"Ġescape":10253,"Ġgluten":10254,"Ġfamiliares":10255,"Ġgreatest":10256,"Ġextensive":10257,"Ġsintomas":10258,"Ġzealand":10259,"Ġsql":10260,"irl":10261,"Ġatuais":10262,"Ġaparecer":10263,"Ġdebate":10264,"Ġexpertise":10265,"rÃ³leo":10266,"cÃ³p":10267,"gage":10268,"Ġnights":10269,"keep":10270,"indic":10271,"Ġacceler":10272,"ĠpalÃ¡cio":10273,"ĠcomposiÃ§Ã£o":10274,"ĠlideranÃ§a":10275,"Ġconcrete":10276,"Ġmai":10277,"Ãªnis":10278,"Ġmarco":10279,"grand":10280,"aki":10281,"proper":10282,"Ġdelas":10283,"Ġessenciais":10284,"Ġestejam":10285,"Ġcausar":10286,"Ġhouver":10287,"far":10288,"hado":10289,"ĠtÃ³":10290,"ĠnÃ¡":10291,"Ġvast":10292,"ĠtrÃ¡fego":10293,"ĠgrÃ©cia":10294,"Ġformats":10295,"order":10296,"Ġintu":10297,"Ã³nio":10298,"Ġcomponent":10299,"ĠdimensÃµes":10300,"radas":10301,"Ġpis":10302,"Ġmeias":10303,"Ġwro":10304,"aci":10305,"icais":10306,"ĠprogramaÃ§Ã£o":10307,"Ġrequests":10308,"Ġeventually":10309,"Ġclothes":10310,"Ġcria":10311,"Ġafford":10312,"ioso":10313,"brand":10314,"Ġcertified":10315,"Ġaconteceu":10316,"ĠeconÃ´mica":10317,"Ġproporciona":10318,"Ġtablets":10319,"was":10320,"Ġcomand":10321,"Ġapk":10322,"Ġweap":10323,"Ġleaves":10324,"cool":10325,"Ġfiltro":10326,"Ġbuurt":10327,"Ġfacto":10328,"Ġvelho":10329,"radar":10330,"Ġwalls":10331,"fal":10332,"Ġtort":10333,"Ġcater":10334,"atia":10335,"Ġrelativamente":10336,"ambique":10337,"ĠacessÃŃvel":10338,"Ġpersonalizar":10339,"Ġprocedimento":10340,"Ġfulfill":10341,"Ġcoordin":10342,"Ġnublado":10343,"Ġwebcam":10344,"Ġexistence":10345,"Ġreferred":10346,"Ġtant":10347,"ulated":10348,"ibar":10349,"Ġqualit":10350,"Ġconhece":10351,"Ġleadership":10352,"uff":10353,"Ġartistas":10354,"Ġcontinuous":10355,"Ġintroduction":10356,"ĠexÃ©rcito":10357,"sobre":10358,"Ãªx":10359,"start":10360,"Ġtemas":10361,"Ġsecador":10362,"Ġmultif":10363,"Ġconsumidores":10364,"Ġsenhora":10365,"Ġorden":10366,"Ġfinanceira":10367,"table":10368,"oti":10369,"Ġnoise":10370,"iev":10371,"Ġbread":10372,"Ġresto":10373,"Ġencourag":10374,"Ġjoseph":10375,"Ġcircunst":10376,"Ġcumprir":10377,"uca":10378,"ilar":10379,"Ġbasket":10380,"Ġwarning":10381,"Ġencoun":10382,"Ġproposed":10383,"Ġdimension":10384,"Ġlodging":10385,"Ġacquire":10386,"ĠcÃ³pia":10387,"cado":10388,"Ġeb":10389,"Ġincome":10390,"elect":10391,"aking":10392,"Ġups":10393,"Ã¢nicos":10394,"ĠdiferenÃ§as":10395,"Ġgratuitas":10396,"Ġplanta":10397,"Ġvenezuela":10398,"Ġacts":10399,"Ġindones":10400,"Ġmasters":10401,"Ġbanks":10402,"ĠaplicÃ¡vel":10403,"Ġtaxi":10404,"Ġspecifically":10405,"Ġimproving":10406,"kyo":10407,"Ġcontrolled":10408,"ĠcidadÃ£os":10409,"Ġdiesel":10410,"coz":10411,"Ġcorros":10412,"Ġsovi":10413,"Ġpassion":10414,"Ġstarts":10415,"Ġvillas":10416,"Ġremoved":10417,"Ġfocused":10418,"Ġatingir":10419,"Ġdificuldades":10420,"ĠdiagnÃ³stico":10421,"sen":10422,"ref":10423,"Ġfog":10424,"Ġdirec":10425,"Ġpoli":10426,"Ġmetrop":10427,"Ġdupla":10428,"Ġturkey":10429,"Ġkept":10430,"Ġsuporta":10431,"Ġparceiro":10432,"base":10433,"Ġoito":10434,"arta":10435,"oud":10436,"Ġvpn":10437,"Ġresource":10438,"Ġmoving":10439,"ĠpetrÃ³leo":10440,"Ġbathrooms":10441,"utsch":10442,"Ġsplit":10443,"oret":10444,"Ġinject":10445,"Ġanne":10446,"Ġrevers":10447,"Ġqueim":10448,"ager":10449,"Ġmarine":10450,"Ġcasc":10451,"Ġdemanda":10452,"Ġderiv":10453,"Ġflorida":10454,"Ġcuisine":10455,"Ġnoites":10456,"Ġatend":10457,"Ġmanga":10458,"Ġpanasonic":10459,"ĠinteligÃªncia":10460,"Ġbicicleta":10461,"Ġtb":10462,"Ġsv":10463,"Ġcapa":10464,"Ġstreets":10465,"Ġaimed":10466,"Ġsongs":10467,"into":10468,"tered":10469,"Ġcomposto":10470,"ĠverificaÃ§Ã£o":10471,"intage":10472,"Ġatlantic":10473,"Ã±a":10474,"isms":10475,"Ġtheory":10476,"Ġabri":10477,"Ġevidence":10478,"Ġsole":10479,"contin":10480,"Ġfechar":10481,"deve":10482,"Ġscar":10483,"Ġdistrito":10484,"Ġimporta":10485,"Ġdevemos":10486,"Ġmunich":10487,"Ġenvie":10488,"cluded":10489,"gon":10490,"lov":10491,"iring":10492,"Ġverifique":10493,"Ġligado":10494,"consulte":10495,"mus":10496,"Ġdal":10497,"Ġric":10498,"teiro":10499,"Ġaquis":10500,"Ġtables":10501,"Ġbiggest":10502,"palav":10503,"Ġistanbul":10504,"Ġfeminino":10505,"known":10506,"Ġalvo":10507,"Ġinstance":10508,"ĠinÃºmeras":10509,"Ġbelgium":10510,"Ġumbrella":10511,"lier":10512,"Ġmouth":10513,"open":10514,"Ġtransf":10515,"visit":10516,"Ġchef":10517,"Ġparticipate":10518,"Ġquarter":10519,"ĠirmÃ£o":10520,"ĠexpansÃ£o":10521,"elizmente":10522,"Ġawards":10523,"Ġacons":10524,"Ġappreci":10525,"Ġreceita":10526,"bean":10527,"Ġpermanent":10528,"Ġfinanceiros":10529,"Ġtroubles":10530,"len":10531,"Ġcock":10532,"Ġww":10533,"Ã¡mos":10534,"close":10535,"Ġcriou":10536,"Ġrisks":10537,"Ġesperar":10538,"Ġwiki":10539,"ĠespÃ©cie":10540,"detal":10541,"Ġvary":10542,"Ġalarm":10543,"Ġconnections":10544,"follow":10545,"Ġmam":10546,"Ġlaun":10547,"Ġmetade":10548,"going":10549,"Ġchuve":10550,"Ġpreviously":10551,"Ġacquainted":10552,"Ġdatasheet":10553,"Ġfilled":10554,"Ġdynam":10555,"Ġtaiwan":10556,"Ġconsists":10557,"Ġteacher":10558,"Ġcathedral":10559,"bios":10560,"rix":10561,"Ġnotas":10562,"Ġmexic":10563,"Ġrealizadas":10564,"Ġfornecimento":10565,"Ġmobili":10566,"Ġmontreal":10567,"hiba":10568,"encontr":10569,"elines":10570,"Ġanual":10571,"orts":10572,"Ġgenu":10573,"Ġseeking":10574,"ĠautomÃ³veis":10575,"Ġgrace":10576,"Ã³rnia":10577,"Ġvirus":10578,"Ġmuseus":10579,"Ġsilva":10580,"Ġanalyz":10581,"Ġinstrumento":10582,"Ġconcorda":10583,"ĠsÃŃmb":10584,"dios":10585,"iant":10586,"Ġspray":10587,"mega":10588,"Ġbirds":10589,"Ġelegant":10590,"Ġride":10591,"Ġcovers":10592,"Ġcamada":10593,"cara":10594,"Ġcooking":10595,"Ġfantastic":10596,"Ġlyrics":10597,"Ġleisure":10598,"Ġreducing":10599,"rine":10600,"Ġjs":10601,"izer":10602,"Ġrelacionado":10603,"Ġthermal":10604,"Ġrespondem":10605,"charge":10606,"Ġterceira":10607,"Ġbuffet":10608,"Ġsaturday":10609,"Ġcrystal":10610,"Ġdout":10611,"Ġcreek":10612,"Ġwet":10613,"Ġvinhos":10614,"urado":10615,"Ġimprimir":10616,"Ġleeds":10617,"Ġpresents":10618,"Ġdepende":10619,"Ġtheatre":10620,"Ġestad":10621,"Ġantigos":10622,"Ġetapas":10623,"Ġmalha":10624,"Ġsteam":10625,"Ġdivine":10626,"ĠrefeiÃ§Ã£o":10627,"Ġparadise":10628,"Ġdando":10629,"Ġinner":10630,"eco":10631,"Ġarbit":10632,"sea":10633,"people":10634,"Ġserving":10635,"ĠalteraÃ§Ã£o":10636,"ĠequilÃŃbrio":10637,"wed":10638,"Ġgender":10639,"Ġretr":10640,"Ġimproved":10641,"Ġapoiar":10642,"Ġanalyze":10643,"Ġloading":10644,"Ġmarriott":10645,"Ġinfantil":10646,"hum":10647,"tles":10648,"inburgh":10649,"Ġpink":10650,"Ġdisney":10651,"result":10652,"Ġcurte":10653,"Ġtested":10654,"holiday":10655,"ĠelÃ©trico":10656,"Ġtube":10657,"Ġpovos":10658,"Ġanivers":10659,"ulate":10660,"ĠprevenÃ§Ã£o":10661,"constru":10662,"Ġassass":10663,"Ġequipada":10664,"Ġuniverso":10665,"ĠcomunicaÃ§Ãµes":10666,"Ġcorreio":10667,"Ġhydro":10668,"Ġida":10669,"Ġanex":10670,"Ġaustria":10671,"Ġfortes":10672,"Ġnamed":10673,"Ġsapatos":10674,"ĠcalifÃ³rnia":10675,"link":10676,"quec":10677,"Ġhaz":10678,"ĠpolÃŃcia":10679,"Ġlived":10680,"Ġskip":10681,"Ġpublicado":10682,"Ġadvog":10683,"Ġdecoration":10684,"Ġrelationships":10685,"Ġmediterranean":10686,"prof":10687,"Ġchefe":10688,"Ġautomot":10689,"ailand":10690,"selecion":10691,"Ġpensamento":10692,"ĠdimensÃ£o":10693,"Ġattempt":10694,"Ġfru":10695,"introdu":10696,"Ġlinear":10697,"Ġpropag":10698,"Ġcosm":10699,"ĠdiscussÃ£o":10700,"Ġdiscussion":10701,"Ġconflict":10702,"Ġfailure":10703,"Ġcriminal":10704,"Ġdiabetes":10705,"Ġadquirir":10706,"non":10707,"Ġnap":10708,"Ġexame":10709,"Ġacum":10710,"Ġouvido":10711,"Ġamig":10712,"Ġcoleta":10713,"hern":10714,"ÃŃncip":10715,"Ġficam":10716,"Ġdirections":10717,"Ġtopics":10718,"ĠÃ¡rvore":10719,"ainda":10720,"aixÃ£o":10721,"Ġconvinc":10722,"Ġprecision":10723,"melhor":10724,"address":10725,"ĠacadÃªm":10726,"imp":10727,"chi":10728,"opin":10729,"Ġpeak":10730,"Ġportfol":10731,"Ġblo":10732,"Ġdescubra":10733,"Ġregulations":10734,"Ġobjectives":10735,"apartment":10736,"Ġjoined":10737,"ĠreproduÃ§Ã£o":10738,"family":10739,"ramento":10740,"Ġsas":10741,"arias":10742,"Ġbacter":10743,"Ġconsigo":10744,"Ġminuto":10745,"Ġcatar":10746,"Ġbodies":10747,"Ġrazo":10748,"Ġartista":10749,"Ġencontrada":10750,"Ġinsurance":10751,"Ġfounded":10752,"ĠtransformaÃ§Ã£o":10753,"Ġceleb":10754,"Ġfloors":10755,"ĠcÃ¢n":10756,"Ã©ia":10757,"ĠrÃ©":10758,"Ġsignal":10759,"Ġangola":10760,"ÃŃduo":10761,"Ġmine":10762,"Ġbeads":10763,"Ġaquilo":10764,"ĠvariÃ¡veis":10765,"Ġhosting":10766,"Ġshell":10767,"Ġreader":10768,"Ġexemplos":10769,"Ġtratar":10770,"power":10771,"Ġbible":10772,"icip":10773,"eland":10774,"Ġgin":10775,"Ġabu":10776,"Ġabre":10777,"talvez":10778,"Ġromantic":10779,"Ġipod":10780,"location":10781,"Ġtreated":10782,"Ġselecionadas":10783,"Ġwidely":10784,"lista":10785,"Ġknows":10786,"Ġhelpful":10787,"ĠvÃŃtim":10788,"Ġmemor":10789,"Ġamarelo":10790,"limited":10791,"Ġculturais":10792,"py":10793,"wick":10794,"Ġsizes":10795,"quei":10796,"Ġreven":10797,"Ġdesativ":10798,"Ġdecorr":10799,"Ġdiscri":10800,"ĠsensaÃ§Ã£o":10801,"Ġconectar":10802,"Ã¢metro":10803,"Ġcuba":10804,"Ġocorrer":10805,"Ġemirates":10806,"Ġcircumst":10807,"Ġaccurate":10808,"reira":10809,"teries":10810,"Ġserra":10811,"Ġourselves":10812,"Ġenviado":10813,"Ġsustentabilidade":10814,"ĠlÃŃnguas":10815,"Ġdrugs":10816,"Ġmasculino":10817,"Ġcac":10818,"Ġweld":10819,"Ġproceed":10820,"Ġcontar":10821,"Ġdisk":10822,"Ġgenerated":10823,"Ġdiscount":10824,"Ġsexy":10825,"Ġfinally":10826,"Ġextreme":10827,"Ġsig":10828,"esto":10829,"Ġsauna":10830,"Ġchoos":10831,"Ġcobre":10832,"Ġtoul":10833,"Ġelemento":10834,"Ġaudience":10835,"Ġplanejamento":10836,"Ġgt":10837,"ogen":10838,"Ġphotograph":10839,"Ġspecialized":10840,"Ġresearchers":10841,"Ġcrescer":10842,"Ġrevestimento":10843,"kar":10844,"oni":10845,"Ġlamin":10846,"Ġencer":10847,"Ġsched":10848,"Ġcapabilities":10849,"Ġtrial":10850,"Ġgratuitos":10851,"Ġolder":10852,"Ġrecognized":10853,"ĠrefeiÃ§Ãµes":10854,"Ġrandom":10855,"aus":10856,"Ġnin":10857,"Ġhills":10858,"Ġseres":10859,"Ġchines":10860,"ĠdiÃ¡rio":10861,"Ġcomputers":10862,"ierra":10863,"Ġalcance":10864,"Ġremaining":10865,"Ġjackson":10866,"Ġspacious":10867,"bb":10868,"kin":10869,"acidade":10870,"acular":10871,"Ġassuntos":10872,"Ġcapable":10873,"Ġbela":10874,"Ġocidental":10875,"Ġkeys":10876,"Ġwallpap":10877,"Ġconvenience":10878,"Ġvaranda":10879,"ĠÃŃcone":10880,"Ġaws":10881,"ĠprÃŃncip":10882,"Ġcontacts":10883,"ibly":10884,"Ġscot":10885,"Ġidentification":10886,"Ġtubo":10887,"Ġvictim":10888,"Ġparks":10889,"abel":10890,"Ġtemplo":10891,"Ġpassed":10892,"Ġlivres":10893,"Ġibook":10894,"consider":10895,"Ġmestrados":10896,"Ġacademy":10897,"Ġouv":10898,"Ġsocio":10899,"ĠanalÃŃt":10900,"Ġdirective":10901,"Ġmultim":10902,"Ġsensitive":10903,"Ġcontrast":10904,"ĠlÃŃquido":10905,"Ġtast":10906,"Ġkiss":10907,"Ġshot":10908,"Ġguatemala":10909,"Ġxl":10910,"Ġmoedas":10911,"Ġprinciple":10912,"Ġprojetado":10913,"Ġtomada":10914,"Ġpacking":10915,"Ġflorence":10916,"Ġtexas":10917,"Ġcaminhada":10918,"Ġinfraestrutura":10919,"haps":10920,"Ġbingo":10921,"Ġnm":10922,"empres":10923,"ogia":10924,"Ġafir":10925,"Ġextended":10926,"Ġmotion":10927,"Ġiniciativa":10928,"Ġfinanceiro":10929,"qualquer":10930,"Ġrecolher":10931,"Ġpleasure":10932,"Ġevangelho":10933,"Ġcaixas":10934,"Ġpant":10935,"Ġbusc":10936,"Ġcuja":10937,"fortun":10938,"Ġspecification":10939,"Ġmedicina":10940,"Ġoblig":10941,"Ġmecanismo":10942,"palavras":10943,"Ġaccompan":10944,"Ġesque":10945,"Ġcamisa":10946,"ĠhistÃ³rias":10947,"Ġtechnique":10948,"Ġreligion":10949,"Ġloved":10950,"Ġinitiative":10951,"ĠcientÃŃfica":10952,"Ġwil":10953,"Ġvender":10954,"Ġposted":10955,"Ġremoval":10956,"ĠtendÃªncias":10957,"Ġgentle":10958,"two":10959,"Ġproof":10960,"atividades":10961,"Ġantiv":10962,"Ġviewing":10963,"Ġdownloads":10964,"ĠdinÃ¢mica":10965,"Ġweekend":10966,"Ġplatforms":10967,"Ġsubmit":10968,"Ġcommerce":10969,"Ġsustainability":10970,"Ġwaters":10971,"Ġbalcony":10972,"avascript":10973,"Ġpush":10974,"alle":10975,"Ġnurs":10976,"otas":10977,"stud":10978,"obile":10979,"dule":10980,"Ġvalencia":10981,"Ġdied":10982,"Ġinvas":10983,"Ġkeyboard":10984,"Ġheads":10985,"Ġevaluate":10986,"Ġpecado":10987,"Ġidiomas":10988,"ĠdÃ©cada":10989,"dy":10990,"Ġdee":10991,"Ġflower":10992,"prene":10993,"neve":10994,"romantic":10995,"Ġhappened":10996,"Ġclearly":10997,"Ġempresarial":10998,"Ġsweden":10999,"Ġbrilhante":11000,"itÃ¡rios":11001,"oty":11002,"ĠresÃŃduos":11003,"Ġsofr":11004,"Ġmotivos":11005,"Ġmanufacture":11006,"discover":11007,"Ġachieved":11008,"Ġparlamento":11009,"Ġnuclear":11010,"Ġtente":11011,"access":11012,"Ġappar":11013,"Ġformation":11014,"pression":11015,"Ġskill":11016,"ĠconstruÃŃdo":11017,"Ġapresentam":11018,"gery":11019,"Ġitaliana":11020,"Ġenvironments":11021,"Ġrentalcars":11022,"Ġpowers":11023,"ĠlÃ¢mpada":11024,"wr":11025,"Ġfug":11026,"adura":11027,"acas":11028,"Ġtrails":11029,"Ġbrinc":11030,"Ġpublish":11031,"Ġbrow":11032,"Ġdiversidade":11033,"Ġcancelar":11034,"ourage":11035,"ĠsÃ¡bado":11036,"further":11037,"Ġissued":11038,"ĠÃ¡lbum":11039,"bast":11040,"uno":11041,"Ġjum":11042,"arda":11043,"Ġreserved":11044,"Ġresistant":11045,"Ġsmartphones":11046,"buy":11047,"Ġcontribuir":11048,"Ġborder":11049,"tico":11050,"Ġsad":11051,"anks":11052,"Ġentend":11053,"Ġrecept":11054,"Ġreconstru":11055,"ĠmÃ©dica":11056,"Ġperspective":11057,"Ġtrig":11058,"Ġnele":11059,"Ġorganized":11060,"Ġtaxes":11061,"Ġencant":11062,"Ġrecomendado":11063,"Ġathens":11064,"gada":11065,"Ġsist":11066,"orra":11067,"Ġreemb":11068,"ÃŃne":11069,"foram":11070,"Ġareia":11071,"Ġretorno":11072,"domin":11073,"Ġstructures":11074,"Ġintellectual":11075,"Ġfuncionalidade":11076,"ĠÃ¡rvores":11077,"gens":11078,"Ġteles":11079,"Ġnative":11080,"icidade":11081,"Ġhigi":11082,"Ġgun":11083,"Ġrans":11084,"Ġthailand":11085,"unas":11086,"Ġapont":11087,"veloper":11088,"deix":11089,"Ġcord":11090,"Ġpoland":11091,"Ġsmith":11092,"Ġhorse":11093,"Ġbiom":11094,"ĠrevoluÃ§Ã£o":11095,"Ġtweet":11096,"Ġfed":11097,"Ġbt":11098,"clar":11099,"Ġformula":11100,"issions":11101,"Ġaviv":11102,"Ġgerar":11103,"Ġphotography":11104,"Ġinvestimentos":11105,"casas":11106,"ĠÃ³pt":11107,"Ġmeteo":11108,"Ġfigura":11109,"ĠaproximaÃ§Ã£o":11110,"Ġdragon":11111,"procura":11112,"recommend":11113,"rico":11114,"seja":11115,"uracy":11116,"coisas":11117,"Ġlimites":11118,"Ġuniverse":11119,"Ġcustomize":11120,"Ġharbor":11121,"Ġfloresta":11122,"Ġpenet":11123,"Ġcorrente":11124,"Ġcompromet":11125,"ĠeletrÃ´nico":11126,"Ġultimate":11127,"fing":11128,"fig":11129,"Ġdust":11130,"Ġdano":11131,"Ġcura":11132,"Ġoct":11133,"Ã©u":11134,"stone":11135,"Ġacho":11136,"Ġarena":11137,"Ġmeat":11138,"Ġeastern":11139,"ĠapresentaÃ§Ãµes":11140,"scrib":11141,"ĠflexÃŃvel":11142,"ĠprÃªmio":11143,"wing":11144,"Ġsorte":11145,"Ġinqu":11146,"Ġhack":11147,"Ġadquir":11148,"Ġhem":11149,"arium":11150,"Ġvisiting":11151,"Ġdada":11152,"Ġthr":11153,"Ġwithdra":11154,"perg":11155,"ĠintervenÃ§Ã£o":11156,"wear":11157,"Ġxvi":11158,"Ġtrim":11159,"Ġsurpr":11160,"Ġretro":11161,"ĠpreferÃªncias":11162,"ĠanÃ¡lises":11163,"Ġarrang":11164,"algumas":11165,"Ġhorizonte":11166,"ĠrelÃ³gios":11167,"claim":11168,"Ġdental":11169,"eses":11170,"odos":11171,"ĠterÃ§a":11172,"Ġentregue":11173,"Ġconsiderar":11174,"Ġpapa":11175,"Ġfundos":11176,"Ġexamples":11177,"ĠgravaÃ§Ã£o":11178,"Ġcomposition":11179,"Ġincorre":11180,"Ġflowers":11181,"Ġdimensions":11182,"ĠfÃ³rm":11183,"Ġwednesday":11184,"Ġjerusalem":11185,"Ġoslo":11186,"Ġdespite":11187,"Ġimobili":11188,"Ġfilos":11189,"ousness":11190,"Ġviena":11191,"Ġfolhas":11192,"ÃŃlio":11193,"ĠlanÃ§ado":11194,"ih":11195,"utical":11196,"Ġya":11197,"ÃŃram":11198,"Ġtrends":11199,"tax":11200,"Ġadding":11201,"Ġmuseums":11202,"Ġgraves":11203,"Ġdaniel":11204,"Ġhundred":11205,"num":11206,"anim":11207,"urre":11208,"thank":11209,"vera":11210,"illing":11211,"Ġbecoming":11212,"Ġauthors":11213,"Ġpreferences":11214,"Ġreturned":11215,"Ġliteratura":11216,"iest":11217,"reo":11218,"apenas":11219,"cts":11220,"Ġxx":11221,"Ġfinalmente":11222,"Ġconvent":11223,"Ġtechnological":11224,"Ġreservados":11225,"Ġrelacionamento":11226,"Ġdesconhec":11227,"Ġbegins":11228,"Ġsid":11229,"Ġresta":11230,"hof":11231,"istema":11232,"Ġdepends":11233,"Ġwatches":11234,"Ġinfluenci":11235,"Ġrecuperar":11236,"Ġpregnancy":11237,"Ġambientais":11238,"wind":11239,"orig":11240,"Ġvector":11241,"Ġestoque":11242,"Ġbeer":11243,"Ġfinished":11244,"Ġreceiving":11245,"Ġedinburgh":11246,"Ġlessons":11247,"ĠedifÃŃcios":11248,"Ġcollaboration":11249,"Ġaprimorar":11250,"Ġpior":11251,"Ġea":11252,"Ġreuters":11253,"Ġthou":11254,"ÃŃnas":11255,"Ġhelped":11256,"ĠconveniÃªncia":11257,"holm":11258,"ĠemergÃªncia":11259,"Ġmagazine":11260,"nesse":11261,"who":11262,"enjoy":11263,"onta":11264,"Ġindo":11265,"Ġvr":11266,"Ġandr":11267,"guests":11268,"Ġpossess":11269,"Ġantib":11270,"Ġposicion":11271,"Ġconcerns":11272,"ĠnÃº":11273,"Ġasi":11274,"lywood":11275,"Ġabroad":11276,"anga":11277,"Ġanywhere":11278,"Ġsigned":11279,"Ġajudam":11280,"Ġlegit":11281,"ĠsofÃ¡":11282,"ĠtÃ³pico":11283,"Ġantecip":11284,"Ġdeck":11285,"plane":11286,"Ġkings":11287,"Ġvisited":11288,"Ġracing":11289,"Ġzur":11290,"Ġbases":11291,"Ġlogot":11292,"Ġlevou":11293,"Ġtamanhos":11294,"Ġpermanecer":11295,"hostal":11296,"ĠquÃŃmica":11297,"quete":11298,"Ġmans":11299,"ĠfazÃª":11300,"Ġwhenever":11301,"Ġremoto":11302,"Ġsupporting":11303,"Ġcontained":11304,"Ġlicens":11305,"Ġmaker":11306,"build":11307,"Ġadopt":11308,"muito":11309,"Ġmeasurement":11310,"houses":11311,"hus":11312,"Ġpobre":11313,"Ġoeste":11314,"Ġbola":11315,"unning":11316,"ifies":11317,"Ġjavascript":11318,"Ġdesporto":11319,"Ġcombina":11320,"Ġbaixe":11321,"Ġrestri":11322,"Ġfuncionar":11323,"Ġincreases":11324,"Ġmissing":11325,"Ġhearts":11326,"Ġblocks":11327,"lig":11328,"raine":11329,"olas":11330,"Ġross":11331,"Ġford":11332,"Ġskyscanner":11333,"Ġdizem":11334,"Ġmovimentos":11335,"Ġtitular":11336,"Ġconcepts":11337,"Ġdrogas":11338,"Ġperspectiva":11339,"fts":11340,"tv":11341,"Ġost":11342,"Ġkat":11343,"Ġstudied":11344,"Ġprojecto":11345,"Ġconsiste":11346,"Ġflying":11347,"Ġbahia":11348,"Ġtreas":11349,"onym":11350,"Ġbapt":11351,"Ġvatic":11352,"anti":11353,"forn":11354,"weight":11355,"Ġhelping":11356,"Ġatualizado":11357,"ĠmantÃ©m":11358,"muitos":11359,"Ġrecognition":11360,"Ġpulse":11361,"Ġlaunched":11362,"lights":11363,"Ġpob":11364,"deaux":11365,"ĠterÃ£o":11366,"Ġshado":11367,"Ġteoria":11368,"Ġcampus":11369,"ĠreligiÃ£o":11370,"Ġwaiting":11371,"Ġcorporation":11372,"cement":11373,"kit":11374,"ĠsÃŃn":11375,"Ġprovision":11376,"Ġalm":11377,"Ġstable":11378,"Ġteria":11379,"Ġequal":11380,"good":11381,"full":11382,"Ġefect":11383,"Ġlayout":11384,"Ġspeaking":11385,"Ġlavar":11386,"Ġhousing":11387,"ĠdÃºvidas":11388,"Ġdiscrimin":11389,"Ġtall":11390,"acom":11391,"Ġsofa":11392,"Ġbrook":11393,"Ġdedos":11394,"Ġadopted":11395,"Ġrelevantes":11396,"Ġchuveiro":11397,"omia":11398,"eless":11399,"endas":11400,"avar":11401,"ĠprÃ³ximas":11402,"cedes":11403,"Ġhydra":11404,"Ġconceitos":11405,"ĠavanÃ§ada":11406,"Ġistock":11407,"Ġcairo":11408,"ĠnegociaÃ§Ã£o":11409,"adicionar":11410,"Ġbudapest":11411,"ionais":11412,"ctive":11413,"Ġapresentado":11414,"Ġtalking":11415,"ĠresidÃªncia":11416,"Ġparticularmente":11417,"Ġimpossible":11418,"receba":11419,"Ġbrowse":11420,"pace":11421,"Ġcogn":11422,"erife":11423,"Ġvintage":11424,"Ġespet":11425,"Ġrefund":11426,"Ġrealizados":11427,"Ġremov":11428,"Ġcarefully":11429,"Ġskype":11430,"Ġsubjects":11431,"Ġemergency":11432,"Ġfarmac":11433,"Ġagricultural":11434,"Ġevangel":11435,"Ġfaculdade":11436,"case":11437,"Ġsecre":11438,"Ġaquece":11439,"Ã¢mico":11440,"Ġcujo":11441,"Ġaltos":11442,"Ġaeroportos":11443,"Ġdrawing":11444,"Ġaxis":11445,"Ġathlet":11446,"onÃ´mico":11447,"Ġcircumstances":11448,"Ġransom":11449,"eza":11450,"Ġbid":11451,"Ġindoor":11452,"Ġseguros":11453,"ĠviolaÃ§Ã£o":11454,"ĠexigÃªncias":11455,"ĠgÃªnero":11456,"uiÃ§Ã£o":11457,"Ġseed":11458,"chas":11459,"Ġselling":11460,"Ġcolaboradores":11461,"Ġmyself":11462,"Ġataques":11463,"ĠconclusÃ£o":11464,"Ġgarrafa":11465,"Ġcb":11466,"Ġhabilidade":11467,"accommod":11468,"Ġenjo":11469,"Ġclus":11470,"reserve":11471,"rup":11472,"Ġmillions":11473,"photos":11474,"dorf":11475,"Ġdum":11476,"uru":11477,"Ġnovel":11478,"ustria":11479,"Ġmesmas":11480,"Ġigrejas":11481,"Ġobrigado":11482,"Ġmineral":11483,"Ġcongreg":11484,"Ġbrief":11485,"Ġenfrent":11486,"ĠcontÃŃnua":11487,"bab":11488,"Ġknew":11489,"child":11490,"Ġunknown":11491,"Ãºne":11492,"Ġtrav":11493,"Ġbuscar":11494,"Ġsegment":11495,"Ġsonho":11496,"Ġkeeping":11497,"Ġchapter":11498,"Ġexperimentar":11499,"detalhes":11500,"Ġlind":11501,"Ġtob":11502,"Ġoficiais":11503,"Ġprove":11504,"Ġindis":11505,"Ġavan":11506,"Ġentreprene":11507,"Ġnegoti":11508,"Ġdetermined":11509,"Ġsectors":11510,"ĠmunicÃŃpio":11511,"hua":11512,"Ġvine":11513,"Ã©dit":11514,"Ġatu":11515,"Ġprince":11516,"Ġrelativos":11517,"ĠprovÃ¡vel":11518,"Ġautomation":11519,"Ġfalse":11520,"Ġstreaming":11521,"Ġconditioned":11522,"Ġrecorded":11523,"Ġmechanism":11524,"ĠcalendÃ¡rio":11525,"Ġreplacement":11526,"hat":11527,"lat":11528,"atravÃ©s":11529,"irts":11530,"Ġusam":11531,"Ġfilters":11532,"ĠinscriÃ§Ã£o":11533,"ght":11534,"Ġcontinues":11535,"Ġensuring":11536,"Ġconcern":11537,"Ġratings":11538,"ĠtendÃªncia":11539,"Ġconstantly":11540,"Ġprevention":11541,"Ġvegetarianos":11542,"Ġesportes":11543,"Ġuniform":11544,"cope":11545,"ĠpÃ£o":11546,"emon":11547,"etos":11548,"urais":11549,"web":11550,"Ġescrita":11551,"Ġtried":11552,"Ġhels":11553,"Ġwarms":11554,"Ġpacific":11555,"Ġfoods":11556,"ĠautorizaÃ§Ã£o":11557,"Ġcontainer":11558,"Ġchurches":11559,"ĠconcentraÃ§Ã£o":11560,"Ġvosso":11561,"Ġbolsa":11562,"ĠtÃ³picos":11563,"Ġczech":11564,"ĠaniversÃ¡rio":11565,"ben":11566,"Ġpho":11567,"ecemos":11568,"contra":11569,"Ġrodas":11570,"Ġentidades":11571,"Ġcasual":11572,"Ġassistir":11573,"Ġwidth":11574,"Ġfascin":11575,"Ġaconselh":11576,"div":11577,"icon":11578,"Ġinhab":11579,"Ġprat":11580,"Ġcanvas":11581,"Ġautores":11582,"Ġdeluxe":11583,"Ġestrang":11584,"Ġcomparar":11585,"Ġaparelho":11586,"Ġbb":11587,"ĠlÃ³g":11588,"Ġatras":11589,"chat":11590,"ports":11591,"Ġadul":11592,"Ġluis":11593,"Ġfacilidade":11594,"Ġconfigurar":11595,"Ġpremier":11596,"Ġfeminina":11597,"procurar":11598,"kia":11599,"Ġedu":11600,"Ġfans":11601,"Ġgay":11602,"Ġdobr":11603,"Ġwholes":11604,"alizar":11605,"Ġreception":11606,"Ġsurve":11607,"Ġcompletos":11608,"scre":11609,"Ġdemands":11610,"bilidade":11611,"tipo":11612,"irus":11613,"ĠrecÃ©m":11614,"Ġservir":11615,"Ġaccuracy":11616,"ÃŃtulos":11617,"tenimento":11618,"Ġstyles":11619,"ĠestimaÃ§Ã£o":11620,"ĠexibiÃ§Ã£o":11621,"ĠchinÃªs":11622,"Ġvasta":11623,"Ġattacks":11624,"Ġfizeram":11625,"Ġjewel":11626,"ĠdivisÃ£o":11627,"cut":11628,"ĠtÃªnis":11629,"Ġsara":11630,"Ġlang":11631,"acos":11632,"Ġarms":11633,"Ġcana":11634,"conhe":11635,"Ġelite":11636,"Ġflip":11637,"Ġcriada":11638,"Ġspecified":11639,"Ã´nus":11640,"regist":11641,"Ġselecionados":11642,"ĠeletrÃ´nicos":11643,"Ġatmosfera":11644,"Ġemployment":11645,"ht":11646,"Ġai":11647,"omy":11648,"Ġnig":11649,"plus":11650,"ĠnotificaÃ§Ã£o":11651,"Ġlaud":11652,"Ġdiameter":11653,"Ġdivided":11654,"Ġalexand":11655,"Ġpeixe":11656,"welcome":11657,"ouro":11658,"Ġrever":11659,"ourg":11660,"assem":11661,"Ġguides":11662,"Ġpromov":11663,"Ġschedule":11664,"Ġsunset":11665,"Ġcatholic":11666,"Ġirlanda":11667,"Ġtiro":11668,"Ġdong":11669,"Ġrm":11670,"Ġthursday":11671,"Ġasus":11672,"station":11673,"ctor":11674,"Ġrelativa":11675,"ianos":11676,"alized":11677,"Ġbreast":11678,"Ġfacilidades":11679,"Ġbitcoin":11680,"Ġconcerned":11681,"Ġalojamentos":11682,"Ġperfeitamente":11683,"Ġpuzzle":11684,"ĠcarÃ¡ter":11685,"Ġshenzhen":11686,"Ġindonesia":11687,"mento":11688,"wi":11689,"isi":11690,"Ġnestas":11691,"role":11692,"Ġdesapar":11693,"soft":11694,"Ġterreno":11695,"Ġvelha":11696,"Ġconceb":11697,"Ġpenal":11698,"Ġinteressado":11699,"ĠescritÃ³rios":11700,"Ġlembrar":11701,"Ġalicante":11702,"tp":11703,"Ġpak":11704,"Ġstability":11705,"ipos":11706,"Ġneuro":11707,"ups":11708,"Ġbuck":11709,"Ġcontinued":11710,"ĠÃ¢ng":11711,"ĠclÃ¡ssico":11712,"comfortable":11713,"important":11714,"fab":11715,"hr":11716,"jesus":11717,"itis":11718,"Ġhur":11719,"Ġequipes":11720,"Ġexpansion":11721,"ulsion":11722,"ĠesterÃ³":11723,"ĠsÃŃtio":11724,"cc":11725,"hando":11726,"mad":11727,"Ġtuesday":11728,"omat":11729,"rizes":11730,"Ġapanhar":11731,"Ġcarmen":11732,"Ġbares":11733,"Ġmunique":11734,"Ġhaven":11735,"Ġflexibilidade":11736,"dest":11737,"Ġcrow":11738,"Ġesqui":11739,"Ġunidas":11740,"avia":11741,"Ġagente":11742,"Ġbordeaux":11743,"Ġguidelines":11744,"compartilhe":11745,"fortunately":11746,"Ġtig":11747,"Ġdian":11748,"ori":11749,"Ġparedes":11750,"activ":11751,"Ġrecording":11752,"Ġglory":11753,"Ġbali":11754,"Ġmontanhas":11755,"Ġtherapy":11756,"Ġcarregar":11757,"Ġannounced":11758,"Ġtropical":11759,"Ġtn":11760,"ĠmÃ¡g":11761,"outras":11762,"Ġarredores":11763,"Ã³sitos":11764,"preÃ§o":11765,"Ġinfection":11766,"Ġutilizadas":11767,"anÃ§ais":11768,"Ġqueria":11769,"Ġeffectively":11770,"Ġaproveitar":11771,"Ġpousadas":11772,"Ġtul":11773,"Ġfoss":11774,"Ġbought":11775,"Ġsep":11776,"Ġforth":11777,"Ġalert":11778,"Ġpront":11779,"christ":11780,"Ġspin":11781,"Ġmesh":11782,"Ġsetores":11783,"Ġluck":11784,"Ġrestore":11785,"Ġpagamentos":11786,"Ġearlier":11787,"Ġholidays":11788,"Ġdetalhadas":11789,"isb":11790,"Ġvenced":11791,"tero":11792,"agar":11793,"Ġanalytical":11794,"apartamento":11795,"Ġgerenciar":11796,"Ġproporcionar":11797,"Ġinteractive":11798,"Ġtoshiba":11799,"Ġdores":11800,"Ġapos":11801,"Ġplas":11802,"Ġamericas":11803,"Ġnorthern":11804,"Ġfunds":11805,"Ġcosmet":11806,"ĠexportaÃ§Ã£o":11807,"Ġnotebook":11808,"Ġpasseios":11809,"Ġwc":11810,"Ġdesloc":11811,"Ġmining":11812,"Ġformed":11813,"Ġaircraft":11814,"Ġsurgery":11815,"Ġgenerate":11816,"Ġradical":11817,"Ġadministrative":11818,"Ġprimeiras":11819,"Ġfrutos":11820,"Ġkorea":11821,"ijo":11822,"obtenha":11823,"ĠteÃ³r":11824,"Ġtiveram":11825,"fos":11826,"Ġproport":11827,"Ġasp":11828,"Ġcha":11829,"Ġespess":11830,"amba":11831,"ambul":11832,"Ġoperational":11833,"Ġhandling":11834,"Ġperfectly":11835,"Ġwo":11836,"olar":11837,"univers":11838,"peg":11839,"Ġmonet":11840,"Ġlaund":11841,"Ġsuperiores":11842,"ĠinstantÃ¢neo":11843,"Ġfuncionalidades":11844,"Ġpione":11845,"Ġpinterest":11846,"ented":11847,"Ġthread":11848,"Ġsuave":11849,"akers":11850,"Ġoccurs":11851,"Ġfollows":11852,"Ġconsiderada":11853,"Ġpursu":11854,"Ġtorne":11855,"Ġauditor":11856,"Ġhaw":11857,"Ġcycl":11858,"Ġprinted":11859,"Ġtelem":11860,"standing":11861,"uum":11862,"Ġchaves":11863,"Ġassets":11864,"Ġexistente":11865,"Ġtenerife":11866,"Ġchamadas":11867,"Ġrepresents":11868,"Ġtratado":11869,"Ġconfirmed":11870,"ĠhistÃ³ricos":11871,"Ġtentando":11872,"Ġproposal":11873,"Ġhearing":11874,"Ġibooked":11875,"mart":11876,"Ġfet":11877,"Ġbird":11878,"Ã©ns":11879,"igr":11880,"Ġspam":11881,"Ġcheio":11882,"Ġentretenimento":11883,"Ġmoist":11884,"Ġsomew":11885,"ĠjaponÃªs":11886,"Ġinimigos":11887,"born":11888,"cams":11889,"vam":11890,"Ġaula":11891,"Ġtokyo":11892,"Ġconcess":11893,"Ġhelic":11894,"Ġgraus":11895,"Ġcomponente":11896,"cab":11897,"ĠbilhÃµes":11898,"Ġcher":11899,"Ġspir":11900,"Ġsementes":11901,"previsÃ£o":11902,"Ġelevador":11903,"Ã©lgica":11904,"Ġpretty":11905,"finally":11906,"Ġintervention":11907,"selecione":11908,"areness":11909,"Ġprolong":11910,"Ġker":11911,"apr":11912,"Ġmeta":11913,"Ġbasta":11914,"Ġcrazy":11915,"Ġgranada":11916,"Ġcadeira":11917,"Ġdesenhos":11918,"Ġhorizontal":11919,"inity":11920,"online":11921,"Ġmiser":11922,"Ġangl":11923,"Ġemo":11924,"Ãµem":11925,"china":11926,"Ġpossivelmente":11927,"Ġdesigners":11928,"ĠtradiÃ§Ã£o":11929,"Ġpatro":11930,"Ġsevere":11931,"Ġacompanhar":11932,"Ġanteriormente":11933,"Ġelder":11934,"luxury":11935,"ĠnÃºcle":11936,"sÃ³":11937,"Ġcay":11938,"Ġcomigo":11939,"Ġencomend":11940,"Ġbrid":11941,"ancer":11942,"Ġlimits":11943,"Ġetapa":11944,"Ġfacilitar":11945,"Ġsignificado":11946,"Ġcanto":11947,"Ġbund":11948,"ophy":11949,"viamente":11950,"Ġtradition":11951,"Ġharbour":11952,"Ġimpressora":11953,"Ġcraft":11954,"mÃ¡":11955,"Ġench":11956,"elhas":11957,"Ġzh":11958,"Ġoperacionais":11959,"Ġpublication":11960,"Ġexceto":11961,"Ġworkshop":11962,"Ġintroduz":11963,"Ġfernando":11964,"ĠaÃŃ":11965,"Ġsorr":11966,"rier":11967,"Ġquentes":11968,"Ġestabilidade":11969,"ĠÃ¡cido":11970,"raste":11971,"Ġguesthouse":11972,"Ġinspired":11973,"Ġfrutas":11974,"pay":11975,"Ġalliance":11976,"Ġprogresso":11977,"Ġcertas":11978,"Ġsandals":11979,"Ġtonel":11980,"ĠjerusalÃ©m":11981,"recomende":11982,"rÃ¡ul":11983,"vd":11984,"Ġdating":11985,"Ġgri":11986,"Ġparaf":11987,"ifier":11988,"clui":11989,"ÃŃnios":11990,"Ġtransportes":11991,"Ġconsumidor":11992,"ĠsubstituiÃ§Ã£o":11993,"Ġdivision":11994,"quarto":11995,"Ġpredict":11996,"Ġchips":11997,"Ġplana":11998,"Ġbrush":11999,"Ġtransit":12000,"Ġboot":12001,"trabal":12002,"Ġreserves":12003,"Ġcreates":12004,"Ġepid":12005,"Ġprocure":12006,"Ã±ol":12007,"Ġdoll":12008,"Ġtemplate":12009,"ycle":12010,"ĠprÃ©m":12011,"Ġcontribution":12012,"Ġvisible":12013,"Ġseleccion":12014,"encialmente":12015,"Ġattend":12016,"Ġconnosco":12017,"Ġflexibility":12018,"castle":12019,"cra":12020,"gers":12021,"Ġhiv":12022,"Ġsudo":12023,"Ġmarked":12024,"jetradar":12025,"ĠindivÃŃduo":12026,"booking":12027,"Ġfinalidade":12028,"Ġconversa":12029,"Ġlots":12030,"Ġapoi":12031,"ĠexploraÃ§Ã£o":12032,"Ġvariables":12033,"ĠmÃŃnima":12034,"Ġvoltage":12035,"Ġsuffering":12036,"city":12037,"irty":12038,"Ġcarton":12039,"oven":12040,"ĠdiÃ¢metro":12041,"Ġescolar":12042,"Ġtestoster":12043,"Ġcartas":12044,"Ġstrap":12045,"nenh":12046,"Ġced":12047,"Ġcach":12048,"Ġstrict":12049,"Ġspare":12050,"Ġwash":12051,"Ġiran":12052,"Ġpedag":12053,"Ġcertos":12054,"Ġdoubt":12055,"Ġestimated":12056,"Ġdescontos":12057,"away":12058,"item":12059,"Ġobvious":12060,"Ã³nico":12061,"Ġcrucial":12062,"Ġstyl":12063,"Ġcrescente":12064,"Ġbloco":12065,"Ġchiang":12066,"Ġrevealed":12067,"Ġhier":12068,"Ġvars":12069,"emor":12070,"Ġreject":12071,"Ġruns":12072,"Ġchief":12073,"Ġminor":12074,"Ġpope":12075,"jeÃ§Ã£o":12076,"Ġqueremos":12077,"Ġtitan":12078,"Ġintelectual":12079,"Ġatlanta":12080,"ĠhidrÃ¡ul":12081,"ĠcircunstÃ¢ncias":12082,"Ġdl":12083,"oll":12084,"igen":12085,"Ġunlimited":12086,"Ġspons":12087,"Ġverific":12088,"ĠcapÃŃtulo":12089,"Ġentered":12090,"Ġpropostas":12091,"Ġbranch":12092,"Ġoferecidos":12093,"model":12094,"Ġsujeitos":12095,"holders":12096,"Ġvl":12097,"Ġrender":12098,"Ġativo":12099,"Ġunity":12100,"park":12101,"next":12102,"Ġmatem":12103,"Ġencry":12104,"Ġsoph":12105,"Ġawareness":12106,"Ġespecificamente":12107,"Ġparques":12108,"Ġspok":12109,"Ġpoleg":12110,"ĠsalÃ£o":12111,"Ġphp":12112,"Ġorganisation":12113,"Ġtravellers":12114,"Ġpesquisadores":12115,"ĠligaÃ§Ãµes":12116,"ĠcardÃŃ":12117,"Ġfuj":12118,"ucks":12119,"ĠindÃºstrias":12120,"ĠcristÃ£os":12121,"Ġdecidir":12122,"Ġastronomical":12123,"ĠesqueÃ§a":12124,"Ġbub":12125,"Ġng":12126,"ounce":12127,"Ġcofre":12128,"Ġpriest":12129,"Ġvisitas":12130,"Ġactividades":12131,"Ġllc":12132,"ĠcotaÃ§Ã£o":12133,"Ġsymbol":12134,"ĠbÃŃblia":12135,"Ġestrangeiros":12136,"ingl":12137,"Ġprison":12138,"enso":12139,"Ġapresentou":12140,"Ġrivers":12141,"Ġministro":12142,"Ġempire":12143,"Ġchoosing":12144,"Ġhua":12145,"Ġenabled":12146,"nova":12147,"mann":12148,"ÃŃlios":12149,"Ġcausas":12150,"Ġgolfe":12151,"Ġpositions":12152,"Ġfechado":12153,"Ġdisappoint":12154,"Ġbreath":12155,"Ġmetropolit":12156,"Ġrug":12157,"Ġatlet":12158,"Ġmover":12159,"Ġturquia":12160,"Ġconsumers":12161,"Ġexpectations":12162,"Ġsending":12163,"popular":12164,"bow":12165,"fi":12166,"Ġdefe":12167,"Ġling":12168,"Ġrecomp":12169,"irÃ£o":12170,"chal":12171,"Ġcamis":12172,"Ġteus":12173,"Ġpoderiam":12174,"Ġmalta":12175,"Ġdigest":12176,"Ġchoices":12177,"Ġcombining":12178,"Ġgravidez":12179,"Ġamplamente":12180,"Ġhouston":12181,"Ġdisponibilizados":12182,"Ġsujeito":12183,"remo":12184,"Ġware":12185,"ulhos":12186,"anter":12187,"Ġrode":12188,"Ġcorn":12189,"Ġdelay":12190,"Ġtrabalham":12191,"Ġpoderoso":12192,"Ġjulg":12193,"Ġoferecido":12194,"Ġzurich":12195,"ez":12196,"hand":12197,"Ġsir":12198,"omi":12199,"Ã§ada":12200,"Ġvess":12201,"ecia":12202,"Ġcoluna":12203,"iosa":12204,"Ġequipados":12205,"Ġvolumes":12206,"Ġintegrado":12207,"Ġsignificativa":12208,"esterdÃ£o":12209,"Ġdelicious":12210,"ĠprÃŃncipe":12211,"Ġfap":12212,"Ġinvis":12213,"istan":12214,"Ġstret":12215,"vely":12216,"Ġrefres":12217,"Ġbiod":12218,"Ġcirurgia":12219,"isbane":12220,"Ġbc":12221,"rafo":12222,"istol":12223,"Ġaren":12224,"Ġsubsequ":12225,"Ġboys":12226,"Ġfacts":12227,"Ġsabem":12228,"Ġmoved":12229,"Ġbonito":12230,"ĠdivulgaÃ§Ã£o":12231,"egu":12232,"ĠbÃ©lgica":12233,"Ġorch":12234,"Ġabstract":12235,"Ġinteraction":12236,"Ġshock":12237,"Ġminh":12238,"intendo":12239,"Ġrack":12240,"Ġcripto":12241,"Ġwarsaw":12242,"Ġcircle":12243,"ĠcompetÃªncias":12244,"Ġreporting":12245,"Ġmassage":12246,"Ġmodernos":12247,"Ġmaintained":12248,"bom":12249,"fix":12250,"Ġtheater":12251,"ĠmilÃŃmetros":12252,"Ġconhecidas":12253,"Ġdialogue":12254,"Ġiva":12255,"Ġines":12256,"Ġenorm":12257,"Ġcontest":12258,"resumo":12259,"Ġfilms":12260,"Ġoperator":12261,"ĠsolicitaÃ§Ã£o":12262,"test":12263,"Ġeis":12264,"edy":12265,"Ġenx":12266,"Ġworry":12267,"Ġmerch":12268,"Ġlogistics":12269,"Ġmercador":12270,"Ġindicadores":12271,"rimento":12272,"Ġreasonable":12273,"Ġlie":12274,"ilities":12275,"econom":12276,"Ġempt":12277,"Ġrenda":12278,"ĠsuÃ©cia":12279,"Ġjers":12280,"Ġholding":12281,"ĠextensÃµes":12282,"spap":12283,"Ġgaleria":12284,"Ġconsulting":12285,"Ġpossibilidades":12286,"techn":12287,"Ġtatto":12288,"Ġcorrigir":12289,"Ġdrinks":12290,"Ġtoulouse":12291,"omatic":12292,"Ġrum":12293,"Ġwhatever":12294,"Ġcorp":12295,"Ġbutter":12296,"Ġbooked":12297,"ĠaplicÃ¡veis":12298,"ĠprotecÃ§Ã£o":12299,"Ġendere":12300,"Ġnarr":12301,"Ġcircuit":12302,"Ġhydraul":12303,"aplic":12304,"night":12305,"sum":12306,"Ġgaut":12307,"Ġqueda":12308,"Ġzonas":12309,"Ġairways":12310,"Ġpersonagens":12311,"Ġcontinental":12312,"Ġadequados":12313,"Ġtransformation":12314,"Ġrevolucion":12315,"fasts":12316,"Ġmarriage":12317,"Ġlies":12318,"Ġlakes":12319,"Ġorle":12320,"compre":12321,"Ġajuste":12322,"apartamentos":12323,"Ġhabitantes":12324,"Ġpraticamente":12325,"Ġmate":12326,"ÃŃculo":12327,"Ġosaka":12328,"Ġdesert":12329,"ighter":12330,"Ġplenty":12331,"Ġtransformar":12332,"Ġboxes":12333,"Ġdestaque":12334,"Ġcnc":12335,"Ġliverpool":12336,"cart":12337,"nome":12338,"icÃ¡cia":12339,"acte":12340,"essem":12341,"Ġcontendo":12342,"Ġdesired":12343,"Ġsaiba":12344,"Ġdelta":12345,"Ġerrado":12346,"Ġholder":12347,"Ġfornecem":12348,"Ġmapas":12349,"ĠpolÃŃtico":12350,"Ġdenomin":12351,"Ġaplica":12352,"Ġvossa":12353,"Ġadolescentes":12354,"Ġprovisions":12355,"Ġsurpreend":12356,"dong":12357,"somet":12358,"Ġpall":12359,"Ġvapor":12360,"izam":12361,"Ġacknow":12362,"Ġpreced":12363,"Ġeveryday":12364,"Ġtornam":12365,"Ġpanam":12366,"Ġstatist":12367,"Ġbreakfasts":12368,"Ġvacuum":12369,"Ġexibir":12370,"Ġignor":12371,"nov":12372,"wei":12373,"Ġfd":12374,"Ġnom":12375,"acab":12376,"Ġdissem":12377,"Ġroub":12378,"comb":12379,"Ġopcional":12380,"precis":12381,"Ġincid":12382,"Ġhostal":12383,"Ġaddresses":12384,"Ġauthorized":12385,"Ġcedo":12386,"Ġlifest":12387,"Ġgym":12388,"Ġgaming":12389,"Ġencomenda":12390,"ĠacÃ§Ã£o":12391,"Ġneither":12392,"cious":12393,"ĠamesterdÃ£o":12394,"Ġspy":12395,"haus":12396,"Ġprize":12397,"Ġworkshops":12398,"Ġdocumentation":12399,"Ġtrabalhamos":12400,"Ġpriority":12401,"help":12402,"Ġacademia":12403,"Ġfunctionality":12404,"Ġfinanciamento":12405,"Ġexploitation":12406,"Ġdiction":12407,"Ġcated":12408,"Ġfator":12409,"Ġnt":12410,"among":12411,"Ġtoys":12412,"Ġseeds":12413,"Ġstages":12414,"Ġelastic":12415,"Ġshor":12416,"Ġpep":12417,"Ġsau":12418,"Ġfinding":12419,"Ġfacult":12420,"Ġbroken":12421,"ĠÃ³b":12422,"Ġencourage":12423,"Ġpayments":12424,"ĠdocumentaÃ§Ã£o":12425,"Ġjuvent":12426,"Ġequivalente":12427,"Ġaldeia":12428,"ĠaquisiÃ§Ã£o":12429,"food":12430,"writ":12431,"Ġofic":12432,"vios":12433,"Ġprocessed":12434,"Ġfavour":12435,"Ġorganizar":12436,"Ġlearned":12437,"Ġgalvan":12438,"Ġagricultura":12439,"Ġencontrou":12440,"Ġexterno":12441,"bot":12442,"din":12443,"Ġbull":12444,"ĠbÃ´nus":12445,"rain":12446,"Ġcaro":12447,"Ġdisser":12448,"ĠinteraÃ§Ã£o":12449,"Ġmega":12450,"azz":12451,"Ġproducing":12452,"Ġsobretudo":12453,"Ġextent":12454,"Ġstring":12455,"Ġmalici":12456,"Ġmontanha":12457,"Ġangle":12458,"such":12459,"Ġdiversity":12460,"Ġresistente":12461,"Ġsuccessfully":12462,"Ġcritic":12463,"ÃŃmp":12464,"Ġcarriers":12465,"video":12466,"Ġdangerous":12467,"Ġwrote":12468,"bell":12469,"ermo":12470,"Ġtheoret":12471,"Ġdogs":12472,"Ġseal":12473,"tera":12474,"ĠespecificaÃ§Ã£o":12475,"Ġresultante":12476,"Ġprotest":12477,"Ġconsume":12478,"Ġfraud":12479,"Ġjardins":12480,"Ġrecebido":12481,"Ġentrance":12482,"Ġgeneva":12483,"live":12484,"esco":12485,"Ġcil":12486,"ĠmÃ¡s":12487,"Ġvat":12488,"Ġgreek":12489,"Ġrear":12490,"Ã¡r":12491,"ĠparaÃŃ":12492,"allel":12493,"Ġindirect":12494,"Ġlocalizados":12495,"Ġsmaller":12496,"Ġdreams":12497,"Ġcaribbean":12498,"rise":12499,"will":12500,"Ġbits":12501,"Ġhort":12502,"Ġvid":12503,"istos":12504,"Ġstated":12505,"ĠjÃ³":12506,"Ġdespes":12507,"Ġescond":12508,"Ġade":12509,"Ġspots":12510,"Ġbrilho":12511,"Ġindica":12512,"Ġjogado":12513,"Ġwaterproof":12514,"Ġcoloca":12515,"Ġcapture":12516,"ĠsugestÃµes":12517,"ĠvÃ¡lvula":12518,"upar":12519,"Ġcigar":12520,"itudes":12521,"agers":12522,"Ġpreview":12523,"Ġrobert":12524,"Ġwilling":12525,"Ġxxx":12526,"encing":12527,"Ġuniversidades":12528,"Ġattribut":12529,"Ġfrequent":12530,"break":12531,"Ġentrevista":12532,"bility":12533,"fru":12534,"hal":12535,"send":12536,"vac":12537,"Ġdall":12538,"enix":12539,"ilia":12540,"Ġacion":12541,"Ġuncomfortable":12542,"Ġhole":12543,"bridge":12544,"Ġslot":12545,"Ġdinamar":12546,"ĠacessÃŃveis":12547,"Ġfrequently":12548,"Ġmonitoramento":12549,"Ġcarregamento":12550,"Ġentradas":12551,"Ġexterna":12552,"tor":12553,"eties":12554,"Ġconquist":12555,"Ġprost":12556,"Ġplen":12557,"Ġiq":12558,"Ġnasceu":12559,"ĠhÃ¡b":12560,"Ġfavorito":12561,"Ġslip":12562,"Ġhealthcare":12563,"Ġjapones":12564,"Ġprospect":12565,"ĠquÃŃmicos":12566,"Ã©ditos":12567,"Ġaids":12568,"onic":12569,"Ġreclam":12570,"ulu":12571,"thanks":12572,"Ġaceder":12573,"Ġchega":12574,"ĠÃ¡ustria":12575,"Ġraise":12576,"Ġpromoc":12577,"Ġfrete":12578,"Ġaparece":12579,"Ġamericanos":12580,"Ġultr":12581,"Ġcancelamento":12582,"create":12583,"Ġtracking":12584,"ĠrÃŃgido":12585,"dem":12586,"Ġlinda":12587,"Ġtru":12588,"obrig":12589,"inding":12590,"Ġespal":12591,"Ġrespondeu":12592,"ĠproteÃŃna":12593,"Ġtreino":12594,"Ġdifficulties":12595,"Ġoriginais":12596,"ĠimpossÃŃvel":12597,"Ġchronic":12598,"Ġpollution":12599,"rey":12600,"Ġbordo":12601,"Ġlets":12602,"Ġkel":12603,"tood":12604,"obter":12605,"Ġminibar":12606,"Ġnewspap":12607,"Ġboots":12608,"Ġglor":12609,"ĠeficÃ¡cia":12610,"ĠpontuaÃ§Ã£o":12611,"Ġcorreta":12612,"Ġsnack":12613,"uckland":12614,"erdale":12615,"Ġdificuldade":12616,"tourism":12617,"Ġisa":12618,"ariam":12619,"Ġnearly":12620,"Ġturk":12621,"Ġfreq":12622,"Ġresolve":12623,"Ġstockholm":12624,"Ġinteressados":12625,"ĠmecÃ¢nica":12626,"Ġvietnam":12627,"Ġstruggle":12628,"Ġovers":12629,"itada":12630,"Ġsufficient":12631,"Ġamplo":12632,"guard":12633,"Ġrecycl":12634,"Ġintl":12635,"Ġtraduz":12636,"Ġmobilidade":12637,"Ġtemporary":12638,"quiry":12639,"mud":12640,"Ġauckland":12641,"Ġpd":12642,"rebro":12643,"unk":12644,"applic":12645,"Ġcomprov":12646,"elli":12647,"Ġconfr":12648,"ĠglÃ³ria":12649,"ĠincluÃŃdos":12650,"Ġtemperaturas":12651,"Ġprecise":12652,"Ġfundamentais":12653,"Ġcreator":12654,"Ġpositivo":12655,"Ġseller":12656,"Ġenferm":12657,"Ġconvinced":12658,"ĠvarsÃ³via":12659,"Ġtoc":12660,"Ġsubl":12661,"Ġaper":12662,"Ġcrie":12663,"Ġwake":12664,"Ġhonest":12665,"Ġconcentration":12666,"rence":12667,"Ġtinta":12668,"aloj":12669,"Ġthor":12670,"Ġcontido":12671,"Ġescap":12672,"Ġfreel":12673,"ĠconsideraÃ§Ã£o":12674,"Ġregistros":12675,"Ġglobais":12676,"Ġluxuri":12677,"Ġobserve":12678,"Ġexpectativas":12679,"Ġhospedagens":12680,"ĠtailÃ¢ndia":12681,"Ġinher":12682,"Ġthomas":12683,"Ġrecicl":12684,"Ġavali":12685,"Ġsnap":12686,"ĠbÃ¡sica":12687,"Ġobtidos":12688,"ĠexercÃŃcios":12689,"Ġfighting":12690,"Ġanteced":12691,"Ġcottage":12692,"wich":12693,"ching":12694,"Ġesco":12695,"Ġarco":12696,"Ġcompil":12697,"Ġgratis":12698,"pear":12699,"Ġpowered":12700,"Ġconhecidos":12701,"Ã³nica":12702,"Ġibm":12703,"Ġmolec":12704,"segundo":12705,"Ġdiagnost":12706,"Ġtransparent":12707,"Ġprobabilidade":12708,"Ġmaravilhoso":12709,"ĠdÃŃ":12710,"Ġlens":12711,"Ġtoward":12712,"abul":12713,"observ":12714,"Ġselv":12715,"hecimento":12716,"Ġclaramente":12717,"Ġexposure":12718,"Ġfamoso":12719,"ÃŃcola":12720,"Ġdistributed":12721,"rest":12722,"ĠdÃ£o":12723,"Ġpv":12724,"atualmente":12725,"Ġregress":12726,"Ġdoce":12727,"comes":12728,"Ġbrisbane":12729,"Ġxclus":12730,"Ġtaught":12731,"Ġintim":12732,"Ġuniversities":12733,"Ġverdadeiramente":12734,"Ġoriental":12735,"Ġpermanece":12736,"Ġistambul":12737,"fitri":12738,"ĠcÃ¡ps":12739,"Ġnewsletter":12740,"Ġlauderdale":12741,"inglÃªs":12742,"name":12743,"tit":12744,"Ġhrs":12745,"Ġdaughter":12746,"Ġdishes":12747,"trilhas":12748,"Ġcurric":12749,"Ġvoar":12750,"Ġelectro":12751,"author":12752,"Ġjudg":12753,"Ġcontempl":12754,"Ġlegislation":12755,"Ġavenida":12756,"Ġfrancesa":12757,"Ġhusband":12758,"Ġincredible":12759,"uador":12760,"Ġsierra":12761,"Ġanat":12762,"Ġrey":12763,"Ġsebast":12764,"Ġasian":12765,"Ġends":12766,"ĠimÃ³veis":12767,"ially":12768,"Ġcork":12769,"Ġfinais":12770,"Ġinvited":12771,"Ã¡lias":12772,"Ġprecisamos":12773,"Ġescolhe":12774,"Ġindicated":12775,"Ġvigil":12776,"Ġhospedagem":12777,"Ġkilled":12778,"Ġmachineryzone":12779,"Ġpneum":12780,"bing":12781,"god":12782,"rin":12783,"Ġrect":12784,"Ġtrajeto":12785,"estaÃ§Ãµes":12786,"Ġpegar":12787,"Ġautentic":12788,"prom":12789,"Ġscope":12790,"Ġgerencia":12791,"Ġtextos":12792,"Ġnorue":12793,"Ġegito":12794,"Ġcristal":12795,"Ġconstantemente":12796,"Ġpousada":12797,"Ġenemies":12798,"ĠÃ³rgÃ£os":12799,"ains":12800,"Ġfilha":12801,"Ġdisplays":12802,"Ġmeteorologia":12803,"Ġolhada":12804,"Ġahead":12805,"Ġmast":12806,"abad":12807,"Ġatenas":12808,"Ġviu":12809,"Ġfinland":12810,"Ġbanheiros":12811,"Ġhosts":12812,"Ġbebida":12813,"apartments":12814,"Ġprincess":12815,"general":12816,"Ġeating":12817,"ĠlÃª":12818,"Ã©us":12819,"Ġrul":12820,"Ġarray":12821,"Ġentidade":12822,"Ġinformed":12823,"Ġmodified":12824,"Ġmostly":12825,"phen":12826,"Ġpesca":12827,"ĠcomputaÃ§Ã£o":12828,"Ġcombate":12829,"Ġindicate":12830,"Ġrelaxar":12831,"Ġmixed":12832,"Ġblockchain":12833,"iabilidade":12834,"Ġfamosa":12835,"Ġgauteng":12836,"camp":12837,"Ġego":12838,"Ġfique":12839,"quant":12840,"Ġhidro":12841,"Ã¡culos":12842,"lyn":12843,"perm":12844,"Ġassem":12845,"Ġsaia":12846,"Ġartworks":12847,"Ġstanding":12848,"Ġextensions":12849,"Ġindeed":12850,"Ġportfolio":12851,"bis":12852,"edoria":12853,"rial":12854,"Ġkim":12855,"Ġoutono":12856,"Ġrelativas":12857,"Ġvisite":12858,"Ġgrave":12859,"Ġshuttle":12860,"mult":12861,"publ":12862,"Ġpants":12863,"Ġhide":12864,"acial":12865,"Ġdesnecess":12866,"Ġshin":12867,"queza":12868,"Ġassume":12869,"ateral":12870,"Ġtaip":12871,"ĠinfecÃ§Ã£o":12872,"ĠbotÃµes":12873,"Ġmercedes":12874,"Ġmanualmente":12875,"Ġstayed":12876,"Ġluzes":12877,"Ġdetection":12878,"Ġvitamin":12879,"Ġconflitos":12880,"somos":12881,"Ġaze":12882,"Ġgone":12883,"apresent":12884,"uble":12885,"porÃ©m":12886,"Ġjanelas":12887,"chel":12888,"Ġdiverse":12889,"Ġconflito":12890,"Ġdisponibiliza":12891,"Ġvitamina":12892,"nem":12893,"Ġdot":12894,"inum":12895,"Ġsounds":12896,"Ġdeveloper":12897,"Ġhect":12898,"Ġfiltros":12899,"Ġmodules":12900,"Ġbari":12901,"Ġmostram":12902,"Ġmatters":12903,"euro":12904,"Ġcusta":12905,"Ġwinning":12906,"Ġrotas":12907,"Ġarrived":12908,"basta":12909,"pronÃºncia":12910,"ĠestÃºdio":12911,"gios":12912,"games":12913,"Ġtang":12914,"ondo":12915,"Ġfidel":12916,"ĠvÃªm":12917,"Ġchur":12918,"Ġeso":12919,"bled":12920,"Ġrealize":12921,"Ġensures":12922,"Ġcircular":12923,"Ġmonthly":12924,"Ġsiem":12925,"Ġcyber":12926,"Ġhostelworld":12927,"Ġaspecto":12928,"Ġcortes":12929,"Ġimmediate":12930,"Ġapropriado":12931,"Ġcolonial":12932,"sters":12933,"vÃ£o":12934,"Ġbrigh":12935,"Ġnintendo":12936,"emn":12937,"Ġrg":12938,"Ġchama":12939,"Ġmeals":12940,"ellation":12941,"presso":12942,"Ġoffline":12943,"ĠprecisarÃ¡":12944,"Ġexplica":12945,"Ġmercure":12946,"Ġslim":12947,"romp":12948,"Ġobjectivo":12949,"Ġcampinas":12950,"ĠaprovaÃ§Ã£o":12951,"Ġsaindo":12952,"ĠfarmacÃªut":12953,"Ġgh":12954,"usar":12955,"Ġunnecess":12956,"club":12957,"ĠfinanÃ§as":12958,"localizado":12959,"zza":12960,"Ġsco":12961,"Ġomega":12962,"Ġnone":12963,"abstract":12964,"Ġapt":12965,"Ġdash":12966,"ĠestÃ¡vel":12967,"Ġprogramming":12968,"Ġadapter":12969,"Ġindependentemente":12970,"Ġcambridge":12971,"Ġfiscal":12972,"fei":12973,"erts":12974,"entret":12975,"Ġanc":12976,"ĠreÃºne":12977,"ÃŃde":12978,"Ġdisclos":12979,"blog":12980,"ionally":12981,"propri":12982,"Ġequipado":12983,"venir":12984,"ĠruÃŃdo":12985,"Ġthoughts":12986,"Ġmembership":12987,"ĠavanÃ§ados":12988,"ĠemissÃµes":12989,"Ġvaluable":12990,"Ġsides":12991,"Ġmhz":12992,"emi":12993,"Ġperc":12994,"Ġpartilhar":12995,"Ġconsiderando":12996,"Ġstands":12997,"Ġtissue":12998,"resultados":12999,"bag":13000,"Ġtil":13001,"Ġtape":13002,"Ġnine":13003,"Ġgul":13004,"Ġreliability":13005,"Ġdescrito":13006,"Ġconsidera":13007,"Ġsatan":13008,"company":13009,"Ġcontratos":13010,"Ġmeasuring":13011,"Ġestiverem":13012,"Ġpromoting":13013,"Ġfeatured":13014,"ĠastronÃ´mico":13015,"Ġscanner":13016,"ĠzelÃ¢ndia":13017,"Ġespessura":13018,"Ġshorter":13019,"entretanto":13020,"sug":13021,"vet":13022,"Ġward":13023,"usando":13024,"plac":13025,"those":13026,"Ġdiscovery":13027,"Ġorganis":13028,"ĠbrasÃŃlia":13029,"Ġtubos":13030,"Ġenvolvidos":13031,"Ġtutorial":13032,"receive":13033,"Ġjersey":13034,"Ġtheoretical":13035,"atual":13036,"quio":13037,"Ġgang":13038,"Ġperante":13039,"bling":13040,"Ġshift":13041,"Ġteclado":13042,"Ġorganize":13043,"Ġspeech":13044,"Ġattach":13045,"ĠpolÃŃticos":13046,"Ġintroduced":13047,"Ġproduzido":13048,"Ġoxid":13049,"Ġthickness":13050,"Ġcet":13051,"Ġeter":13052,"Ġdeutsch":13053,"quart":13054,"step":13055,"Ġunfor":13056,"Ġwealth":13057,"Ġamend":13058,"Ġsupplies":13059,"Ġemails":13060,"Ġunderstood":13061,"Ġreplace":13062,"Ġsubscription":13063,"Ġdollar":13064,"Ġdefinitely":13065,"sab":13066,"ĠpaixÃ£o":13067,"anna":13068,"Ġtrains":13069,"Ã´s":13070,"ituais":13071,"Ġsabedoria":13072,"Ġinns":13073,"ĠconstruÃŃda":13074,"Ġconsidering":13075,"Ġconsumir":13076,"Ġconsultar":13077,"ĠconfortÃ¡veis":13078,"Ġevaluated":13079,"Ġexplained":13080,"ĠÃ¡lcool":13081,"Ġequilib":13082,"Ġinventory":13083,"Ġreconhecer":13084,"Ġbrasileiros":13085,"dou":13086,"Ġboc":13087,"estou":13088,"Ġreis":13089,"Ġquebra":13090,"Ġmanila":13091,"black":13092,"Ġcomply":13093,"Ġreceitas":13094,"Ġbeta":13095,"athers":13096,"Ã©rico":13097,"Ġmanually":13098,"Ġactividade":13099,"Ġcapacidades":13100,"Ġsecondary":13101,"Ġbearing":13102,"Ġprotocolo":13103,"Ġbronze":13104,"Ġransomware":13105,"cad":13106,"Ġdancing":13107,"Ġstan":13108,"Ġji":13109,"convers":13110,"Ġrow":13111,"Ġespelho":13112,"ativity":13113,"Ġcompletar":13114,"Ġtransparente":13115,"Ġkilometers":13116,"Ġaffordable":13117,"Ġtatu":13118,"anja":13119,"Ã©ct":13120,"Ã³i":13121,"Ġimplic":13122,"Ġinterf":13123,"Ġterras":13124,"gry":13125,"Ġpear":13126,"prot":13127,"Ġdelhi":13128,"Ġdescrit":13129,"max":13130,"Ġolho":13131,"Ġrequirement":13132,"Ġmanaging":13133,"Ġhaird":13134,"Ġlogotipo":13135,"Ġdentes":13136,"enÃ§Ãµes":13137,"Ġouvi":13138,"Ġdish":13139,"Ġsetup":13140,"Ġhollywood":13141,"Ġcharges":13142,"Ġmathe":13143,"Ġplacas":13144,"Ġindicators":13145,"ĠdiretÃ³rio":13146,"Ġembra":13147,"Ġaparecem":13148,"Ġdouro":13149,"Ġceo":13150,"ĠdeverÃ£o":13151,"Ġpercentage":13152,"Ġeternal":13153,"Ġprimavera":13154,"ĠinquÃ©r":13155,"desta":13156,"Ġcento":13157,"Ġdepos":13158,"itados":13159,"Ġperhaps":13160,"resse":13161,"Ġinvestments":13162,"ĠobservaÃ§Ã£o":13163,"colas":13164,"Ġexercer":13165,"Ġcommunicate":13166,"Ġcumprimento":13167,"zzi":13168,"baixe":13169,"stein":13170,"Ġvaginais":13171,"Ġequivalent":13172,"Ġtrailer":13173,"ĠfÃ³rmula":13174,"alia":13175,"iliar":13176,"conclus":13177,"Ġcentr":13178,"Ġrecife":13179,"process":13180,"Ġpools":13181,"Ġmenina":13182,"Ġaquela":13183,"Ġstudios":13184,"Ġpeda":13185,"Ġsonhos":13186,"metro":13187,"Ġnavegadores":13188,"Ġcolumn":13189,"Ġpatterns":13190,"Ġfilosof":13191,"Ġlifestyle":13192,"kl":13193,"tg":13194,"ĠdÃ©":13195,"itou":13196,"Ġbass":13197,"Ġmario":13198,"active":13199,"caf":13200,"Ġcriando":13201,"mini":13202,"Ġbuses":13203,"Ġapplies":13204,"Ġvestir":13205,"Ġachiev":13206,"Ġsuggestions":13207,"Ġgabri":13208,"Ġfinger":13209,"Ġsobreviv":13210,"Ġhigiene":13211,"Ġdna":13212,"Ġsiga":13213,"Ġeixo":13214,"Ġempr":13215,"Ġonto":13216,"Ġativa":13217,"Ġbranc":13218,"Ġprofiles":13219,"Ġdescend":13220,"Ġreviewers":13221,"aires":13222,"Ġcausing":13223,"Ġbagagem":13224,"Ġlimitado":13225,"Ġcomposed":13226,"ĠconfirmaÃ§Ã£o":13227,"Ġvariable":13228,"Ġinesquec":13229,"core":13230,"kel":13231,"natur":13232,"enz":13233,"Ġtocar":13234,"Ġumas":13235,"ÃŃcolas":13236,"Ġworship":13237,"intas":13238,"Ġfacing":13239,"Ġtraveling":13240,"Ġcombat":13241,"Ġcloser":13242,"Ġpurchased":13243,"apshot":13244,"ĠexposiÃ§Ãµes":13245,"ĠdisposiÃ§Ãµes":13246,"Ġsuplemento":13247,"Ġpent":13248,"Ġgat":13249,"Ġretain":13250,"Ġonda":13251,"Ġjorge":13252,"Ġautoc":13253,"intos":13254,"Ġmelhora":13255,"Ġdefender":13256,"Ġsurge":13257,"Ġsurpres":13258,"related":13259,"Ġmovements":13260,"Ġcouch":13261,"Ġcadastre":13262,"traduÃ§Ã£o":13263,"Ġdynamics":13264,"gary":13265,"Ġghz":13266,"Ġregra":13267,"Ġserves":13268,"Ġoperador":13269,"Ġdecreas":13270,"Ġbelt":13271,"ĠcomeÃ§o":13272,"Ġcontactar":13273,"ĠperÃŃodos":13274,"Ġdebian":13275,"Ġrecognize":13276,"Ġmunicipality":13277,"Ġcongresso":13278,"eps":13279,"Ġbd":13280,"Ġanfitri":13281,"Ġhz":13282,"Ġgy":13283,"imbra":13284,"Ġacquis":13285,"Ġkam":13286,"Ġregener":13287,"Ġguad":13288,"Ġsegue":13289,"hostels":13290,"complete":13291,"Ġpertenc":13292,"Ġmultifun":13293,"Ġphoenix":13294,"Ġunnecessary":13295,"Ġmaur":13296,"chen":13297,"program":13298,"Ġaccum":13299,"Ġduplic":13300,"Ġcompara":13301,"Ġperfis":13302,"Ġpostal":13303,"Ġembaix":13304,"Ġexige":13305,"ĠcÃ¢ncer":13306,"Ġether":13307,"Ġseam":13308,"Ġpredomin":13309,"eiÃ§Ã£o":13310,"Ġprocessor":13311,"Ġpassando":13312,"Ġirre":13313,"Ġlistening":13314,"Ġtennis":13315,"Ġbenz":13316,"Ġclaims":13317,"ĠameaÃ§a":13318,"Ġsozinho":13319,"otte":13320,"Ġyoga":13321,"Ġfron":13322,"Ġdirecion":13323,"porter":13324,"Ġphones":13325,"brid":13326,"compat":13327,"aroom":13328,"Ġshorts":13329,"Ġtowns":13330,"Ġtranslations":13331,"Ġpurchasing":13332,"Ġpretend":13333,"Ġmilitares":13334,"Ġincreasingly":13335,"dÃª":13336,"Ġdour":13337,"Ġquebec":13338,"oce":13339,"Ġnegl":13340,"Ġsanct":13341,"ungal":13342,"Ġengineer":13343,"Ġbringing":13344,"Ġwidget":13345,"Ġnordeste":13346,"support":13347,"Ġhydraulic":13348,"direct":13349,"want":13350,"Ġcache":13351,"Ġhart":13352,"Ġreje":13353,"usc":13354,"Ġforno":13355,"Ġaspir":13356,"Ġengan":13357,"Ġresc":13358,"Ġesposa":13359,"ribute":13360,"hara":13361,"Ġmaybe":13362,"Ġcerveja":13363,"ĠlogÃŃstica":13364,"ĠsubstÃ¢ncias":13365,"ĠsandÃ¡lias":13366,"Ġbuttons":13367,"Ġstake":13368,"Ġslightly":13369,"ĠpanamÃ¡":13370,"both":13371,"inÃ¡rio":13372,"Ġviva":13373,"Ġlex":13374,"Ġabort":13375,"Ġalloy":13376,"Ġapresentados":13377,"Ġexciting":13378,"Ġinflam":13379,"Ġbolas":13380,"added":13381,"Ġiniciativas":13382,"Ġinfohostal":13383,"sky":13384,"Ġcooling":13385,"Ġtrusted":13386,"Ġcatedral":13387,"tanto":13388,"warning":13389,"aras":13390,"Ġmx":13391,"Ġbh":13392,"Ġanth":13393,"Ġved":13394,"abeth":13395,"stock":13396,"Ġkir":13397,"arios":13398,"Ġbackpack":13399,"Ġtratamentos":13400,"ĠcÃ©rebro":13401,"ĠmÃ©dias":13402,"Ġfourth":13403,"Ġtells":13404,"Ġritmo":13405,"Ġwisdom":13406,"Ġfapesp":13407,"Ġluxurious":13408,"Ġiz":13409,"Ġacha":13410,"Ġdesport":13411,"tress":13412,"Ġdiariamente":13413,"Ġversat":13414,"Ġcomparador":13415,"Ġilleg":13416,"Ġmobility":13417,"Ġapproval":13418,"Ġrepresentantes":13419,"Ġrepresentative":13420,"Ġagriculture":13421,"Ġbroadcast":13422,"Ġfortaleza":13423,"Ġguangzhou":13424,"Ġcopenhagen":13425,"Ġphilosophy":13426,"Ġfruits":13427,"Ġnylon":13428,"ecÃ§Ãµes":13429,"due":13430,"cook":13431,"Ġopcionais":13432,"Ġgetaroom":13433,"Ġdirected":13434,"enger":13435,"Ġconstruct":13436,"Ġdeixou":13437,"Ġgases":13438,"Ġperceber":13439,"Ġnavig":13440,"ĠmÃ³dulos":13441,"Ġwww":13442,"Ġanalyzed":13443,"cers":13444,"cell":13445,"Ġink":13446,"emas":13447,"acess":13448,"izador":13449,"anges":13450,"ĠintenÃ§Ã£o":13451,"Ġcharming":13452,"letra":13453,"Ġcombine":13454,"Ġmicrof":13455,"Ġcongel":13456,"Ġaluminium":13457,"Ġfrigor":13458,"ioxid":13459,"ĠendereÃ§os":13460,"Ġjuventude":13461,"Ġvote":13462,"Ġchick":13463,"Ġperigo":13464,"Ġrelating":13465,"Ġzen":13466,"Ġfacial":13467,"Ġfalha":13468,"Ġjohnson":13469,"Ġlateral":13470,"Ġfestiv":13471,"Ġrecolh":13472,"Ġinhabit":13473,"qi":13474,"Ġanel":13475,"cht":13476,"segu":13477,"Ġentities":13478,"unda":13479,"Ġvisits":13480,"Ġtecidos":13481,"Ġcalm":13482,"Ġvolunte":13483,"Ġcabos":13484,"Ġespecialista":13485,"Ġmudou":13486,"ĠdetecÃ§Ã£o":13487,"Ã³polis":13488,"ĠdÃ©cadas":13489,"Ġafirma":13490,"lemb":13491,"Ġpn":13492,"Ġble":13493,"Ġespir":13494,"Ġpeo":13495,"Ġcaminhos":13496,"Ġtemperatures":13497,"Ġletters":13498,"Ġjudicial":13499,"ĠvestuÃ¡rio":13500,"Ġexibido":13501,"Ġprosper":13502,"ĠpreocupaÃ§Ã£o":13503,"Ã§al":13504,"Ġbeings":13505,"resorts":13506,"Ġjuntar":13507,"Ġmultic":13508,"Ġconsultoria":13509,"Ġwatching":13510,"Ġconsistent":13511,"ĠferroviÃ¡ria":13512,"Ġcandidatos":13513,"ĠinterpretaÃ§Ã£o":13514,"detail":13515,"Ġrusso":13516,"Ġwikipedia":13517,"late":13518,"lÃ¢ndia":13519,"Ġtive":13520,"Ġpum":13521,"Ġfides":13522,"ects":13523,"artic":13524,"prov":13525,"Ġcrimes":13526,"lets":13527,"Ġdriven":13528,"Ġligar":13529,"Ġquantit":13530,"Ġmedicamento":13531,"keywords":13532,"Ġvermelha":13533,"ĠconexÃµes":13534,"Ġacolhed":13535,"Ġsincron":13536,"nut":13537,"Ġsic":13538,"Ġdevol":13539,"Ġfui":13540,"Ġcarl":13541,"ĠmarÃŃtim":13542,"Ġbristol":13543,"Ġraised":13544,"ĠsecÃ§Ã£o":13545,"ancar":13546,"Ġduche":13547,"Ġdirectamente":13548,"afood":13549,"Ġilim":13550,"Ġnormally":13551,"Ġconversar":13552,"Ġagreements":13553,"Ġukraine":13554,"Ġconsequences":13555,"Ġsurrounding":13556,"Ġprotegido":13557,"Ġenfrentar":13558,"Ġdallas":13559,"kh":13560,"windo":13561,"aties":13562,"Ġhabil":13563,"Ġenvel":13564,"resposta":13565,"Ġmodificar":13566,"Ġpedras":13567,"Ġsabia":13568,"Ġtotally":13569,"Ġmoroc":13570,"Ġsono":13571,"ĠespaÃ±ol":13572,"local":13573,"Ġexclusivamente":13574,"Ġfuck":13575,"Ġcomunicar":13576,"Ġcertificados":13577,"ĠclÃŃnica":13578,"Ġabsolutely":13579,"cidos":13580,"ois":13581,"Ġtm":13582,"esas":13583,"inado":13584,"ĠcÃ£es":13585,"eries":13586,"redo":13587,"ulada":13588,"ocks":13589,"Ġnascer":13590,"Ġaplicada":13591,"Ġsabemos":13592,"Ġhumanity":13593,"ĠdiversÃ£o":13594,"ĠflorenÃ§a":13595,"ĠaceitaÃ§Ã£o":13596,"umbai":13597,"copyright":13598,"Ġlm":13599,"Ġlamb":13600,"Ġgelo":13601,"imar":13602,"teen":13603,"Ġoperated":13604,"Ġtraders":13605,"Ġenviados":13606,"Ġtrousers":13607,"Ġproximidade":13608,"Ġburning":13609,"Ġhourly":13610,"Ġgraphic":13611,"ĠeconÃ³micas":13612,"Ġweapons":13613,"bos":13614,"tub":13615,"Ġnc":13616,"Ġingress":13617,"rota":13618,"Ġafili":13619,"ergy":13620,"contudo":13621,"Ġfaq":13622,"Ġurugu":13623,"Ġcorporal":13624,"Ġvivem":13625,"Ġhb":13626,"Ġjude":13627,"Ġkoh":13628,"clude":13629,"outra":13630,"posters":13631,"Ġexecutivo":13632,"ogrÃ¡ficas":13633,"ĠconservaÃ§Ã£o":13634,"Ġguided":13635,"aff":13636,"ĠfÃ£s":13637,"Ġreaction":13638,"Ġsucess":13639,"aceutical":13640,"Ġincap":13641,"Ġlooked":13642,"Ġadicione":13643,"Ġazure":13644,"Ġjacket":13645,"ience":13646,"mand":13647,"Ġey":13648,"atul":13649,"Ġnad":13650,"Ġalign":13651,"abling":13652,"vern":13653,"Ġxe":13654,"Ġprovoc":13655,"iex":13656,"Ġartistic":13657,"Ġpersonagem":13658,"Ġceramic":13659,"Ġseeing":13660,"suporte":13661,"Ġscrew":13662,"Ġstrengthen":13663,"Ġalbergues":13664,"ĠcirculaÃ§Ã£o":13665,"cozinhas":13666,"pou":13667,"Ġforg":13668,"berto":13669,"princ":13670,"Ġmetr":13671,"Ġantioxid":13672,"ĠautomÃ³vel":13673,"Ġpatr":13674,"Ġaustin":13675,"Ġgasolina":13676,"ĠconduÃ§Ã£o":13677,"Ġcomboios":13678,"Ġislam":13679,"Ġpeixes":13680,"Ġgranted":13681,"enÃ§o":13682,"Ġdegrad":13683,"Ġanabol":13684,"Ġparagraph":13685,"vik":13686,"viera":13687,"achi":13688,"ĠestÃ¡gio":13689,"tyard":13690,"Ġcopper":13691,"Ġmacro":13692,"Ġcruise":13693,"Ġdiagnosis":13694,"Ġaeron":13695,"Ġpeoples":13696,"Ġliability":13697,"Ġgp":13698,"Ġsimp":13699,"Ġdecades":13700,"Ġletras":13701,"Ġcompreend":13702,"working":13703,"Ġsevilha":13704,"Ġfellow":13705,"Ġhoney":13706,"Ã³dio":13707,"outro":13708,"ĠmetÃ¡l":13709,"Ġseguindo":13710,"Ġpermission":13711,"Ġmalaga":13712,"ĠreferÃªncias":13713,"Ã³lio":13714,"Ġbonita":13715,"Ġblocos":13716,"Ġprofundidade":13717,"Ġcompressor":13718,"Ġestablishment":13719,"Ġbilba":13720,"ĠhÃ´":13721,"illy":13722,"Ġjpg":13723,"apolis":13724,"Ġmanif":13725,"Ġmodify":13726,"Ġfeaturing":13727,"ĠvariÃ¡vel":13728,"Ġtravelling":13729,"Ġdrives":13730,"Ġnomeadamente":13731,"Ġrespective":13732,"ĠsecretÃ¡ria":13733,"ĠhistÃ³rica":13734,"ĠproprietÃ¡rios":13735,"Ġexcep":13736,"Ġconvidados":13737,"Ġganhou":13738,"great":13739,"rates":13740,"hei":13741,"Ã©e":13742,"Ġnaples":13743,"Ġcoating":13744,"ĠtransiÃ§Ã£o":13745,"ĠcrÃ©ditos":13746,"Ġeuropeus":13747,"Ġespecializado":13748,"Ġconcret":13749,"ĠpainÃ©is":13750,"Ġfelicidade":13751,"Ġfinanceiras":13752,"Ġnutric":13753,"ĠdifÃŃceis":13754,"Ġadjustable":13755,"Ġesporte":13756,"Ġsurrounded":13757,"aprove":13758,"Ġinspection":13759,"Ġluxuosos":13760,"Ġplasma":13761,"lan":13762,"uidade":13763,"Ġpand":13764,"omar":13765,"Ġstorm":13766,"lying":13767,"Ġunesco":13768,"Ġpodes":13769,"Ġpodia":13770,"Ġmarks":13771,"Ġages":13772,"Ġqualified":13773,"Ġgerente":13774,"Ġautomated":13775,"Ġlabour":13776,"Ġelectricity":13777,"Ãłs":13778,"Ġdialog":13779,"Ġpolyester":13780,"Ġsudeste":13781,"adicione":13782,"mest":13783,"vnik":13784,"erva":13785,"oring":13786,"Ġepson":13787,"Ã¡culo":13788,"Ġimun":13789,"Ġprec":13790,"Ġheights":13791,"heres":13792,"Ġtransactions":13793,"Ġoptical":13794,"ĠtraduÃ§Ãµes":13795,"Ġcontrolador":13796,"wait":13797,"Ġminimal":13798,"Ġoceano":13799,"Ġconcordou":13800,"Ġseattle":13801,"Ġimpedir":13802,"ĠcÃŃr":13803,"hann":13804,"yo":13805,"def":13806,"Ġmarrak":13807,"Ġvert":13808,"Ġproveni":13809,"Ġpersegu":13810,"Ġpression":13811,"Ġmemorial":13812,"Ġmanagers":13813,"Ġrelative":13814,"Ġfazemos":13815,"Ġescrav":13816,"Ġslides":13817,"Ġdefinido":13818,"Ġexclusiva":13819,"Ġsharp":13820,"Ġmoderate":13821,"Ġadministrador":13822,"Ġsleeps":13823,"podemos":13824,"Ġbolsas":13825,"surfing":13826,"Ġgifts":13827,"Ġencounter":13828,"Ġdianabol":13829,"Ġdespesas":13830,"rating":13831,"Ġpup":13832,"Ġprohib":13833,"Ġstro":13834,"Ġstack":13835,"stad":13836,"church":13837,"Ġtemp":13838,"Ã¡lise":13839,"Ġdrum":13840,"Ġharvest":13841,"Ġdamaged":13842,"ĠeletrÃ´nica":13843,"Ġpossibilities":13844,
[...]
