{"<s>":0,"<pad>":1,"</s>":2,"<unk>":3,"<mask>":4,"!":5,"\"":6,"#":7,"$":8,"%":9,"&":10,"'":11,"(":12,")":13,"*":14,"+":15,",":16,"-":17,".":18,"/":19,"0":20,"1":21,"2":22,"3":23,"4":24,"5":25,"6":26,"7":27,"8":28,"9":29,":":30,";":31,"<":32,"=":33,">":34,"?":35,"@":36,"A":37,"B":38,"C":39,"D":40,"E":41,"F":42,"G":43,"H":44,"I":45,"J":46,"K":47,"L":48,"M":49,"N":50,"O":51,"P":52,"Q":53,"R":54,"S":55,"T":56,"U":57,"V":58,"W":59,"X":60,"Y":61,"Z":62,"[":63,"\\":64,"]":65,"^":66,"_":67,"`":68,"a":69,"b":70,"c":71,"d":72,"e":73,"f":74,"g":75,"h":76,"i":77,"j":78,"k":79,"l":80,"m":81,"n":82,"o":83,"p":84,"q":85,"r":86,"s":87,"t":88,"u":89,"v":90,"w":91,"x":92,"y":93,"z":94,"{":95,"|":96,"}":97,"~":98,"¡":99,"¢":100,"£":101,"¤":102,"¥":103,"¦":104,"§":105,"¨":106,"©":107,"ª":108,"«":109,"¬":110,"®":111,"¯":112,"°":113,"±":114,"²":115,"³":116,"´":117,"µ":118,"¶":119,"·":120,"¸":121,"¹":122,"º":123,"»":124,"¼":125,"½":126,"¾":127,"¿":128,"À":129,"Á":130,"Â":131,"Ã":132,"Ä":133,"Å":134,"Æ":135,"Ç":136,"È":137,"É":138,"Ê":139,"Ë":140,"Ì":141,"Í":142,"Î":143,"Ï":144,"Ð":145,"Ñ":146,"Ò":147,"Ó":148,"Ô":149,"Õ":150,"Ö":151,"×":152,"Ø":153,"Ù":154,"Ú":155,"Û":156,"Ü":157,"Ý":158,"Þ":159,"ß":160,"à":161,"á":162,"â":163,"ã":164,"ä":165,"å":166,"æ":167,"ç":168,"è":169,"é":170,"ê":171,"ë":172,"ì":173,"í":174,"î":175,"ï":176,"ð":177,"ñ":178,"ò":179,"ó":180,"ô":181,"õ":182,"ö":183,"÷":184,"ø":185,"ù":186,"ú":187,"û":188,"ü":189,"ý":190,"þ":191,"ÿ":192,"Ā":193,"ā":194,"Ă":195,"ă":196,"Ą":197,"ą":198,"Ć":199,"ć":200,"Ĉ":201,"ĉ":202,"Ċ":203,"ċ":204,"Č":205,"č":206,"Ď":207,"ď":208,"Đ":209,"đ":210,"Ē":211,"ē":212,"Ĕ":213,"ĕ":214,"Ė":215,"ė":216,"Ę":217,"ę":218,"Ě":219,"ě":220,"Ĝ":221,"ĝ":222,"Ğ":223,"ğ":224,"Ġ":225,"ġ":226,"Ģ":227,"ģ":228,"Ĥ":229,"ĥ":230,"Ħ":231,"ħ":232,"Ĩ":233,"ĩ":234,"Ī":235,"ī":236,"Ĭ":237,"ĭ":238,"Į":239,"į":240,"İ":241,"ı":242,"Ĳ":243,"ĳ":244,"Ĵ":245,"ĵ":246,"Ķ":247,"ķ":248,"ĸ":249,"Ĺ":250,"ĺ":251,"Ļ":252,"ļ":253,"Ľ":254,"ľ":255,"Ŀ":256,"ŀ":257,"Ł":258,"ł":259,"Ń":260,"Ġa":261,"Ġd":262,"Ġt":263,"es":264,"er":265,"in":266,"čĊ":267,"en":268,"Ġp":269,"or":270,"on":271,"ar":272,"Ġc":273,"os":274,"Ġs":275,"an":276,"is":277,"Ġe":278,"Ġo":279,"Ġde":280,"as":281,"he":282,"re":283,"al":284,"at":285,"it":286,"Ġm":287,"Ġf":288,"om":289,"ic":290,"ad":291,"ent":292,"Ġthe":293,"Ġn":294,"Ġin":295,"ro":296,"el":297,"qu":298,"Ġb":299,"Ã£":300,"Ġw":301,"ou":302,"Ġan":303,"Ã£o":304,"Ã§":305,"ed":306,"ion":307,"am":308,"id":309,"il":310,"Ġof":311,"ing":312,"Ġto":313,"Ġu":314,"em":315,"Ġand":316,"ĠC":317,"ĠS":318,"Ġl":319,"ri":320,"Ġv":321,"est":322,"Ġcom":323,"ra":324,"ec":325,"ot":326,"Ġh":327,"Ġqu":328,"ol":329,"et":330,"im":331,"Ã¡":332,"Ã©":333,"ĠP":334,"ĠA":335,"Ġpar":336,"Ġre":337,"ia":338,"Ġem":339,"ur":340,"ut":341,"st":342,"ac":343,"ĠM":344,"iv":345,"Ã§Ã£o":346,"Ġcon":347,"Ġdo":348,"le":349,"Ġg":350,"Ġth":351,"Ġum":352,"ess":353,"ir":354,"ĠB":355,"Ġpara":356,"ul":357,"Ġpro":358,"ig":359,"ĠT":360,"Ġque":361,"od":362,"ant":363,"Ġfor":364,"oc":365,"Ġy":366,"un":367,"Ġse":368,"ÃŃ":369,"Ġ(":370,"ation":371,"ist":372,"Ġyou":373,"do":374,"ĠR":375,"ĠE":376,"us":377,"ĠD":378,"ĠH":379,"ĠI":380,"âĢ":381,"Ġr":382,"ter":383,"Ġda":384,"Ġas":385,"Ġis":386,"ag":387,"Ãª":388,"ĠF":389,"ort":390,"ĠL":391,"ers":392,"Ġ1":393,"Ġal":394,"aÃ§Ã£o":395,"um":396,"Ġ2":397,"Ã³":398,"ce":399,"ve":400,"Ġon":401,"Ġsu":402,"if":403,"ab":404,"ith":405,"ĠG":406,"ais":407,"ente":408,"Ġex":409,"ade":410,"ow":411,"iz":412,"Ġest":413,"pl":414,"Ġ-":415,"ado":416,"ay":417,"Ãµ":418,"Ġwith":419,"Ġno":420,"ch":421,"Ãµes":422,"Ġat":423,"ap":424,"ver":425,"ĠN":426,"se":427,"Ġuma":428,"Ġbe":429,"and":430,"ect":431,"ct":432,"ly":433,"Ġor":434,"Ġst":435,"Ġos":436,"ĠÃ©":437,"per":438,"ĠO":439,"Ġen":440,"Ġpr":441,"her":442,"ho":443,"ci":444,"ĠW":445,"ĠV":446,"Ã§Ãµes":447,"ento":448,"og":449,"ont":450,"Ġser":451,"otel":452,"idade":453,"00":454,"Ġthat":455,"ud":456,"ados":457,"end":458,"ill":459,"ity":460,"for":461,"Ġcont":462,"ost":463,"ada":464,"Ġfr":465,"vel":466,"Ġap":467,"ens":468,"art":469,"ica":470,"op":471,"eg":472,"Ġac":473,"du":474,"Ġit":475,"ob":476,"Ġres":477,"oss":478,"ip":479,"Ġdes":480,"Ġare":481,"ĠJ":482,"Ġus":483,"ht":484,"ew":485,"io":486,"..":487,"ĠÃ":488,"port":489,"Ġpor":490,"Ġper":491,"The":492,"ran":493,"Ġj":494,"ĠU":495,"Ġes":496,"Ġcomp":497,"Ġyour":498,"Ġna":499,"ain":500,"ocÃª":501,"ĠâĢ":502,"Ġwh":503,"ial":504,"Ġfrom":505,"ak":506,"ies":507,"Ġim":508,"Ã¡ri":509,"ate":510,"ast":511,"ug":512,"de":513,"ha":514,"form":515,"Ġou":516,"ear":517,"ib":518,"nc":519,"ei":520,"Ġpod":521,"ĠnÃ£o":522,"01":523,"ire":524,"av":525,"Ġby":526,"Ġmais":527,"Ġpre":528,"ĠIn":529,"ual":530,"ust":531,"ando":532,"Ġar":533,"ine":534,"ok":535,"ite":536,"Ġcan":537,"vi":538,"Ġdis":539,"ores":540,"Ġtem":541,"ai":542,"to":543,"ard":544,"Ġ3":545,"Ġab":546,"ive":547,"ult":548,"ito":549,"ure":550,"ment":551,"ĠvocÃª":552,"Ġcl":553,"Ġk":554,"Ġwe":555,"ĠK":556,"ight":557,"nd":558,"Ġad":559,"Ġnot":560,"com":561,"our":562,"Ġch":563,"Ġpart":564,"so":565,"Ġdos":566,"ore":567,"all":568,"nt":569,"Ġpl":570,"ub":571,"res":572,"cl":573,"pt":574,"Ãº":575,"fer":576,"ave":577,"Ġcomo":578,"az":579,"Ġhe":580,"ass":581,"ld":582,"ind":583,"Ġout":584,"th":585,"Ġent":586,"ncia":587,"ĠHotel":588,"ru":589,"ĠSt":590,"Ġthis":591,"ang":592,"ere":593,"po":594,"Ã§a":595,"ura":596,"ide":597,"ido":598,"ions":599,"ico":600,"ov":601,"ice":602,"amento":603,"ook":604,"Ġ201":605,"Ġman":606,"ific":607,"cess":608,"age":609,"Ġwill":610,"ell":611,"ante":612,"amente":613,"are":614,"aÃ§Ãµes":615,"Ġinter":616,"Ġsh":617,"Ġao":618,"ros":619,"ĠÃł":620,"ong":621,"Ġall":622,"ina":623,"Ã©m":624,"ome":625,"Ġam":626,"ail":627,"âĢĻ":628,"Ġseu":629,"Ġpel":630,"Ġme":631,"ert":632,"out":633,"co":634,"ĠCh":635,"Ġtra":636,"Ġ4":637,"pe":638,"und":639,"ach":640,"ated":641,"ida":642,"ional":643,"Ġhave":644,"ase":645,"able":646,"ign":647,"esta":648,"Ġter":649,"Ġag":650,"entes":651,"ram":652,"que":653,"pon":654,"ord":655,"Ãªncia":656,"ich":657,"ian":658,"Ã©is":659,"Ġsob":660,"Ġsua":661,"pec":662,"ras":663,"Ġqual":664,"ical":665,"adas":666,"ork":667,"ack":668,"Ã§o":669,"int":670,"gu":671,"Ġ5":672,"rat":673,"Ġinform":674,"Ġle":675,"Ġrel":676,"ress":677,"Ġwas":678,"ador":679,"Ġel":680,"act":681,"ater":682,"elh":683,"Ã¢":684,"rans":685,"Ġtod":686,"otÃ©is":687,"ations":688,"Ġpode":689,"erv":690,"ry":691,"Ġro":692,"Ġob":693,"ĠAl":694,"Ġcons":695,"âĢĿ":696,"Ġsobre":697,"ades":698,"In":699,"ff":700,"ree":701,"ence":702,"ivo":703,"amb":704,"Th":705,"ile":706,"mo":707,"one":708,"Ġcar":709,"...":710,"lo":711,"mente":712,"Ġdas":713,"Ġmu":714,"ber":715,"ue":716,"Ġ\"":717,"Ġver":718,"Ġour":719,"up":720,"ous":721,"ĠsÃ£o":722,"Ġnoss":723,"ther":724,"Ġso":725,"Ġprodu":726,"ance":727,"Ġform":728,"ex":729,"ĠCom":730,"rar":731,"ric":732,"Ġcol":733,"agem":734,"antes":735,"Ġass":736,"ge":737,"ark":738,"esso":739,"iss":740,"ace":741,"Ġreg":742,"Ġrec":743,"ias":744,"Ġloc":745,"pos":746,"ĠâĢĵ":747,"rim":748,"Ġwhich":749,"ik":750,"Ġmod":751,"te":752,"ĠPro":753,"Ġav":754,"Ġfl":755,"ara":756,"aliz":757,"Ġcor":758,"ents":759,"entos":760,"imento":761,"Ġev":762,"Ġinst":763,"Ġfo":764,"Ġun":765,"ake":766,"Ġsem":767,").":768,"ish":769,"estaur":770,"dit":771,"Ġtrans":772,"ime":773,"Ġincl":774,"ount":775,"Ġposs":776,"rig":777,"idades":778,"Ġhas":779,"bl":780,"Ġhotel":781,"Ġmore":782,"Com":783,"'s":784,"Ã³s":785,"ez":786,"Ġgo":787,"ick":788,"icas":789,"Ã¡rio":790,"indo":791,"Ġenc":792,"Ġdif":793,"Ġpe":794,"ne":795,"plic":796,"ame":797,"ta":798,"ĠestÃ¡":799,"ja":800,"ĠUn":801,"ings":802,"xim":803,"ĠDe":804,"ary":805,"Ġfaz":806,"ĠRe":807,"ould":808,"Ġmin":809,"Ġdire":810,"Ġtr":811,"ular":812,"ond":813,"olog":814,"ata":815,"Ġop":816,"ĠâĢľ":817,"),":818,"mer":819,"ca":820,"Ġaut":821,"ose":822,"Ġvis":823,"Ġint":824,"Ġsol":825,"Ġ6":826,"ora":827,"vis":828,"enc":829,"ÃŃvel":830,"Qu":831,"Ġco":832,"Ġmelh":833,"Ġconf":834,"ambÃ©m":835,"ese":836,"icos":837,"orn":838,"wn":839,"Ã¡rios":840,"Ġ&":841,"here":842,"uro":843,"tern":844,"dut":845,"Al":846,"ft":847,"veis":848,"Ġgr":849,"Ġprov":850,"iliz":851,"ĠThe":852,"idos":853,"Ġcas":854,"Ġesc":855,"Ã³ri":856,"Ġserv":857,"Ġne":858,"ĠY":859,"amos":860,"vol":861,"Ã§os":862,"eiro":863,"cis":864,"ors":865,"Ġfe":866,"bal":867,"anto":868,"ĠAr":869,"aix":870,"Ġalso":871,"iÃ§Ã£o":872,"itos":873,"Ġtheir":874,"Ġsa":875,"pres":876,"ie":877,"Ġ7":878,"Ġentre":879,"Ġbut":880,"Ġone":881,"eira":882,"ng":883,"Ġfoi":884,"Ġpesso":885,"ativ":886,"ys":887,"ĠtambÃ©m":888,"ices":889,"Ġ19":890,"ech":891,"Ġother":892,"Ġimp":893,"gram":894,"reat":895,"Ġmes":896,"emb":897,"Ġits":898,"Ġ|":899,"Ġup":900,"riv":901,"ons":902,"Ġprocess":903,"Se":904,"rib":905,"ece":906,"Ãªs":907,"ix":908,"peri":909,"ubl":910,"Ġwork":911,"Ġnov":912,"aus":913,"Ġtime":914,"hec":915,"Ġ8":916,"Ġany":917,"rit":918,"amp":919,"line":920,"endo":921,"igh":922,"Ġseus":923,"ĠÃ¡":924,"Ġmet":925,"ĠprÃ³":926,"quer":927,"Ġmas":928,"par":929,"Ġcri":930,"Ġsp":931,"min":932,"ction":933,"Ġabout":934,"Ġuse":935,"Ġfun":936,"ivers":937,"Ġencont":938,"It":939,"Ġind":940,"Ġcent":941,"Ġalg":942,"ari":943,"Ġmost":944,"ights":945,"Os":946,"ĠEst":947,"Ġcap":948,"now":949,"ista":950,"Ġnos":951,"Ġele":952,"ĠHotels":953,"eb":954,"ory":955,"anc":956,"Est":957,"As":958,"ject":959,"Ã¡t":960,"rip":961,"ĠEx":962,"cre":963,"Ġ10":964,"Ġtodos":965,"ities":966,"Ã´":967,"ĠMar":968,"Ġpres":969,"Ġpers":970,"Ġ200":971,"Ġprodut":972,"pri":973,"ĠPl":974,"Ġequ":975,"ĠPort":976,"ild":977,"ecess":978,"pecial":979,"tal":980,"Ġsub":981,"erg":982,"Ġnew":983,"Ġ/":984,"ep":985,"view":986,"Ad":987,"ilh":988,"Ã§as":989,"Ġvia":990,"ants":991,"ink":992,"Ġthey":993,"ise":994,"ma":995,"inal":996,"pre":997,"Ã¡vel":998,"ern":999,"ios":1000,"Ġfazer":1001,"gan":1002,"ita":1003,"Ġ9":1004,"This":1005,"Ġut":1006,"les":1007,"Ġaf":1008,"jet":1009,"der":1010,"ino":1011,"ĠZ":1012,"eral":1013,"ely":1014,"yst":1015,"Ġgu":1016,"con":1017,"ates":1018,"por":1019,"ational":1020,"ock":1021,"ares":1022,"enas":1023,"Ġtrabal":1024,"pan":1025,"HotÃ©is":1026,"ira":1027,"ement":1028,"Ġsim":1029,"Ġprof":1030,"oll":1031,"itu":1032,"Ġcompl":1033,"Ġmuito":1034,"Ġnecess":1035,"Ġte":1036,"Ġdist":1037,"istem":1038,"Ġpass":1039,"ĠAp":1040,"este":1041,"We":1042,"fe":1043,"Ġext":1044,"Ġseg":1045,"oy":1046,"ph":1047,"ici":1048,"Ġess":1049,"Ġra":1050,"Ġresult":1051,"enh":1052,"ĠCl":1053,"atur":1054,"we":1055,"emos":1056,"ll":1057,"pa":1058,"Ġpol":1059,"Ġsuas":1060,"Ġnum":1061,"Ġwho":1062,"Ġpelo":1063,"rav":1064,"Ġthem":1065,"orld":1066,"adores":1067,"Ġmelhor":1068,"Ġval":1069,"Ġche":1070,"Ġutiliz":1071,"land":1072,"iver":1073,"Ġprogram":1074,"Ġmar":1075,"Ġact":1076,"Ġimport":1077,"Ġmed":1078,"ws":1079,"Ġthere":1080,"ren":1081,"ax":1082,"Ġrece":1083,"pect":1084,"ike":1085,"Ġpo":1086,"Ġart":1087,"orm":1088,"cul":1089,"ugh":1090,"Ġproduct":1091,"Ġdur":1092,"Ġinformation":1093,"Ġfil":1094,"Ġnas":1095,"ĠRes":1096,"Ġyear":1097,"idas":1098,"ower":1099,"Ġant":1100,"Ġtempo":1101,"man":1102,"undo":1103,"Ġsec":1104,"Ġvez":1105,"perat":1106,"als":1107,"ystem":1108,"nci":1109,"ana":1110,"iro":1111,"Ġconst":1112,"Ġcam":1113,"ĠÃº":1114,"ets":1115,"Ġpela":1116,"ato":1117,"Ġcli":1118,"Ġexperi":1119,"way":1120,"ware":1121,"Ġ0":1122,"ÃŃt":1123,"pro":1124,"Ġdel":1125,"Ġer":1126,"blem":1127,"Ġdev":1128,"Ġthan":1129,"Ġbus":1130,"ron":1131,"ss":1132,"Ġbet":1133,"ux":1134,"Ã¡l":1135,"ĠSh":1136,"ĠAm":1137,"Ġhis":1138,"Ġcur":1139,"Ġservi":1140,"Ġkm":1141,"Ġliv":1142,"very":1143,"ĠCon":1144,"Ġwhen":1145,"Ġph":1146,"Ġknow":1147,"You":1148,"Ġsup":1149,"abil":1150,"Ġsel":1151,"mit":1152,"Ġneed":1153,"volv":1154,"bo":1155,"ites":1156,"Ġmay":1157,"Ġsoc":1158,"ound":1159,"Ġreal":1160,"ital":1161,"Ġequip":1162,"Ġperson":1163,"agens":1164,"ied":1165,"otos":1166,"anÃ§a":1167,"Ġprim":1168,"ima":1169,"Ġbl":1170,"quis":1171,"arm":1172,"Ġoff":1173,"ĠAir":1174,"10":1175,"iais":1176,"ven":1177,"ef":1178,"Ġdados":1179,"Ġproblem":1180,"ĠMan":1181,"If":1182,"Ġbest":1183,"Ġdesc":1184,"Ġmen":1185,"Ġset":1186,"Ġinf":1187,"Ġbar":1188,"ĠX":1189,"ĠAd":1190,"Ġcontro":1191,"Ġintern":1192,"ible":1193,"Hotel":1194,"rough":1195,"Wh":1196,"20":1197,"ĠSe":1198,"erc":1199,"Ġonly":1200,"Ã©s":1201,"uc":1202,"Ġwere":1203,"Ġaj":1204,"ection":1205,"ÃŃn":1206,"Ġnear":1207,"iros":1208,"ople":1209,"right":1210,"ident":1211,"ral":1212,"ivos":1213,"ĠatÃ©":1214,"Ġvo":1215,"Ġarqu":1216,"Ġlong":1217,"cel":1218,"Ġaqu":1219,"ĠEs":1220,"Ġjog":1221,"ĠEuro":1222,"cip":1223,"ES":1224,"Ġif":1225,"Ġinclud":1226,"ages":1227,"ments":1228,"udo":1229,"Ġfind":1230,"ider":1231,"Ġweb":1232,"Em":1233,"Ġrespon":1234,"Ġinv":1235,"Ġdata":1236,"Ġcust":1237,"Ġfam":1238,"Ġpodem":1239,"Ġeste":1240,"Ġpartic":1241,"nolog":1242,"Ġdi":1243,"ER":1244,"ath":1245,"Ġvi":1246,"Ġsal":1247,"ĠAn":1248,"inha":1249,"wo":1250,"ÃŃci":1251,"Ġcomplet":1252,"ano":1253,"Ġins":1254,"Ġqualquer":1255,"VocÃª":1256,"ouse":1257,"ublic":1258,"ÃŃs":1259,"Ġreserv":1260,"ĠhotÃ©is":1261,"Ġdia":1262,"Ġ20":1263,"irst":1264,"Ġhel":1265,"Para":1266,"Ġbec":1267,"old":1268,"cor":1269,"50":1270,"ĠCar":1271,"ract":1272,"ics":1273,"Ġpes":1274,"Ġbook":1275,"ans":1276,"Ġaos":1277,"Ġover":1278,"af":1279,"Ġacc":1280,"Ġpoder":1281,"Ã©ri":1282,"ily":1283,"ĠprÃ³xim":1284,"ĠPar":1285,"ÃŃveis":1286,"iness":1287,"icion":1288,"urs":1289,"Ġcre":1290,"Ġsite":1291,"inh":1292,"acion":1293,"ped":1294,"ela":1295,"Ġoutros":1296,"Ġdef":1297,"itar":1298,"els":1299,"Ġfic":1300,"ĠTh":1301,"Ġthrough":1302,"rist":1303,"urn":1304,"aint":1305,"Ġpeople":1306,"ange":1307,"Ġund":1308,"Ġbu":1309,"Ġsome":1310,"Ġdispon":1311,"raz":1312,"velop":1313,"cion":1314,"Ġgrand":1315,"Ġquando":1316,"ather":1317,"mos":1318,"Ġhum":1319,"Ġorgan":1320,"Ġprin":1321,"Ã©d":1322,"ĠBe":1323,"ique":1324,"Ġbo":1325,"oth":1326,"ife":1327,"Ġmai":1328,"Ġbeen":1329,"Ġdesign":1330,"ailable":1331,"ins":1332,"Ġbem":1333,"Ġir":1334,"Ġinclu":1335,"ĠinformaÃ§Ãµes":1336,"Ġmy":1337,"ĠQ":1338,"lt":1339,"Ġoper":1340,"ove":1341,"hed":1342,"Ġport":1343,"Ġlike":1344,"Ġsign":1345,"Ġsegu":1346,"Ġforn":1347,"Ġgro":1348,"000":1349,"ner":1350,"ĠSu":1351,"iÃ§Ãµes":1352,"ĠFl":1353,"duc":1354,"earch":1355,"Ġcompan":1356,"enci":1357,"Ġanos":1358,"me":1359,"ĠFran":1360,"ines":1361,"Ġdest":1362,"Ġprecis":1363,"ks":1364,"Ġofer":1365,"Ġajud":1366,"ĠGu":1367,"Pro":1368,"uns":1369,"ĠCent":1370,"Ġgl":1371,"Ġsuch":1372,"Ġthese":1373,"Ġhelp":1374,"rom":1375,"Ġsistem":1376,"ĠTrip":1377,"ncias":1378,"Ġused":1379,"ĠPh":1380,"ton":1381,"Ġhigh":1382,"urg":1383,"Ġrestaur":1384,"Ġcert":1385,"Ġempres":1386,"Ġcomm":1387,"ited":1388,"ext":1389,"Ġwell":1390,"own":1391,"Ġwhat":1392,"elo":1393,"ier":1394,"Ġsystem":1395,"ecer":1396,"air":1397,"Ġprot":1398,"Ġnosso":1399,"Ã©t":1400,"Ġpessoas":1401,"Ġdesen":1402,"Ġmater":1403,"amentos":1404,"ful":1405,"Ġstud":1406,"ibil":1407,"Ġrem":1408,"ĠBar":1409,"Ġmesmo":1410,"ĠIntern":1411,"ale":1412,"Ġjust":1413,"ĠUS":1414,"igo":1415,"rad":1416,"ption":1417,"Ġrequ":1418,"ĠSp":1419,"Ġvari":1420,"Ġsee":1421,"ior":1422,"Ġencontrar":1423,"ĠBl":1424,"ĠestÃ£o":1425,"red":1426,"ĠLe":1427,"esc":1428,"Ġ+":1429,"ĠIs":1430,"ating":1431,"ĠQu":1432,"ĠEl":1433,"Ġinto":1434,"Ġneg":1435,"oj":1436,"gem":1437,"rica":1438,"Ġdiffer":1439,"its":1440,"IN":1441,"ugu":1442,"ulo":1443,"Ġworld":1444,"unic":1445,"part":1446,"Ġfirst":1447,"press":1448,"Ġdifer":1449,"ution":1450,"Ġapenas":1451,"za":1452,"ON":1453,"Ġevery":1454,"ĠNew":1455,"Ġla":1456,"aram":1457,"Ġfac":1458,"indows":1459,"ute":1460,"Ġprom":1461,"ental":1462,"ours":1463,"Ġway":1464,"Ġhist":1465,"ause":1466,"lex":1467,"Ã¡g":1468,"oug":1469,"visor":1470,"ty":1471,"Ġ12":1472,"Ġaplic":1473,"Ġi":1474,"ĠCont":1475,"Ġhow":1476,"Ġatt":1477,"AR":1478,"AN":1479,"Ġunder":1480,"ote":1481,"Ġbr":1482,"arg":1483,"Ġ15":1484,"No":1485,"Ã¡s":1486,"lish":1487,"Ġget":1488,"aria":1489,"Ġmap":1490,"Ġtemperat":1491,"Ġpop":1492,"vern":1493,"Ġmake":1494,"Ġfree":1495,"ua":1496,"Ġfile":1497,"ember":1498,"Ġmaior":1499,"Ġgen":1500,"acional":1501,"unt":1502,"ĠGo":1503,"Ġvery":1504,"Ex":1505,"Ġlist":1506,"Ġeff":1507,"load":1508,"Ġforma":1509,"Ġwhere":1510,"arket":1511,"Ġdevelop":1512,"izaÃ§Ã£o":1513,"ey":1514,"EN":1515,"pend":1516,"201":1517,"Ġright":1518,"Ġlim":1519,"Ġcome":1520,"Ġsom":1521,"fore":1522,"âĢľ":1523,"itas":1524,"ash":1525,"Advisor":1526,"Ġ.":1527,"la":1528,"Ã¡ria":1529,"inda":1530,"ĠÃłs":1531,"Ġcontin":1532,"ween":1533,"Ġeu":1534,"ition":1535,"Ġisso":1536,"site":1537,"ĠLa":1538,"Ġdem":1539,"atos":1540,"Ġespecial":1541,"OR":1542,"views":1543,"ena":1544,"Ġconc":1545,"Ġret":1546,"da":1547,"Ġafter":1548,"Ġcomput":1549,"Ġpont":1550,"cum":1551,"ict":1552,"Ġcada":1553,"Ġpos":1554,"Ġonde":1555,"Ġpriv":1556,"Ġsc":1557,"ning":1558,"ollow":1559,"Ġavailable":1560,"Ġtip":1561,"Ġvol":1562,"Ġ18":1563,"Ġmundo":1564,"ftware":1565,"inas":1566,"Ġonline":1567,"Ġref":1568,"Ġide":1569,"iva":1570,"Ġtrad":1571,"Ġair":1572,"ĠCol":1573,"alia":1574,"Â°":1575,"Ġbetween":1576,"Ãªncias":1577,"iÃ£o":1578,"Ġpa":1579,"ize":1580,"comm":1581,"uÃ§Ã£o":1582,"Ġvers":1583,"ps":1584,"Ġanal":1585,"AT":1586,"avor":1587,"Ġbel":1588,"Ġgood":1589,"rasil":1590,"va":1591,"Ġtrabalho":1592,"ased":1593,"Ġaccess":1594,"ĠWindows":1595,"Ġprodutos":1596,"round":1597,"Ġescol":1598,"ĠCo":1599,"vent":1600,"Ġmot":1601,"Ġ2017":1602,"12":1603,"odos":1604,"Ġtwo":1605,"Ġplan":1606,"ĠPa":1607,"ĠAnd":1608,"For":1609,"Ġlug":1610,"ria":1611,"ĠEurope":1612,"ĠEng":1613,"Ġher":1614,"Ã³g":1615,"Ġadd":1616,"Ġmade":1617,"Ġsm":1618,"Ġshould":1619,"ava":1620,"ender":1621,"Ġet":1622,"ĠGr":1623,"ature":1624,"ĠEm":1625,"Ġflights":1626,"Ġsur":1627,"Ġautom":1628,"Ġhad":1629,"ĠSan":1630,"Ġyears":1631,"plo":1632,"Ġmany":1633,"Ġdown":1634,"ull":1635,"30":1636,"ures":1637,"Ġminut":1638,"ooking":1639,"Ġprovid":1640,"Ġwant":1641,"Ġvida":1642,"enta":1643,"OS":1644,"Ġpublic":1645,"Ġgar":1646,"ĠhÃ¡":1647,"Ġtech":1648,"St":1649,"ĠOr":1650,"Ġcount":1651,"adr":1652,"Ġnossos":1653,"eld":1654,"oms":1655,"rea":1656,"ĠAg":1657,"Ã¢ncia":1658,"11":1659,"ples":1660,"Ġtodas":1661,"ĠJan":1662,"Ġ>":1663,"De":1664,"reas":1665,"acter":1666,"Ġhotels":1667,"ission":1668,"vers":1669,"Ġlocal":1670,"ient":1671,"dust":1672,"Ġparte":1673,"Ġprincip":1674,"ravÃ©s":1675,"uz":1676,"Ġdifferent":1677,"Ġqualidade":1678,"rem":1679,"ĠBr":1680,"be":1681,"Ãªm":1682,"uss":1683,"Ġfin":1684,"pen":1685,"Ġplay":1686,"use":1687,"Ġcond":1688,"ona":1689,"Ġshow":1690,"Ġalgum":1691,"reg":1692,"Ġconhec":1693,"ten":1694,"gl":1695,"Ġwould":1696,"Ġend":1697,"On":1698,"Ġbase":1699,"abor":1700,"Ġban":1701,"Ġ[":1702,"Ġtest":1703,"Ġ30":1704,"Ġcomb":1705,"Ġquart":1706,"enda":1707,"ĠSer":1708,"istas":1709,"ĠAc":1710,"Ãī":1711,"ĠRestaur":1712,"ĠTripAdvisor":1713,"Ġmont":1714,"Ġeng":1715,"Ġfollow":1716,"Ġconsider":1717,"let":1718,"ĠTra":1719,"hip":1720,"Hotels":1721,"Ġecon":1722,"ĠCity":1723,"Ġdocum":1724,"Ġday":1725,"ĠCas":1726,"Ġproc":1727,"ool":1728,"Ġquest":1729,"iam":1730,"19":1731,"Ġapres":1732,"ĠserÃ¡":1733,"ÃŃst":1734,"IS":1735,"gua":1736,"alth":1737,"Ġcal":1738,"Ġcustom":1739,"Ġpesquis":1740,"Ġger":1741,"ĠNov":1742,"Ġtorn":1743,"entar":1744,"Ġgrande":1745,"Ġfer":1746,"Ġdet":1747,"ĠHe":1748,"oci":1749,"dade":1750,"Ġforam":1751,"ames":1752,"Ã¢m":1753,"pecific":1754,"Ġfavor":1755,"ĠIm":1756,"Ġrealiz":1757,"Ġ100":1758,"Ġdirect":1759,"ÃŃl":1760,"ood":1761,"Ġdu":1762,"eng":1763,"ismo":1764,"ever":1765,"Ġarquivo":1766,"har":1767,"Ġcidade":1768,"tle":1769,"Ġmaterial":1770,"atch":1771,"ret":1772,"Ġident":1773,"Ġamb":1774,"ĠatravÃ©s":1775,"ĠPr":1776,"Ġeven":1777,"odo":1778,"rut":1779,"Ġnow":1780,"Ġbro":1781,"ele":1782,"Ã©c":1783,"Ġesta":1784,"Ġleg":1785,"AS":1786,"Ġainda":1787,"Ġfal":1788,"Ġeas":1789,"ĠCan":1790,"Ġconstru":1791,"Ġdesenvolv":1792,"uf":1793,"ple":1794,"Ġhor":1795,"inho":1796,"Ġstay":1797,"Ġproducts":1798,"Ġenerg":1799,"anÃ§":1800,"Ġesp":1801,"Por":1802,"osta":1803,"Ġnossa":1804,"Ġservice":1805,"ogra":1806,"ĠpaÃŃs":1807,"dition":1808,"Ġsk":1809,"Ġquer":1810,"ĠÂ":1811,"Ġsistema":1812,"arch":1813,"ness":1814,"Ġsupport":1815,"ative":1816,"Ġtake":1817,"ting":1818,"Ġsitu":1819,"Ġdisc":1820,"Ã³ria":1821,"Ġparticip":1822,"Ġown":1823,"atic":1824,"ED":1825,"ĠSant":1826,"Ãºmer":1827,"Ġinvest":1828,"hes":1829,"ah":1830,"Ġapplic":1831,"riend":1832,"ium":1833,"Ġcab":1834,"outh":1835,"Ġtodo":1836,"Ġdeve":1837,"icial":1838,"AL":1839,"Ġprojet":1840,"Ġregist":1841,"Ġexist":1842,"Ġviagem":1843,"embro":1844,"Ġback":1845,"Ġty":1846,"Ġtec":1847,"Restaur":1848,"ars":1849,"ĠserviÃ§os":1850,"Ġspe":1851,"razil":1852,"Ġdias":1853,"ĠMin":1854,"Ġcult":1855,"irm":1856,"Ġrespons":1857,"Ġ$":1858,"Ġeles":1859,"Ġopen":1860,"Ġwebsite":1861,"Re":1862,"porte":1863,"Ġcr":1864,"Ġsent":1865,"cial":1866,"arÃ¡":1867,"pois":1868,"How":1869,"cept":1870,"ivid":1871,"Ġmelhores":1872,"Ġtotal":1873,"Ġperto":1874,"Ġhom":1875,"NÃ£o":1876,"Ġlife":1877,"isc":1878,"posit":1879,"Ġsoftware":1880,"less":1881,"Ġopt":1882,"ĠDes":1883,"ries":1884,"Ġvai":1885,"ĠBrasil":1886,"Ġsab":1887,"Ġmanual":1888,"At":1889,"Ġdurante":1890,"Ġchild":1891,"ĠjÃ¡":1892,"heiro":1893,"Ġsin":1894,"Ġcat":1895,"Ġpartir":1896,"urch":1897,"Ġcontrol":1898,"ply":1899,"Ġrefer":1900,"Ġgreat":1901,"ĠAt":1902,"ĠFor":1903,"imes":1904,"Ġbusiness":1905,"Ġoffer":1906,"Ġfacil":1907,"ety":1908,"duct":1909,"aces":1910,"ĠprÃ³ximos":1911,"ards":1912,"Ġmom":1913,"las":1914,"Ġmarket":1915,"cil":1916,"Ġped":1917,"ected":1918,"anÃ§as":1919,"ete":1920,"Ġorig":1921,"Ġ16":1922,"ama":1923,"aking":1924,"elf":1925,"cer":1926,"Ã¡veis":1927,"ble":1928,"itor":1929,"work":1930,"Ã³rio":1931,"Ġma":1932,"ĠRio":1933,"Ġthen":1934,"icaÃ§Ãµes":1935,"ck":1936,"ĠTer":1937,"Ã³r":1938,"Ġmil":1939,"Ġef":1940,"alk":1941,"iar":1942,"Ġpoint":1943,"Ġcaus":1944,"Ġavalia":1945,"Ã´n":1946,"ĠmÃ©d":1947,"Ġ11":1948,"iras":1949,"Ã³ci":1950,"ism":1951,"Ġwithout":1952,"Ġsocial":1953,"IC":1954,"of":1955,"Ġlocaliz":1956,"Ġusu":1957,"Ġens":1958,"oto":1959,"Ġhand":1960,"Ġinstal":1961,"ĠpÃ¡g":1962,"Ġpequ":1963,"Ġproduto":1964,"Ġâ":1965,"Ġgra":1966,"igos":1967,"Ġview":1968,"ces":1969,"Ġ14":1970,"ung":1971,"esse":1972,"ĠPal":1973,"ĠGod":1974,"Ġproper":1975,"Ġpal":1976,"Ġvoos":1977,"Con":1978,"Ġusing":1979,"ribu":1980,"Ġhere":1981,"Ġplace":1982,"Ġstart":1983,"Ġthose":1984,"ĠEn":1985,"Ġ24":1986,"Ġexpl":1987,"Ġinteg":1988,"uranÃ§a":1989,"ĠPol":1990,"Ã¡rias":1991,"ursos":1992,"orte":1993,"ĠmÃ¡":1994,"Ġbecause":1995,"Como":1996,"na":1997,"eta":1998,"ualiz":1999,"Ġvisit":2000,"ery":2001,"Ġeach":2002,"ator":2003,"Ġtravel":2004,"Ġoc":2005,"There":2006,"iente":2007,"Ġproject":2008,"Ãºbl":2009,"vir":2010,"led":2011,"ĠDeus":2012,"Ġfut":2013,"Ġcoll":2014,"ural":2015,"ĠPark":2016,"Ġassim":2017,"get":2018,"Ġclientes":2019,"Ġhim":2020,"Ġsame":2021,"ĠJo":2022,"Ġperf":2023,"And":2024,"ĠBeach":2025,"ĠArt":2026,"Cl":2027,"Ġbaix":2028,"Ġactiv":2029,"sc":2030,"Ġquality":2031,"ĠBrazil":2032,"Ġfre":2033,"ĠnÃ³s":2034,"Ġallow":2035,"ield":2036,"ĠprÃ³pri":2037,"Ġconsum":2038,"aut":2039,"ough":2040,"Ġservices":2041,"Ġcasa":2042,"Âº":2043,"Ġcity":2044,"ĠChina":2045,"ĠSÃ£o":2046,"atural":2047,"Ġcho":2048,"ĠUnivers":2049,"heck":2050,"Ġsearch":2051,"Ġmon":2052,"ille":2053,"ency":2054,"15":2055,"ratu":2056,"Ġarm":2057,"Ġorganiz":2058,"Ġestab":2059,"To":2060,"Ġx":2061,"Ġoutras":2062,"ode":2063,"ĠWh":2064,"ters":2065,"Ġvezes":2066,"Ġperform":2067,"ues":2068,"Ġorder":2069,"val":2070,"ests":2071,"imentos":2072,"ej":2073,"Ch":2074,"abric":2075,"ĠsÃ³":2076,"ativo":2077,"ĠfÃ¡":2078,"Ġespec":2079,"ĠserviÃ§o":2080,"Ġdoes":2081,"ogo":2082,"Res":2083,"ĠAb":2084,"rir":2085,"ĠAs":2086,"Ġclass":2087,"clus":2088,"ĠFree":2089,"rada":2090,"Ġalguns":2091,"ÃŃcio":2092,"Ġfuncion":2093,"pr":2094,"Ġaqui":2095,"Ġfinal":2096,"orth":2097,"18":2098,"irt":2099,"lease":2100,"Ġdiz":2101,"ĠCal":2102,"Ġdig":2103,"16":2104,"An":2105,"Ã¡p":2106,"ga":2107,"Ġmust":2108,"gar":2109,"ĠâĢĶ":2110,"14":2111,"Ġagain":2112,"ĠPre":2113,"Ġhuman":2114,"Ġpat":2115,"ĠPer":2116,"Ġvel":2117,"Ã´m":2118,"All":2119,"ady":2120,"ugal":2121,"Ġmult":2122,"ĠÃºlt":2123,"ĠOn":2124,"ole":2125,"other":2126,"Ġgovern":2127,"'t":2128,"eth":2129,"Ġlit":2130,"Ġacesso":2131,"rent":2132,"Ġseja":2133,"Ġfound":2134,"Ã©r":2135,"ĠVal":2136,"Ġrest":2137,"Ġlink":2138,"ordo":2139,"ativa":2140,"Ġincre":2141,"ificaÃ§Ã£o":2142,"Ġ'":2143,"Ġmat":2144,"Ġuso":2145,"isa":2146,"ruct":2147,"Ġconn":2148,"ox":2149,"iu":2150,"Ġantes":2151,"fort":2152,"Ġmerc":2153,"Ġano":2154,"acidade":2155,"ÃŃf":2156,"Ġredu":2157,"Ġpesquisa":2158,"olid":2159,"ĠSal":2160,"raÃ§Ã£o":2161,"Ġben":2162,"ĠJaneiro":2163,"Ġpou":2164,"ody":2165,"arge":2166,"Ġpost":2167,"Ġbefore":2168,"ays":2169,"Ġagora":2170,"Este":2171,"Ġwithin":2172,"Ġcost":2173,"Ġdom":2174,"Ġshe":2175,"ola":2176,"go":2177,"angu":2178,"Ġsuper":2179,"EC":2180,"portun":2181,"Ġsempre":2182,"25":2183,"mail":2184,"agement":2185,"IT":2186,"Ġ13":2187,"Ġris":2188,"Ġrepres":2189,"Ġmov":2190,"ĠReg":2191,"hos":2192,"ĠInn":2193,"Ġbre":2194,"Ġextens":2195,"rado":2196,"ration":2197,"ĠpreÃ§os":2198,"Ġprofess":2199,"ining":2200,"hop":2201,"Ġtrat":2202,"glÃªs":2203,"Ġapro":2204,"nica":2205,"Ġnumber":2206,"US":2207,"Ġ25":2208,"ĠServ":2209,"Ġdois":2210,"EL":2211,"Ġcer":2212,"Ġpower":2213,"Ġtudo":2214,"ĠnÃºmer":2215,"ams":2216,"emente":2217,"ĠInst":2218,"car":2219,"ÃŃd":2220,"Ġ2019":2221,"has":2222,"Ġfornec":2223,"Ġten":2224,"ĠCor":2225,"Ġapp":2226,"Ġrequire":2227,"eja":2228,"ĠAmer":2229,"ves":2230,"Ġdays":2231,"enÃ§a":2232,"Ġdeter":2233,"ĠRo":2234,"Ġpropri":2235,"Ġgroup":2236,"Ġindust":2237,"ÃŃde":2238,"Ġimpl":2239,"Ġcle":2240,"Ġz":2241,"ĠSa":2242,"Ġetc":2243,"Ġcart":2244,"ories":2245,"Ġanim":2246,"Ġfund":2247,"Ġapart":2248,"Ġcontact":2249,"ĠÃģ":2250,"Ġempresa":2251,"Ġcu":2252,"issÃ£o":2253,"ĠVi":2254,"Ġincluding":2255,"OM":2256,"Ġexem":2257,"ek":2258,"ms":2259,"ences":2260,"Ġdiferentes":2261,"Ġwater":2262,"Ġcompet":2263,"Ġstand":2264,"ogle":2265,"Ġ17":2266,"AC":2267,"omb":2268,"ank":2269,"Ġreviews":2270,"Ġgru":2271,"Ġfact":2272,"orto":2273,"akes":2274,"ĠEnglish":2275,"Ġusar":2276,"Ġdefin":2277,"Ġpersonal":2278,"Ġdec":2279,"Ġoffers":2280,"Ġeffect":2281,"Ġappro":2282,"esus":2283,"Todos":2284,"ĠAss":2285,"Ġinc":2286,"Ġativ":2287,"Ġprovide":2288,"unto":2289,"24":2290,"Ġcould":2291,"Ġcompar":2292,"ping":2293,"Ġobjet":2294,"Ġpopular":2295,"Ġlead":2296,"Ġ50":2297,"edi":2298,"eter":2299,"ason":2300,"ording":2301,"oria":2302,"Ġexperience":2303,"minist":2304,"Ġeduc":2305,"ĠnegÃ³ci":2306,"Ġlev":2307,"Ġduring":2308,"Ġarea":2309,"ĠPortugal":2310,"ized":2311,"ĠseguranÃ§a":2312,"ify":2313,"Ġmenos":2314,"Ġaum":2315,"ĠUnited":2316,"Ġlevel":2317,"Ã³rios":2318,"elho":2319,"Ãºde":2320,"Ġpresent":2321,"Ġsignific":2322,"apt":2323,"onte":2324,"ways":2325,"Fl":2326,"Ġadv":2327,"Ġsaid":2328,"ĠTV":2329,"ula":2330,"Ġinstall":2331,"Um":2332,"Ġbeing":2333,"Ġquais":2334,"obal":2335,"ĠrelaÃ§Ã£o":2336,"13":2337,"dequ":2338,"ended":2339,"Ã³d":2340,"Ġera":2341,"ols":2342,"edade":2343,"ude":2344,"Ġcall":2345,"ĠpossÃŃvel":2346,"Ġred":2347,"ury":2348,"au":2349,"ĠAnt":2350,"Ġpermit":2351,"put":2352,"ĠGer":2353,"Ġpress":2354,"iqu":2355,"Ġgeral":2356,"ĠVer":2357,"uras":2358,"With":2359,"Ġconse":2360,"Ġgarant":2361,"Ġdownload":2362,"Ġexc":2363,"Ġpot":2364,"60":2365,"Ġoutro":2366,"Ġtom":2367,"imos":2368,"aman":2369,"ĠCam":2370,"Ġmus":2371,"imo":2372,"Ġperm":2373,"ains":2374,"serv":2375,"Ġprocesso":2376,"Ĥ¬":2377,"Ġmud":2378,"ense":2379,"Ġnome":2380,"Ġmant":2381,"olÃ³g":2382,"ufact":2383,"ĠAirport":2384,"AD":2385,"AM":2386,"ĠMic":2387,"Pl":2388,"ĠÃ¡gua":2389,"osto":2390,"ird":2391,"ats":2392,"ĠApart":2393,"viron":2394,"Mas":2395,"ĠtÃªm":2396,"ĠIt":2397,"ically":2398,"ĠDire":2399,"Sh":2400,"rum":2401,"Ġcir":2402,"Ġlugar":2403,"Ġassoci":2404,"Ġapresent":2405,"asse":2406,"Ap":2407,"Ġgratu":2408,"ocidade":2409,"Ġesper":2410,"Ġdesde":2411,"Ġalta":2412,"ails":2413,"Ġcompany":2414,"Ġ2016":2415,"ĠÃ¡rea":2416,"itch":2417,"Ġdiv":2418,"Ġporque":2419,"Ġcaso":2420,"ĠapÃ³s":2421,"Ġtipo":2422,"rop":2423,"nico":2424,"ĠPaulo":2425,"ditions":2426,"Ġacordo":2427,"Ġcontinu":2428,"Ġpap":2429,"ones":2430,"Ġlight":2431,"ually":2432,"ĠaÃ©":2433,"Ã¡tica":2434,"pens":2435,"eno":2436,"Ġtax":2437,"Ġcheap":2438,"eÃº":2439,"day":2440,"Ġbot":2441,"ann":2442,"br":2443,"ĠrÃ¡p":2444,"Ġspecial":2445,"quanto":2446,"Ġsens":2447,"etwork":2448,"Ġindic":2449,"vert":2450,"Ġnovo":2451,"ĠGl":2452,"Ġdent":2453,"Ġpra":2454,"Ġsites":2455,"ified":2456,"Ġlig":2457,"Ġdepois":2458,"ĠMed":2459,"Ġsmall":2460,"utions":2461,"abilidade":2462,"Ġmonth":2463,"Ġcontra":2464,"Ġindivid":2465,"AY":2466,"UR":2467,"ze":2468,"aro":2469,"Ġwhile":2470,"Ġdisposit":2471,"Ġenvi":2472,"Ġoferece":2473,"Ġbenef":2474,"ĠexperiÃªncia":2475,"ulher":2476,".âĢĿ":2477,"burg":2478,"Ġable":2479,"Cont":2480,"When":2481,"ĠGoogle":2482,"ibilidade":2483,"ists":2484,"Ġsat":2485,"ham":2486,"uais":2487,"Ġofert":2488,"Ġmeio":2489,"Ġpossible":2490,"Ġadicion":2491,"oma":2492,"escri":2493,"Ġeconom":2494,"ĠPlay":2495,"Ġtemperatura":2496,"Ġhealth":2497,"ĠChrist":2498,"cia":2499,"Ġrelacion":2500,"ĠAll":2501,"ĠWest":2502,"uraÃ§Ã£o":2503,"ĠnÃºmero":2504,"Ġcorre":2505,"Ġfollowing":2506,"enÃ§Ã£o":2507,"Ġlast":2508,"ideo":2509,"ĠUs":2510,"ĠpÃ¡gina":2511,"Ġprepar":2512,"Ġspeed":2513,"Ġsex":2514,"Ġprices":2515,"ĠParis":2516,"ane":2517,"Ġsecond":2518,"17":2519,"Ġmain":2520,"Ġtop":2521,"Ġnatural":2522,"atures":2523,"Ġalt":2524,"Ġpelos":2525,"ĠÃ³":2526,"Ġdivers":2527,"Ġboth":2528,"ished":2529,"ĠJesus":2530,"Ġbas":2531,"80":2532,"Â®":2533,"âĢ¦":2534,"ui":2535,"Ġdeix":2536,"isto":2537,"ides":2538,"Ġficar":2539,"ĠpÃºbl":2540,"ookies":2541,"Ġmemb":2542,"Ġexec":2543,"Ġol":2544,"ĠNo":2545,"anda":2546,"Ġtemperature":2547,"nology":2548,"Ġroom":2549,"ĠWeb":2550,"Ġimportant":2551,"Ġadequ":2552,"osa":2553,"ape":2554,"Ġ199":2555,"Ġrecom":2556,"Ġmodern":2557,"ability":2558,"terior":2559,"200":2560,"Ġespa":2561,"Ġprimeiro":2562,"Ġdesenvolvimento":2563,"Ġke":2564,"Ġimpro":2565,"Ġestud":2566,"ney":2567,"urity":2568,"He":2569,"commod":2570,"Ġchildren":2571,"ample":2572,"chool":2573,"row":2574,"ĠCat":2575,"Ġela":2576,"Ġaround":2577,"Ġvelocidade":2578,"EM":2579,"Uma":2580,"Ġgiv":2581,"ĠconteÃº":2582,"ts":2583,"Eu":2584,"Ġfotos":2585,"uk":2586,"ym":2587,"ility":2588,"Ġestar":2589,"Ã¡f":2590,"play":2591,"Ġexemplo":2592,"Ġconta":2593,"Ġincluindo":2594,"Ġcentro":2595,"heap":2596,"apa":2597,"Ġsl":2598,"elec":2599,"illa":2600,"ID":2601,"rito":2602,"ĠDec":2603,"Ġmuch":2604,"ĠfÃ¡cil":2605,"Ġbuild":2606,"by":2607,"Ġhav":2608,"Ġpag":2609,"net":2610,"AK":2611,"ET":2612,"vironment":2613,"âĢĿ,":2614,"stand":2615,"ĠRestaurants":2616,"ulho":2617,"Ġprincipal":2618,"Ent":2619,"Ġlear":2620,"Ãºs":2621,"oje":2622,"ĠtÃ©c":2623,"Ġprograma":2624,"ĠAut":2625,"Ġcontent":2626,"hor":2627,"Ġread":2628,"Ġmodel":2629,"Ġparticular":2630,"Ġve":2631,"Ġflight":2632,"Ġminutos":2633,"Es":2634,"ĠQual":2635,"omen":2636,"22":2637,"Ġexpress":2638,"Ġpage":2639,"):":2640,"Ġaccount":2641,"Ġconv":2642,"ĠItal":2643,"ĠavaliaÃ§Ãµes":2644,"ĠLond":2645,"eles":2646,"Ġjogo":2647,"ords":2648,"Ġed":2649,"Ġresearch":2650,"Ġpac":2651,"Ġdon":2652,"ĠWe":2653,"ĠMod":2654,"irit":2655,"Ġtal":2656,"Ġfabric":2657,"Ġfriend":2658,"ÃŃlia":2659,"Ġnorm":2660,"Ġquartos":2661,"Des":2662,"bit":2663,"ĠSk":2664,"Ġprop":2665,"ĠInd":2666,"ilo":2667,"rag":2668,"ube":2669,"Ġ2018":2670,"En":2671,"ĠcondiÃ§Ãµes":2672,"Ġdin":2673,"oud":2674,"Ġlook":2675,"Ġconfig":2676,"Ar":2677,"aster":2678,"Ġpast":2679,"IP":2680,"ala":2681,"ican":2682,"Ġmeu":2683,"What":2684,"Ġacom":2685,"Ġelect":2686,"Ġalter":2687,"ted":2688,"ĠRec":2689,"ĠtrÃªs":2690,"ĠpolÃŃt":2691,"Is":2692,"Ġhome":2693,"ĠWi":2694,"Ġfull":2695,"ĠcomeÃ§":2696,"Ġthree":2697,"ĠGen":2698,"Ġspecific":2699,"ĠSol":2700,"But":2701,"Ġduas":2702,"Ã³n":2703,"ĠdisponÃŃvel":2704,"ĠCons":2705,"Ġverdade":2706,"Ã£os":2707,"Ġfoc":2708,"ativos":2709,"ements":2710,"udio":2711,"ports":2712,"ĠPart":2713,"visÃ£o":2714,"ili":2715,"ĠHotÃ©is":2716,"Ġinde":2717,"osp":2718,"Ġrepresent":2719,"Ġexper":2720,"Ġseguint":2721,"erop":2722,"ĠBu":2723,"erto":2724,"AP":2725,"cos":2726,"Ġcare":2727,"Ġhost":2728,"Ġquant":2729,"ĠLis":2730,"ĠComm":2731,"Ġponto":2732,"iÃµes":2733,"Ġmilh":2734,"Ġinfl":2735,"era":2736,"cas":2737,"Ġcombin":2738,"Ġtimes":2739,"Ġopin":2740,"panh":2741,"Ġcham":2742,"etro":2743,"Ġshall":2744,"Ġferram":2745,"40":2746,"Ġsever":2747,"ĠIN":2748,"Ġlocated":2749,"ĠproduÃ§Ã£o":2750,"ĠMont":2751,"ĠdisponÃŃveis":2752,"Ġsimples":2753,"Ġhap":2754,"oos":2755,"ĠPC":2756,"Ġstudy":2757,"mm":2758,"ential":2759,"Ã³l":2760,"ĠInform":2761,"ĠInternet":2762,"Loc":2763,"ĠOs":2764,"Ġdevelopment":2765,"Na":2766,"ĠnÃŃvel":2767,"ĠBus":2768,"Ġdepend":2769,"cle":2770,"aixo":2771,"Ġimpress":2772,"Ġobject":2773,"Ġdiret":2774,"Ġacess":2775,"ious":2776,"23":2777,"book":2778,"resc":2779,"ĠpreÃ§o":2780,"Ele":2781,"idence":2782,"Ġestre":2783,"Ġtecnolog":2784,"rive":2785,"Quando":2786,"ede":2787,"ĠResort":2788,"Ġcountry":2789,"Do":2790,"Ġchange":2791,"Ġprimeira":2792,"Ġgame":2793,"Ġmapa":2794,"estÃ£o":2795,"over":2796,"bon":2797,"ificar":2798,"Ġ40":2799,"ĠTrans":2800,"ots":2801,"ley":2802,"culo":2803,"ĠMa":2804,"Ġdetermin":2805,"Ġideal":2806,"Ġexpect":2807,"ners":2808,"ufactur":2809,"Ġfa":2810,"entÃ¡rios":2811,"aixa":2812,"Ġbom":2813,"Ġminha":2814,"Ġlog":2815,"ling":2816,"ee":2817,"ĠHome":2818,"ĠSc":2819,"ĠcrianÃ§as":2820,"Ġrestaurantes":2821,"iment":2822,"Find":2823,"Ġach":2824,"ĠentÃ£o":2825,"iod":2826,"ualmente":2827,"ĠaÃ©reas":2828,"qui":2829,"ncont":2830,"reet":2831,"Ġmercado":2832,"RO":2833,"onst":2834,"Ġthings":2835,"Ġdisso":2836,"Ġuser":2837,"eza":2838,"\",":2839,"Fi":2840,"Ġname":2841,"Ġconsult":2842,"Ġempresas":2843,"Ġconditions":2844,"Ġautor":2845,"Ġil":2846,"ĠInt":2847,"dom":2848,"jo":2849,"ĠYou":2850,"Ġalways":2851,"\".":2852,"Ġtel":2853,"isas":2854,"ĠMil":2855,"ende":2856,"Ġtre":2857,"Ġmomento":2858,"los":2859,"ĠcÃ©":2860,"Ġdentro":2861,"ved":2862,"icle":2863,"ĠEstados":2864,"Ġdecis":2865,"Esta":2866,"Ġlo":2867,"ĠvÃŃde":2868,"ientes":2869,"ĠSec":2870,"Ġlib":2871,"uma":2872,"acionais":2873,"anha":2874,"Ġsug":2875,"Ġpalav":2876,"ÃŃm":2877,"Ġapar":2878,"Ġdeste":2879,"âĢĿ.":2880,"Ġclick":2881,"ville":2882,"inos":2883,"Ġcour":2884,"ĠSup":2885,"ĠAng":2886,"ĠMuse":2887,"Ġselec":2888,".,":2889,"nos":2890,"Ġchar":2891,"pes":2892,"ĠOut":2893,"Ġprice":2894,"itaÃ§Ã£o":2895,"Our":2896,"Ġmuitos":2897,"Ġeasy":2898,"Ġmob":2899,"Ġlove":2900,"Ġpay":2901,"Ġanother":2902,"ript":2903,"Ġnova":2904,"Ġmach":2905,"Ġemb":2906,"Ġresultados":2907,"thing":2908,"Ġresults":2909,"room":2910,"Ġmeet":2911,"Ġchang":2912,"Ġproblemas":2913,"Ġpract":2914,"Ġtempor":2915,"rial":2916,"Ġrecomm":2917,"ĠGrand":2918,"ced":2919,"Ġprecisa":2920,"Ġtab":2921,"Ġresp":2922,"eel":2923,"ST":2924,"Ġmulher":2925,"Ġhoras":2926,"erd":2927,"Ġdid":2928,"ĠAf":2929,"ĠinformaÃ§Ã£o":2930,"Ġmal":2931,"Ġobt":2932,"feito":2933,"Ġdetal":2934,"ago":2935,"Ġstat":2936,"Ġtransfer":2937,"Ġpessoa":2938,"eto":2939,"Ġcomun":2940,"ward":2941,"joy":2942,"ĠSouth":2943,"Ġfim":2944,"Ġresol":2945,"Ġbased":2946,"Ġmens":2947,"ĠStates":2948,"ĠTravel":2949,"amanho":2950,"Ġassist":2951,"ume":2952,"AYAK":2953,"erve":2954,"ulation":2955,"Ġcurrent":2956,"oft":2957,"ĠFil":2958,"Ġterra":2959,"ulaÃ§Ã£o":2960,"gre":2961,"Ġmor":2962,"ero":2963,"Ġesse":2964,"Ġhard":2965,"Ġajudar":2966,"Ġalgumas":2967,"Ġtoda":2968,"Ġfew":2969,"ograph":2970,"Ġsubst":2971,"ĠBo":2972,"Ã¡tis":2973,"Ġcase":2974,"ĠPra":2975,"Ġunivers":2976,"Ġfiles":2977,"ĠSw":2978,"ector":2979,"Ġtar":2980,"ĠHost":2981,"Rec":2982,"Ġapplication":2983,"oliday":2984,"ĠInternational":2985,"ĠsaÃºde":2986,"Ġfood":2987,"ush":2988,"imin":2989,"ĠMac":2990,"Us":2991,"Ġobter":2992,"ĠnegÃ³cios":2993,"Ġengine":2994,"Ġapr":2995,"unda":2996,"Ġoriginal":2997,"je":2998,"Ac":2999,"Ã¡lise":3000,"Ġprojeto":3001,"Ġvalor":3002,"Ġresist":3003,"ĠMon":3004,"Ġenquanto":3005,"ering":3006,"roid":3007,"Ġdess":3008,"Ph":3009,"the":3010,"ÃŃp":3011,"ĠHouse":3012,"Ġmuitas":3013,"ĠJun":3014,"Ġnature":3015,"Ã³p":3016,"Ã¼":3017,"Ġheart":3018,"ately":3019,"Ġcel":3020,"urar":3021,"Ġdesem":3022,"ĠSanta":3023,"ploy":3024,"oun":3025,"iga":3026,"Ġbat":3027,"ĠAust":3028,"Ġbed":3029,"ĠconteÃºdo":3030,"Ġitem":3031,"Ġcateg":3032,"yn":3033,"Ġexcel":3034,"eor":3035,"Ġprofessional":3036,"Ġbetter":3037,"Ġbody":3038,"ĠMo":3039,"Ġlow":3040,"entemente":3041,"uÃ§Ãµes":3042,"unci":3043,"ring":3044,"Ġobserv":3045,"Ġaway":3046,"Ġtechn":3047,"gens":3048,"ror":3049,"Ġmodo":3050,"Ġstill":3051,"verage":3052,"ledge":3053,"ĠDis":3054,"sw":3055,"Ġpermite":3056,"Ġproduction":3057,"fic":3058,"gress":3059,"hod":3060,"ĠâĢĺ":3061,"They":3062,"Ġcomputer":3063,"Ġgener":3064,"ĠAv":3065,"Mais":3066,"Ġamong":3067,"Ġmotor":3068,"ĠPara":3069,"--":3070,"Ġpens":3071,"Ġenvironment":3072,"Ġtransport":3073,"ances":3074,"ril":3075,"Ġlivros":3076,"ibility":3077,"atura":3078,"ceiros":3079,"ION":3080,"Ġmaint":3081,"Ġcomer":3082,"Ġimportante":3083,"ĠIsland":3084,"21":3085,"sh":3086,"Ġfrequ":3087,"Ġcriar":3088,"ativas":3089,".\"":3090,"Ġrele":3091,"Ġtext":3092,"Ġviol":3093,"Ġpadr":3094,"Ġdisse":3095,"Ġinterest":3096,"ĠperÃŃ":3097,"acy":3098,"oper":3099,"Ġfamily":3100,"Ġcomputador":3101,"ĠMe":3102,"Ġtur":3103,"ĠWorld":3104,"Ġadminist":3105,"Ġglobal":3106,"cover":3107,"Ġoferec":3108,"Ġtro":3109,"ases":3110,"Ġprote":3111,"ope":3112,"ÃŃdo":3113,"Ġpossa":3114,"IL":3115,"Ġwind":3116,"enhor":3117,"ĠMal":3118,"atas":3119,"âĢ¢":3120,"oint":3121,"Ġimplement":3122,"Ġsay":3123,"Ġcoloc":3124,"Ġenergia":3125,"gin":3126,"Ġconven":3127,"Ġperg":3128,"ĠComp":3129,"ands":3130,"encial":3131,"Ġcreate":3132,"itive":3133,"irl":3134,"Ġrecursos":3135,"Ġagainst":3136,"Ġnovos":3137,"Ġren":3138,"Ġdecor":3139,"ĠBest":3140,"icy":3141,"umin":3142,"ĠmÃºs":3143,"rong":3144,"inter":3145,"face":3146,"Ġindividual":3147,"Ġnetwork":3148,"ĠinglÃªs":3149,"Ġlet":3150,"ĠDo":3151,"Ġ2015":3152,"Ġiss":3153,"Ġusers":3154,"Ġpack":3155,"Ġsince":3156,"iaÃ§Ã£o":3157,"Ġcamp":3158,"Ã©rias":3159,"ownload":3160,"Ġcompon":3161,"ĠpaÃŃses":3162,"astic":3163,"ained":3164,"IM":3165,"Ġfeatures":3166,"Ġdevice":3167,"ota":3168,"thers":3169,"ila":3170,"yd":3171,"Ġ60":3172,"Ã¡st":3173,"Ġ22":3174,"Ġder":3175,"Ġquick":3176,"Ġbooks":3177,"Ġlongo":3178,"fast":3179,"ĠPriv":3180,"Ġpri":3181,"ĠEU":3182,"ĠYork":3183,"ĠDel":3184,"Ġexclus":3185,"Ġweather":3186,"ivas":3187,"tar":3188,"ĠGre":3189,"quina":3190,"ourses":3191,"Ġrooms":3192,"Man":3193,"Ġedit":3194,"Ġgre":3195,"Ġdigital":3196,"oso":3197,"anguage":3198,"ĠvÃ¡rios":3199,"Ġ2012":3200,"gue":3201,"aw":3202,"ĠPorto":3203,"Ġpur":3204,"Ġnoite":3205,"eroporto":3206,"Im":3207,"ids":3208,"ĠâĤ¬":3209,"Ġcookies":3210,"Ġconvers":3211,"ilar":3212,"atro":3213,"ĠTo":3214,"Ġrede":3215,"vo":3216,"Ã¡lia":3217,"Ġsepar":3218,"Ġ23":3219,"ĠKing":3220,"Restaurantes":3221,"Ġapo":3222,"Ġcheck":3223,"Ġdr":3224,"Ġkeep":3225,"Ġfeel":3226,"Ġessa":3227,"Search":3228,"Ġminutes":3229,"lhe":3230,"ready":3231,"uto":3232,"Ġthink":3233,"ification":3234,"ĠUnidos":3235,"Ġnecessary":3236,"ÃŃsticas":3237,"Ġgrupo":3238,"Ġless":3239,"ba":3240,"ysis":3241,"Ġbaratos":3242,"inhas":3243,"Ġrelated":3244,"ĠFre":3245,"ĠBooking":3246,"Ġtype":3247,"ĠEuropean":3248,"Ġelev":3249,"Ġaccording":3250,"ĠPe":3251,"ĠOff":3252,"ally":3253,"Ġmaioria":3254,"Ġmass":3255,"AlÃ©m":3256,"Ġperformance":3257,"Ġdesta":3258,"ently":3259,"ĠProgram":3260,"28":3261,"Ã¢n":3262,"rio":3263,"Ġ21":3264,"ony":3265,"Ġgive":3266,"cesso":3267,"26":3268,"ENT":3269,"Ġaddress":3270,"not":3271,"creen":3272,"Le":3273,"oney":3274,"Ġcharacter":3275,"Flights":3276,"ips":3277,"Ġmethod":3278,"Ġplant":3279,"27":3280,"uv":3281,"ovo":3282,"Ġdireito":3283,"Ġconj":3284,"ĠTem":3285,"Ġcard":3286,"Ãºst":3287,"oda":3288,"rol":3289,"Ġmem":3290,"ĠdistÃ¢ncia":3291,"ĠGerman":3292,"Ġur":3293,"ĠCap":3294,"ival":3295,"Ġ2014":3296,"esa":3297,"Ġcomfort":3298,"Ġtrip":3299,"Ġcin":3300,"atÃ³rio":3301,"Ġexp":3302,"Ġmag":3303,"Ġtransform":3304,"Ġpouco":3305,"Ġentanto":3306,"Ġemail":3307,"elhores":3308,"PS":3309,"ream":3310,"Ġlista":3311,"eget":3312,"pid":3313,"ĠSaint":3314,"Ġord":3315,"Ġseveral":3316,"uel":3317,"fo":3318,"Ġunderstand":3319,"cional":3320,"Ġlarge":3321,"Ġhouse":3322,"Ġprefer":3323,"ĠpoderÃ¡":3324,"Ġold":3325,"Ġded":3326,"Ã©g":3327,"Ġoutra":3328,"Ġproblema":3329,"Ġsuc":3330,"Ġhora":3331,"Ġlhe":3332,"Ġmanagement":3333,"ogos":3334,"ĠusuÃ¡rios":3335,"Ġbuy":3336,"Ġmic":3337,"ĠVis":3338,"ĠLoc":3339,"Ġtour":3340,"ĠnecessÃ¡rio":3341,"hn":3342,"ester":3343,"Ġsust":3344,"Ab":3345,"Ass":3346,"Ġlado":3347,"Ġvento":3348,"Ġmaneira":3349,"Ġselecion":3350,"Ġsendo":3351,"Ġarquivos":3352,"bor":3353,"akfast":3354,"izar":3355,"Ġinteress":3356,"adia":3357,"yl":3358,"etr":3359,"Ġlugares":3360,"illion":3361,"exto":3362,"Ġsing":3363,"Ġperman":3364,"Pre":3365,"Ġrespect":3366,"ingu":3367,"Ġcop":3368,"ĠTur":3369,"Ġmeas":3370,"Ġsatis":3371,"Ġcaracter":3372,"Ġcountries":3373,"Ġevent":3374,"Ġhoje":3375,"Ġalready":3376,"Ġnight":3377,"Ġgrow":3378,"ĠTe":3379,"Ġrecomend":3380,"Ġnext":3381,"ĠCast":3382,"Inform":3383,"Ġhours":3384,"ĠalÃ©m":3385,"Ġbeaut":3386,"ograf":3387,"Ġareas":3388,"Ġhead":3389,"Ġcarro":3390,"Ġinternational":3391,"ĠBer":3392,"Ġexample":3393,"Ġreserva":3394,"Ġprovides":3395,"Best":3396,"ĠtÃ£o":3397,"99":3398,"Ġcrit":3399,"ĠEd":3400,"iers":3401,"Ġsido":3402,"Ġcob":3403,"ĠThis":3404,"Ġnenh":3405,"Ġmeans":3406,"NÃ³s":3407,"ĠII":3408,"ene":3409,"aste":3410,"Ġabs":3411,"feira":3412,"Ġdeliver":3413,"Af":3414,"ĠversÃ£o":3415,"Ġtreat":3416,"jam":3417,"Ġneste":3418,"ques":3419,"unch":3420,"Ġcomprar":3421,"arden":3422,"ĠusuÃ¡rio":3423,"Ġshort":3424,"ĠPan":3425,"Ġid":3426,"Ġcourses":3427,"ĠMy":3428,"ĠNova":3429,"70":3430,"Ġsw":3431,"ĠGro":3432,"ross":3433,"Ġboa":3434,"Ġupd":3435,"Bus":3436,"100":3437,"ĠAndroid":3438,"Ġteam":3439,"ĠespecÃŃf":3440,"penho":3441,"perior":3442,"OL":3443,"entas":3444,"ĠPortugu":3445,"ĠBel":3446,"Ãªn":3447,"het":3448,"lin":3449,"ibus":3450,"zir":3451,"Ġcontrole":3452,"ilt":3453,"Ġperiod":3454,"ereÃ§o":3455,"Ġnovas":3456,"Encont":3457,"Ġlux":3458,"come":3459,"ĠperÃŃodo":3460,"ĠJap":3461,"rael":3462,"imens":3463,"Ġcompanies":3464,"Ġear":3465,"ĠSo":3466,"ĠTor":3467,"Restaurants":3468,"Ġ2013":3469,"RE":3470,"Ġnave":3471,"Ġreceber":3472,"Ġconce":3473,"ĠBre":3474,"Ġestava":3475,"Ġconcern":3476,"Ġworks":3477,"Ġplaces":3478,"Car":3479,"Ġcommun":3480,"Ġprincipais":3481,"culos":3482,"ĠServi":3483,"fl":3484,"Ġenjoy":3485,"ention":3486,"Ġrecon":3487,"Ġpois":3488,"Ġfica":3489,"ĠProduct":3490,"Ġlive":3491,"Ġace":3492,"uck":3493,"Ġreview":3494,"Ġturn":3495,"Ġluz":3496,"Ġestudo":3497,"Tra":3498,"Ġinclude":3499,"ĠEsc":3500,"Ġappear":3501,"Ġajuda":3502,"However":3503,"Ġthird":3504,"ĠDE":3505,"ologia":3506,"ising":3507,"alls":3508,"ĠMore":3509,"Ġmarketing":3510,"More":3511,"Ġfix":3512,"Ġproxim":3513,"Ġpersonaliz":3514,"Be":3515,"Ġmess":3516,"ĠvÃ¡rias":3517,"Ġlarg":3518,"Ġneeds":3519,"Ġson":3520,"Ġdescob":3521,"ifica":3522,"Ġ28":3523,"Gu":3524,"ĠBay":3525,"rados":3526,"Ġcoisas":3527,"Ag":3528,"Ġfield":3529,"ĠRent":3530,"Ġmonitor":3531,"Dis":3532,"Ġbal":3533,"ĠSm":3534,"no":3535,"ĠRel":3536,"Ġcolor":3537,"enos":3538,"ination":3539,"Ġrun":3540,"ĠUniversity":3541,"Ġdevem":3542,"aff":3543,"mas":3544,"uring":3545,"Ġcentral":3546,"ÃŃnio":3547,"Ver":3548,"posiÃ§Ã£o":3549,"etal":3550,"iba":3551,"ĠserÃ£o":3552,"Ġarmaz":3553,"Ġ27":3554,"idor":3555,"Ġnuma":3556,"ince":3557,"Ġig":3558,"ford":3559,"raw":3560,"Ġworking":3561,"cent":3562,"ĠTech":3563,"ditional":3564,"Ao":3565,"vious":3566,"Ġpessoais":3567,"Ġsac":3568,"OT":3569,"nibus":3570,"Ġexecut":3571,"Voos":3572,"Ġtit":3573,"Ġknowledge":3574,"Ġaccommod":3575,"Ġlivre":3576,"Ġgrav":3577,"Ġcustomers":3578,"ianÃ§a":3579,"Ġlic":3580,"Cas":3581,"rodu":3582,"Ġtechnology":3583,"Ġextra":3584,"Ġlocais":3585,"ribut":3586,"ĠVen":3587,"onto":3588,"Ġambiente":3589,"ĠsÃ©ri":3590,"ipo":3591,"Ġtrain":3592,"Ġnem":3593,"ĠSul":3594,"ĠInter":3595,"Ġauthor":3596,"Ġcompre":3597,"anos":3598,"DF":3599,"Ġinflu":3600,"Ġcorpo":3601,"Ġkey":3602,"Ġpurpos":3603,"Un":3604,"Ġdar":3605,"Ġcourse":3606,"Ġstep":3607,"ott":3608,"aca":3609,"ills":3610,"Ġland":3611,"Ġorg":3612,"Ġcapacidade":3613,"These":3614,"Ġtecnologia":3615,"35":3616,"uper":3617,"ĠSenhor":3618,"acebook":3619,"ouch":3620,"Ġacont":3621,"Ġperfect":3622,"Ġrad":3623,"iful":3624,"Ġpontos":3625,"IA":3626,"iano":3627,"Port":3628,"ĠespaÃ§o":3629,"yle":3630,"Ġprovided":3631,"29":3632,"Ġmo":3633,"Ġcomplex":3634,"Ġopportun":3635,"ÃŃda":3636,"ĠJul":3637,"ĠanÃ¡lise":3638,"Ġsubject":3639,"vest":3640,"ĠCasa":3641,"cio":3642,"Ġproced":3643,"Ġcertain":3644,"Ġtick":3645,"eria":3646,"ources":3647,"itation":3648,"iana":3649,"Ġdireitos":3650,"Ġclose":3651,"Ġindepend":3652,"Ġsuf":3653,"rateg":3654,"Ġcapital":3655,"So":3656,"Tem":3657,"ried":3658,"erson":3659,"Ġ26":3660,"Ġdeal":3661,"Ġmeses":3662,"Ġrange":3663,"ĠKAYAK":3664,"Ġhomem":3665,"Ġabrir":3666,"Ġlittle":3667,"ĠmÃ©t":3668,"Ġampl":3669,"Ob":3670,"Ġestiver":3671,"Ġreport":3672,"fr":3673,"Ġbelie":3674,"idente":3675,"Ġestrelas":3676,"Ġimm":3677,"inta":3678,"Ġtry":3679,"acto":3680,"oca":3681,"Ġsecurity":3682,"urt":3683,"Ġdesej":3684,"See":3685,"Ġphotos":3686,"ĠfamÃŃlia":3687,"Things":3688,"Ġlocation":3689,"Ġsistemas":3690,"Ġquem":3691,"uri":3692,"oul":3693,"45":3694,"Ġbran":3695,"enn":3696,"leo":3697,"Ġcreat":3698,"ĠCenter":3699,"idd":3700,"ĠmÃ£o":3701,"Ġlooking":3702,"edores":3703,"Ġsystems":3704,"ĠPric":3705,"ĠSim":3706,"Ġquanto":3707,"Ġdesempenho":3708,"Ġwhe":3709,"gether":3710,"rict":3711,"Ġtogether":3712,"ĠHot":3713,"edor":3714,"....":3715,"SO":3716,"Ġlearn":3717,"Ãĩ":3718,"self":3719,"Ġenergy":3720,"Ġdecl":3721,"ĠBlack":3722,"Ġgeneral":3723,"Ġnossas":3724,"Ġbelow":3725,"ament":3726,"ĠNorth":3727,"celona":3728,"IV":3729,"ĠhistÃ³ria":3730,"ĠBro":3731,"Ġnon":3732,"ĠopÃ§Ãµes":3733,"ĠRed":3734,"adamente":3735,"ĠprÃ³ximo":3736,"lines":3737,"Ġabaixo":3738,"Ġchoose":3739,"Ġtrabalh":3740,"Ġinvestig":3741,"ulas":3742,"ĠCab":3743,"Comp":3744,"Ġwalk":3745,"mb":3746,"ĠcoraÃ§Ã£o":3747,"jor":3748,"ives":3749,"Ġaff":3750,"asc":3751,"Ġsuppl":3752,"Ġtiver":3753,"Ġdocument":3754,"Ġproblems":3755,"Ġproperty":3756,"ĠGal":3757,"ĠOnline":3758,"anas":3759,"ĠTr":3760,"Ġquestion":3761,"leg":3762,"Ã¢ne":3763,"Ġkind":3764,"ĠFrance":3765,"Ġput":3766,"Ġwar":3767,"Ġcoz":3768,"Ġraz":3769,"Ġago":3770,"alizaÃ§Ã£o":3771,"Ġequipment":3772,"Ġdispositivo":3773,"'ll":3774,"Ġalc":3775,"ology":3776,"ounc":3777,"Ġlinha":3778,"ĠInc":3779,"ogn":3780,"Ġjogos":3781,"Ġcliente":3782,"Ġcompart":3783,"ĠÃ¡reas":3784,"Ã©rica":3785,"clu":3786,"ris":3787,"elas":3788,"Ġgrandes":3789,"Ġmedic":3790,"Pass":3791,"king":3792,"unca":3793,"ĠHol":3794,"Ġgan":3795,"ĠIsrael":3796,"Ġ#":3797,"Ġtipos":3798,"hÃ£":3799,"uros":3800,"Ġsegundo":3801,"Ġcomunic":3802,"ÃŃcios":3803,"Ġclear":3804,"Ġocor":3805,"Ġmight":3806,"ĠirÃ¡":3807,"Ġtenha":3808,"Out":3809,"istic":3810,"Ġcontato":3811,"Ġinici":3812,"idge":3813,"ĠCrist":3814,"Ġquarto":3815,"ething":3816,"ĠIP":3817,"ĠPower":3818,"Ġconfirm":3819,"Ġru":3820,"ought":3821,"ĠBook":3822,"Ġversion":3823,"itam":3824,"Ġcapaz":3825,"Ġviaj":3826,"75":3827,"Ġsatisf":3828,"Ġdepart":3829,"Â»":3830,"Ġtoday":3831,"Ġvalue":3832,"Ġsaber":3833,"Ġbecome":3834,"90":3835,"Ġregul":3836,"afÃ©":3837,"ĠDesign":3838,"gest":3839,"boa":3840,"ĠDi":3841,"Ãĥ":3842,"ĠSoc":3843,"ĠService":3844,"Ġmonths":3845,"Ġunt":3846,"ructure":3847,"sel":3848,"ĠMen":3849,"Ġcresc":3850,"emin":3851,"ype":3852,"Ġvideo":3853,"Ġestrut":3854,"Ġlaw":3855,"ĠNational":3856,"Ġrapid":3857,"Ġpapel":3858,"Ġtransporte":3859,"li":3860,"Ġvista":3861,"ource":3862,"side":3863,"ĠElect":3864,"ĠSystem":3865,"oman":3866,"IF":3867,"Ġexig":3868,"Ġimagens":3869,"Ġconsegu":3870,"ĠLondon":3871,"ered":3872,"ington":3873,"Ġtratamento":3874,"una":3875,"ager":3876,"olo":3877,"Ġdever":3878,"Ġgost":3879,"rosoft":3880,"Ġarmazen":3881,"Ġsend":3882,"Ġfuture":3883,"Ġfornecer":3884,"Ġocc":3885,"Ġatualiz":3886,"Ġusando":3887,"Ġimagem":3888,"Ġsuccess":3889,"Ġficheiro":3890,"Ġsize":3891,"Descri":3892,"ĠBed":3893,"Ġcuid":3894,"Ġschool":3895,"ift":3896,"Ġstudents":3897,"Ġrelig":3898,"Ġweek":3899,"Ġamor":3900,"Ġvarious":3901,"Ġfar":3902,"65":3903,"Ġjan":3904,"Ġfora":3905,"ellent":3906,"ĠView":3907,"...+":3908,"ler":3909,"back":3910,"ĠBarcelona":3911,"Ġconhecimento":3912,"Ġobjetivo":3913,"ÃĥO":3914,"ĠCount":3915,"just":3916,"ratÃ©g":3917,"ĠMuseum":3918,"cient":3919,"Ġnormal":3920,"ĠutilizaÃ§Ã£o":3921,"ised":3922,"nov":3923,"Ġadapt":3924,"Ġpresente":3925,"ĠMay":3926,"ians":3927,"Ġsure":3928,"Ġregard":3929,"Ġcommunic":3930,"gn":3931,"etros":3932,"Ġestim":3933,"Ġrat":3934,"Ġothers":3935,"ired":3936,"ĠlÃŃ":3937,"ndia":3938,"Ġrespe":3939,"adora":3940,"ĠregiÃ£o":3941,"Ġreturn":3942,"ĠHD":3943,"omes":3944,"hel":3945,"ĠStreet":3946,"ules":3947,"Ġblo":3948,"Ã³sped":3949,"ĠDirect":3950,"fa":3951,"aging":3952,"Ã¡ticas":3953,"Noss":3954,"Ġfat":3955,"Ġdedic":3956,"Ġremo":3957,"tas":3958,"Ġmusic":3959,"Ġrequest":3960,"Ġsomething":3961,"Ġplease":3962,"Ġrestaurants":3963,"Ġanalysis":3964,"Ġlegal":3965,"cha":3966,"After":3967,"ificado":3968,"son":3969,"Ġsi":3970,"Ġfinan":3971,"ĠPres":3972,"ĠLED":3973,"avam":3974,"Ġatividades":3975,"hem":3976,"ĠlanÃ§":3977,"Ġpan":3978,"ĠâĢº":3979,"ĠHar":3980,"Ġcapac":3981,"anced":3982,"âĢĵ":3983,"Ġlot":3984,"Ġtermin":3985,"Ġreally":3986,"ĠHigh":3987,"Ġseguintes":3988,"Ġspace":3989,"Most":3990,"ĠaÃ§o":3991,"Ġcheg":3992,"Ġviagens":3993,"ĠhÃ³sped":3994,"Ġactivities":3995,"Ġoportun":3996,"Ġaspect":3997,"Ġjour":3998,"Ġdirectly":3999,"inhos":4000,"ĠFin":4001,"Ġoptions":4002,"ients":4003,"Ġmm":4004,"Ġ2010":4005,"ray":4006,"Ġprivate":4007,"ĠconstruÃ§Ã£o":4008,"ĠOp":4009,"Ġcampo":4010,"Ġaltern":4011,"Ġrights":4012,"lim":4013,"Ġfour":4014,"Ġflex":4015,"Ġallows":4016,"Ġinternet":4017,"ĠCentral":4018,"Ġmaking":4019,"ĠNe":4020,"Ġpain":4021,"Ġperfe":4022,"Ġempre":4023,"Ess":4024,"Ġnesta":4025,"Ã¡b":4026,"ĠStation":4027,"ĠMap":4028,"ĠBusiness":4029,"Ġdetails":4030,"aba":4031,"Ġbig":4032,"Ġconform":4033,"Ġnaveg":4034,"32":4035,"Ġproteg":4036,"CD":4037,"ali":4038,"Ġbi":4039,"Ġwomen":4040,"ĠlocalizaÃ§Ã£o":4041,"Ġequipe":4042,"Ġaplicativo":4043,"Ġcustomer":4044,"att":4045,"Ġoperat":4046,"ĠSil":4047,"Ġpelas":4048,"ĠCamp":4049,"Ġwrit":4050,"ump":4051,"Ġsuperior":4052,"ĠmÃ¡xim":4053,"ĠmilhÃµes":4054,"river":4055,"Ġstate":4056,"Ġmodelo":4057,"ĠOb":4058,"idores":4059,"ego":4060,"Ġtermos":4061,"ĠSuites":4062,"Ġindustry":4063,"Ã©l":4064,"ĠMach":4065,"Ġtoo":4066,"Ġrep":4067,"arth":4068,"Cheap":4069,"Ġcidades":4070,"Ġansw":4071,"ĠMais":4072,"Ġpodemos":4073,"Ġmesma":4074,"Ġdue":4075,"ilhos":4076,"ĠaplicaÃ§Ã£o":4077,"ĠsoluÃ§Ãµes":4078,"inar":4079,"ads":4080,"Ġuntil":4081,"ĠconfianÃ§a":4082,"eline":4083,"Ġstor":4084,"panha":4085,"Par":4086,"iser":4087,"Ġatual":4088,"Ġknown":4089,"ĠpadrÃ£o":4090,"Ġfamil":4091,"Ġexcelente":4092,"Ġpraz":4093,"Ġoferta":4094,"raft":4095,"ostas":4096,"ilidade":4097,"ĠMor":4098,"ĠFacebook":4099,"Ġvir":4100,"pÃ§Ã£o":4101,"ĠvÃŃdeo":4102,"ived":4103,"Ġrelations":4104,"atory":4105,"ensÃ£o":4106,"ĠFer":4107,"ĠEuropa":4108,"Ġextern":4109,"Ġnever":4110,"ĠbotÃ£o":4111,"Ġtemporada":4112,"âĢĶ":4113,"Ġaddition":4114,"Ġ2011":4115,"quip":4116,"aterial":4117,"Ġlimit":4118,"respon":4119,"Ġmostrar":4120,"Ġclean":4121,"Ã¡tico":4122,"Ġpropor":4123,"Ġcannot":4124,"ĠsoluÃ§Ã£o":4125,"Ġvisitar":4126,"Ġtanto":4127,"Ġpubl":4128,"Ġdistribu":4129,"oid":4130,"ĠDist":4131,"ĠLat":4132,"rer":4133,"ĠFrancis":4134,"Ġoften":4135,"icles":4136,"issionais":4137,"ization":4138,"ĠRep":4139,"Ġsaf":4140,"Ġestado":4141,"Ġcommon":4142,"ruz":4143,"ÃŃtulo":4144,"ĠLas":4145,"aining":4146,"Ġinstrum":4147,"ĠProf":4148,"Ġmanufactur":4149,"Ġsolutions":4150,"Ġvoo":4151,"Ã³veis":4152,"idro":4153,"urther":4154,"Ġpropriedade":4155,"pir":4156,"ĠTop":4157,"ke":4158,"ban":4159,"Ġ29":4160,"Ġregion":4161,"adrid":4162,"via":4163,"ĠCop":4164,"Ġline":4165,"ĠDom":4166,"ĠNot":4167,"Ġfocus":4168,"Ġparcer":4169,"Ġmark":4170,"Ġtemos":4171,"Ġ80":4172,"33":4173,"ults":4174,"ĠLisboa":4175,"Ġlat":4176,"ĠtÃ©cn":4177,"ĠState":4178,"Ġconnect":4179,"âĦ":4180,"issional":4181,"TR":4182,"Ġguests":4183,"Ġtinha":4184,"iedade":4185,"Ġemploy":4186,"Apart":4187,"ĠSP":4188,"Ġcerca":4189,"Ġpessoal":4190,"itchen":4191,"$$":4192,"Ġaccept":4193,"Ġconsist":4194,"pool":4195,"Ġabove":4196,"Ġvirt":4197,"Ġestadia":4198,"zer":4199,"Isso":4200,"Ġdemonst":4201,"Ġcalled":4202,"Ġdisp":4203,"Ġclos":4204,"Ġmulheres":4205,"AB":4206,"orar":4207,"By":4208,"ison":4209,"rab":4210,"change":4211,"Ġshare":4212,"izado":4213,"aken":4214,"ĠmÃ©dia":4215,"inc":4216,"Ġpartners":4217,"ĠChurch":4218,"ĠindÃºst":4219,"Ġensure":4220,"ĠÃŃ":4221,"Ġsemana":4222,"Ġrequired":4223,"ĠSet":4224,"rated":4225,"ĠJohn":4226,"MS":4227,"Ġferramentas":4228,"Ġcondition":4229,"Ġpartner":4230,"Ġask":4231,"Add":4232,"ease":4233,"Ġphys":4234,"icional":4235,"Ġlanguage":4236,"Ġjov":4237,"Ġnunca":4238,"mark":4239,"ĠAP":4240,"Ġsegunda":4241,"ospital":4242,"Ġaloj":4243,"Ġrecommend":4244,"Av":4245,"Use":4246,"Ġtru":4247,"HÃ¡":4248,"ĠExt":4249,"aÃ§a":4250,"Ġpurch":4251,"Ġ48":4252,"Ġartigo":4253,"ĠFlor":4254,"Ġusado":4255,"Ġgames":4256,"uch":4257,"Ġtais":4258,"IR":4259,"uta":4260,"Ġside":4261,"ĠFam":4262,"umb":4263,"Ġusados":4264,"Ġpergunt":4265,"Vi":4266,"Ġaud":4267,"atform":4268,"adeira":4269,"Ġmembers":4270,"ĠhÃ³spedes":4271,"ties":4272,"arante":4273,"Not":4274,"Ġcreated":4275,"til":4276,"Cons":4277,"iter":4278,"Ġsus":4279,"ĠVol":4280,"ags":4281,"Ġdiscuss":4282,"Ġdetalhes":4283,"Ġrelev":4284,"Ġhig":4285,"wards":4286,"Ġbeautiful":4287,"Ġaverage":4288,"ĠMicrosoft":4289,"ĠReviews":4290,"Ġdisplay":4291,"Ġcomplete":4292,"Ġprest":4293,"ĠAmÃ©rica":4294,"Veja":4295,"Ġaim":4296,"alu":4297,"ĠMag":4298,"Ġjunt":4299,"Ġmanter":4300,"quare":4301,"py":4302,"Ġsimilar":4303,"ING":4304,"Ġfriends":4305,"ĠSeg":4306,"Co":4307,"Ġmajor":4308,"omas":4309,"ĠShow":4310,"ĠFort":4311,"ĠÃºltima":4312,"enha":4313,"Ġimages":4314,"ataform":4315,"Ġfol":4316,"istics":4317,"oyal":4318,"Ġgratuito":4319,"Ġreservas":4320,"Ġfilm":4321,"ĠSA":4322,"ĠPhotos":4323,"Ġrelax":4324,"Ġeverything":4325,"ises":4326,"Ġonce":4327,"Ġsil":4328,"Eng":4329,"Ġful":4330,"urso":4331,"unta":4332,"Ġcenter":4333,"Ġisto":4334,"erm":4335,"Ġreach":4336,"feitos":4337,"Ġdeals":4338,"Ġfra":4339,"ĠWith":4340,"Ġconcent":4341,"Ġrisk":4342,"Ġchanges":4343,"ouble":4344,"ĠData":4345,"ĠrÃ¡pido":4346,"Ġprior":4347,"ione":4348,"Ġcover":4349,"ema":4350,"ificaÃ§Ãµes":4351,"Ġdecid":4352,"house":4353,"ĠprÃ©":4354,"âĦ¢":4355,"Ġmakes":4356,"Ġefici":4357,"uit":4358,"yt":4359,"Ġrom":4360,"Ġmachine":4361,"ĠGroup":4362,"Tod":4363,"Ġinov":4364,"eder":4365,"Ġlater":4366,"Ġgiven":4367,"ĠSpain":4368,"Ġdinheiro":4369,"ka":4370,"ĠTour":4371,"ega":4372,"ĠBan":4373,"Ġsolution":4374,"ĠgrÃ¡tis":4375,"rang":4376,"Ãºnci":4377,"Ġamount":4378,"Ġsolic":4379,"ĠAdd":4380,"Ġbeach":4381,"ĠterÃ¡":4382,"Ġtools":4383,"ĠgestÃ£o":4384,"erta":4385,"ĠfÃ©rias":4386,"Ġreason":4387,"Ġprofissionais":4388,"Ġapl":4389,"ait":4390,"vio":4391,"Ġdam":4392,"Ġbegin":4393,"ĠsÃ©rie":4394,"One":4395,"Ġestabelec":4396,"Ġproximidades":4397,"undial":4398,"Ġmist":4399,"ĠLake":4400,"Am":4401,"ological":4402,"Or":4403,"oom":4404,"vision":4405,"box":4406,"Ġsingle":4407,"Ġterms":4408,"Ġbutton":4409,"ĠcÃ©u":4410,"ĠLux":4411,"Ġhab":4412,"Ġhaving":4413,"riÃ§Ã£o":4414,"Ġstrateg":4415,"ĠLu":4416,"Ġteach":4417,"Ġapplications":4418,"ocar":4419,"Ġface":4420,"ĠPhil":4421,"Ġeffici":4422,"ĠDig":4423,"ĠprÃ³prio":4424,"Ġ35":4425,"Ġnecessidades":4426,"ĠMadrid":4427,"Ġconjunto":4428,"SP":4429,"Ġsuporte":4430,"pedia":4431,"HE":4432,"II":4433,"Ġescolher":4434,"ĠVill":4435,"Ġann":4436,"ĠAug":4437,"Ġtelef":4438,"Ġsum":4439,"asing":4440,"Ġprecip":4441,"Ġprogramas":4442,"iÃªncia":4443,"ĠestratÃ©g":4444,"Ġcities":4445,"ĠAmerican":4446,"hou":4447,"Ġflo":4448,"ĠPed":4449,"Ġofertas":4450,"Ġescrit":4451,"itect":4452,"ĠmÃ¡quina":4453,"Ġleast":4454,"Ġattract":4455,"ĠEast":4456,"ĠBen":4457,"ocity":4458,"ĠQuality":4459,"Ġselect":4460,"Ġrisco":4461,"imas":4462,"Ġfeito":4463,"Ġachie":4464,"Ġmicro":4465,"Ġincor":4466,"Ġbeb":4467,"cience":4468,"uar":4469,"Ġestes":4470,"Ġclique":4471,"Ġspec":4472,"Ġcha":4473,"ĠLord":4474,"ĠItaly":4475,"Ġtend":4476,"Ġsala":4477,"ĠSur":4478,"Ġoferecer":4479,"Ġcollect":4480,"Ã³digo":4481,"Ġresid":4482,"board":4483,"Ġautomatic":4484,"Ġfront":4485,"Ġhomens":4486,"ugar":4487,"icionado":4488,"ij":4489,"Ġstrong":4490,"Ġdez":4491,"eÃ§a":4492,"ecimento":4493,"eix":4494,"ĠLos":4495,"Ġparts":4496,"Ġalgo":4497,"rÃ¡s":4498,"Ġinstit":4499,"Ġescolha":4500,"Ġparceria":4501,"otes":4502,"ĠUp":4503,"Ġimage":4504,"Ġ2009":4505,"Ã©rio":4506,"ĠSuper":4507,"ĠServices":4508,"eters":4509,"ĠVers":4510,"Ġeasily":4511,"Ġbuilding":4512,"Ġpalavras":4513,"rou":4514,"ubro":4515,"Ser":4516,"Ġperce":4517,"Ġacima":4518,"Ġpi":4519,"Ġing":4520,"Ġreceive":4521,"Ġhistory":4522,"Ġpequeno":4523,"Ġveget":4524,"Ġcou":4525,"Ġquatro":4526,"New":4527,"stru":4528,"Ġinternacional":4529,"Ġmateriais":4530,"'re":4531,"dio":4532,"ĠUSB":4533,"Ġfel":4534,"ĠAN":4535,"ither":4536,"Ġcaixa":4537,"ĠMus":4538,"eias":4539,"ĠAlem":4540,"UT":4541,"ĠÃºnico":4542,"Ġ90":4543,"Ġfinance":4544,"Ġrespond":4545,"Ġdesigned":4546,"imate":4547,"Ġcorrespon":4548,"Ġtraining":4549,"Ġstandard":4550,"Ġdizer":4551,"ya":4552,"itude":4553,"ĠWar":4554,"Ġcontribu":4555,"Ġcompartilh":4556,"elect":4557,"ĠOne":4558,"ĠinstalaÃ§Ã£o":4559,"Ġincrease":4560,"ĠOpt":4561,"Ġfunct":4562,"ĠÂ«":4563,"ustom":4564,"Ġsalv":4565,"Ġnational":4566,"met":4567,"Ġbra":4568,"Ġleft":4569,"Ġobrig":4570,"Ġfornece":4571,"Pr":4572,"Get":4573,"Ġdesenvol":4574,"!!":4575,"anta":4576,"Ã³t":4577,"ĠGar":4578,"ĠExpedia":4579,"ĠEduc":4580,"Ġprint":4581,"ality":4582,"Ġexib":4583,"Ġprofissional":4584,"ulos":4585,"ĠavaliaÃ§Ã£o":4586,"Ġdeb":4587,"Ġyoung":4588,"UN":4589,"Ġtamanho":4590,"ĠCa":4591,"utenÃ§Ã£o":4592,"ires":4593,"panish":4594,"nes":4595,"ĠPor":4596,"itional":4597,"Ġmaterials":4598,"td":4599,"door":4600,"ĠProv":4601,"Ġmoney":4602,"IG":4603,"Ġmim":4604,"Ġbox":4605,"Ġinnov":4606,"Ġupon":4607,"Ġvend":4608,"Ġceleb":4609,"Ġregular":4610,"ĠMount":4611,"ilhas":4612,"ĠHP":4613,"Ġprotection":4614,"ĠInformation":4615,"ĠWater":4616,"ini":4617,"Ġsess":4618,"heiros":4619,"idity":4620,"ĠSpa":4621,"action":4622,"36":4623,"Melhores":4624,"ĠfunÃ§Ã£o":4625,"Ġreun":4626,"Ġbath":4627,"Ġesses":4628,"Ġbaixo":4629,"ĠBrazilian":4630,"reng":4631,"Ġacomod":4632,"icamente":4633,"Ġdiss":4634,"Expl":4635,"Ġgoing":4636,"Encontre":4637,"Ġguard":4638,"Ġalun":4639,"ĠopÃ§Ã£o":4640,"ĠCentre":4641,"Ġcommit":4642,"ught":4643,"Ġnews":4644,"ÃŃstica":4645,"ocol":4646,"ĠFrancisco":4647,"MA":4648,"Ġremov":4649,"Ġmillion":4650,"ĠSite":4651,"Ġcaminho":4652,"Ġblog":4653,"Ġpoints":4654,"Ġcirc":4655,"Ġexpected":4656,"ĠQue":4657,"Ġage":4658,"ĠEspanha":4659,"edades":4660,"rog":4661,"Ġoptim":4662,"Ġgroups":4663,"rench":4664,"Ġsop":4665,"OD":4666,"Ġge":4667,"range":4668,"rength":4669,"Ġtent":4670,"ĠHist":4671,"aby":4672,"point":4673,"Ġalong":4674,"Ġcut":4675,"ĠJune":4676,"Ġstop":4677,"ulg":4678,"Ã³m":4679,"Ġcoisa":4680,"Ġcompanh":4681,"Ġtela":4682,"ĠHer":4683,"Ġvariedade":4684,"Ġsignificant":4685,"48":4686,"CE":4687,"ĠTravelocity":4688,"ĠSl":4689,"Ġalto":4690,"undred":4691,"ĠEv":4692,"Ġenter":4693,"rato":4694,"enz":4695,"Bl":4696,"eda":4697,"ingo":4698,"Ġaccommodation":4699,"estre":4700,"olf":4701,"ĠBat":4702,"ĠDescri":4703,"ĠatrÃ¡s":4704,"Ġdiretamente":4705,"ĠEstado":4706,"Ġsignifica":4707,"Ġpret":4708,"Ġcasos":4709,"Mu":4710,",âĢĿ":4711,"ĠChar":4712,"ĠpolÃŃtica":4713,"alf":4714,"Ġcompat":4715,"Ġadequado":4716,"Ġcm":4717,"EntÃ£o":4718,"Ã±":4719,"ĠIgre":4720,"Ġexcellent":4721,"Ġliving":4722,"ĠcomentÃ¡rios":4723,"ĠEsp":4724,"Ġcomprom":4725,"ĠIndust":4726,"orts":4727,"ĠAmerica":4728,"ĠSch":4729,"Ġinstitu":4730,"Ġtypes":4731,"lation":4732,"eram":4733,"Ġciv":4734,"Ġstation":4735,"ĠÃºnica":4736,"ronic":4737,"Ġalguma":4738,"star":4739,"Ġmelhorar":4740,"55":4741,"ĠproteÃ§Ã£o":4742,"ĠGold":4743,"Ġmarca":4744,"Ġguarante":4745,"lig":4746,"esquis":4747,"Ġdeg":4748,"ively":4749,"bour":4750,"Ġsimple":4751,"Ġvenda":4752,"Ġps":4753,"Ġbring":4754,"rÃ¡f":4755,"Ã³vel":4756,"che":4757,"Ġfit":4758,"Ġinstru":4759,"Ġimpact":4760,"ĠprÃ³pria":4761,"Ġvisualiz":4762,"Ġpraia":4763,"EG":4764,"Ġwords":4765,"Qual":4766,"Ġey":4767,"Ġwatch":4768,"Ġautomat":4769,"Ġdispositivos":4770,"ĠMart":4771,"antar":4772,"ĠmÃºsica":4773,"ĠinÃŃcio":4774,"rap":4775,"ivamente":4776,"Ġcausa":4777,"aver":4778,"Ġtechnical":4779,"ĠItÃ¡lia":4780,"selves":4781,"cost":4782,"Ġextrem":4783,"Ġnut":4784,"atab":4785,"ĠHostel":4786,"Ġfrente":4787,"arian":4788,"ĠPap":4789,"Ġwhole":4790,"Ġ500":4791,"Ġreceb":4792,"Ġreconhec":4793,"78":4794,"Ġpais":4795,"Ġfot":4796,"Ġdiferente":4797,"ĠHum":4798,"ĠpÃºblico":4799,"Ġoil":4800,"Ġfacilities":4801,"38":4802,"zes":4803,"Ġrate":4804,"time":4805,"Ġlocalizado":4806,"OC":4807,"ĠJogos":4808,"Ġinit":4809,"ÃŃg":4810,"ficult":4811,"Ġhundred":4812,"ÃŃrito":4813,"ĠJet":4814,"Ġmind":4815,"Ġ2008":4816,"Ġgarantir":4817,"Ġfast":4818,"ĠSex":4819,"Ġ70":4820,"ference":4821,"Ġevol":4822,"adem":4823,"ined":4824,"Ġpromo":4825,"ĠrÃ¡pida":4826,"Ġavi":4827,"ĠRuss":4828,"Ġentrar":4829,"ĠCart":4830,"Ġbrows":4831,"Ġstock":4832,"Ġamigos":4833,"Ġgrad":4834,"Per":4835,"ĠFr":4836,"Ġmean":4837,"Ġquestions":4838,"Ġdrive":4839,"Ġvolta":4840,"ĠOl":4841,"hood":4842,"Ġrealmente":4843,"UL":4844,"ule":4845,"Ġ31":4846,"Ġchegar":4847,"Ġweight":4848,"ĠProdut":4849,"Ġwhether":4850,"owing":4851,"Ġprogress":4852,"Ġsucesso":4853,"Ġefet":4854,"ĠInstit":4855,"ografia":4856,"ilha":4857,"Ġstaff":4858,"Ġtarif":4859,"Ġbon":4860,"Ġcontr":4861,"Ġinterior":4862,"Ġ45":4863,"Ġessas":4864,"Ġdeveloped":4865,"OP":4866,"Ġestilo":4867,"NÂº":4868,"ĠNet":4869,"ani":4870,"ĠBas":4871,"Ġminim":4872,"ĠpÃ©":4873,"aker":4874,"Ġprevent":4875,"radas":4876,"Ġec":4877,"Ġlinks":4878,"Ã¢nt":4879,"ĠmanutenÃ§Ã£o":4880,"Ġeleg":4881,"Ġmobile":4882,"Ġpisc":4883,"eÃ§Ã£o":4884,"ĠindÃºstria":4885,"TS":4886,"esh":4887,"Ġinclui":4888,"ĠReal":4889,"Ġrapidamente":4890,"Eles":4891,"ĠOf":4892,"Ġbast":4893,"ĠEle":4894,"Ġchall":4895,"hib":4896,"Ġinvolv":4897,"Ġ198":4898,"ĠProt":4899,"Ġmembros":4900,"Online":4901,"ener":4902,"ecast":4903,"Ġdifficult":4904,"Ġidade":4905,"Ġconect":4906,"Ġdimens":4907,"lands":4908,"Ġappl":4909,"Ġdevido":4910,"Ġcusto":4911,"Ġcomfortable":4912,"Ġtool":4913,"Ġlabor":4914,"ĠTel":4915,"Ġcompos":4916,"Ġarch":4917,"Ġreservar":4918,"Ġrepro":4919,"Ġproduz":4920,"Ġpeso":4921,"ĠalcanÃ§":4922,"ured":4923,"Please":4924,"ĠTrad":4925,"ociaÃ§Ã£o":4926,"ators":4927,"rimento":4928,"Ġtrabalhar":4929,"ĠOct":4930,"obre":4931,"Ġvest":4932,"olic":4933,"ĠDr":4934,"ĠManagement":4935,"Ġquantidade":4936,"enÃ§as":4937,"Ġfuturo":4938,"Ġanimais":4939,"ÃŃdu":4940,"aves":4941,"Ġunique":4942,"Ġagre":4943,"Ġdevices":4944,"Ġsoci":4945,"Ġcommunity":4946,"inst":4947,"Ġsho":4948,"Ġresultado":4949,"aim":4950,"Ġcrim":4951,"riendly":4952,"ardim":4953,"Ġexam":4954,"34":4955,"Sim":4956,"uary":4957,"amental":4958,"Ġcultura":4959,"light":4960,"icar":4961,"atamente":4962,"Ġconfort":4963,"Ġprotect":4964,"That":4965,"ishing":4966,"Cursos":4967,"cast":4968,"elig":4969,"mar":4970,"ĠanÃºnci":4971,"2017":4972,"ĠPu":4973,"Ġrepl":4974,"Ġbil":4975,"ĠPDF":4976,"pany":4977,"ĠeconÃ´m":4978,"Ġeducation":4979,"ĠMot":4980,"ĠReino":4981,"ĠGeneral":4982,"ĠFeb":4983,"Ġrecogn":4984,"ĠCheap":4985,"Ġdesaf":4986,"Ġposition":4987,"Ġimprove":4988,"Ġtreatment":4989,"ĠGames":4990,"Ã¤":4991,"Ġdriv":4992,"ĠTw":4993,"Ġdeclar":4994,"05":4995,"ĠHoliday":4996,"ptember":4997,"Ġcooper":4998,"Ġcentre":4999,"Passagens":5000,"Ġdone":5001,"hopping":5002,"Ġadditional":5003,"ĠPack":5004,"egas":5005,"Ġpedido":5006,"Ġjo":5007,"ribution":5008,"esar":5009,"Ġvaria":5010,"Ġplataform":5011,"Vis":5012,"echan":5013,"Ġshar":5014,"ĠCristo":5015,"most":5016,"Ãģ":5017,"ĠfÃŃs":5018,"seg":5019,"ĠmÃªs":5020,"Ġgrupos":5021,"Me":5022,"Ġwhy":5023,"ĠHealth":5024,"Ġspirit":5025,"Ġenviar":5026,"ĠLib":5027,"essa":5028,"Ġscreen":5029,"ĠSing":5030,"Ġcul":5031,"Ġtexto":5032,"Ġrecord":5033,"LE":5034,"ĠJapan":5035,"Ġevalu":5036,"Ġhold":5037,"ĠMerc":5038,"ĠFe":5039,"Ġdesf":5040,"Ġutilizar":5041,"Ġfilhos":5042,"Ġentire":5043,"ĠcartÃ£o":5044,"Ġexerc":5045,"wire":5046,"ĠJuly":5047,"Ġpict":5048,"Ġcompletamente":5049,"erra":5050,"eds":5051,"Ġcultural":5052,"unho":5053,"dll":5054,"gent":5055,"ĠWhite":5056,"Ġhistor":5057,"Ġadded":5058,"antic":5059,"Ġevents":5060,"Ġult":5061,"ĠBal":5062,"ĠDay":5063,"ĠMos":5064,"hing":5065,"Ġaction":5066,"Ġfacilmente":5067,"ĠGermany":5068,"ĠSuppl":5069,"Ġstrength":5070,"aza":5071,"Ġseries":5072,"acionamento":5073,"Ġposit":5074,"Ġmeteor":5075,"Ġfunction":5076,"ĠFranÃ§a":5077,"ĠIl":5078,"Ġcorpor":5079,"Ġtell":5080,"Ġlik":5081,"ĠPriceline":5082,"ming":5083,"Ġast":5084,"iram":5085,"Ġatra":5086,"View":5087,"ĠNÃ£o":5088,"ĠKong":5089,"Ġgovernment":5090,"Ġprojetos":5091,"ĠIr":5092,"Ġenvolv":5093,"Mar":5094,"ĠMaster":5095,"iab":5096,"Ġsmart":5097,"Ġcand":5098,"SC":5099,"Ġincluded":5100,"ĠEUA":5101,"Ġeventos":5102,"rooms":5103,"ĠAugust":5104,"can":5105,"Ġmec":5106,"Ġnada":5107,"Ġincludes":5108,"Ġdiscover":5109,"Ġentrada":5110,"Ġcores":5111,"Ġhigher":5112,"Ġpossui":5113,"ĠIgreja":5114,"elcome":5115,"Ġpolit":5116,"Ġcozinha":5117,"aco":5118,"ĠVilla":5119,"ĠCanc":5120,"Ġcases":5121,"Ġchoice":5122,"ĠestaÃ§Ã£o":5123,"oi":5124,"AG":5125,"bra":5126,"ĠDV":5127,"ĠLight":5128,"orias":5129,"ivity":5130,"Ġnatureza":5131,"elos":5132,"ĠKingdom":5133,"Ã¡stico":5134,"31":5135,"ĠextensÃ£o":5136,"Download":5137,"obile":5138,"Ġmetal":5139,"Ġdistance":5140,"wood":5141,"Esc":5142,"Ġintens":5143,"Ġtornar":5144,"ball":5145,"redit":5146,"ows":5147,"Ġquase":5148,"Ġ2007":5149,"ĠÃ´":5150,"ving":5151,"Ġado":5152,"orial":5153,"Ġcame":5154,"aga":5155,"Ġsky":5156,"Ġmaxim":5157,"ĠTown":5158,"ĠpeÃ§as":5159,"Ġrelationship":5160,"ĠCert":5161,"enciais":5162,"Ġespeciais":5163,"Explore":5164,"tings":5165,"aving":5166,"Ġwide":5167,"Ġ*":5168,"ĠCard":5169,"Ġenough":5170,"izada":5171,"Ġvisual":5172,"Ġmetros":5173,"Ġratio":5174,"ĠAC":5175,"ister":5176,"Ġespecially":5177,"Ġavoid":5178,"Free":5179,"ette":5180,"Ġintrodu":5181,"Ġpropos":5182,"Ġsteel":5183,"Ġconfidence":5184,"uaÃ§Ã£o":5185,"ĠcomunicaÃ§Ã£o":5186,"Ġca":5187,"ividade":5188,"leep":5189,"och":5190,"Ġdate":5191,"amsung":5192,"Ġmedia":5193,"ĠCentro":5194,"teis":5195,"Ġagrad":5196,"berg":5197,"Ġcapt":5198,"Assim":5199,"Ãµe":5200,"Ġfinancial":5201,"Ġrev":5202,"Ġsof":5203,"ementos":5204,"Ġsejam":5205,"ĠHong":5206,"Ġinterpre":5207,"rand":5208,"Ġfurther":5209,"Ġcomum":5210,"Book":5211,"ĠPat":5212,"Ġtele":5213,"ĠRoyal":5214,"rate":5215,"Ã©n":5216,"ecÃ§Ã£o":5217,"Ġsomente":5218,"bre":5219,"ĠChe":5220,"ĠPortuguese":5221,"SS":5222,"ĠEnt":5223,"Ġship":5224,"Ġtraditional":5225,"TM":5226,"iles":5227,"Ġpagamento":5228,"ĠSpanish":5229,"Ġformat":5230,"ĠpÃ¡ginas":5231,"37":5232,"Ġyet":5233,"Ġevitar":5234,"Ġprojects":5235,"Recom":5236,"Sa":5237,"ibiliz":5238,"Ġlay":5239,"Ġcontinue":5240,"44":5241,"ien":5242,"Ġquickly":5243,"Ġsound":5244,"Ġapartment":5245,"Ġmiss":5246,"Ġextension":5247,"osped":5248,"olas":5249,"ruary":5250,"TambÃ©m":5251,"ĠMas":5252,"rant":5253,"rus":5254,"Ġrot":5255,"Ġcell":5256,"ĠcafÃ©":5257,"ĠLive":5258,"ober":5259,"Ġesfor":5260,"Ġtransm":5261,"Ġcomes":5262,"EF":5263,"Ġplatform":5264,"ĠlÃ¡":5265,"ĠvÃ£o":5266,"ĠTa":5267,"asso":5268,"Ġrevel":5269,"encia":5270,"ĠHotwire":5271,"ĠLo":5272,"Ġ2000":5273,"ĠApple":5274,"ĠBud":5275,"atal":5276,"ogrÃ¡f":5277,"Ġproporcion":5278,"ĠDigital":5279,"ĠRem":5280,"Ġperfeita":5281,"eness":5282,"ĠÃ´nibus":5283,"Your":5284,"eiras":5285,"ella":5286,"Ġpromot":5287,"ffee":5288,"Ġblock":5289,"Ġcorrect":5290,"kt":5291,"ĠCidade":5292,"tery":5293,"uan":5294,"ils":5295,"hai":5296,"Ġmensagem":5297,"39":5298,"osco":5299,"Depois":5300,"From":5301,"ogue":5302,"Ġabord":5303,"Ġcarreg":5304,"Ġemerg":5305,"Ġnecessidade":5306,"Pack":5307,"Ġprocessing":5308,"ĠfuncionÃ¡rios":5309,"oles":5310,"Ġcredit":5311,"etimes":5312,"Ġcrescimento":5313,"Ġexport":5314,"ÃŃtica":5315,"Ġferramenta":5316,"Ġaprender":5317,"itter":5318,"Ġajust":5319,"Ġindustrial":5320,"Ġlevels":5321,"Ġpovo":5322,"ĠcomeÃ§ar":5323,"cy":5324,"ifest":5325,"Ġacab":5326,"ĠSeptember":5327,"Ġproud":5328,"Ġprocura":5329,"Ġuses":5330,"ĠStar":5331,"Ġtub":5332,"ĠDav":5333,"ĠRoad":5334,"Ġcontem":5335,"Ġnenhum":5336,"verter":5337,"bol":5338,"iance":5339,"Pod":5340,"Ġimedi":5341,"Ġpele":5342,"Ġalojamento":5343,"ĠGra":5344,"Ġterrit":5345,"Ġsociais":5346,"des":5347,"ĠdifÃŃ":5348,"Ġacqu":5349,"Ġresposta":5350,"Ġelimin":5351,"Ġalunos":5352,"frica":5353,"Ġefeito":5354,"ĠbÃ¡s":5355,"Ġrent":5356,"Ġcolabor":5357,"ĠBreakfast":5358,"Ġorient":5359,"Ġrestaurant":5360,"ĠRentals":5361,"VC":5362,"bn":5363,"Ġaproxim":5364,"rade":5365,"Ġpolicy":5366,"Ġpequena":5367,"Ġapoio":5368,"ĠOffice":5369,"ornec":5370,"Ġrecuper":5371,"Ġpalavra":5372,"Ġplano":5373,"ĠInternacional":5374,"Ġvariety":5375,"Ġang":5376,"weet":5377,"El":5378,"ĠCur":5379,"Ġefeitos":5380,"Ġmodelos":5381,"fin":5382,"ĠnÃŃveis":5383,"ĠStud":5384,"Ġgerenci":5385,"ĠSearch":5386,"Ġperfil":5387,"onia":5388,"Ġdeles":5389,"ĠReserv":5390,"ĠUnido":5391,"ĠFrench":5392,"onder":5393,"Ġmenu":5394,"Ġcompleto":5395,"Ġconfl":5396,"Ġorgulho":5397,"Ġdaily":5398,"ĠavanÃ§":5399,"Ġrequirements":5400,"Ofer":5401,"vez":5402,"ĠveÃŃ":5403,"ĠStock":5404,"Ġaumentar":5405,"Ġwhite":5406,"ĠUnion":5407,"izados":5408,"ĠGrande":5409,"English":5410,"Ġprocessos":5411,"Ġactivity":5412,"ĠAlemanha":5413,"Ġcorrespond":5414,"roll":5415,"ĠcriaÃ§Ã£o":5416,"ĠendereÃ§o":5417,"ĠforÃ§a":5418,"Ġsuggest":5419,"MP":5420,"ĠWork":5421,"ading":5422,"Ġinicial":5423,"Ġcombo":5424,"Ġharm":5425,"ifique":5426,"Ġreservations":5427,"Ġrevol":5428,"Ġitems":5429,"ster":5430,"Aqui":5431,"Ġvac":5432,"ificados":5433,"izes":5434,"Ġsufici":5435,"Mapa":5436,"ĠUN":5437,"valho":5438,"Ġsafety":5439,"EP":5440,"High":5441,"ĠsituaÃ§Ã£o":5442,"Ġtaken":5443,"Ġoption":5444,"endimento":5445,"Ġacross":5446,"Reg":5447,"Pal":5448,"ĠajudÃ¡":5449,"ĠClub":5450,"Ġthroughout":5451,"ĠAfrica":5452,"edo":5453,"unicip":5454,"Ġden":5455,"olha":5456,"Ġresources":5457,"Ġdocumentos":5458,"Ġglass":5459,"Here":5460,"iso":5461,"Ġbanho":5462,"ĠtÃŃtulo":5463,"Ġpen":5464,"Ġcomunidade":5465,".)":5466,"ugares":5467,"Ġplac":5468,"Ġproperties":5469,"ativamente":5470,"Ġterceiros":5471,"Ġdry":5472,"Ġforecast":5473,"Ġple":5474,"ĠAeroporto":5475,"ĠPR":5476,"lear":5477,"aged":5478,"Ġrefl":5479,"Ġtaxa":5480,"Ġsym":5481,"Ġconcept":5482,"Ġshows":5483,"atabase":5484,"ription":5485,"Ġcause":5486,"Ġprevious":5487,"Ġprograms":5488,"Ġhon":5489,"velmente":5490,"though":5491,"Ġconstant":5492,"Ġskin":5493,"Ġtaking":5494,"arem":5495,"asons":5496,"Ġmessage":5497,"Ġtitle":5498,"ĠQuart":5499,"ĠduraÃ§Ã£o":5500,"Ġfive":5501,"ĠRock":5502,"Ġinteresse":5503,"ĠFlash":5504,"ĠUniversidade":5505,"Ġcinco":5506,"Ġtran":5507,"Ġever":5508,"Ġitself":5509,"iner":5510,"Ġmol":5511,"Ġvolume":5512,"ĠMB":5513,"ĠAustral":5514,"Ġestas":5515,"ĠMel":5516,"Ġpartes":5517,"95":5518,"Ġespecialmente":5519,"uva":5520,"ĠCD":5521,"Ġpages":5522,"ĠSub":5523,"Ġbusca":5524,"Ġdescrib":5525,"Ġrespeito":5526,"Ġemp":5527,"Ġtotalmente":5528,"Ġfeed":5529,"Ġloss":5530,"Ġimportantes":5531,"ĠAnal":5532,"Ġseguida":5533,"ĠcontÃ©m":5534,"ĠCloud":5535,"Ġself":5536,"Ġeuro":5537,"Ġparceiros":5538,"Ġ300":5539,"Ġcloud":5540,"Ġsabe":5541,"ĠlÃŃder":5542,"hol":5543,"Ġprova":5544,"Ġjourney":5545,"CH":5546,"Ġfant":5547,"Ġtable":5548,"ĠJer":5549,"Ã©tica":5550,"ipe":5551,"Ġeletr":5552,"ĠorganizaÃ§Ã£o":5553,"Ġconstruction":5554,"ouses":5555,"ĠMaria":5556,"ĠNacional":5557,"Ġapproach":5558,"CO":5559,"etas":5560,"ricult":5561,"ercis":5562,"ĠMP":5563,"ĠÃºtil":5564,"ĠÃ³t":5565,"ĠcaracterÃŃsticas":5566,"ĠAct":5567,"Ġcy":5568,"Ġchat":5569,"Ġwarm":5570,"Ġadvert":5571,"Ġdetail":5572,"Ġseguinte":5573,"EX":5574,"ĠMarket":5575,"Ġconstitu":5576,"Ġcompletely":5577,"itamente":5578,"Ġestrutura":5579,"âĤ¬":5580,"Ġamost":5581,"ĠÃģfrica":5582,"ension":5583,"Ġaqueles":5584,");":5585,"Part":5586,"Ġtor":5587,"Ġrelacionados":5588,"Ġfib":5589,"Ġbuilt":5590,"ĠCour":5591,"Ġpreoc":5592,"ĠelÃ©t":5593,"Inst":5594,"ĠRoma":5595,"Ġ64":5596,"ĠFlights":5597,"ging":5598,"Ġways":5599,"ĠBack":5600,"ĠCO":5601,"Ġsupply":5602,"ĠaviÃ£o":5603,"Ġexce":5604,"uge":5605,"ĠFebruary":5606,"Ġdeath":5607,"ĠformaÃ§Ã£o":5608,"illed":5609,"ostos":5610,"atÃ³rios":5611,"ĠAz":5612,"Ġ32":5613,"Ġmadeira":5614,"ĠServer":5615,"Ġsale":5616,"Ġliber":5617,"jud":5618,"ĠArm":5619,"Ġteste":5620,"ĠForm":5621,"ĠAtl":5622,"Ġjud":5623,"ĠAmar":5624,"Ġmer":5625,"rando":5626,"Ġdestin":5627,"ashion":5628,".[":5629,"ĠColor":5630,"Ġinstallation":5631,"Ġconsequ":5632,"64":5633,"Sc":5634,"ĠHow":5635,"ĠInglÃªs":5636,"Ġanti":5637,"Ġfez":5638,"sterd":5639,"Ġpoderia":5640,"Ġclaro":5641,"Ġgoverno":5642,"ÃŃdos":5643,"Ġtomar":5644,"Ġjovens":5645,"bnb":5646,"500":5647,"moÃ§o":5648,"Ġtarde":5649,"ricos":5650,"ĠClass":5651,"Ġirm":5652,"Ġopportunity":5653,"Trans":5654,"Ġrar":5655,"ĠSchool":5656,"umo":5657,"den":5658,"La":5659,"Ġgas":5660,"Ġcompra":5661,"Ġbrand":5662,"Ġsuperf":5663,"idad":5664,"nal":5665,"Ġmac":5666,"Ġvidro":5667,"iff":5668,"oo":5669,"eceu":5670,"Ġoperation":5671,"Ġquaisquer":5672,"ceiro":5673,"Ġcorr":5674,"iores":5675,"ĠmanhÃ£":5676,"Ġsold":5677,"Ġescre":5678,"Ġtown":5679,"ĠColl":5680,"ĠMex":5681,"Ġjob":5682,"azer":5683,"Ġaliment":5684,"iving":5685,"ĠaplicaÃ§Ãµes":5686,"Ġsand":5687,"ĠatenÃ§Ã£o":5688,"Ġencontra":5689,"Ġeat":5690,"Alg":5691,"ĠBang":5692,"ĠDownload":5693,"ĠLand":5694,"Ġprem":5695,"Ġtickets":5696,"Ã£e":5697,"Ġseem":5698,"amic":5699,"undos":5700,"Ġcort":5701,"Ġsuport":5702,"Ġinstalled":5703,"Ġselected":5704,"Ġfavorite":5705,"Ã¨":5706,"Ġfig":5707,"Art":5708,"Ġnacional":5709,"ĠGreen":5710,"Ġcic":5711,"Ġwin":5712,"Ġanalis":5713,"Ġtw":5714,"ĠOrbit":5715,"Ġpasse":5716,"ĠOpen":5717,"Ġlonger":5718,"ably":5719,"Ġreceived":5720,"Check":5721,"Mod":5722,"ĠdÃ¡":5723,"ending":5724,"Ġcurso":5725,"ĠIf":5726,"She":5727,"oke":5728,"Ġinclus":5729,"Ġresponsible":5730,"ĠLisbon":5731,"eca":5732,"Ġhair":5733,"Ġthing":5734,"Ġsea":5735,"Ġalugu":5736,"ecut":5737,"ĠFrank":5738,"ĠOpÃ§Ãµes":5739,"ground":5740,"ĠIns":5741,"ĠProducts":5742,"panhol":5743,"ĠISO":5744,"Ġbeh":5745,"ĠPrice":5746,"ĠLy":5747,"osso":5748,"Ġtelefone":5749,"Ġfly":5750,"iable":5751,"ĠJe":5752,"68":5753,"Ġrestaurante":5754,"Ġpropriet":5755,"Ġstatus":5756,"ny":5757,"Ġseason":5758,"ĠJos":5759,"ertura":5760,"aixar":5761,"iang":5762,"ĠRiver":5763,"ĠLtd":5764,"Ġgrowth":5765,"ĠAccess":5766,"orning":5767,"ĠOrgan":5768,"ĠPass":5769,"001":5770,"ĠSamsung":5771,"ĠRob":5772,"venÃ§Ã£o":5773,"Ã³rico":5774,"Ġphysical":5775,"Ġseria":5776,"duÃ§Ã£o":5777,"Ã¡ss":5778,"Ġprocur":5779,"han":5780,"Ġtas":5781,"ĠBra":5782,"Ġapartamento":5783,"ÃĩÃĥO":5784,"Ġmarc":5785,"Ġbag":5786,"Ġparty":5787,"ĠmÃŃn":5788,"edia":5789,"ĠApartments":5790,"ĠNor":5791,"Ġyourself":5792,"adoras":5793,"Ġphone":5794,"ova":5795,"olÃ³gicas":5796,"Ġsou":5797,"Ġumidade":5798,"ĠSocial":5799,"irect":5800,"Ġapply":5801,"Ant":5802,"Ġfarm":5803,"ricas":5804,"Ġcolet":5805,"Ġelas":5806,"rary":5807,"Ġsemelh":5808,"ky":5809,"Ġroup":5810,"ĠAngeles":5811,"sites":5812,"Ġmix":5813,"ĠBrit":5814,"ĠprÃ¡tica":5815,"ĠcÃ³digo":5816,"Ġmount":5817,"Ġsuit":5818,"ĠSoftware":5819,"ĠOrbitz":5820,"uls":5821,"Ġexplor":5822,"Ġissues":5823,"TA":5824,"Ġestamos":5825,"ĠOver":5826,"ĠDa":5827,"Ġpron":5828,"Ġflu":5829,"ÃŃc":5830,"ĠEcon":5831,"ĠVia":5832,"Ġaltura":5833,"ĠsÃ©":5834,"ederal":5835,"sto":5836,"Ġportugu":5837,"Ġreduz":5838,"Ġfaith":5839,"Ġtare":5840,"ĠBy":5841,"Ġarte":5842,"ĠnegÃ³cio":5843,"Map":5844,"Ġneigh":5845,"07":5846,"Ġformato":5847,"Ġdemand":5848,"Ġfilho":5849,"Ġmulti":5850,"Ġassociated":5851,"Ġconcerning":5852,"My":5853,"ĠMaterial":5854,"Ġcentenas":5855,"inary":5856,"Ġporta":5857,"Ġfoot":5858,"TER":5859,"Ã¶":5860,"Ġheav":5861,"Ġequipamento":5862,"Ġbelieve":5863,"PR":5864,"Ġsurg":5865,"ĠEg":5866,"ables":5867,"Ġtrue":5868,"ĠaÃ§Ã£o":5869,"ania":5870,"ĠRome":5871,"zo":5872,"Ġtakes":5873,"quia":5874,"ĠvisÃ£o":5875,"Ġartigos":5876,"field":5877,"ideos":5878,"Ġincluem":5879,"ĠWestern":5880,"ĠLondres":5881,"Ġsustent":5882,"Ġrole":5883,"Ġessential":5884,"mercial":5885,"Ġviews":5886,"Ġthought":5887,"Ġforte":5888,"ĠRom":5889,"Ġblack":5890,"ĠSanto":5891,"Ġmaiores":5892,"ĠposiÃ§Ã£o":5893,"Ġsays":5894,"Ġpool":5895,"Ġhumidity":5896,"Ġhappen":5897,"Ġimag":5898,"Ġdocumento":5899,"irth":5900,"ĠJetcost":5901,"ainless":5902,"ĠespaÃ§os":5903,"Can":5904,"Ġleve":5905,"Ġperguntas":5906,"Ġpert":5907,"Ġrealizar":5908,"Ġconnection":5909,"iami":5910,"Ġdescobrir":5911,"illing":5912,"Home":5913,"ched":5914,"Ġlei":5915,"ĠFire":5916,"ĠCro":5917,"Ġarriv":5918,"ĠUSA":5919,"Ġcient":5920,"Ġmort":5921,"iza":5922,"Ġapresenta":5923,"Ġcosts":5924,"ĠServiÃ§os":5925,"Ġtalk":5926,"ĠMarch":5927,"Ġfech":5928,"eck":5929,"ĠGarden":5930,"ĠOctober":5931,"ger":5932,"Ġmechan":5933,"Ġtook":5934,"ĠMat":5935,"ends":5936,"ength":5937,"Su":5938,"tim":5939,"aya":5940,"ĠUSD":5941,"cont":5942,"Ġconex":5943,"Ġjunto":5944,"Ã¢ncias":5945,"Show":5946,"Ġcit":5947,"rings":5948,"Ġtechnolog":5949,"das":5950,"Ġcast":5951,"Ġintelig":5952,"ĠJanuary":5953,"ĠRestaurantes":5954,"Ġingred":5955,"Ġevento":5956,"ĠApartment":5957,"Ġaprend":5958,"Ġfamiliar":5959,"osos":5960,"Proc":5961,"Ġveh":5962,"Ġstorage":5963,"ĠMu":5964,"Ġeconomic":5965,"ĠBut":5966,"Ġseguir":5967,"Phone":5968,"Ġquiser":5969,"Ġstructure":5970,"Ġconsci":5971,"Ġdisponibiliz":5972,"Ġestudos":5973,"ĠacessÃ³rios":5974,"Ã¢ndia":5975,"iet":5976,"enance":5977,"Ġexplic":5978,"Ġ--":5979,"Ġenh":5980,"Ġpiscina":5981,"Ġfato":5982,"ĠAmsterd":5983,"ĠSte":5984,"Ġdesenvolver":5985,"Ġwish":5986,"ĠUm":5987,"Ġkitchen":5988,"Now":5989,"Ã³rias":5990,"Ġhowever":5991,"Ġpopulares":5992,"iddle":5993,"vida":5994,"ĠServiÃ§o":5995,"Ġexercis":5996,"cipl":5997,"ĠCalif":5998,"Ġimmedi":5999,"Ġblood":6000,"Ġhundreds":6001,"Pode":6002,"Ã¢mer":6003,"Ġofficial":6004,"Ġreduc":6005,"ĠMult":6006,"Ġconsidered":6007,"Ġusa":6008,"Ġsociedade":6009,"ĠresponsÃ¡vel":6010,"Ġmuse":6011,"Ġcontract":6012,"Ġadult":6013,"Ġattack":6014,"Ġpayment":6015,"Ġ150":6016,"Ġstyle":6017,"ĠEste":6018,"ĠCri":6019,"Ġlab":6020,"Ġlav":6021,"Ġautomatically":6022,"Ġsave":6023,"ĠlÃŃn":6024,"Ġdeseja":6025,"ĠType":6026,"Ġfiz":6027,"oph":6028,"abilidades":6029,"Ġcompleta":6030,"ĠHel":6031,"pert":6032,"Ã¡logo":6033,"Ġlivro":6034,"Ġplayer":6035,"Ġdocuments":6036,"Ġcollection":6037,"ĠGeor":6038,"ĠcabeÃ§a":6039,"une":6040,"ĠLog":6041,"Ġpec":6042,"ĠWik":6043,"Ġexiste":6044,"ĠPrim":6045,"Ġadvant":6046,"Ġpotential":6047,"Ġrecommended":6048,"Ġcum":6049,"Ġnuv":6050,"ĠMad":6051,"Ġstudies":6052,"ĠcomparaÃ§Ã£o":6053,"06":6054,"TE":6055,"rel":6056,"ĠGuest":6057,"Ġeffects":6058,"olÃ³gica":6059,"49":6060,"quinas":6061,"Ġvisita":6062,"Ġarticle":6063,"Ġwall":6064,"Ġgast":6065,"ĠAutom":6066,"Ġdessa":6067,"ĠLin":6068,"ĠArch":6069,"ĠOF":6070,"Ġbanco":6071,"Ġsituation":6072,"DescriÃ§Ã£o":6073,"Let":6074,"Ġsector":6075,"Ġespecific":6076,"ĠTripOnline":6077,"Ġeither":6078,"Ġmedida":6079,"Ġequipamentos":6080,"ĠOptions":6081,"::":6082,"ĠÃ¢":6083,"eks":6084,"uth":6085,"ague":6086,"PC":6087,"Ġcontains":6088,"Ġautocar":6089,"oxid":6090,"08":6091,"Ġexistem":6092,"Ġfever":6093,"ĠDecember":6094,"ĠRad":6095,"Ġprazo":6096,"Ġlegis":6097,"Ġconvert":6098,"guÃ©m":6099,"ĠComissÃ£o":6100,"Ġmodels":6101,"Ġfundamental":6102,"bia":6103,"ĠTest":6104,"Ġesperado":6105,"Ġcru":6106,"Ġpercent":6107,"Ġrob":6108,"Ġtransmit":6109,"Ġpreocup":6110,"org":6111,"Ġrota":6112,"ĠBlue":6113,"ĠCasino":6114,"Ġautomaticamente":6115,"iple":6116,"Ġcama":6117,"ferÃªncia":6118,"ello":6119,"ĠquestÃ£o":6120,"azon":6121,"riger":6122,"Ġfuncionamento":6123,"ĠSteel":6124,"RA":6125,"ĠTom":6126,"Col":6127,"ĠWord":6128,"Ġtrein":6129,"Ġrenov":6130,"Ġpurpose":6131,"Ġvalores":6132,"ĠCanada":6133,"irar":6134,"ĠvÃŃdeos":6135,"Ġmeus":6136,"Ġrout":6137,"Ġflor":6138,"Sp":6139,"Ġdivid":6140,"etes":6141,"Ġsafe":6142,"Ġill":6143,"Ġsun":6144,"Ġstar":6145,"Ġsource":6146,"ĠStore":6147,"ĠExpress":6148,"istema":6149,"Ġfully":6150,"ĠSun":6151,"Ġjur":6152,"Ġgot":6153,"Ġinternacionais":6154,"Ġlearning":6155,"Ġler":6156,"Ġviv":6157,"iago":6158,"Ġprocesses":6159,"ĠaÃ§Ãµes":6160,"ĠSam":6161,"ĠTime":6162,"Ġanaly":6163,"Jo":6164,"Some":6165,"Ġsetor":6166,"bum":6167,"Ġvem":6168,"Ġnor":6169,"Ġword":6170,"Ġexterior":6171,"ĠNow":6172,"ulares":6173,"Ġcurs":6174,"Ġpresented":6175,"Ġembal":6176,"Ġgirl":6177,"illas":6178,"Ġpaper":6179,"ĠTec":6180,"ĠLeg":6181,"Ġpermitir":6182,"Ġcapacity":6183,"ĠNa":6184,"ĠÃī":6185,"atives":6186,"Ġpractice":6187,"ĠCong":6188,"ouncil":6189,"prise":6190,"Ġregarding":6191,"bar":6192,"iÃ§a":6193,"estin":6194,"Ġstore":6195,"Ġcrist":6196,"ĠTipo":6197,"ĠpresenÃ§a":6198,"Ġerro":6199,"02":6200,"46":6201,"Other":6202,"ĠID":6203,"elhos":6204,"ĠStand":6205,"ĠPuerto":6206,"Ġairport":6207,"47":6208,"ening":6209,"ĠÂ»":6210,"ĠligaÃ§Ã£o":6211,"Ġneeded":6212,"Read":6213,"uÃ¡rio":6214,"Ġterm":6215,"ecem":6216,"ĠPont":6217,"Ġeffective":6218,"ĠmÃ¡ximo":6219,"ĠtÃ©cnicas":6220,"Ġformul":6221,"Ġgal":6222,"Ġprob":6223,"ĠUr":6224,"ĠManual":6225,"Ġmedidas":6226,"Go":6227,"ĠHis":6228,"Ġoperating":6229,"Ġmatch":6230,"ĠNeg":6231,"enham":6232,"Cat":6233,"Ġhospital":6234,"Ġutilize":6235,"Ġpatients":6236,"Ġdro":6237,"Ġserve":6238,"Ġdeixar":6239,"Ġcode":6240,"Ġmi":6241,"ĠCommission":6242,"Ġmeeting":6243,"Ġsubstitu":6244,"Ġexpand":6245,"Ġoportunidade":6246,"Ġcorret":6247,"Ġcurrently":6248,"42":6249,"Ġconhecer":6250,"ĠRestaurant":6251,"Ġcopy":6252,"inÃ¡ria":6253,"Ġability":6254,"Ġatividade":6255,"ees":6256,"ĠAgoda":6257,"Ela":6258,"ĠFornec":6259,"pair":6260,"Ġ>>":6261,"IB":6262,"ki":6263,"ĠEquip":6264,"ibli":6265,"Ġcoord":6266,"Ġcaminh":6267,"ĠAM":6268,"ached":6269,"ĠSee":6270,"ĠmÃ©todo":6271,"Ġbrowser":6272,"rite":6273,"Ġcalcul":6274,"ĠreferÃªncia":6275,"Ġpequenas":6276,"Isto":6277,"ead":6278,"word":6279,"Ġfonte":6280,"ĠCi":6281,"rico":6282,"Ġbater":6283,"Ġpassado":6284,"Ġrecebe":6285,"Agora":6286,"Ġsteps":6287,"Ġanterior":6288,"Ġleave":6289,"Ġpeace":6290,"osse":6291,"Ġfire":6292,"Ġfirm":6293,"Ġking":6294,"Ġformas":6295,"ches":6296,"earn":6297,"Ġliter":6298,"ĠPaul":6299,"ĠsuperfÃŃci":6300,"Ġunc":6301,"Sem":6302,"Ġband":6303,"Ġconsent":6304,"Ġkmh":6305,"ĠGrÃ¡tis":6306,"Ġisol":6307,"Ġluxo":6308,"Ġpurposes":6309,"Ġsociety":6310,"ĠGran":6311,"Ġcontext":6312,"clud":6313,"Ã¢nia":6314,"ĠCancel":6315,"envolv":6316,"Ġasseg":6317,"ĠMiami":6318,"Ġverificar":6319,"ĠManager":6320,"Ġgarantia":6321,"Ġhosped":6322,"ĠDu":6323,"Ġroute":6324,"ĠTerra":6325,"icon":6326,"ĠWash":6327,"pap":6328,"ancy":6329,"Top":6330,"Ġdew":6331,"ĠChin":6332,"Ġvalid":6333,"Ġvolt":6334,"Ġordem":6335,"Ġupdate":6336,"Ġsell":6337,"Ġep":6338,"Ġwood":6339,"Ġconcord":6340,"Ġcabelo":6341,"Ġdesfrut":6342,"Ġ=":6343,"ojas":6344,"ĠeducaÃ§Ã£o":6345,"Ġating":6346,"Ġjogar":6347,"oz":6348,"ĠPen":6349,"Ġestat":6350,"Ġorvalho":6351,"phone":6352,"Ġadicionais":6353,"Ġmiles":6354,"ged":6355,"itais":6356,"Ġmove":6357,"ĠAB":6358,"Ġgama":6359,"ĠLim":6360,"cho":6361,"guas":6362,"ĠComo":6363,"Ġcustos":6364,"ience":6365,"ĠLast":6366,"ĠQualidade":6367,"Int":6368,"Ġlatest":6369,"amar":6370,"Ġbasic":6371,"encies":6372,"Ġcandid":6373,"SA":6374,"SD":6375,"Ġsimply":6376,"hold":6377,"itions":6378,"Ġcontinuar":6379,"ography":6380,"Ġentrega":6381,"Ġguide":6382,"Ġaplicativos":6383,"2016":6384,"ĠConselho":6385,"inqu":6386,"omos":6387,"Ġweeks":6388,"ĠinstalaÃ§Ãµes":6389,"Ġlemb":6390,"ĠAD":6391,"Ġaumento":6392,"reira":6393,"ĠHor":6394,"cÃŃp":6395,"Ġtut":6396,"ÃŃa":6397,"aps":6398,"Ġbranco":6399,"odge":6400,"Ġalmost":6401,"ĠÃĵ":6402,"Ġtrack":6403,"Ġrecentes":6404,"ĠManufactur":6405,"Trip":6406,"Ġdorm":6407,"Ġpassar":6408,"Ġexperim":6409,"Ġlower":6410,"ĠVideo":6411,"Ġbooking":6412,"Air":6413,"Ġoutside":6414,"Ġsentido":6415,"oxidÃ¡vel":6416,"with":6417,"Ġmorte":6418,"Ġvig":6419,"ĠPoint":6420,"Ġsint":6421,"Ġwid":6422,"ĠMinist":6423,"Ġculture":6424,"Then":6425,"vention":6426,"Ġpropriedades":6427,"ĠprincÃŃp":6428,"Ġfalar":6429,"ĠFile":6430,"TC":6431,"cording":6432,"tes":6433,"Ġhy":6434,"Ġconduct":6435,"verno":6436,"Ġorigin":6437,"Ġhabit":6438,"oh":6439,"ĠpolÃŃticas":6440,"88":6441,"Inc":6442,"Ġfeature":6443,"ĠinstruÃ§Ãµes":6444,"Ġperspect":6445,"priate":6446,"Ġedif":6447,"ouver":6448,"cam":6449,"ĠPlus":6450,"Ġnovamente":6451,"69":6452,"Ġhavia":6453,"Ġabsol":6454,"Ġlogo":6455,"Ġassess":6456,"ĠSi":6457,"Ġpratos":6458,"Ġsemanas":6459,"Ġteve":6460,"Ġfabricante":6461,"Dispon":6462,"Ġbanc":6463,"ĠdÃº":6464,"Ġsearches":6465,"know":6466,"Ġaz":6467,"Ġolhos":6468,"ĠBerlin":6469,"Ġarmazenamento":6470,"Ġdatabase":6471,"Ġhot":6472,"ĠvocÃªs":6473,"Ġunidade":6474,"Ġbit":6475,"Ġsecret":6476,"Ã©dito":6477,"Ġestablish":6478,"Ġpressure":6479,"ÃŃduos":6480,"ĠCON":6481,"Ġcommunication":6482,"Ġcross":6483,"Ġsection":6484,"Ġincorpor":6485,"vas":6486,"Ġcontain":6487,"Ã³sito":6488,"Ġtherefore":6489,"ĠpressÃ£o":6490,"Ġcarros":6491,"Ġpossibil":6492,"Ġfazem":6493,"Ġtouch":6494,"Ġsul":6495,"ossa":6496,"Ġnenhuma":6497,"Ġoccur":6498,"Ġthous":6499,"fig":6500,"Ġinfer":6501,"rupt":6502,"ĠEnerg":6503,"Ġrequis":6504,"Ġarchitect":6505,"ĠdifÃŃcil":6506,"ireless":6507,"Ġidi":6508,"Press":6509,"inaÃ§Ã£o":6510,"Ġmission":6511,"ĠRead":6512,"ĠTechnology":6513,"Ġcivil":6514,"wide":6515,"Ġseen":6516,"Ġjulho":6517,"Ġacredit":6518,"ĠComput":6519,"77":6520,"ĠShe":6521,"ĠSem":6522,"Ġideia":6523,"Ãºblica":6524,"Ġdrink":6525,"UM":6526,"Ġvar":6527,"ĠSalv":6528,"LL":6529,"ĠCond":6530,"asta":6531,"Ġnote":6532,"ĠÃºltimos":6533,"bio":6534,"iado":6535,"%.":6536,"CA":6537,"itary":6538,"ĠAqu":6539,"ĠEUR":6540,"ĠCanad":6541,"ĠSaÃºde":6542,"Ġmand":6543,"vie":6544,"fully":6545,"Ġredes":6546,"Ġvivo":6547,"astre":6548,"Ġplataforma":6549,"COM":6550,"Ġmanage":6551,"eph":6552,"ĠApril":6553,"ĠNovember":6554,"Ġpolitical":6555,"ĠTHE":6556,"oco":6557,"Ġ2006":6558,"Clique":6559,"vido":6560,"Ġaeroporto":6561,"Ġpartida":6562,"Ġdamage":6563,"eiros":6564,"Ġdesse":6565,"Ġcancel":6566,"Ġcloth":6567,"Ġblowing":6568,"ĠVocÃª":6569,"ĠÃį":6570,"Ġrecent":6571,"Cal":6572,"Ġcheapest":6573,"Ġscient":6574,"Ġfalta":6575,"Ġlevar":6576,"Ġadicionar":6577,"ĠDen":6578,"plos":6579,"ĠCompar":6580,"ĠCateg":6581,"ĠLou":6582,"Ġprev":6583,"Ġthemselves":6584,"Ġdestru":6585,"Ġtranspar":6586,"ĠprÃ³xima":6587,"ÃŃcias":6588,"ATION":6589,"Ġbreak":6590,"Ġvib":6591,"ĠPop":6592,"ĠMc":6593,"ilos":6594,"Ġchance":6595,"Ġtenho":6596,"Ġfevereiro":6597,"DA":6598,"ĠBath":6599,"ellow":6600,"Ġlisted":6601,"riz":6602,"ĠArgent":6603,"ĠJoÃ£o":6604,"Ġfeita":6605,"Bu":6606,"mes":6607,"SÃ£o":6608,"ĠPRO":6609,"Ã©ria":6610,"Ġmaintain":6611,"aval":6612,"03":6613,"IO":6614,"ĠCustom":6615,"ĠJack":6616,"Ġaccessories":6617,"icana":6618,"reeze":6619,"Ġfuncional":6620,"Ġsimplesmente":6621,"Foi":6622,"edd":6623,"Ġlack":6624,"Ã©ci":6625,"wh":6626,"Ġintell":6627,"Ġdiante":6628,"ĠMem":6629,"encion":6630,"iction":6631,"Ġpacientes":6632,"ĠopiniÃµes":6633,"Ġsopra":6634,"Ġmode":6635,"ĠGe":6636,"Ġserver":6637,"66":6638,"df":6639,"ĠKey":6640,"ĠSpirit":6641,"ĠiPhone":6642,"CP":6643,"Ġlinhas":6644,"Ġquad":6645,"ĠApp":6646,"Ġestou":6647,"armos":6648,"Ġmeasure":6649,"ĠFun":6650,"Ġseguro":6651,"ĠEuropeia":6652,"etails":6653,"ĠPeru":6654,"Ġearly":6655,"Where":6656,"Ġmundial":6657,"ĠCosta":6658,"Ġestacionamento":6659,"04":6660,"Ġatmos":6661,"Ġadjust":6662,"ailability":6663,"icionar":6664,"ĠDVD":6665,"asy":6666,"ĠPerson":6667,"Ġexchange":6668,"ĠresistÃªncia":6669,"Ġdouble":6670,"ĠTool":6671,"alidade":6672,"Ġvant":6673,"ĠYour":6674,"Todas":6675,"ĠCE":6676,"ĠSon":6677,"chave":6678,"Ġsettings":6679,"Ġmensagens":6680,"dos":6681,"ĠSquare":6682,"Ġmatter":6683,"Contact":6684,"ĠCounty":6685,"ĠSuppliers":6686,"Ġautocarro":6687,"Ġdep":6688,"Ġperda":6689,"ndereÃ§o":6690,"Ġinside":6691,"Pe":6692,"ĠFriendly":6693,"Ġusually":6694,"Alugu":6695,"uzz":6696,"Ġpurchase":6697,"Neste":6698,"isation":6699,"Ġbastante":6700,"ĠalguÃ©m":6701,"Ġinterpret":6702,"Ġmember":6703,"QU":6704,"ĠVista":6705,"ĠCompany":6706,"ĠAdminist":6707,"onom":6708,"uba":6709,"ĠPlan":6710,"Ġdraw":6711,"Ġtendo":6712,"ĠPrem":6713,"Ġresponder":6714,"bi":6715,"Ġsometimes":6716,"ĠopiniÃ£o":6717,"melho":6718,"Ġutilizado":6719,"Ġtaxas":6720,"Ġesqu":6721,"Ġposso":6722,"Ġfamos":6723,"ĠfunÃ§Ãµes":6724,"Ġconsumo":6725,"ĠTick":6726,"Available":6727,"ĠconfortÃ¡vel":6728,"ĠCruz":6729,"ĠEr":6730,"ĠDub":6731,"Ġreduzir":6732,"ĠCouncil":6733,"angue":6734,"uraÃ§Ãµes":6735,"Ġtorna":6736,"Ġstarted":6737,"Que":6738,"Ġfail":6739,"ĠCult":6740,"eios":6741,"Ġsoon":6742,"Ġdestino":6743,"airro":6744,"owers":6745,"ĠtÃ©cnica":6746,"read":6747,"amo":6748,"Ġreasons":6749,"ÃŃcia":6750,"ebol":6751,"Ġskills":6752,"Click":6753,"Ġgives":6754,"Ġwent":6755,"estas":6756,"Ġjorn":6757,"Ġpossu":6758,"Ġmoment":6759,"pooling":6760,"more":6761,"ĠcrianÃ§a":6762,"Ġmultiple":6763,"Ġexpos":6764,"ĠOce":6765,"Ġjardim":6766,"Ġcomboio":6767,"ges":6768,"xico":6769,"olis":6770,"Ġgreater":6771,"Ġbud":6772,"rupo":6773,"ublin":6774,"Ter":6775,"Ġvan":6776,"ĠNorte":6777,"Ġprivacidade":6778,"Ġgeralmente":6779,"ĠmudanÃ§a":6780,"ĠPedro":6781,"Fran":6782,"ĠMest":6783,"Ġfilt":6784,"Ġerror":6785,"Cert":6786,"Ġstarting":6787,"ĠBol":6788,"ĠgrÃ¡f":6789,"Ġpolic":6790,"GB":6791,"idÃ£o":6792,"anger":6793,"Ġphot":6794,"ĠquestÃµes":6795,"Ġoffered":6796,"Ġnavegador":6797,"VA":6798,"Ġpena":6799,"Ġvul":6800,"ĠVac":6801,"Compare":6802,"ĠSE":6803,"ĠMun":6804,"enharia":6805,"ĠoperaÃ§Ã£o":6806,"Esse":6807,"ius":6808,"ales":6809,"Ġtemper":6810,"Ã¡ticos":6811,"oon":6812,"ored":6813,"ĠST":6814,"Ġmaintenance":6815,"ĠMark":6816,"Ġobra":6817,"Ġinser":6818,"Tempo":6819,"Ġindiv":6820,"Ġideas":6821,"Ġspeak":6822,"Ġpray":6823,"Ġmagn":6824,"Ã£s":6825,"Ġfilme":6826,"Ġefica":6827,"ald":6828,"Ã¡dio":6829,"Ġitens":6830,"ibaba":6831,"ĠRef":6832,"Ġfamous":6833,"Ġtyp":6834,"ounter":6835,"09":6836,"lished":6837,"Ġinterface":6838,"ĠOur":6839,"wa":6840,"edes":6841,"Ġuns":6842,"Ġhelps":6843,"ĠeletrÃ´n":6844,"duz":6845,"Ġactive":6846,"Ġready":6847,"enced":6848,"pans":6849,"tiliz":6850,"ĠBlu":6851,"Ġcomponentes":6852,"ĠTodos":6853,"Ġrates":6854,"ĠLCD":6855,"Ġpath":6856,"ĠFood":6857,"Ġviajantes":6858,"TripAdvisor":6859,"hern":6860,"Ġassin":6861,"ea":6862,"ĠOper":6863,"ĠOrig":6864,"Ġmedical":6865,"ĠpopulaÃ§Ã£o":6866,"eteo":6867,"para":6868,"orf":6869,"Ġground":6870,"Ġplane":6871,"Ġhour":6872,"ĠContact":6873,"%)":6874,"Ġobras":6875,"Ġvale":6876,"war":6877,"oura":6878,"uts":6879,"ĠMini":6880,"ĠimpressÃ£o":6881,"Ġeram":6882,"Ġincreasing":6883,",\"":6884,"Ġelementos":6885,"ĠUniÃ£o":6886,"Emb":6887,"ilton":6888,"ĠBran":6889,"itado":6890,"Ġprofile":6891,"Pad":6892,"Ġserem":6893,"outique":6894,"Ġservidor":6895,"85":6896,"cs":6897,"where":6898,"itet":6899,"ĠPac":6900,"ao":6901,"Ġexact":6902,"Ġconfi":6903,"Ġdoct":6904,"ĠBah":6905,"ĠBrisa":6906,"Ġfares":6907,"Ġdatas":6908,"Ġcompanhias":6909,"ĠinoxidÃ¡vel":6910,"Ġtransl":6911,"Ġcomport":6912,"ĠHy":6913,"ronom":6914,"Ne":6915,"Ġdoing":6916,"Ġrare":6917,"Ġsales":6918,"ĠAustralia":6919,"CL":6920,"Dur":6921,"furt":6922,"qÃ¼":6923,"Ġcot":6924,"Ġhear":6925,"Ġproviding":6926,"ÃŃlias":6927,"Ġbad":6928,"idel":6929,"ronics":6930,"Ġmovimento":6931,"ĠRoom":6932,"Ġholiday":6933,"Ġequipped":6934,"Ġpopulation":6935,"Ġaument":6936,"Ġcarpooling":6937,"ĠespÃ©ci":6938,"Ġconcre":6939,"ubra":6940,"Ġfazendo":6941,"ĠEstaÃ§Ã£o":6942,"Ġroad":6943,"Ġwon":6944,"amm":6945,"ĠBor":6946,"ument":6947,"Ġimposs":6948,"Ġestudantes":6949,"Ġsix":6950,"Ġsuje":6951,"ApÃ³s":6952,"Mostrar":6953,"Ġrequer":6954,"Ġtarg":6955,"Ġoficial":6956,"Ġbaixar":6957,"Ġsustain":6958,"emeteo":6959,"ĠPay":6960,"ĠÃ©p":6961,"Bel":6962,"Ġuseful":6963,"Ã¢mica":6964,"ĠalteraÃ§Ãµes":6965,"ĠPost":6966,"Ġappropriate":6967,"Ġsetembro":6968,"key":6969,"Ġflux":6970,"Ġcabo":6971,"esqu":6972,"Ġsubs":6973,"Ġsubmit":6974,"Ġselection":6975,"Ã©rcio":6976,"ĠGame":6977,"ĠimportÃ¢ncia":6978,"Ġchalleng":6979,"Ġguia":6980,"Ġjunho":6981,"ĠPlaza":6982,"Ġaprov":6983,"67":6984,"Aut":6985,"Ġvalues":6986,"Ġtarifas":6987,"Ġlas":6988,"Ġlives":6989,"Ġattention":6990,"Ġvirtual":6991,"Point":6992,"gues":6993,"Desc":6994,"Ġactual":6995,"ĠPalace":6996,"ĠControl":6997,"ĠcÃ¢m":6998,"ĠFac":6999,"Ġnumer":7000,"Ġmenor":7001,"ĠcombinaÃ§Ã£o":7002,"ono":7003,"Ã£es":7004,"ĠHom":7005,"Ġrain":7006,"ĠAirbnb":7007,"Ġauto":7008,"Ġprocessamento":7009,"Rece":7010,"rie":7011,"ĠBi":7012,"Ġalimentos":7013,"ĠprÃ¡ticas":7014,"ĠLaw":7015,"Ġdrug":7016,"inn":7017,"Ġconserv":7018,"ĠencontrarÃ¡":7019,"ĠPublic":7020,"ych":7021,"Ġdele":7022,"ĠAlb":7023,"Ġcategoria":7024,"Ġmaximum":7025,"CC":7026,"vey":7027,"Ġstory":7028,"ĠSecret":7029,"Ġadm":7030,"Ġleis":7031,"ĠSD":7032,"Cor":7033,"ench":7034,"ĠmÃ£os":7035,"ĠOil":7036,"ĠJosÃ©":7037,"RL":7038,"ĠCA":7039,"umes":7040,"Ġissue":7041,"arn":7042,"ĠEu":7043,"ĠLong":7044,"Onde":7045,"ĠValley":7046,"ĠWall":7047,"Ġ2005":7048,"Ġbreeze":7049,"ĠMain":7050,"Ġcompetit":7051,"ĠSat":7052,"43":7053,"jas":7054,"ĠÂ°":7055,"Ġmig":7056,"Ġanimal":7057,"ĠBox":7058,"Ġplayers":7059,"Ġhumanos":7060,"ĠBur":7061,"Ġadministrat":7062,"Ã³st":7063,"Ġkn":7064,"Ġjogadores":7065,"Ġbenefits":7066,"98":7067,"Ġidea":7068,"Ġdegree":7069,"ĠNear":7070,"Rel":7071,"rv":7072,"Ġgarden":7073,"Ġidentify":7074,"etalhes":7075,"iramente":7076,"veu":7077,"Ġplug":7078,"Ġinstant":7079,"aign":7080,"Ġ75":7081,"Ġ2020":7082,"ĠÃ³leo":7083,"ĠGall":7084,"Ġresponsabilidade":7085,"ĠprÃ³prios":7086,"InformaÃ§Ãµes":7087,"Ġparede":7088,"ificada":7089,"Ġleading":7090,"ĠItalian":7091,"%,":7092,"ĠProject":7093,"Ġconvenient":7094,"Ġsuficiente":7095,"ops":7096,"ombia":7097,"Ã¢neo":7098,"Ġwritten":7099,"'m":7100,"Ã§ar":7101,"ĠList":7102,"Ġpresence":7103,"Rio":7104,"Ġeveryone":7105,"Ġsurround":7106,"Ġorigem":7107,"Ġenvironmental":7108,"Ġticket":7109,"Ġdimin":7110,"ĠTamanho":7111,"cles":7112,"ĠGlobal":7113,"unciation":7114,"Ġpul":7115,"Ġfall":7116,"ĠNetwork":7117,"ĠAirlines":7118,"Ġprincipalmente":7119,"bers":7120,"Ġclar":7121,"ĠRepublic":7122,"pet":7123,"Ġdriver":7124,"almente":7125,"estival":7126,"ĠDon":7127,"ndice":7128,"indow":7129,"Ã´nia":7130,"aturais":7131,"alha":7132,"Ġpasso":7133,"Ġincom":7134,"ĠDoc":7135,"Ġrecol":7136,"ston":7137,"Ġrules":7138,"Ġinstruct":7139,"orno":7140,"Ġdiversas":7141,"Lugares":7142,"Seg":7143,"Ġwor":7144,"Ġfunctions":7145,"ĠCre":7146,"Ġsexual":7147,"rador":7148,"Ġdific":7149,"inery":7150,"ĠTod":7151,"Ġpreserv":7152,"ĠSecurity":7153,"Ġdial":7154,"Ġfins":7155,"Ġhands":7156,"idar":7157,"Ġtrade":7158,"Ġhighly":7159,"ĠNO":7160,"ĠJose":7161,"Ġdress":7162,"ĠMer":7163,"Ġesteja":7164,"aka":7165,"ribute":7166,"Ġreduce":7167,"Bar":7168,"ilhar":7169,"aturas":7170,"Ġbreakfast":7171,"Ã¢mera":7172,"ml":7173,"Ġsav":7174,"ĠBa":7175,"ĠON":7176,"ĠRet":7177,"Ġmanifest":7178,"Ġcomponents":7179,"300":7180,"Tur":7181,"ĠFabric":7182,"Ġbeha":7183,"ĠWill":7184,"Ġorganization":7185,"ĠGuide":7186,"Ġairlines":7187,"Ġconforme":7188,"Ġpint":7189,"quir":7190,"Ġmethods":7191,"bro":7192,"Ġlov":7193,"ĠVegas":7194,"Ġcontroll":7195,"Ġjantar":7196,"Ġimpacto":7197,"Ġclients":7198,"ĠWashington":7199,"fas":7200,"Ġnam":7201,"Ġenorm":7202,"Ġmostra":7203,"Weather":7204,"Ġdetalh":7205,"eces":7206,"Ġperder":7207,"Ġsurf":7208,"Ġtranqu":7209,"lee":7210,"issÃµes":7211,"ĠcrÃ©dito":7212,"Ġocup":7213,"ĠAmsterdam":7214,"ĠEngine":7215,"Ġelectric":7216,"ĠEN":7217,"ĠZoom":7218,"ĠWhat":7219,"ĠanÃºncios":7220,"Pol":7221,"ĠDiv":7222,"Ġactions":7223,"Ġdestes":7224,"unes":7225,"ĠLab":7226,"Ġproperly":7227,"TV":7228,"Ġperfeito":7229,"ĠChic":7230,"Ġrelacionadas":7231,"Ġrental":7232,"Ġdura":7233,"Ġdates":7234,"ĠSy":7235,"ĠNews":7236,"ĠSmart":7237,"ĠeficiÃªncia":7238,"Ġcontempor":7239,"Ġfurn":7240,"rome":7241,"Ġpaint":7242,"Ã©xico":7243,"ĠTim":7244,"ĠAlibaba":7245,"Travel":7246,"HP":7247,"enna":7248,"hotel":7249,"ĠPesso":7250,"Ġrepar":7251,"ĠGet":7252,"Ġparties":7253,"erciais":7254,"Ġfloor":7255,"ario":7256,"Ġclaim":7257,"Ġsolar":7258,"Ġoffice":7259,"Ġnar":7260,"Ġquite":7261,"Ġnothing":7262,"Ġsaud":7263,"Ġapplied":7264,"ĠMotor":7265,"ĠMember":7266,"Ġeyes":7267,"Ġpleas":7268,"Every":7269,"estrut":7270,"ĠLove":7271,"Ġ2003":7272,"Ġmanuals":7273,"Ġchamado":7274,"ontes":7275,"ĠJust":7276,"Ġperd":7277,"Ġmanufacturer":7278,"Ġcursos":7279,"Cent":7280,"entÃ¡rio":7281,"Ġdisco":7282,"ĠnecessÃ¡rios":7283,"Ġvoltar":7284,"ĠMachine":7285,"ĠOS":7286,"Ġpacote":7287,"ĠAven":7288,"Ġhappy":7289,"Ġdeparture":7290,"Ġparece":7291,"Ġconclu":7292,"ĠRos":7293,"Ġbecame":7294,"Ġ_":7295,"Ġthus":7296,"ĠFund":7297,"Ġminist":7298,"41":7299,"Ġvideos":7300,"Ġhid":7301,"Ġpossam":7302,"ĠWebsite":7303,"ĠalcanÃ§ar":7304,"ritos":7305,"Ġheld":7306,"ĠSaf":7307,"oque":7308,"Ġhalf":7309,"Ġinspir":7310,"Ġdiscount":7311,"OB":7312,"based":7313,"Â²":7314,"Ġtri":7315,"Ġcasas":7316,"Ġrealidade":7317,"Ġsurface":7318,"ĠmÃ©dio":7319,"Ġcurta":7320,"Ġportanto":7321,"Ġdecision":7322,"Ġcomercial":7323,"ĠsÃ©culo":7324,"gs":7325,"ĠfÃ©":7326,"ĠHall":7327,"pons":7328,"minute":7329,"Ġcerto":7330,"Ġhardware":7331,"Ġpublished":7332,"LC":7333,"entic":7334,"ilhe":7335,"velopment":7336,"Ġsentir":7337,"Ġjaneiro":7338,"ĠverÃ£o":7339,"Ġpreciso":7340,"Ġensino":7341,"Ġleaders":7342,"Ġviver":7343,"peza":7344,"Ġclicking":7345,"emento":7346,"ĠdistribuiÃ§Ã£o":7347,"Ġcharg":7348,"jeto":7349,"ĠmemÃ³ria":7350,"Ġgoal":7351,"Ġplanej":7352,"Ġestablished":7353,"ĠChristian":7354,"Ġdiversos":7355,"ĠdoenÃ§a":7356,"Ġagricult":7357,"Quick":7358,"Ġhope":7359,"Ġcarry":7360,"Ġmeasures":7361,"Ġchann":7362,"ioso":7363,"Ġsecure":7364,"ĠLG":7365,"ffici":7366,"Ġinfo":7367,"Ġescola":7368,"ĠEnter":7369,"ĠDescription":7370,"ĠsuperfÃŃcie":7371,"abol":7372,"Ġpratic":7373,"Ġrecente":7374,"ĠResults":7375,"Ġconnected":7376,"Ã©dio":7377,"Ġdelivery":7378,"ĠprecipitaÃ§Ã£o":7379,"VI":7380,"Ġdisease":7381,"Ġphoto":7382,"ĠTours":7383,"usal":7384,"eij":7385,"ratos":7386,"ĠCamb":7387,"ĠMelhores":7388,"Ġmarav":7389,"ĠFreemeteo":7390,"Ġampla":7391,"ĠFamily":7392,"Ġcai":7393,"dura":7394,"Ġbaixa":7395,"ĠediÃ§Ã£o":7396,"Ġmudar":7397,"Ġacompanh":7398,"Ġquil":7399,"ĠVir":7400,"Ġelements":7401,"Ġcarbon":7402,"ComentÃ¡rios":7403,"isÃ£o":7404,"Ġboard":7405,"Ã¡gina":7406,"Ġembora":7407,"Ġfight":7408,"Ġwine":7409,"ultados":7410,"Ġ400":7411,"Ġoffering":7412,"hab":7413,"vos":7414,"ĠFederal":7415,"Ġabsor":7416,"uo":7417,"Ķnibus":7418,"hece":7419,"ĠRental":7420,"Ġclasse":7421,"Ġsomos":7422,"ĠorganizaÃ§Ãµes":7423,"ĠDubai":7424,"79":7425,"Ġtentar":7426,"Ġconclus":7427,"Ġwebsites":7428,"ĠmÃ¡quinas":7429,"Ġideias":7430,"Ġproduced":7431,"ĠfÃ¡b":7432,"Ġbasis":7433,"Ġsong":7434,"ĠCy":7435,"Ġerros":7436,"ĠmudanÃ§as":7437,"ĠAR":7438,"ĠIT":7439,"cin":7440,"Ġearth":7441,"ĠplÃ¡stico":7442,"Ġcondicionado":7443,"Ġcalor":7444,"Ġprofessionals":7445,"MC":7446,"km":7447,"roy":7448,"idez":7449,"Ġlength":7450,"ĠÃºteis":7451,"ĠoperaÃ§Ãµes":7452,"58":7453,"umÃŃnio":7454,"ugg":7455,"Entre":7456,"Ġdesfrutar":7457,"Ġmorning":7458,"ĠSony":7459,"ĠdecisÃ£o":7460,"dia":7461,"Ġquente":7462,"ĠLiv":7463,"ĠMexico":7464,"ancing":7465,"Ġsn":7466,"Ġhol":7467,"Ġwhose":7468,"eixe":7469,"Ġvill":7470,"Ġbegan":7471,"Ġchurch":7472,"lett":7473,"ĠÃºltimo":7474,"Ġparam":7475,"ariamente":7476,"ĠnecessÃ¡ria":7477,"Ġalterar":7478,"ĠArgentina":7479,"Ãł":7480,"Ġcarried":7481,"Ġcerteza":7482,"Ġ$$$":7483,"Ġbathroom":7484,"peed":7485,"Ġjogador":7486,"ĠProdutos":7487,"alt":7488,"Ġbord":7489,"ĠScience":7490,"olesc":7491,"Ã©st":7492,"ĠDia":7493,"Ġafet":7494,"ĠâĨ":7495,"Rem":7496,"Ġbroad":7497,"ouro":7498,"Ġvoc":7499,"Ġreserve":7500,"ĠPress":7501,"ĠExcel":7502,"Ġmarcas":7503,"ĠMobile":7504,"ief":7505,"Ġestabel":7506,"Ġdoesn":7507,"Ġbeginning":7508,"atar":7509,"ĠDublin":7510,"Ġproteger":7511,"ĠSingap":7512,"ĠPi":7513,"While":7514,"According":7515,"Essa":7516,"sur":7517,"cm":7518,"ĠAires":7519,"SE":7520,"ander":7521,"iber":7522,"Cada":7523,"iante":7524,"Ġlargest":7525,"ĠProfess":7526,"ĠEX":7527,"ĠEdit":7528,"Ġiniti":7529,"gas":7530,"ĠMb":7531,"Ġenf":7532,"Ġimper":7533,"Op":7534,"Ġestavam":7535,"unicipal":7536,"Tr":7537,"Ġwoman":7538,"Ġtempos":7539,"ĠexperiÃªncias":7540,"ĠPolicy":7541,"Ġadopt":7542,"JÃ¡":7543,"ĠMÃ©xico":7544,"Ġgold":7545,"Ã¡til":7546,"ĠgeraÃ§Ã£o":7547,"Ġimediatamente":7548,"Ġexpens":7549,"Ġ33":7550,"Ġpossibilidade":7551,"Ġtornou":7552,"Ġvert":7553,"ĠFu":7554,"EST":7555,"Ġprivacy":7556,"Ġdesses":7557,"ĠrazÃ£o":7558,"Gen":7559,"NC":7560,"ĠCOM":7561,"ĠBig":7562,"alizado":7563,"Ġexperiences":7564,"China":7565,"ĠdomÃŃnio":7566,"Ġinvolved":7567,"Ġsense":7568,"Ġlojas":7569,"ĠquÃŃm":7570,"Ġcharge":7571,"Ġconfigur":7572,"Ġmini":7573,"olÃ³gico":7574,"Ġpaz":7575,"ĠAmazon":7576,"ÃŃdeo":7577,"ÃĢ":7578,"Ãĵ":7579,"ĠSpecial":7580,"Product":7581,"ĠAlex":7582,"duction":7583,"Ġfundo":7584,"Ġmother":7585,"ĠPrivate":7586,"ev":7587,"osh":7588,"Ġ38":7589,"ĠEconom":7590,"oster":7591,"Hz":7592,"Ġbrasil":7593,"endar":7594,"ĠAnn":7595,"iting":7596,"ĠKar":7597,"Ġdetect":7598,"Ġtecnologias":7599,"Ġneighbor":7600,"itÃ¡rio":7601,"ÃŃsticos":7602,"Ġsummer":7603,"Ġmente":7604,"ĠMost":7605,"ĠIst":7606,"ĠparticipaÃ§Ã£o":7607,"ĠconexÃ£o":7608,"PN":7609,"iste":7610,"Ġassum":7611,"Ġduration":7612,"SH":7613,"iques":7614,"rif":7615,"Ġju":7616,"ĠPrin":7617,"ĠPron":7618,"ĠStudio":7619,"edom":7620,"Ġexpans":7621,"Leia":7622,"rÃ¡":7623,"Ġ36":7624,"ĠMinube":7625,"Sub":7626,"59":7627,"cing":7628,"Ġvamos":7629,"Ġesquer":7630,"Ġcolors":7631,"Estes":7632,"Ġapresentar":7633,"ĠDados":7634,"Ġbarato":7635,"Ġzona":7636,"ĠcientÃŃf":7637,"Ġrequisitos":7638,"ĠMass":7639,"ĠNovo":7640,"ĠImages":7641,"Ġleit":7642,"ĠSprings":7643,"Sup":7644,"omet":7645,"ĠDepart":7646,"Ġguest":7647,"Ġcreation":7648,"Ġobtain":7649,"Ġemployees":7650,"Ġdezembro":7651,"mine":7652,"urb":7653,"Ġata":7654,"Ġespanhol":7655,"Ġremove":7656,"Ġwear":7657,"Ġgraph":7658,"Ġpotencial":7659,"Ġefficiency":7660,"ĠCancelon":7661,"reek":7662,"Ġimmediately":7663,"FaÃ§a":7664,"teriores":7665,"Ġatribu":7666,"Ã©cia":7667,"ĠmÃ©todos":7668,"Ġpai":7669,"Ġconforto":7670,"Description":7671,"TP":7672,"gen":7673,"osas":7674,"Ġcomerciais":7675,"Ãºr":7676,"ificate":7677,"OG":7678,"ĠCha":7679,"Ġpequenos":7680,"Ġtrust":7681,"ĠBarb":7682,"ĠImagens":7683,"Share":7684,"ĠTickets":7685,"Temos":7686,"oro":7687,"Ġcommercial":7688,"ĠBon":7689,"ĠSantiago":7690,"Ġcolocar":7691,"ĠeconÃ³m":7692,"ĠÃºltimas":7693,"Ġsan":7694,"ĠNice":7695,"Ġshown":7696,"Ġilumin":7697,"ĠVict":7698,"Ġdesl":7699,"Durante":7700,"nect":7701,"Ġmotiv":7702,"Ġvent":7703,"ciples":7704,"Ġclim":7705,"Ġthreat":7706,"Ġsegundos":7707,"Ġstandards":7708,"ĠOld":7709,"Ġexercise":7710,"56":7711,"ĠtraduÃ§Ã£o":7712,"Ġcollabor":7713,"ĠPraia":7714,"eign":7715,"rast":7716,"head":7717,"Ġoutubro":7718,"Ġreference":7719,"Ġapropri":7720,"ĠbenefÃŃcios":7721,"Ġsuitable":7722,"empt":7723,"ĠrelaÃ§Ãµes":7724,"Ġarticles":7725,"Ġcuidados":7726,"Ġox":7727,"Ã¢nica":7728,"Ġferro":7729,"ilares":7730,"agen":7731,"ĠSeries":7732,"Ġincr":7733,"Ġsuffer":7734,"Trad":7735,"quest":7736,"Ġchem":7737,"iant":7738,"mont":7739,"ĠMet":7740,"ĠromÃ¢nt":7741,"Ġhaver":7742,"unity":7743,"ĠHamb":7744,"Ġpred":7745,"Ġ37":7746,"Ġcarga":7747,"Ġtruth":7748,"ĠSupport":7749,"cks":7750,"Ã¡cia":7751,"Ġones":7752,"ĠpossÃŃveis":7753,"Ġeconomia":7754,"Ġvendas":7755,"mon":7756,"reu":7757,"ĠPesquis":7758,"ĠDC":7759,"Ġanything":7760,"anguages":7761,"ju":7762,"amer":7763,"Inter":7764,"ĠfamÃŃlias":7765,"Ġinterested":7766,"Ġunderstanding":7767,"Ġnorte":7768,"raÃ§Ãµes":7769,"Ġinteiro":7770,"Ġdemais":7771,"Ġscen":7772,"ĠPrograma":7773,"ĠOri":7774,"ĠWood":7775,"ework":7776,"Ġnotice":7777,"anga":7778,"Ġdiam":7779,"ĠAccommod":7780,"xi":7781,"ĠInde":7782,"inder":7783,"Ġtraz":7784,"Ġoperations":7785,"Places":7786,"52":7787,"iture":7788,"Ġteu":7789,"untos":7790,"Ġelectronic":7791,"ĠTab":7792,"ĠHill":7793,"Ġaccom":7794,"Ġagree":7795,"ĠFrankfurt":7796,"men":7797,"Ġsy":7798,"Ġ120":7799,"ĠExpl":7800,"Ġlegisl":7801,"Note":7802,"orra":7803,"Ġotim":7804,"Ġtowards":7805,"ĠFL":7806,"ously":7807,"Ġgreen":7808,"Ġrelevant":7809,"ĠMosc":7810,"Are":7811,"UP":7812,"Ġbol":7813,"Ġbirth":7814,"rane":7815,"ĠUE":7816,"Ġplastic":7817,"Ġloja":7818,"riptease":7819,"SL":7820,"ault":7821,"Ġdanos":7822,"ided":7823,"mp":7824,"odes":7825,"Ġforce":7826,"Ġcentury":7827,"ydney":7828,"ĠEspÃŃrito":7829,"ĠTR":7830,"ĠMediter":7831,"Ġbehavi":7832,"ĠDavid":7833,"Ġtrib":7834,"Ġworth":7835,"Ġvitam":7836,"otal":7837,"ĠrelatÃ³rio":7838,"Ġanswers":7839,"ĠdÃ©c":7840,"Ġsleep":7841,"Ġauth":7842,"ĠhistÃ³rico":7843,"ĠvÃ¡l":7844,"Ġelabor":7845,"Ġfornecedor":7846,"anks":7847,"Ġreve":7848,"Ġmesa":7849,"ensa":7850,"Ġporn":7851,"ĠdiferenÃ§a":7852,"Ġdemoc":7853,"ÃŃdas":7854,"van":7855,"ĠmÃ£e":7856,"Ġwait":7857,"Ġlost":7858,"ĠBru":7859,"hoose":7860,"elhor":7861,"Ġconhecido":7862,"Ġtrem":7863,"icl":7864,"Ġthough":7865,"Ġsomeone":7866,"Ġincreased":7867,"hetes":7868,"Ġcorretamente":7869,"Fe":7870,"Ġbaby":7871,"ĠSC":7872,"ĠConst":7873,"Ġimprov":7874,"ĠlÃŃngua":7875,"ĠCH":7876,"ĠArea":7877,"rigor":7878,"itness":7879,"ĠSum":7880,"Ġclima":7881,"Ġunidades":7882,"Ġdestac":7883,"Ġrefei":7884,"Ġregras":7885,"Ġpowerful":7886,"Ġbairro":7887,"ĠSn":7888,"ĠÃ¡l":7889,"Ġlimited":7890,"Ġaprove":7891,"ktop":7892,"Ġremember":7893,"OW":7894,"Ġton":7895,"Ġsouth":7896,"Ġrein":7897,"ĠUma":7898,"ĠMilan":7899,"ken":7900,"rest":7901,"Ġparticipar":7902,"iental":7903,"wise":7904,"Ġshopping":7905,"Ġpassagens":7906,"Ġpositive":7907,"Ġcoffee":7908,"ĠAssoci":7909,"ĠconfiguraÃ§Ãµes":7910,"ĠBuenos":7911,"tra":7912,"icando":7913,"plication":7914,"Ġhimself":7915,"Ġfunciona":7916,"ĠSalvador":7917,"ÃĶnibus":7918,"ĠCR":7919,"ĠPet":7920,"umn":7921,"ĠTerms":7922,"isso":7923,"Ins":7924,"ĠdireÃ§Ã£o":7925,"IX":7926,"nia":7927,"ÃŃdia":7928,"ĠSand":7929,"Ġgor":7930,"Ġrunning":7931,"Ġbehind":7932,"col":7933,"ĠUK":7934,"Ġanswer":7935,"Ġbomb":7936,"app":7937,"Ġimportance":7938,"76":7939,"tor":7940,"Ġavailability":7941,"ĠMusic":7942,"ĠCP":7943,"ewlett":7944,"ĠpadrÃµes":7945,"Ġigre":7946,"vidas":7947,"Ġaleg":7948,"real":7949,"ĠUse":7950,"Ġdisponibilidade":7951,"ĠassistÃªncia":7952,"inguÃ©m":7953,"ardo":7954,"viÃ¡ria":7955,"UD":7956,"Ġign":7957,"orrow":7958,"Ġpoucos":7959,"Ġ2004":7960,"Ã¢nea":7961,"Rom":7962,"SM":7963,"ĠProm":7964,"ensive":7965,"Ãºss":7966,"burgo":7967,"ĠrazÃµes":7968,"envolvimento":7969,"estic":7970,"Ġglob":7971,"Ġpolicies":7972,"51":7973,"UB":7974,"add":7975,"usa":7976,"oker":7977,"Ġconsumption":7978,"Play":7979,"Ġmention":7980,"ĠseleÃ§Ã£o":7981,"Ġtestes":7982,"host":7983,"pare":7984,"Ġganhar":7985,"Servi":7986,"ĠHuman":7987,"Ġhabilidades":7988,"ĠHam":7989,"Ġregional":7990,"Ġinstalar":7991,"Ġconvid":7992,"ĠfaÃ§a":7993,"ĠGreat":7994,"Ġaberto":7995,"ĠÂ·":7996,"iscos":7997,"eler":7998,"ĠWatch":7999,"Ġmanuais":8000,"ĠmÃ©dico":8001,"ĠLatin":8002,"Cam":8003,"eo":8004,"Ġmesmos":8005,"Ġnovembro":8006,"ĠSea":8007,"Outros":8008,"Ġdificul":8009,"74":8010,"lando":8011,"etic":8012,"ĠMess":8013,"Ġfilter":8014,"Ġcreating":8015,"ibliot":8016,"Via":8017,"nam":8018,"zhou":8019,"Ġutilizando":8020,"ĠcomeÃ§ou":8021,"Ġreflect":8022,"Work":8023,"Ġcade":8024,"Ġpark":8025,"ĠHa":8026,"Ã©tico":8027,"Ġachieve":8028,"eal":8029,"Ġmental":8030,"iclet":8031,"Ġcontexto":8032,"Ġutilizador":8033,"Ġadvanced":8034,"ĠrecomendaÃ§Ãµes":8035,"Ġpick":8036,"Ġlines":8037,"ĠLuc":8038,"ĠsaÃŃda":8039,"Ġdelic":8040,"Ġfactors":8041,"Ġmemory":8042,"Ġpictures":8043,"Ġanunci":8044,"ĠBag":8045,"ĠDestin":8046,"chester":8047,"Ġinsp":8048,"Red":8049,"lege":8050,"ĠBot":8051,"deu":8052,"Ġunit":8053,"Ġgoods":8054,"'ve":8055,"enge":8056,"ĠArab":8057,"Ġcommand":8058,"iki":8059,"ĠIntel":8060,"Ġempreg":8061,"Ġtradicional":8062,"Ġambos":8063,"Ġimpression":8064,"Ġpergunta":8065,"ĠChild":8066,"Ġafirm":8067,"ĠPlaya":8068,"ĠculinÃ¡ria":8069,"omin":8070,"Ġvos":8071,"ecause":8072,"Ġamigo":8073,"Ġpassage":8074,"Ġutilizados":8075,"Ã³gio":8076,"Ġcategory":8077,"96":8078,"ned":8079,"ĠDef":8080,"AND":8081,"Ġpainel":8082,"ii":8083,"oga":8084,"Ġdiagn":8085,"ĠVillage":8086,"Embora":8087,"Ġtarget":8088,"ĠâĢ¦":8089,"Ġworkers":8090,"Ġstage":8091,"Ġheat":8092,"Ġcampaign":8093,"Ġchave":8094,"kok":8095,"izing":8096,"BR":8097,"ĠmÃ³veis":8098,"Ġsoft":8099,"Since":8100,"fre":8101,"ĠLink":8102,"endas":8103,"grade":8104,"words":8105,"Ġdoor":8106,"Ġboas":8107,"ĠToronto":8108,"Ġunto":8109,"Ġcold":8110,"Ġdistribution":8111,"__":8112,"Ġarran":8113,"ĠParl":8114,"Ġseconds":8115,"Fotos":8116,"ĠpÃ³s":8117,"ĠNav":8118,"Ġentender":8119,"Ġescala":8120,"Pa":8121,"Ġaudio":8122,"Ġexcept":8123,"udes":8124,"Ġmaio":8125,"Ġcompared":8126,"uiÃ§Ã£o":8127,"igu":8128,"Also":8129,"Ġthanks":8130,"ĠMicro":8131,"ĠPrint":8132,"ĠUser":8133,"Ġexpert":8134,"Ġeurope":8135,"Ġtua":8136,"Ġcoming":8137,"Ãºncia":8138,"Ġcombust":8139,"Ġparticipantes":8140,"Ġexisting":8141,"Packard":8142,"fit":8143,"rors":8144,"Ġdark":8145,"Ġlider":8146,"ĠEC":8147,"ĠJew":8148,"Ġclasses":8149,"Ġcres":8150,"ĠLife":8151,"apter":8152,"Ġpros":8153,"Ġaval":8154,"----":8155,"ĠHoly":8156,"ĠJerusal":8157,"Ġtechnologies":8158,"Ġcry":8159,"Ġwelcome":8160,"Ġ55":8161,"ĠIndia":8162,"ĠcontrÃ¡rio":8163,"Ġnaturais":8164,"ĠAcc":8165,"Ġpractices":8166,"ĠAND":8167,"jar":8168,"ingham":8169,"Ġhighest":8170,"ĠAmarillas":8171,"Ġ1000":8172,"Ġarg":8173,"ĠPrivacy":8174,"Ġetern":8175,"ffic":8176,"Ġnasc":8177,"ĠpromoÃ§Ãµes":8178,"ĠagradÃ¡vel":8179,"Ġaproximadamente":8180,"ĠAlugu":8181,"Ġactually":8182,"Ġsetting":8183,"Ġdivert":8184,"Ġdyn":8185,"Ġaux":8186,"Ġapre":8187,"Ġprimeiros":8188,"Caso":8189,"Ġeficaz":8190,"fect":8191,"ker":8192,"elha":8193,"Ġborn":8194,"Ġhappens":8195,"ĠÃ©poca":8196,"PD":8197,"Ġfather":8198,"ĠBall":8199,"Ġrich":8200,"ĠexposiÃ§Ã£o":8201,"Ġamar":8202,"Ġround":8203,"Ġhumano":8204,"Near":8205,"cular":8206,"Ġfranc":8207,"Ġpoor":8208,"ĠParque":8209,"Ġpermitem":8210,"ĠTwitter":8211,"amin":8212,"ĠPo":8213,"present":8214,"Ġlonga":8215,"Take":8216,"izza":8217,"ĠOther":8218,"ĠVila":8219,"Ġdifference":8220,"sia":8221,"ĠCle":8222,"ĠMÃ¡":8223,"Ġkg":8224,"airs":8225,"ĠMedia":8226,"Ġindividuals":8227,"Ġciclo":8228,"bs":8229,"Ġstress":8230,"Ġinteract":8231,"ĠGlass":8232,"Ġjanela":8233,"ĠRepÃºblica":8234,"iling":8235,"ĠâĢ¢":8236,"ups":8237,"Ġinfra":8238,"icionais":8239,"Ġmovement":8240,"ĠChicago":8241,"AV":8242,"ĠWomen":8243,"ipp":8244,"hi":8245,"Ġcook":8246,"ĠCir":8247,"apar":8248,"Quart":8249,"Ã³rum":8250,"Ġprecipitation":8251,"ĠacomodaÃ§Ãµes":8252,"Ġbudget":8253,"Over":8254,"jos":8255,"ĠtÃ³p":8256,"Ġsect":8257,"Ġwonder":8258,"ĠSydney":8259,"ĠcontÃŃn":8260,"ĠcÃ©l":8261,"berry":8262,"Ġgetting":8263,"ĠconfiguraÃ§Ã£o":8264,"Ġasked":8265,"Ġsaw":8266,"Ġmeters":8267,"free":8268,"Ġwindow":8269,"Ġvin":8270,"Ġgave":8271,"ĠDrive":8272,"ĠporÃ©m":8273,"ĠDevelopment":8274,"ĠÃ¡rv":8275,"Respon":8276,"rency":8277,"Ġrei":8278,"Ġreform":8279,"Ġsuits":8280,"pla":8281,"cal":8282,"Ġdeep":8283,"Ġrather":8284,"ornia":8285,"Ġequival":8286,"ratuito":8287,"ĠBR":8288,"ĠGrupo":8289,"ĠCanadÃ¡":8290,".:":8291,"Just":8292,"Of":8293,"ye":8294,"actory":8295,"Ġscientific":8296,"Ste":8297,"apas":8298,"Ġencom":8299,"ĠAuto":8300,"Ġrecommendations":8301,"ĠRod":8302,"ĠShare":8303,"ĠStandard":8304,"Up":8305,"usion":8306,"Ġblue":8307,"ĠtÃ©cnicos":8308,"into":8309,"Ġcen":8310,"ĠmissÃ£o":8311,"ouve":8312,"ĠLodge":8313,"Ġproduce":8314,"Ġpassos":8315,"Ġbackground":8316,"Ġwarrant":8317,"Vol":8318,"heim":8319,"Ġmencion":8320,"Ġfio":8321,"Ġseis":8322,"Ġdesenh":8323,"ORD":8324,"Ġregistro":8325,"Ġfatores":8326,"ĠSho":8327,"ĠTro":8328,"ĠTru":8329,"Ġdescription":8330,"Ġrequires":8331,"ĠpÃ´":8332,"agu":8333,"ĠGR":8334,"Ġadolesc":8335,"ĠChamp":8336,"Ġclient":8337,"Ġlisting":8338,"Ġapproxim":8339,"Ġguarantee":8340,"edos":8341,"Comments":8342,"Ġtrabalhos":8343,"Ġnesse":8344,"unday":8345,"Desde":8346,"pat":8347,"ĠBank":8348,"Ġencontram":8349,"Ġbank":8350,"PL":8351,"EndereÃ§o":8352,"ision":8353,"ĠChile":8354,"ĠreduÃ§Ã£o":8355,"ĠpÃºblica":8356,"Ġhostels":8357,"Ġraros":8358,"iday":8359,"irÃ¡":8360,"ontos":8361,"Ġaccord":8362,"Ġalem":8363,"ĠalumÃŃnio":8364,"ĠgraÃ§as":8365,"Ãºssia":8366,"ÃŃb":8367,"ĠRail":8368,"Ġatualmente":8369,"ĠOverview":8370,"ĠRot":8371,"Ġcool":8372,"ĠShang":8373,"bul":8374,"Ġfoto":8375,"ĠmarÃ§o":8376,"ĠAnim":8377,"ounge":8378,"Each":8379,"gio":8380,"Hewlett":8381,"ying":8382,"umber":8383,"Ġabril":8384,"Compart":8385,"Ã©rios":8386,"ĠcomeÃ§a":8387,"venture":8388,"Ġdetailed":8389,"reme":8390,"Ġusada":8391,"lla":8392,"Ġchamada":8393,"Ġaffect":8394,"Tal":8395,"ĠvÃª":8396,"alizar":8397,"Ġamostra":8398,"Pesquis":8399,"iados":8400,"ĠpromoÃ§Ã£o":8401,"53":8402,"Ġbateria":8403,"Ġpud":8404,"ĠGeral":8405,"Ġworldwide":8406,"Ġopening":8407,"ĠmeteorolÃ³gicas":8408,"ĠtelevisÃ£o":8409,"eses":8410,"Ġsituado":8411,"ĠinstituiÃ§Ãµes":8412,"ĠalimentaÃ§Ã£o":8413,"mend":8414,"ĠAL":8415,"sk":8416,"Ġpdf":8417,"Ġfrag":8418,"Ġtold":8419,"ĠgÃ¡s":8420,"Ġ250":8421,"ĠexecuÃ§Ã£o":8422,"Ġmembro":8423,"elling":8424,"Ġmoder":8425,"Ġ2002":8426,"Ġlonge":8427,"Ġstrategy":8428,"Ġvulner":8429,"EW":8430,"Ġdeu":8431,"aling":8432,"urance":8433,"antos":8434,"ĠJud":8435,"ĠPlace":8436,"ĠpÃºblicos":8437,"Ġmassa":8438,"date":8439,"Ġnice":8440,"ĠSof":8441,"Ġlingu":8442,"Ġantec":8443,"Ġfornecedores":8444,"wan":8445,"ache":8446,"Ofertas":8447,"Ġfluxo":8448,"Ġrepair":8449,"ĠTO":8450,"ĠAnton":8451,"Nosso":8452,"Ġvisto":8453,"Ġclub":8454,"ĠmÃ¡xima":8455,"Ġcorte":8456,"ĠMig":8457,"ums":8458,"ilding":8459,"Ġprivil":8460,"Ġpackage":8461,"Ġcomida":8462,"Ġsequ":8463,"dobe":8464,"Ġclicando":8465,"ĠAdv":8466,"Information":8467,"Ġled":8468,"ividades":8469,"azing":8470,"ĠYear":8471,"Ġguerra":8472,"ĠEducation":8473,"Lo":8474,"ued":8475,"Ġreports":8476,"Ġelse":8477,"Ġmessages":8478,"ĠinvestigaÃ§Ã£o":8479,"UE":8480,"ĠCabo":8481,"Ġoportunidades":8482,"Baixar":8483,"Don":8484,"Â´":8485,"Ġexhib":8486,"Ġserious":8487,"ĠmÃ³vel":8488,"ĠAG":8489,"Ġvisitors":8490,"ĠinovaÃ§Ã£o":8491,"ĠChinese":8492,"ĠSale":8493,"Ġreb":8494,"Ġconosco":8495,"Ġadicional":8496,"issions":8497,"perty":8498,"Ġ34":8499,"Ġforms":8500,"presa":8501,"Ġencontrados":8502,"During":8503,"Ġri":8504,"ĠEuropeu":8505,"Ġinstitutions":8506,"Ġdor":8507,"Ġsample":8508,"oter":8509,"Ġobst":8510,"ĠestratÃ©gia":8511,"Ġmeios":8512,"inquedos":8513,"anhas":8514,"ĠOc":8515,"ĠpoderÃ£o":8516,"Ġprecisam":8517,",...":8518,"Ġarquitet":8519,"Ġresponse":8520,"ĠPM":8521,"ifer":8522,"ampa":8523,"Ġopportunities":8524,"Ġfunctional":8525,"Final":8526,"lets":8527,"Ġequil":8528,"TH":8529,"Ġcos":8530,"ĠparÃ¢m":8531,"uso":8532,"Ġcatal":8533,"Mic":8534,"Ġrefor":8535,"ĠFound":8536,"Ġstars":8537,"Therefore":8538,"etooth":8539,"Saiba":8540,"Host":8541,"Âª":8542,"Ġemit":8543,"ĠMetal":8544,"Ġverde":8545,"ĠProcess":8546,"ĠPolÃŃtica":8547,"Ġperformed":8548,"Ġnacionais":8549,"ĠSports":8550,"Ġstream":8551,"NA":8552,"ĠHand":8553,"ontade":8554,"Ġentrev":8555,"Ġplayed":8556,"ĠdeverÃ¡":8557,"Mon":8558,"fol":8559,"ĠJac":8560,"ĠGood":8561,"ĠAsia":8562,"Ġconformidade":8563,"QL":8564,"Ġsoul":8565,"Ġquadr":8566,"Ġreality":8567,"ÃŃna":8568,"ĠBrand":8569,"jac":8570,"usÃ£o":8571,"ĠStriptease":8572,"nologia":8573,"lar":8574,"Ġdefinit":8575,"aqu":8576,"Ġcima":8577,"ĠMA":8578,"Ġforeign":8579,"uses":8580,"ĠGB":8581,"Ġatender":8582,"ĠExc":8583,"Ġrealizado":8584,"Ġdescribed":8585,"Â·":8586,"itando":8587,"Ġrelease":8588,"ĠBoutique":8589,"Ã¢nico":8590,"ĠArticle":8591,"ĠMenu":8592,"Ġtim":8593,"Ġdestination":8594,"Ġrepet":8595,"Ġabordagem":8596,"54":8597,"Ġconfer":8598,"igned":8599,"Ġexternal":8600,"Ġinnovation":8601,"iding":8602,"ÃŃrus":8603,"aixas":8604,"Ġlimpeza":8605,"Ġlaser":8606,"Ġacadem":8607,"ĠStat":8608,"Ġsolid":8609,"Ġresponsibility":8610,"ĠMilÃ£o":8611,"Ġload":8612,"ĠTele":8613,"Ġessencial":8614,"ĠhistÃ³":8615,"72":8616,"Ġdrop":8617,"Ġcad":8618,"Ġfase":8619,"uly":8620,"ĠRou":8621,"Ġtema":8622,"Ġroll":8623,"ĠOrlando":8624,"ĠtransferÃªncia":8625,"ĠproprietÃ¡rio":8626,"Ġadvantage":8627,"rÃ¡lia":8628,"isco":8629,"Ġgratuitamente":8630,"Ġlikely":8631,"hen":8632,"uas":8633,"Ġstra":8634,"Ġbrought":8635,"Ġestabelecimento":8636,"pite":8637,"ĠGolf":8638,"Ġmodos":8639,"Ġgiving":8640,"ĠWars":8641,"Ġcompartilhar":8642,"71":8643,"Ger":8644,"itzer":8645,"Ġcompare":8646,"Ġouro":8647,"Ġcamera":8648,"ĠDem":8649,"ĠOR":8650,"Ġ99":8651,"Ġregister":8652,"Ġdedicated":8653,"Ġliberdade":8654,"osing":8655,"see":8656,"Ġvoz":8657,"inham":8658,"Ġresolver":8659,"Ġattractions":8660,"erca":8661,"ĠPT":8662,"ĠDin":8663,"nder":8664,"oting":8665,"rick":8666,"Ġavali":8667,"ĠLuxury":8668,"ypt":8669,"itan":8670,"uxe":8671,"Ġlaws":8672,"Categ":8673,"yond":8674,"Ġnames":8675,"Ġescolh":8676,"Ġfabricantes":8677,"marks":8678,"Ġmecan":8679,"86":8680,"Ġsubsc":8681,"icious":8682,"UC":8683,"hando":8684,"icip":8685,"ellite":8686,"Ġreflet":8687,"Ġhistorical":8688,"Bem":8689,"Ãį":8690,"Ġpeg":8691,"Ġcomuns":8692,"ĠclÃŃn":8693,"Ġdiet":8694,"Ġcaused":8695,"Ġredor":8696,"Ġbalance":8697,"Ġsports":8698,"ĠorÃ§":8699,"ĠJava":8700,"Ġchuva":8701,"Ġpattern":8702,"rinho":8703,"Ġintended":8704,"Ġcircul":8705,"aled":8706,"ĠNatural":8707,"rama":8708,"Ġinternal":8709,"Ã¢mp":8710,"Ġsupports":8711,"HD":8712,"oa":8713,"Ġcidad":8714,"Ġsangue":8715,"Ġcompras":8716,"Ġdiscipl":8717,"Ġflow":8718,"Ġconceito":8719,"Alguns":8720,"dades":8721,"uff":8722,"Ġviajar":8723,"Ġinferior":8724,"Ġinstructions":8725,"ĠCheck":8726,"ĠVeget":8727,"Ġcompress":8728,"Sol":8729,"inger":8730,"imming":8731,"ĠMai":8732,"idental":8733,"ĠprecisÃ£o":8734,"ĠGovern":8735,"Ġrealizada":8736,"Ġanimals":8737,"Ġaltamente":8738,"Cop":8739,"rations":8740,"ĠAst":8741,"Ġleva":8742,"Enquanto":8743,"ĠMountain":8744,"ĠSign":8745,"Ġcong":8746,"ĠFrom":8747,"ĠGestÃ£o":8748,"Ġallowed":8749,"ĠDistrict":8750,"med":8751,"Ġfrut":8752,"Ġterceiro":8753,"OST":8754,"ĠIndustrial":8755,"Ġspiritual":8756,"PG":8757,"ĠTre":8758,"Ġcriado":8759,"ĠEsta":8760,"Ġdirig":8761,"Ġshared":8762,"ĠfÃ¡brica":8763,"Ġvontade":8764,"ÃŃÃ§a":8765,"place":8766,"Ġhumana":8767,"Ġidentificar":8768,"ĠInstitute":8769,"KAYAK":8770,"itz":8771,"Ġtradicionais":8772,"Ġsexo":8773,"Ġdrops":8774,"Ġcards":8775,"ĠCel":8776,"igation":8777,"ĠseÃ§Ã£o":8778,"Ġtravelers":8779,"iciais":8780,"rier":8781,"Ġgest":8782,"Ġpiece":8783,"udos":8784,"Ġ42":8785,"Ġcuidado":8786,"ĠSize":8787,"ĠNight":8788,"Ã©dia":8789,"Ġfriendly":8790,"ened":8791,"Ġvict":8792,"ĠestarÃ¡":8793,"Ġouvir":8794,"bles":8795,"Ġpresentes":8796,"axy":8797,"Ġguarda":8798,"necess":8799,"Ġclin":8800,"rata":8801,"Ġinvestment":8802,"Ġcomplement":8803,"Ġorganizations":8804,"ĠElectronics":8805,"AQ":8806,"ĠPAR":8807,"Gl":8808,"ĠdoenÃ§as":8809,"Ġ39":8810,"Ġunits":8811,"proof":8812,"Once":8813,"ĠespÃŃrito":8814,"Tudo":8815,"iosa":8816,"Ġcurto":8817,"Ġplaying":8818,"Ġspecies":8819,"ti":8820,"Ġdecre":8821,"Ġmel":8822,"ĠSeguranÃ§a":8823,"ĠPhilips":8824,"ĠacomodaÃ§Ã£o":8825,"ĠformulÃ¡rio":8826,"ĠCiv":8827,"Ġluta":8828,"covery":8829,"Ġcycle":8830,"Nos":8831,"arda":8832,"Ġapplicable":8833,"ĠPresident":8834,"ĠmÃŃnimo":8835,"ĠResearch":8836,"ĠCamera":8837,"Ġhostel":8838,"Ġfontes":8839,"ĠFather":8840,"ĠLes":8841,"Ġnav":8842,"ĠclÃ¡ss":8843,"Ġdeveloping":8844,"Ġadultos":8845,"aug":8846,"oot":8847,"ĠRoman":8848,"ĠGirl":8849,"rics":8850,"Ġpasseng":8851,"Ġobjetivos":8852,"ĠJapÃ£o":8853,"off":8854,"Ġpil":8855,"ĠMundial":8856,"avras":8857,"Ġcharm":8858,"ĠPlayer":8859,"atem":8860,"pton":8861,"Ġresulting":8862,"Ġquerem":8863,"ographic":8864,"ĠÂ©":8865,"interest":8866,"sa":8867,"Ġfear":8868,"aming":8869,"Ġgent":8870,"Ġcontacto":8871,"ainment":8872,"Ġprivado":8873,"ÃŃstico":8874,"Ġresistance":8875,"Ġaccordance":8876,"Even":8877,"Ġburn":8878,"olina":8879,"Ġparque":8880,"ĠMS":8881,"Ġinstead":8882,"Ġurban":8883,"ĠPrices":8884,"Quickly":8885,"ĠBM":8886,"Ġremain":8887,"pload":8888,"Ġprocurando":8889,"Ġ@":8890,"ĠCreat":8891,"Ġvinho":8892,"ĠMonte":8893,"ĠBit":8894,"ĠIC":8895,"Ġdaqu":8896,"Ġattempt":8897,"ĠFull":8898,"ĠXbox":8899,"Ġfeedback":8900,"Ġchallenges":8901,"ixo":8902,"Ext":8903,"reams":8904,"Ġdescon":8905,"Ġads":8906,"Ġdessas":8907,"Serv":8908,"ĠNature":8909,"Ġpromover":8910,"Ġvisitantes":8911,"oras":8912,"Ġveja":8913,"Ġfresh":8914,"Ġdesport":8915,"plications":8916,"ĠXP":8917,"Ġaquele":8918,"2015":8919,"Ġbott":8920,"Ġoferecem":8921,"ĠMax":8922,"ĠDur":8923,"ESP":8924,"ESS":8925,"ĠÃ¢mb":8926,"itzerland":8927,"esis":8928,"ĠCL":8929,"ĠColombia":8930,"Ġcharacteristics":8931,"ĠÃ³r":8932,"overs":8933,"Ġflat":8934,"Ġconstante":8935,"ĠAtt":8936,"ĠTermos":8937,"Ġnormalmente":8938,"Ġfamilies":8939,"ĠDescriÃ§Ã£o":8940,"ĠBangkok":8941,"ĠFornecedores":8942,"Ġforward":8943,"illo":8944,"Ġwhom":8945,"Ġamer":8946,"Ġcollected":8947,"Ġchegada":8948,"Ġazul":8949,"73":8950,"Ġtenham":8951,"Ġimplementation":8952,"ĠCalifornia":8953,"Act":8954,"Learn":8955,"Val":8956,"Ġles":8957,"ÃŃamos":8958,"Ġfemin":8959,"Ġlut":8960,"ĠMuseu":8961,"ĠdispÃµe":8962,"EA":8963,"enty":8964,"Ġsupl":8965,"ĠIsl":8966,"Ġavaliar":8967,"61":8968,"San":8969,"Ġcomment":8970,"Ġacol":8971,"ĠInfo":8972,"Ġaspectos":8973,"Del":8974,"fil":8975,"heira":8976,"Ġnorth":8977,"raph":8978,"ĠAle":8979,"Ġconverter":8980,"Ġster":8981,"oub":8982,"ĠMary":8983,"pressÃ£o":8984,"ĠModel":8985,"ĠPortuguÃªs":8986,"DisponÃŃveis":8987,"ĠmÃº":8988,"Ġrevest":8989,"ĠIb":8990,"Ġsolo":8991,"embros":8992,"Ġpromote":8993,"ĠedifÃŃcio":8994,"Ġvou":8995,"Ġhyd":8996,"ĠPVC":8997,"Ġmaster":8998,"ĠCoast":8999,"Ġinstalado":9000,"Ġdepending":9001,"Ġconseguir":9002,"Ġmill":9003,"ĠNatal":9004,"arta":9005,"uela":9006,"ĠTax":9007,"Prov":9008,"Ġapartamentos":9009,"Many":9010,"erts":9011,"Ġsair":9012,"Ġencontro":9013,"ussels":9014,"iritual":9015,"ĠvisualizaÃ§Ãµes":9016,"Ġalone":9017,"ĠWind":9018,"Ġagencies":9019,"ĠmatÃ©ria":9020,"ytics":9021,"ĠgraÃ§a":9022,"ĠAud":9023,"oston":9024,"ĠInf":9025,"ĠAustrÃ¡lia":9026,"Ġgeneration":9027,"ĠveÃŃculo":9028,"Ġ01":9029,"orque":9030,"Ġcable":9031,"Ġrua":9032,"Ġ360":9033,"Ġrecurso":9034,"ĠAS":9035,"oking":9036,"ĠArqu":9037,"Ġacontece":9038,"Br":9039,"look":9040,"odidades":9041,"Ġstruct":9042,"Ġ95":9043,"Ġcombination":9044,"ĠBerlim":9045,"Ġtreinamento":9046,"ĠHamburg":9047,"Why":9048,"ĠconteÃºdos":9049,"Ġaspects":9050,"Ġgerenciamento":9051,"Ġliqu":9052,"Ġremote":9053,"ĠPaÃŃs":9054,"Portanto":9055,"Consult":9056,"Ġefficient":9057,"Ġ%":9058,"oral":9059,"Ġpreto":9060,"Ġpreval":9061,"Ġprogramme":9062,"Ġespecialistas":9063,"ĠRussia":9064,"Ġexpensive":9065,"ĠfrancÃªs":9066,"TO":9067,"elp":9068,"herlands":9069,"ĠpeÃ§a":9070,"ĠdescriÃ§Ã£o":9071,"Ġhoriz":9072,"Ġelectr":9073,"Ġbattery":9074,"Ġlin":9075,"ĠFaro":9076,"Ġbeg":9077,"Ġintegrated":9078,"Casa":9079,"Sm":9080,"ĠVÃŃdeo":9081,"ĠInformaÃ§Ãµes":9082,"Ġobjective":9083,"Ġchemical":9084,"Cri":9085,"ismos":9086,"eliz":9087,"Ġsimpl":9088,"phones":9089,"Ġtrabalhadores":9090,"Ġinnovative":9091,"Ġpet":9092,"Ġsinal":9093,"Ġha":9094,"ĠGa":9095,"Ġ65":9096,"Ġapproximately":9097,"Ġpensar":9098,"Ġinteresting":9099,"Ġteaching":9100,"Ol":9101,"ivel":9102,"iraÃ§Ã£o":9103,"Ġtalvez":9104,"Ġvehicle":9105,"Ġembalagem":9106,"ji":9107,"ĠFair":9108,"Ġinitial":9109,"Detalhes":9110,"dent":9111,"Ġgosto":9112,"tenha":9113,"Any":9114,"Ġaer":9115,"anca":9116,"Ġinim":9117,"used":9118,"term":9119,"ĠValue":9120,"amentais":9121,"Ġmeaning":9122,"ĠGratuito":9123,"Ġapps":9124,"party":9125,"Ġeffort":9126,"Ġcompetitive":9127,"About":9128,"ĠveÃŃculos":9129,"vindo":9130,"west":9131,"ĠIorque":9132,"Ġplants":9133,"2012":9134,"Ġswitch":9135,"ĠVersion":9136,"Ġagreement":9137,"arter":9138,"Ġparking":9139,"ĠFarm":9140,"Ġrail":9141,"Ġtrying":9142,"Ġenhance":9143,"ĠStay":9144,"Ġplanning":9145,"Ġreading":9146,"ĠespecÃŃficos":9147,"Post":9148,"Ġwrong":9149,"ĠCu":9150,"uten":9151,"ĠEncont":9152,"ertas":9153,"Ġdelivered":9154,"Ġreplac":9155,"ĠÃįndia":9156,"ĠSistema":9157,"obili":9158,"Ġequipa":9159,"Ġincluir":9160,"Ġtecido":9161,"ĠArts":9162,"burgh":9163,"fera":9164,"tee":9165,"Ġintegral":9166,"ami":9167,"ĠUlt":9168,"ĠGeorge":9169,"ecido":9170,"ĠWell":9171,"ĠHotelQuickly":9172,"endedor":9173,"ĠLinux":9174,"xx":9175,"ĠCape":9176,"ceed":9177,"Ġpassword":9178,"Ġnumbers":9179,"Ġparticularly":9180,"Ġsaying":9181,"arÃ£o":9182,"Ġnomes":9183,"idi":9184,"rak":9185,"abilities":9186,"Ġbeleza":9187,"ĠAcadem":9188,"Ã´mbia":9189,"Ġlinked":9190,"Ġobtained":9191,"ributed":9192,"Ġsignificantly":9193,"ephone":9194,"edas":9195,"unte":9196,"Ġstreet":9197,"Rep":9198,"iciclet":9199,"Ġball":9200,"ĠFut":9201,"ĠchÃ¡":9202,"ĠnÃºmeros":9203,"Ġdesafios":9204,"ĠTri":9205,"Ġlistados":9206,"Ġambiental":9207,"ĠSao":9208,"ĠBrux":9209,"EU":9210,"Jet":9211,"ati":9212,"Ġlhes":9213,"ĠDO":9214,"abled":9215,"ĠProte":9216,"BM":9217,"itut":9218,"icano":9219,"Ġdispos":9220,"eller":9221,"Ġchanged":9222,"ĠShop":9223,"iveness":9224,"Ġ600":9225,"ĠCountry":9226,"ĠlÃŃqu":9227,"GS":9228,"ĠescritÃ³rio":9229,"ĠBritish":9230,"Ġdormir":9231,"FC":9232,"emale":9233,"encer":9234,"ĠVerde":9235,"Ġannounc":9236,"ĠMundo":9237,"Ġconveniente":9238,"Ġigual":9239,"HS":9240,"var":9241,"ĠRen":9242,"Ġmachines":9243,"Ġtoque":9244,"Ġcomments":9245,"onda":9246,"ĠExecut":9247,"ĠCarlos":9248,"Ġintegr":9249,"FR":9250,"Ġneighborhood":9251,"Ġnerv":9252,"iler":9253,"Ġspot":9254,"Fun":9255,"ĠPeter":9256,"Ġisland":9257,"Ġaprim":9258,"ĠCompare":9259,"ĠportuguÃªs":9260,"Dec":9261,"Sua":9262,"Ġsam":9263,"ĠregiÃµes":9264,"ĠtrÃ¡s":9265,"Ġminimum":9266,"ĠJapanese":9267,"phere":9268,"ilities":9269,"Ġinvestimento":9270,"Ġbackup":9271,"Ġopened":9272,"ĠRussian":9273,"Ġefetuar":9274,"FOR":9275,"ĠAcess":9276,"down":9277,"ĠRa":9278,"ĠInvest":9279,"Ġbelong":9280,"Ġrespostas":9281,"Ġcitiz":9282,"Hoje":9283,"osen":9284,"hael":9285,"Ġpregn":9286,"Ġoutdoor":9287,"Ġlocations":9288,"ĠCarib":9289,"Ġbenefit":9290,"ĠCiÃªncias":9291,"62":9292,"ĠJu":9293,"Ġocas":9294,"Apesar":9295,"Ġoppos":9296,"ĠhorÃ¡rio":9297,"Ġdomin":9298,"Ġadvance":9299,"any":9300,"ĠBad":9301,"ĠLet":9302,"veiro":9303,"iform":9304,"Ġdescre":9305,"Ġoblig":9306,"Ġbecomes":9307,"ĠrealizaÃ§Ã£o":9308,"ĠCorpor":9309,"Ġtask":9310,"Ind":9311,"di":9312,"Ġpun":9313,"Ġfilmes":9314,"TD":9315,"cop":9316,"âĨ":9317,"arily":9318,"Ġbeyond":9319,"Ġ44":9320,"ĠÃ¡udio":9321,"ĠAvalia":9322,"ĠHen":9323,"ĠHim":9324,"ĠEmir":9325,"Ġpagar":9326,"ĠmÃ³d":9327,"Ġvs":9328,"ĠAdobe":9329,"ĠEarth":9330,"Ġminute":9331,"Ġfoco":9332,"ĠCopenh":9333,"Ġdecided":9334,"dis":9335,"Ã§am":9336,"ĠMotel":9337,"Ġexcess":9338,"ĠPlaces":9339,"Ġdivulg":9340,"Ġsensor":9341,"ĠexercÃŃcio":9342,"ĠÃ¢mbito":9343,"Ġfosse":9344,"oli":9345,"ĠLag":9346,"ardens":9347,"Ġincent":9348,"Today":9349,"ĠVacation":9350,"Ġlar":9351,"Ġvit":9352,"Ġye":9353,"ĠOt":9354,"Ġmuita":9355,"ĠExchange":9356,"Ġdetermine":9357,"Ġplaced":9358,"Key":9359,"Ġgol":9360,"Ġmilhares":9361,"Ġinfluence":9362,"Ġrio":9363,"itage":9364,"agers":9365,"ĠLima":9366,"Ġenable":9367,"iability":9368,"Ġintellig":9369,"].":9370,"aux":9371,"mat":9372,"ĠcomÃ©rcio":9373,"Ġparents":9374,"Ġaband":9375,"rias":9376,"ĠvÃ³s":9377,"ĠcondiÃ§Ã£o":9378,"ĠidentificaÃ§Ã£o":9379,"works":9380,"Ġprazer":9381,"ĠtÃ©r":9382,"almoÃ§o":9383,"ceu":9384,"Ġacid":9385,"Ġdirection":9386,"Ġquero":9387,"Ġcertainly":9388,"ĠeconÃ´mico":9389,"PT":9390,"Ġvoice":9391,"unicÃŃp":9392,"DS":9393,"Ġicon":9394,"Ġfruit":9395,"ocks":9396,"Ġprofund":9397,"ĠhorÃ¡rios":9398,"ĠapresentaÃ§Ã£o":9399,"Ġgrowing":9400,"ĠVenez":9401,"mentos":9402,"ntown":9403,"ĠnecessÃ¡rias":9404,"idential":9405,"Ġportas":9406,"ĠinÃºmer":9407,"Ġlou":9408,"etor":9409,"Ã¡c":9410,"ĠPL":9411,"ĠBase":9412,"egu":9413,"Ġsupported":9414,"Ġreleased":9415,"ĠIndustry":9416,"ĠdÃºvida":9417,"fficient":9418,"63":9419,"Because":9420,"egan":9421,"Ġcelular":9422,"Ġconditioning":9423,"onas":9424,"quist":9425,"Ġcompens":9426,"ĠAlg":9427,"Ġfeitas":9428,"ĠColÃ´mbia":9429,"ĠShanghai":9430,"hips":9431,"ACT":9432,"ĠfrequÃªncia":9433,"ĠEM":9434,"ĠHospital":9435,"Ġpassagem":9436,"olÃ³gicos":9437,"ĠesforÃ§o":9438,"Ġgordura":9439,"Sal":9440,"Ġwrite":9441,"Ġlif":9442,"ĠKit":9443,"Ġmanufact":9444,"Ġgrau":9445,"ECT":9446,"Ġsor":9447,"Ġhip":9448,"ĠMill":9449,"Ġcontrato":9450,"Seu":9451,"Ġevening":9452,"Ġpanel":9453,"Med":9454,"RI":9455,"dem":9456,"istÃªncia":9457,"ĠRib":9458,"ĠArte":9459,"Ġcampos":9460,"Ġlaunch":9461,"Ġexperiment":9462,"ĠPequ":9463,"known":9464,"Link":9465,"ĠAth":9466,"Ġagosto":9467,"ĠmÃ©dicos":9468,"ĠWiFi":9469,"ĠPrivacidade":9470,"bourne":9471,"Ġpassageiros":9472,"97":9473,"nel":9474,"rÃ£":9475,"yo":9476,"Ġuniversal":9477,"lor":9478,"atÃ³ria":9479,"Ġluc":9480,"ĠGab":9481,"ĠRecom":9482,"ĠCommunity":9483,"Ã³lica":9484,"Ġplantas":9485,"edding":9486,"Ã©ticos":9487,"Ġopinion":9488,"ĠBoard":9489,"Ġnetworks":9490,"ĠEducaÃ§Ã£o":9491,"Turismo":9492,"Ġvision":9493,"Although":9494,"Porque":9495,"Cre":9496,"Last":9497,"Ġdens":9498,"Ġmerg":9499,"Ġvon":9500,"ĠJuan":9501,"ĠSM":9502,"ĠEdition":9503,"Ġproduzir":9504,"ĠclassificaÃ§Ã£o":9505,"ko":9506,"alo":9507,"Ġriscos":9508,"ĠThings":9509,"Ġstudent":9510,"Ġtestem":9511,"ĠInformaÃ§Ã£o":9512,"57":9513,"Make":9514,"WS":9515,"ĠninguÃ©m":9516,"ĠMov":9517,"izagem":9518,"ualizaÃ§Ã£o":9519,"Ġhealthy":9520,"InformaÃ§Ã£o":9521,"ĠespecÃŃfico":9522,"Ġhar":9523,"ĠPS":9524,"agram":9525,"ĠCatal":9526,"Ġilha":9527,"iced":9528,"rian":9529,"Ġress":9530,"Ġsimult":9531,"ĠBudap":9532,"ĠrecuperaÃ§Ã£o":9533,"Choose":9534,"Ġtorno":9535,"First":9536,"enho":9537,"Ġml":9538,"Ġprocurar":9539,"ĠCourt":9540,"long":9541,"Ġmold":9542,"ĠCookies":9543,"Quer":9544,"Ġindividuais":9545,"Ġolhar":9546,"Ġpieces":9547,"ĠcÃ³p":9548,"anz":9549,"Ġgain":9550,"ĠLanguage":9551,"Ġital":9552,"Ġinterests":9553,"ĠassociaÃ§Ã£o":9554,"Ġutilizadores":9555,"Ġprepared":9556,"Ġpractical":9557,"idden":9558,"Fam":9559,"win":9560,"Ġfish":9561,"sequ":9562,"Ġabertura":9563,"presas":9564,"ĠSky":9565,"ĠOK":9566,"cionais":9567,"Ġconstruir":9568,"ĠDesenvolvimento":9569,"ocolate":9570,"Ġaluguer":9571,"Ġassegurar":9572,"fm":9573,"Ġfashion":9574,"role":9575,"Ġste":9576,"Ġcontas":9577,"Ġurb":9578,"ĠVisÃ£o":9579,"ĠSystems":9580,"ĠatualizaÃ§Ã£o":9581,"Ġroupas":9582,"ĠBranco":9583,"Ġcruz":9584,"Ġeth":9585,"ionar":9586,"imentar":9587,"stract":9588,"ĠRÃºssia":9589,"ĠEnc":9590,"Ġvolunt":9591,"Ġwanted":9592,"ĠPreÃ§o":9593,"ĠÃģsia":9594,"Ġgradu":9595,"Ġseems":9596,"ĠiluminaÃ§Ã£o":9597,"ĠBoston":9598,"ĠFind":9599,"aine":9600,"Ġspa":9601,"ĠImp":9602,"Ġmarkets":9603,"ĠVersÃ£o":9604,"HA":9605,"Ġeuros":9606,"Ã¡n":9607,"ĠAT":9608,"ertos":9609,"2018":9610,"ĠresoluÃ§Ã£o":9611,"Cur":9612,"ĠRich":9613,"ĠEss":9614,"ĠHo":9615,"embly":9616,"Produt":9617,"Ġexplorar":9618,"Ġfields":9619,"Min":9620,"bec":9621,"Ã¡cio":9622,"rance":9623,"Ġcertamente":9624,"Ġselecione":9625,"Ġiniciar":9626,"Ġpicture":9627,"Ġanalisar":9628,"Ġtinham":9629,"ĠCC":9630,"ĠPai":9631,"Ġusadas":9632,"Ġtecn":9633,"Ġarchitecture":9634,"band":9635,"usc":9636,"ĠAgora":9637,"Ġeconomy":9638,"ĠFiref":9639,"Ġdead":9640,"hether":9641,"ifications":9642,"ĠagÃªncias":9643,"rigo":9644,"aptop":9645,"Cap":9646,"Euro":9647,"reland":9648,"ĠBelg":9649,"Ġstored":9650,"ĠtransmissÃ£o":9651,"arreg":9652,"Ġali":9653,"Ġsete":9654,"Ãªnio":9655,"ĠElectric":9656,"ĠÃŃndice":9657,"lers":9658,"like":9659,"ango":9660,"Ġcarreira":9661,"aixe":9662,"Ġpresidente":9663,"Ġmonitoring":9664,"set":9665,"enses":9666,"Alta":9667,"Ġshowed":9668,"Ġseparate":9669,"Ġvillage":9670,"Tube":9671,"ridge":9672,"ĠMO":9673,"ĠMadeira":9674,"Ġartes":9675,"ĠIII":9676,"Ġwarranty":9677,"Ġsit":9678,"ĠEc":9679,"Thus":9680,"ĠMarina":9681,"Ġsimilares":9682,"ĠmÃºsicas":9683,"Ġwriting":9684,"eijing":9685,"HO":9686,"medi":9687,"Ġhuge":9688,"ceis":9689,"Ġterror":9690,"Intern":9691,"PA":9692,"ulate":9693,"ĠLuz":9694,"Ġevid":9695,"Ġrecebeu":9696,"ĠSingapore":9697,"iblioteca":9698,"road":9699,"ĠVoos":9700,"Ġcovered":9701,"Ġconflict":9702,"ĠHav":9703,"Ġperigos":9704,"akers":9705,"Ġmodes":9706,"Ġutiliza":9707,"ĠHead":9708,"ĠPrefer":9709,"Ġdecide":9710,"Ġwalking":9711,"Ġtarefas":9712,"ĠromÃ¢nticos":9713,"Ġtiv":9714,"estar":9715,"ĠLit":9716,"Ġotherwise":9717,"Ġ2001":9718,"verse":9719,"ICA":9720,"Ġcompanhia":9721,"aters":9722,"Ġlanguages":9723,"Ġhire":9724,"acher":9725,"ĠBrussels":9726,"Reserv":9727,"Ġremover":9728,"Sec":9729,"rich":9730,"Ġeg":9731,"Ġ800":9732,"Ġscript":9733,"Ġbaseado":9734,"Ġbenefici":9735,"Ġextremamente":9736,"Ġdrivers":9737,"ĠCross":9738,"Ġcumpri":9739,"Ġapesar":9740,"Ġinvent":9741,"ĠSantos":9742,"Ġautoridades":9743,"ilho":9744,"ĠFalls":9745,"ĠOm":9746,"ĠAlt":9747,"Existem":9748,"Ġmercados":9749,"ĠespecÃŃficas":9750,"ĠFern":9751,"ĠKitchen":9752,"Ġgoes":9753,"Ġfollowed":9754,"Ġpanor":9755,"ĠindivÃŃduos":9756,"Def":9757,"year":9758,"ĠSom":9759,"ĠBet":9760,"mooth":9761,"Its":9762,"Business":9763,"ĠBluetooth":9764,"Ġigualmente":9765,"ĠCup":9766,"ĠEp":9767,"Ġcompr":9768,"Ġanyone":9769,"ĠEngland":9770,"irmingham":9771,"Ġfreedom":9772,"ĠVenice":9773,"BA":9774,"Ġquiet":9775,"ĠGmb":9776,"hops":9777,"Through":9778,"ĠversÃµes":9779,"Ġgarante":9780,"ĠNetherlands":9781,"Som":9782,"Ġdicas":9783,"Ġfair":9784,"ĠFine":9785,"ĠmÃŃdia":9786,"ĠCore":9787,"Ġtests":9788,"ĠPalm":9789,"ĠintegraÃ§Ã£o":9790,"Muitas":9791,"orage":9792,"aries":9793,"heet":9794,"Ġther":9795,"ĠLic":9796,"Ġcanais":9797,"ĠSwitzerland":9798,"ĠimplementaÃ§Ã£o":9799,"Ġupdated":9800,"Antes":9801,"ĠTower":9802,"Ġalarm":9803,"oven":9804,"ocket":9805,"Ġmilitary":9806,"Ġcareer":9807,"ĠProvince":9808,"Ġabsolut":9809,"ĠEnergy":9810,"Open":9811,"Ġminhas":9812,"ĠQuinta":9813,"Ġeasier":9814,"Ġbeauty":9815,"ĠÃĵleo":9816,"Ġthousands":9817,"Special":9818,"hada":9819,"Ġscience":9820,"ĠPos":9821,"Ġoperacional":9822,"ĠRegist":9823,"Ġpreparar":9824,"rot":9825,"Ġstr":9826,"Ġjoint":9827,"Quais":9828,"ĠDestinia":9829,"Ġshop":9830,"Ġbear":9831,"Ġfees":9832,"Ġrefriger":9833,"ĠWhen":9834,"Ġcritical":9835,"ĠCharl":9836,"Camp":9837,"Ġsquare":9838,"ĠCit":9839,"ĠBis":9840,"Ġacresc":9841,"ĠcompatÃŃvel":9842,"Ġdeposit":9843,"Ġfort":9844,"ĠRy":9845,"Ġenem":9846,"ĠURL":9847,"Ã©rc":9848,"Ġadequada":9849,"Ġpsych":9850,"onday":9851,"Ġserved":9852,"nero":9853,"ĠPrague":9854,"ĠcÃ¢mera":9855,"ografias":9856,"ĠfÃŃsica":9857,"Ġsei":9858,"ĠFast":9859,"ĠVan":9860,"ĠautomÃ¡tica":9861,"ĠCongress":9862,"ĠExplor":9863,"Ġpoly":9864,"Ġfavoritos":9865,"Ġpasta":9866,"ĠGmbH":9867,"Dist":9868,"ĠPad":9869,"ulated":9870,"Ġalthough":9871,"ĠManchester":9872,"Ġmechanism":9873,"hu":9874,"Ã©u":9875,"ĠRF":9876,"lymp":9877,"Ġcarne":9878,"Ġworked":9879,"ĠFlat":9880,"Ġobjetos":9881,"iliares":9882,"Ġsalvar":9883,"ĠNegÃ³ci":9884,"ilet":9885,"Ġgather":9886,"Ãªut":9887,"Ġenvol":9888,"ĠQuick":9889,"Ġdesenvolvido":9890,"Ã´metros":9891,"IZ":9892,"ĠHY":9893,"ĠVery":9894,"Ġjuntamente":9895,"Ġsolicit":9896,"Ġjoin":9897,"Ġsources":9898,"ĠSpecific":9899,"izz":9900,"ĠKn":9901,"aturday":9902,"Ġcontrolo":9903,"ĠParty":9904,"Ġsuger":9905,"Ġexclusive":9906,"ĠGalaxy":9907,"Ġtarefa":9908,"',":9909,"RS":9910,"Ġaward":9911,"ĠPs":9912,"ĠBand":9913,"Ġseven":9914,"ĠWin":9915,"ancouver":9916,"Ġsegura":9917,"Ġerrors":9918,"Ġcontinua":9919,"isi":9920,"Ã§Ãº":9921,"Ġestrada":9922,"Ġjap":9923,"ĠcoleÃ§Ã£o":9924,"eting":9925,"antas":9926,"abul":9927,"Ġcars":9928,"Ġnearby":9929,"ĠSuÃŃÃ§a":9930,"ĠContagem":9931,"Ġbrilh":9932,"ĠModelo":9933,"ĠProduto":9934,"DE":9935,"Ev":9936,"Public":9937,"ĠHilton":9938,"Ġrank":9939,"ĠChat":9940,"ĠPhone":9941,"ĠPreto":9942,"Ġmoderno":9943,"Ġnuvem":9944,"ĠSav":9945,"Ġkil":9946,"ALL":9947,"Ġpronunciation":9948,"AA":9949,"Ġdra":9950,"ĠThere":9951,"ĠOEM":9952,"Ġsuccessful":9953,"Ġtutors":9954,"Ġrelation":9955,"Ġobs":9956,"iosos":9957,"ĠResultados":9958,"ĠTy":9959,"ĠDev":9960,"Ġimped":9961,"corr":9962,"ĠIslands":9963,"Ġthinking":9964,"Ġoccup":9965,"Ġarrival":9966,"ĠforÃ§as":9967,"elecom":9968,"Nossa":9969,"pack":9970,"ĠpÃ³":9971,"Ġmg":9972,"ĠCin":9973,"ĠFOR":9974,"owder":9975,"izadas":9976,"Ġchosen":9977,"rates":9978,"ĠHostels":9979,"Ġappearance":9980,"ĠSurf":9981,"Ġroutes":9982,"ĠToday":9983,"ĠBil":9984,"anted":9985,"Ġabrang":9986,"ublado":9987,"ĠPowerPoint":9988,"Ġeficiente":9989,"Ġcomportamento":9990,"ĠTH":9991,"ĠEqu":9992,"Ġexclu":9993,"anal":9994,"hete":9995,"Ġlose":9996,"Ġ47":9997,"Ġtranslation":9998,"Ġverdadeiro":9999,"Ġfitness":10000,"Ġprovavelmente":10001,"Ġmut":10002,"ĠComun":10003,"Ġlogin":10004,"Ġkinds":10005,"Ġaims":10006,"89":10007,"Fre":10008,"Ġtraffic":10009,"EstÃ¡":10010,"ĠApps":10011,"Ġobjects":10012,"Ġobserved":10013,"Ġindependent":10014,"ĠsessÃ£o":10015,"Ġjornal":10016,"ĠcomentÃ¡rio":10017,"ecendo":10018,"ĠLine":10019,"umas":10020,"Ġplaca":10021,"ubber":10022,"alization":10023,"ĠCollege":10024,"ĠBuy":10025,"ĠLyon":10026,"ĠDetails":10027,"apy":10028,"Ġpossibility":10029,"ĠsituaÃ§Ãµes":10030,"Ġfine":10031,"Ġreput":10032,"agre":10033,"ERS":10034,"ĠprÃ³prias":10035,"ÃŃfico":10036,"Ġtechniques":10037,"ĠProtection":10038,"TML":10039,"Ġvital":10040,"Ġhorm":10041,"angzhou":10042,"Additional":10043,"Ġlevant":10044,"ĠAfric":10045,"Ġoce":10046,"Ġemot":10047,"Ġreliable":10048,"Ġelement":10049,"Ġedge":10050,"Ro":10051,"Ġvistas":10052,"Ġservidores":10053,"ANT":10054,"ĠConsult":10055,"ĠInstituto":10056,"ĠGallery":10057,"ĠAntonio":10058,"82":10059,"ĠAmb":10060,"Ġinfant":10061,"Ġespiritual":10062,"Ġdidn":10063,"ĠDiego":10064,"Ġschools":10065,"Ġextremely":10066,"ĠFar":10067,"ĠJulho":10068,"rimir":10069,"uesday":10070,"Ġinclusive":10071,"iation":10072,"Ġwaste":10073,"ĠCode":10074,"ĠPin":10075,"uda":10076,"paper":10077,"orr":10078,"inte":10079,"Ġintro":10080,"Ġcasamento":10081,"Ġsuspens":10082,"Ġpretende":10083,"ortos":10084,"Ġ46":10085,"Ġpaid":10086,"ĠTrabal":10087,"Ġdomain":10088,"Ġsignificativamente":10089,"Ġvegetarian":10090,"Ġsemelhante":10091,"Ġidioma":10092,"Ġresort":10093,"irem":10094,"Estamos":10095,"Ġ07":10096,"Manual":10097,"ĠanÃºncio":10098,"ĠMuito":10099,"Ġpossuem":10100,"84":10101,"Prim":10102,"well":10103,"onde":10104,"ĠCare":10105,"Ġavent":10106,"Ġinfrast":10107,"Ġprecisar":10108,"Ġfinanci":10109,"Ġcore":10110,"riÃ§Ãµes":10111,"portes":10112,"Ġprepare":10113,"Ġupper":10114,"rene":10115,"Ġparticipants":10116,"ragon":10117,"Guia":10118,"Ġcommitment":10119,"Ġenorme":10120,"Ġdado":10121,"oming":10122,"Ġreais":10123,"ĠGPS":10124,"Ġregime":10125,"ĠShar":10126,"ĠConstru":10127,"ĠSuite":10128,"ĠpotÃªncia":10129,"gow":10130,"isher":10131,"Ġbanda":10132,"uket":10133,"ĠPersonal":10134,"Ġscre":10135,"ĠDar":10136,"agon":10137,"ORT":10138,"Ã¡bado":10139,"Ġnuvens":10140,"'.":10141,"my":10142,"ĠDisc":10143,"ĠVI":10144,"Ġ49":10145,"Ġconsolid":10146,"Ġmoda":10147,"Ġobjeto":10148,"ĠDecor":10149,"Ġexatamente":10150,"Ġdireto":10151,"Ġprotected":10152,"Ġtabela":10153,"Ġradio":10154,"Ġbilhetes":10155,"ĠEgypt":10156,"ĠOcean":10157,"Ġdistin":10158,"Ġespecializados":10159,"Ġauthorities":10160,"Ġcompreh":10161,"esides":10162,"idamente":10163,"Ġhosp":10164,"ĠprevisÃ£o":10165,"Ġsap":10166,"Ġagentes":10167,"ĠlÃŃderes":10168,"Ġalugar":10169,"ĠPhoto":10170,"ĠcalÃ§as":10171,"ĠdecoraÃ§Ã£o":10172,"Ġdiscounts":10173,"Te":10174,"Ġvast":10175,"plas":10176,"Estas":10177,"Ġfacilit":10178,"Ġpersonalizado":10179,"OK":10180,"Ġdefici":10181,"Ġallowing":10182,"Ġemprego":10183,"Ġquadro":10184,"Ġexactly":10185,"ĠparÃ¢metros":10186,"Tour":10187,"Ġcro":10188,"Ġmedo":10189,"ĠSetembro":10190,"Ġcompromisso":10191,"Ġcells":10192,"Ġaceler":10193,"Ġadot":10194,"ovos":10195,"ĠReport":10196,"Ġdireita":10197,"Ġfeitos":10198,"Ġespera":10199,"Ã©lite":10200,"ĠMr":10201,"Ġgosta":10202,"ĠTar":10203,"Ġevang":10204,"ĠResidence":10205,"lti":10206,"Ġdestroy":10207,"Ġreflex":10208,"Ġbroch":10209,"Ġapartments":10210,"Ġsaved":10211,"ycl":10212,"ednes":10213,"ĠEspa":10214,"Ġaumenta":10215,"ĠlicenÃ§a":10216,"icone":10217,"ulations":10218,"ÃŃss":10219,"rasile":10220,"Ġexplore":10221,"Ġacessar":10222,"yright":10223,"Ġfogo":10224,"Ġbright":10225,"ĠPot":10226,"Ġdela":10227,"BC":10228,"Dep":10229,"gica":10230,"iada":10231,"Ġwest":10232,"ĠBirmingham":10233,"ĠIreland":10234,"ĠFirst":10235,"Quem":10236,"Ġjovem":10237,"Ġtasks":10238,"Ġsustainable":10239,"screen":10240,"Ġplanos":10241,"Ġbreve":10242,"Form":10243,"Tunes":10244,"pass":10245,"Ġ00":10246,"unst":10247,"ĠFotos":10248,"Ġparticipation":10249,"Ġprofessores":10250,"Ġadvice":10251,"Ġcommitted":10252,"Ġprivileg":10253,"Ġmid":10254,"ĠPool":10255,"Ġrecip":10256,"Ġpreench":10257,"ĠChi":10258,"Ġoperate":10259,"Ġposts":10260,"LocalizaÃ§Ã£o":10261,"ĠVeneza":10262,"Ġfeliz":10263,"400":10264,"orado":10265,"Ġmis":10266,"Ġfrio":10267,"Ġgram":10268,"Ġregions":10269,"Ġslow":10270,"Ġcooperation":10271,"ĠRadio":10272,"Ġwonderful":10273,"Ġoferecemos":10274,"Ġsmartphone":10275,"celer":10276,"Ġwants":10277,"ĠIS":10278,"ĠVancouver":10279,"ificial":10280,"Ġdireta":10281,"lasgow":10282,"Ġleader":10283,"Ã¡stica":10284,"Ġinteresses":10285,"Ġexecutar":10286,"Ġbur":10287,"ĠPage":10288,"ĠComentÃ¡rios":10289,"ĠtrÃ¡f":10290,"Ġpersons":10291,"ĠdecisÃµes":10292,"ĠMoz":10293,"Lux":10294,"pi":10295,"rÃ©":10296,"enities":10297,"Ġbols":10298,"Ġanteriores":10299,"odÃ£o":10300,"ĠRece":10301,"Ġstates":10302,"Ġdose":10303,"Ġoutput":10304,"ĠlanÃ§amento":10305,"Ġmanufacturing":10306,"Incl":10307,"inais":10308,"Ġfi":10309,"Ġtopo":10310,"ĠCer":10311,"ĠRam":10312,"Ġscan":10313,"Design":10314,"Ġlandsc":10315,"Ġdesejo":10316,"Ġmaravilh":10317,"250":10318,"ML":10319,"Ġcontrat":10320,"Ġcomprimento":10321,"ĠficarÃ¡":10322,"Ġmotivo":10323,"Ġmomentos":10324,"Class":10325,"ĠespecificaÃ§Ãµes":10326,"HL":10327,"Ġdign":10328,"Ġdream":10329,"elle":10330,"ĠRol":10331,"Ġupdates":10332,"ĠesforÃ§os":10333,"Ġsympt":10334,"ĠcÃ©lulas":10335,"itiba":10336,"ĠForum":10337,"Ġcreative":10338,"aton":10339,"ĠincluÃŃdo":10340,"800":10341,"MI":10342,"ĠSport":10343,"Ġhouses":10344,"ective":10345,"airo":10346,"Ġescrito":10347,"duced":10348,"Ġfornecidos":10349,"Ġpackaging":10350,"ĠconversÃ£o":10351,"uito":10352,"ĠHard":10353,"ĠWhe":10354,"ĠCommit":10355,"Ġrecently":10356,"ĠVienna":10357,"ĠWilliam":10358,"rix":10359,"Ġproposta":10360,"Ġgostaria":10361,"Ġchallenge":10362,"XX":10363,"body":10364,"craft":10365,"Ġib":10366,"ĠSab":10367,"igas":10368,"Ġprejud":10369,"Ġvermelho":10370,"ĠConvers":10371,"Ġcompleted":10372,"Ġensin":10373,"ĠfabricaÃ§Ã£o":10374,"ĠPremium":10375,"ĠMiguel":10376,"Ou":10377,"unning":10378,"ĠVivo":10379,"Ġabund":10380,"Ġentry":10381,"rition":10382,"creva":10383,"Ġidentific":10384,"CON":10385,"Ġalco":10386,"Ġfutebol":10387,"ĠApartamentos":10388,"Ġrevolution":10389,"ĠincrÃŃvel":10390,"ket":10391,"ĠSoci":10392,"Ġacord":10393,"Ġcorrig":10394,"preci":10395,"Ġpesquisas":10396,"Ġcauses":10397,"Ġacontecer":10398,"Ġestabelecer":10399,"Ġesquerda":10400,"Material":10401,"ĠdÃ³l":10402,"Ġcomando":10403,"ĠHair":10404,"Ġatendimento":10405,"Ġcontents":10406,"Ġmaneiras":10407,"phas":10408,"Ġcultiv":10409,"ĠdefiniÃ§Ã£o":10410,"Escolha":10411,"87":10412,"Bed":10413,"kg":10414,"Ġformer":10415,"Ġproven":10416,"ĠEmail":10417,"Ġconsulta":10418,"Ġcomunidades":10419,"Ġindependente":10420,"ogrÃ¡fica":10421,"Off":10422,"ĠciÃªncia":10423,"ĠMall":10424,"ramos":10425,"Ġspend":10426,"Ġbaratas":10427,"Ġcred":10428,"Ġescolas":10429,"Ġsituated":10430,"Ã´nica":10431,"Ġluxury":10432,"Ġbens":10433,"oder":10434,"Ġstations":10435,"ĠWalk":10436,"Ġcanal":10437,"Ġ41":10438,"Ġsche":10439,"ĠCanon":10440,"ĠcrÃŃt":10441,"Ġlocalizada":10442,"Ġintegration":10443,"ĠSwed":10444,"ĠLouis":10445,"Ġigreja":10446,"ednesday":10447,"onÃªs":10448,"ancial":10449,"ste":10450,"ĠTok":10451,"Ġdeterminar":10452,"Ġterrace":10453,"ĠorÃ§amento":10454,"Pres":10455,"ĠSac":10456,"Ġlate":10457,"ĠHung":10458,"Ġadqui":10459,"Ġflash":10460,"Ġprofessor":10461,"Ġfuel":10462,"ĠSunday":10463,"Ġconhece":10464,"Ġgoals":10465,"Ġprivada":10466,"Ġilust":10467,"ĠterraÃ§o":10468,"ĠEquipment":10469,"estrutura":10470,"ĠRailway":10471,"ĠBruxelas":10472,"ĠLabor":10473,"Ġfram":10474,"ĠIngl":10475,"ĠReview":10476,"radu":10477,"Ġfinish":10478,"Ġexperts":10479,"ĠCastle":10480,"Ġbilhete":10481,"Ġleitura":10482,"ĠrelatÃ³rios":10483,"Ġtornando":10484,"ifying":10485,"Ġacompan":10486,"Ġcomerci":10487,"Ġreligious":10488,"Ġmistura":10489,"ĠAvenue":10490,"ĠProfessional":10491,"ĠFirefox":10492,"omo":10493,"Ġrepe":10494,"Ġrural":10495,"Ġsty":10496,"iesel":10497,"Ġamea":10498,"ĠSeu":10499,"ĠpublicaÃ§Ã£o":10500,"ĠTermin":10501,"Ġtablet":10502,"Ġpassengers":10503,"aj":10504,"ĠLago":10505,"ĠVin":10506,"Ġrod":10507,"tenÃ§Ã£o":10508,"Only":10509,"Ġidentidade":10510,"fortable":10511,"ĠcooperaÃ§Ã£o":10512,"Ġsort":10513,"Ġsons":10514,"Ġsabor":10515,"Ġbillion":10516,"Ġtow":10517,"otas":10518,"ousadas":10519,"Ġempresar":10520,"ĠexistÃªncia":10521,"Ġassociados":10522,"ĠTechn":10523,"ĠcombustÃŃvel":10524,"ĠPA":10525,"Ġgran":10526,"Ġsolve":10527,"front":10528,"sp":10529,"Ġtap":10530,"atu":10531,"ĠRac":10532,"ĠFram":10533,"Ġdizendo":10534,"Ġcoorden":10535,"Ġparameters":10536,"pal":10537,"Ĺı":10538,"Quanto":10539,"Ġficou":10540,"Ġlistas":10541,"Ġexcurs":10542,"ĠaparÃªncia":10543,"Ġvestido":10544,"Mes":10545,"Ġcord":10546,"ocia":10547,"ciences":10548,"ĠVar":10549,"Ġplans":10550,"ĠÂ£":10551,"Ġresolution":10552,"Ġbuying":10553,"ĠMachinery":10554,"92":10555,"ĠAlta":10556,"ĠPhuket":10557,"Ġpatient":10558,"ĠResorts":10559,"ĠPanel":10560,"ĠprincÃŃpio":10561,"EE":10562,"Ġmedium":10563,"ĠiPad":10564,"Ġconhecida":10565,"Ġfactory":10566,"DP":10567,"Ġpure":10568,"Ġpne":10569,"Ġvot":10570,"Ġshower":10571,"Ġbarra":10572,"ĠbebÃª":10573,"Ġadvertising":10574,"mond":10575,"ĠCarm":10576,"Ġgift":10577,"odies":10578,"ÃŃbl":10579,"Ġmetres":10580,"ractions":10581,"Ġbedroom":10582,"Ġvantagens":10583,"FS":10584,"gia":10585,"Ġriver":10586,"Ġdil":10587,"ĠrevisÃ£o":10588,"ĠMEN":10589,"ĠName":10590,"okan":10591,"Ġclicar":10592,"ĠKore":10593,"Ġadvis":10594,"ĠAlugar":10595,"2014":10596,"ĠSilver":10597,"Ġguaranteed":10598,"ĠPaper":10599,"83":10600,"FT":10601,"Ġaware":10602,"arc":10603,"Ã§ado":10604,"hecimento":10605,"Ġteams":10606,"ĠEmb":10607,"uke":10608,"Ġchanging":10609,"ĠLocation":10610,"ĠprincÃŃpios":10611,"101":10612,"Ġgel":10613,"ceira":10614,"ĠKe":10615,"merce":10616,"istemas":10617,"Ġinsc":10618,"ĠiTunes":10619,"Ġindustri":10620,"Ġcommunities":10621,"Ġalternativa":10622,"Ġclosed":10623,"Ġvisualizar":10624,"EFA":10625,"ĠUtiliz":10626,"Ġchin":10627,"ĠLeague":10628,"Ã´nio":10629,"ĠChristmas":10630,"Ġroupa":10631,"ĠespÃ©cies":10632,"ĠVegetarian":10633,"ois":10634,"ÃŃcul":10635,"Ġheard":10636,"ejo":10637,"ĠnavegaÃ§Ã£o":10638,"ĠFriday":10639,"General":10640,"Ġfav":10641,"ĠBerg":10642,"Ġcerta":10643,"Ġregistered":10644,"Plan":10645,"ĠCommunic":10646,"Ġrenew":10647,"ĠGolden":10648,"ĠReservas":10649,"Mont":10650,"ĠBell":10651,"ĠBeijing":10652,"Ġartic":10653,"Ġgerais":10654,"uminum":10655,"Ġcampanha":10656,"Ġclothing":10657,"lhes":10658,"ront":10659,"Ġmiddle":10660,"apor":10661,"Ġcompact":10662,"Ġclimate":10663,"ĠParking":10664,"ĠtÃ©cnico":10665,"Ġcapazes":10666,"Ġinteligente":10667,"ĠSher":10668,"lev":10669,"Ġfortal":10670,"Ġheight":10671,"plicaÃ§Ã£o":10672,"Ġsubm":10673,"Ġtesting":10674,"Ġdefined":10675,"ĠatualizaÃ§Ãµes":10676,"Ġmajority":10677,"Pos":10678,"Pet":10679,"rew":10680,"stal":10681,"formance":10682,"Ġadults":10683,"Ġshape":10684,"Ġprimary":10685,"Ġscale":10686,"Ġmainly":10687,"ĠatraÃ§Ãµes":10688,"LA":10689,"VE":10690,"Ġviz":10691,"Ġparar":10692,"ĠMi":10693,"ĠMiddle":10694,"Ġforces":10695,"Ġrecentemente":10696,"Ġdestinos":10697,"Ġbuildings":10698,"Ġprocedure":10699,"ĠSER":10700,"Ġreported":10701,"Ġjuntos":10702,"ĠÃ³rg":10703,"DR":10704,"Ġnuc":10705,"ĠDA":10706,"eroportos":10707,"viv":10708,"ĠDouble":10709,"ĠPropri":10710,"Ġbusinesses":10711,"Ġindex":10712,"ĠHistory":10713,"ĠStudies":10714,"clos":10715,"Ġtips":10716,"Ġaceita":10717,"ĠLatina":10718,"List":10719,"posta":10720,"adium":10721,"ĠOlymp":10722,"outhern":10723,"Ġservers":10724,"Ġdistrict":10725,"Ã´mico":10726,"Import":10727,"Ġalternative":10728,"GA":10729,"Tech":10730,"Ġeight":10731,"alhas":10732,"Ġment":10733,"Ġexplo":10734,"clam":10735,"Ġcris":10736,"Ġrecomenda":10737,"Ġpasseio":10738,"ĠVictoria":10739,"eding":10740,"Ġvaz":10741,"ĠBern":10742,"Ġseco":10743,"Ġficheiros":10744,"Ġpermitindo":10745,"Using":10746,"Nossos":10747,"Web":10748,"ĠCase":10749,"Ġalbum":10750,"Ġantigo":10751,"Ġinfect":10752,"Program":10753,"Ġcircum":10754,"Ġapreci":10755,"Ġabandon":10756,"lado":10757,"uction":10758,"ilizaÃ§Ã£o":10759,"Stock":10760,"Ġeditor":10761,"EB":10762,"abe":10763,"aterra":10764,"Ġefforts":10765,"Ġexistentes":10766,"Custom":10767,"Situ":10768,"ourag":10769,"ĠSen":10770,"Ġreached":10771,"Ġamazing":10772,"Ġconhecimentos":10773,"ĠsatisfaÃ§Ã£o":10774,"Ġshipping":10775,"tel":10776,"Ġdanger":10777,"estes":10778,"ulado":10779,"ĠDan":10780,"Quest":10781,"Ġdiab":10782,"Ġfeeling":10783,"Ã³stico":10784,"Pan":10785,"Ġtoler":10786,"coming":10787,"Ġassunto":10788,"ĠRegion":10789,"ĠcolaboraÃ§Ã£o":10790,"94":10791,"Ġsenha":10792,"Ġwireless":10793,"ĠMapa":10794,"Ġconduz":10795,"Ġenvio":10796,"ĠSpring":10797,"ĠGreece":10798,"May":10799,"Select":10800,"eases":10801,"ĠIll":10802,"ĠiOS":10803,"Ġdigitais":10804,"Ġexcelentes":10805,"Ġswimming":10806,"ServiÃ§os":10807,"Ġinfrastructure":10808,"Back":10809,"rais":10810,"igar":10811,"Ãªnt":10812,"ĠVel":10813,"ART":10814,"Ġversions":10815,"ĠresponsÃ¡veis":10816,"Ġrepresenta":10817,"Ġeditar":10818,"ĠecrÃ£":10819,"cluding":10820,"DC":10821,"Equip":10822,"ĠMulher":10823,"ĠGlasgow":10824,"ĠCompl":10825,"Ġutilizada":10826,"ainted":10827,"ĠsÃ³l":10828,"Ġnumerous":10829,"Ã§Ãºcar":10830,"life":10831,"water":10832,"Ġforget":10833,"unk":10834,"plate":10835,"Ġreconst":10836,"ĠExtension":10837,"Ġgirls":10838,"Ret":10839,"lock":10840,"nik":10841,"Ġrock":10842,"Ġ85":10843,"ADE":10844,"ĠespecÃŃfica":10845,"Ġescrever":10846,"ĠmÃºlti":10847,"Ġbiciclet":10848,"ĠLi":10849,"aks":10850,"ĠirÃ£o":10851,"Ġaprendizagem":10852,"Ġsmooth":10853,"ĠSust":10854,"ĠDiam":10855,"plit":10856,"atever":10857,"Ġesteve":10858,"ĠRooms":10859,"but":10860,"ns":10861,"Ġinaug":10862,"ĠRights":10863,"arts":10864,"Ġpresc":10865,"Conf":10866,"ĠpÃºblicas":10867,"Ġcharacters":10868,"ĠinstituiÃ§Ã£o":10869,"Selec":10870,"tem":10871,"Ġrecovery":10872,"ĠDez":10873,"under":10874,"Ġspaces":10875,"ĠEnvironment":10876,"Ġimplant":10877,"standing":10878,"Ġpacotes":10879,"ĠInteg":10880,"Ġocorre":10881,"ĠBanco":10882,"ĠbÃ¡sico":10883,"ĠManufacturers":10884,"600":10885,"Yes":10886,"Ġdiscre":10887,"Ġremains":10888,"2019":10889,"Ġidentity":10890,"ĠturÃŃsticos":10891,"Ġevaluation":10892,"ĠconfiÃ¡vel":10893,"hado":10894,"ĠTai":10895,"Ġapont":10896,"ternoon":10897,"Ġspect":10898,"ilhÃµes":10899,"Ġpassa":10900,"Ġsinais":10901,"Ġ1999":10902,"Ġprinting":10903,"Ġpsic":10904,"Venda":10905,"riers":10906,"ĠVall":10907,"duzir":10908,"aching":10909,"ĠClose":10910,"asonic":10911,"ĠSexo":10912,"Gar":10913,"ĠES":10914,"Ġ101":10915,"ĠestaÃ§Ãµes":10916,"ĠNÃ³s":10917,"Ġaccur":10918,"Ġdiscut":10919,"ĠAbout":10920,"Ġassistance":10921,"Ġteachers":10922,"Ġsharing":10923,"hr":10924,"ĠCry":10925,"Ġrating":10926,"Ġcontrolar":10927,"Ġjournal":10928,"Pop":10929,"rÃŃc":10930,"Ġbarata":10931,"Ġregisto":10932,"Ġemphas":10933,"aki":10934,"Ġkids":10935,"anges":10936,"Ġconsiderado":10937,"Ãºmero":10938,"ropol":10939,"ĠreuniÃ£o":10940,"ĠreuniÃµes":10941,"cars":10942,"ĠDeg":10943,"uments":10944,"ĠKy":10945,"Ġchain":10946,"Ġposterior":10947,"Ġoccas":10948,"ylon":10949,"Before":10950,"Pron":10951,"Sign":10952,"Ġpurs":10953,"ĠRoll":10954,"Ã³leo":10955,"reno":10956,"iament":10957,"ĠComparison":10958,"Ġsubmitted":10959,"rup":10960,"ĠInstagram":10961,"ĠevoluÃ§Ã£o":10962,"roz":10963,"emark":10964,"ĠNik":10965,"ĠJour":10966,"Ġprinciples":10967,"ĠLeon":10968,"irds":10969,"Ġnormas":10970,"Nas":10971,"ĠAra":10972,"como":10973,"pth":10974,"Ġagents":10975,"atively":10976,"Ġirrit":10977,"Ġbrings":10978,"Ġpedir":10979,"Ġbancos":10980,"pers":10981,"zinha":10982,"unal":10983,"ĠHon":10984,"Ġtrading":10985,"ĠAccount":10986,"gi":10987,"ĠFestival":10988,"Ġester":10989,"ĠVo":10990,"elhas":10991,"ĠProperty":10992,"ĠUniversal":10993,"Ġprocedimentos":10994,"pher":10995,"Ġcontribute":10996,"Ġdesire":10997,"ĠQuest":10998,"ĠcartÃµes":10999,"Ġcutting":11000,"Ġidos":11001,"ĠPizza":11002,"Ital":11003,"ĠAgre":11004,"Ġbanheiro":11005,"ĠOutubro":11006,"Ġviolence":11007,"ĠcompreensÃ£o":11008,"Ġprocedures":11009,"Ġventil":11010,"Ġatac":11011,"deal":11012,"order":11013,"ursday":11014,"ĠquilÃ´metros":11015,"iring":11016,"uno":11017,"ĠFR":11018,"ĠPlastic":11019,"Ġaltas":11020,"ĠMestrado":11021,"ranean":11022,"ĠSel":11023,"ĠPeters":11024,"Ġmetod":11025,"ĠportÃ¡til":11026,"Ġplanet":11027,"ĠexpressÃ£o":11028,"ĠDisplay":11029,"ĠviolÃªncia":11030,"ĠcÃ¡l":11031,"ĠRoc":11032,"ĠEnd":11033,"Ġjoy":11034,"viso":11035,"emble":11036,"Ġtrata":11037,"ĠaÃ©rea":11038,"Ġocorrer":11039,"ĠFoundation":11040,"Ġframework":11041,"Ġod":11042,"ulk":11043,"Ġspac":11044,"ĠResol":11045,"Ġgarra":11046,"Ġopinions":11047,"ĠFilho":11048,"Ġvehicles":11049,"Nesta":11050,"atre":11051,"ĠMir":11052,"ĠTag":11053,"ĠTher":11054,"Ġacad":11055,"Ġexperienced":11056,"ĠdomÃ©st":11057,"ĠMelbourne":11058,"Ġbreat":11059,"ĠSpeed":11060,"Ġforem":11061,"Ġrit":11062,"ĠNar":11063,"ellence":11064,"ianos":11065,"Ġsemi":11066,"ĠglÃº":11067,"Master":11068,"Ġcompreender":11069,"Fil":11070,"Set":11071,"weather":11072,"ĠSua":11073,"Ġpublicidade":11074,"Ġengineering":11075,"Ġcleaning":11076,"Ġjuris":11077,"Nota":11078,"care":11079,"anch":11080,"ĠgÃª":11081,"ĠNuv":11082,"Ġspent":11083,"Ġlimpo":11084,"Ġambientes":11085,"ĠInstant":11086,"ospel":11087,"Esses":11088,"Ġagreed":11089,"ĠCath":11090,"rios":11091,"riage":11092,"ĠFashion":11093,"Ġalma":11094,"Ġdefault":11095,"Ġsituations":11096,"Ġslight":11097,"ĠconsciÃªncia":11098,"Ġmentioned":11099,"Membros":11100,"Super":11101,"onial":11102,"âĢĳ":11103,"ĠFC":11104,"pression":11105,"2013":11106,"ĠirmÃ£os":11107,"Ġfurniture":11108,"Aqu":11109,"Ġsugar":11110,"endÃ¡rio":11111,"Ġhighlight":11112,"ĠBridge":11113,"Ġtopic":11114,"ĠSafety":11115,"Ġcitizens":11116,"ĠpÃ©s":11117,"rific":11118,"ogar":11119,"Ġdiseases":11120,"ĠnotÃŃcias":11121,"Ġcompliance":11122,"Ġpassou":11123,"ĠAdicionar":11124,"Ġdipl":11125,"Ġseek":11126,"Ġengenharia":11127,"ĠCasas":11128,"Located":11129,"hetic":11130,"Below":11131,"ĠEngineering":11132,"ĠHYIP":11133,"],":11134,"bury":11135,"Ġtrop":11136,"Ġlidar":11137,"Ġcasal":11138,"Ġreduction":11139,"Ġelegante":11140,"ĠRoyalty":11141,"Ġedition":11142,"ĠSave":11143,"ĠLista":11144,"ĠNut":11145,"ĠVale":11146,"atividade":11147,"Ġpreparation":11148,"Ġsemelhantes":11149,"Ġtree":11150,"Ġtaste":11151,"Ġador":11152,"pson":11153,"Ġdeixa":11154,"Ġspecifications":11155,"Data":11156,"Gra":11157,"ni":11158,"Ġsed":11159,"aso":11160,"itÃ¡ria":11161,"quality":11162,"Ġven":11163,"Ġappoint":11164,"Ã³nia":11165,"Ġconsulte":11166,"Ġeye":11167,"Ġstainless":11168,"Another":11169,"81":11170,"aturing":11171,"ughter":11172,"canner":11173,"Ġconducted":11174,"edy":11175,"ÃŃncia":11176,"ĠÃļ":11177,"rating":11178,"ĠrelÃ³gio":11179,"Ġverify":11180,"Ġcriteria":11181,"Ġsupplement":11182,"Ġconnecting":11183,"ĠglÃºten":11184,"quet":11185,"ĠKh":11186,"ÃŃtio":11187,"Ġlibert":11188,"Ġappears":11189,"Ġfraca":11190,"Ġheavy":11191,"bu":11192,"Ġdoub":11193,"ĠvÃŃrus":11194,"Ã³is":11195,"ĠremoÃ§Ã£o":11196,"Ġfelt":11197,"Ãķ":11198,"Ġdece":11199,"adel":11200,"irma":11201,"Ġoverall":11202,"Ġdefine":11203,"ĠjustiÃ§a":11204,"ĠImage":11205,"Ġdefinir":11206,"ĠadministraÃ§Ã£o":11207,"Ġelevado":11208,"ĠinfluÃªncia":11209,"Ġocorr":11210,"ĠQueen":11211,"Snow":11212,"âĸ":11213,"Ġaberta":11214,"urgia":11215,"shirt":11216,"ĠcritÃ©rios":11217,"Ġsatisfaction":11218,"Ġatmosphere":11219,"Ġandar":11220,"ulaÃ§Ãµes":11221,"Ġrastre":11222,"ĠLei":11223,"Ġextract":11224,"Ġcalls":11225,"ĠCommittee":11226,"nÃ£o":11227,"ĠmunicÃŃp":11228,"Ġprovis":11229,"ĠHu":11230,"Ġflores":11231,"iev":11232,"Ġprodutividade":11233,"ĠConf":11234,"ounds":11235,"Ġfrequentemente":11236,"ĠterritÃ³rio":11237,"Ġillust":11238,"ÃķES":11239,"pas":11240,"ĠBlo":11241,"ĠRi":11242,"Ġdistingu":11243,"Ġdiminu":11244,"Ġvertical":11245,"91":11246,"Sw":11247,"Ġimpostos":11248,"ubles":11249,"Ġnegative":11250,"IST":11251,"ĠLocal":11252,"Ġcrime":11253,"ĠShopping":11254,"olar":11255,"ĠMid":11256,"Ġfeet":11257,"Ġelevada":11258,"ĠelÃ©trica":11259,"Ġepis":11260,"AluguÃ©is":11261,"ĠExplorer":11262,"PÃ¡gina":11263,"ĠSH":11264,"sex":11265,"actions":11266,"Ġowners":11267,"Ġregistration":11268,"Ġveio":11269,"Ġmoral":11270,"ĠCollection":11271,"Ġingredientes":11272,"Ġingredients":11273,"ÃŃbrio":11274,"cone":11275,"Ġtens":11276,"ĠSens":11277,"ĠRain":11278,"ĠRev":11279,"Ġmusical":11280,"Ġsupplier":11281,"ĠpÃ´r":11282,"Her":11283,"Ġmail":11284,"odging":11285,"INE":11286,"Ġcheaper":11287,"Ġrobust":11288,"Ġsen":11289,"ĠrÃŃg":11290,"ĠStainless":11291,"Ġmanip":11292,"ĠClick":11293,"ĠSuporte":11294,"Ġadicionado":11295,"ĠAccessories":11296,"Grand":11297,"tos":11298,"onic":11299,"atin":11300,"ĠCÃ¢m":11301,"otic":11302,"apia":11303,"Ġmanner":11304,"Ġ06":11305,"Ġowner":11306,"Ġmalware":11307,"Ġsuppliers":11308,"Ma":11309,"Ġdut":11310,"urado":11311,"Ġmeia":11312,"ĠÃ¡guas":11313,"Ġshowing":11314,"Ġoptional":11315,"Ġtroca":11316,"Ġlicense":11317,"info":11318,"enef":11319,"anbul":11320,"Ġrevis":11321,"Ġemoc":11322,"ĠMur":11323,"apes":11324,"Ġtruly":11325,"Ġimpr":11326,"Ġtrabalha":11327,"ĠMedic":11328,"ĠUsed":11329,"Ġclouds":11330,"DM":11331,"cido":11332,"Ġtirar":11333,"iti":11334,"icia":11335,"viar":11336,"ĠConfig":11337,"ĠBookings":11338,"ĠDirector":11339,"Ġstrategies":11340,"ĠChildren":11341,"Brazil":11342,"NS":11343,"ĠTun":11344,"ĠRC":11345,"andom":11346,"Ġpreci":11347,"Ġaviso":11348,"Ġaccounts":11349,"Ġlooks":11350,"ĠBooks":11351,"Ġamostras":11352,"Ġcere":11353,"Ġtherm":11354,"asting":11355,"ĠContin":11356,"Ġeducational":11357,"Ġauthority":11358,"ĠIncl":11359,"ĠAssociation":11360,"ĠTI":11361,"ĠExperi":11362,"ATED":11363,"ĠTecnologia":11364,"Descubra":11365,"Amer":11366,"mal":11367,"rd":11368,"Ġvive":11369,"Ġshut":11370,"Ġleaving":11371,"Ġprovider":11372,"Prof":11373,"ĠDireito":11374,"Ġdesafio":11375,"cons":11376,"uits":11377,"ĠCos":11378,"Ã³via":11379,"ĠNort":11380,"Ġnaqu":11381,"ĠAgosto":11382,"Ġassociation":11383,"Ed":11384,"icidade":11385,"ĠBos":11386,"Ġ(?":11387,"ĠRap":11388,"Ġpharm":11389,"Ġbaseada":11390,"Ġclassic":11391,"Ġfisc":11392,"adi":11393,"Ġthick":11394,"ĠBill":11395,"ĠDow":11396,"agar":11397,"Ġ110":11398,"ĠOd":11399,"avia":11400,"Ġentering":11401,"Ġafternoon":11402,"REE":11403,"Ġinstrumentos":11404,"ĠRefriger":11405,"Bo":11406,"Jesus":11407,"ĠMens":11408,"umentos":11409,"ĠUV":11410,"Ġtermo":11411,"Ġgenerally":11412,"sm":11413,"ĠPes":11414,"orship":11415,"Ġlarger":11416,"ĠMarketing":11417,"Ġarquitetura":11418,"Direct":11419,"Jogos":11420,"Ġrigor":11421,"Ġnet":11422,"ĠDani":11423,"Ġunless":11424,"Ġ09":11425,"ĠShip":11426,"Ġphase":11427,"Ã³dio":11428,"Ġlibrary":11429,"Abaixo":11430,"Well":11431,"Ġcaf":11432,"Ġmouse":11433,"iland":11434,"ĠMetro":11435,"ratis":11436,"Ġuniform":11437,"Ġantiga":11438,"Ġ08":11439,"Ġoferecendo":11440,"Ġsacrif":11441,"ĠTrade":11442,"Ġrequested":11443,"ĠAPI":11444,"ĠCustomer":11445,"Mesmo":11446,"Ġfasc":11447,"ĠSar":11448,"Ġvoss":11449,"yscanner":11450,"enhora":11451,"Ġgente":11452,"ĠWay":11453,"lder":11454,"Ġfixed":11455,"Ġbloque":11456,"Ġheaven":11457,"Ġbehavior":11458,"Great":11459,"gnos":11460,"reets":11461,"rov":11462,"uster":11463,"outs":11464,"ika":11465,"Ġspread":11466,"Ġcheia":11467,"Ġsecund":11468,"mails":11469,"ĠMonitor":11470,"Ġmedicamentos":11471,"Ġdoctor":11472,"ĠFoot":11473,"ĠOfer":11474,"Ġdesper":11475,"ĠAlgar":11476,"Ġregress":11477,"ivery":11478,"Ġassociado":11479,"Ġverdadeira":11480,"Ġdependendo":11481,"Ġcategorias":11482,"Ġdisplayed":11483,"Ġinstitution":11484,"Priv":11485,"Ġta":11486,"Ġtras":11487,"ĠMake":11488,"ĠVe":11489,"Ġentert":11490,"Ġidentified":11491,"ĠForest":11492,"ĠYouTube":11493,"ĠFront":11494,"ĠHoriz":11495,"Ġaulas":11496,"emia":11497,"Ġrosto":11498,"ĠFal":11499,"Ġleite":11500,"hedral":11501,"redores":11502,"ĠImport":11503,"ĠestratÃ©gias":11504,"Ġvigor":11505,"Ġchannels":11506,"Di":11507,"His":11508,"PE":11509,"Ġforest":11510,"Ġalimentar":11511,"ogen":11512,"Ġreduced":11513,"Ġestate":11514,"ĠOx":11515,"Ġacerca":11516,"Ġcomputadores":11517,"ÃŃmetros":11518,"ĠJunho":11519,"ĠPresidente":11520,"Ġaudit":11521,"ĠLuxemb":11522,"ĠsustentÃ¡vel":11523,"Ġimprovement":11524,"150":11525,"egal":11526,"Ġleads":11527,"Ġshops":11528,"+]":11529,"Good":11530,"West":11531,"list":11532,"onha":11533,"Ġbrasile":11534,"rac":11535,"unas":11536,"Ġdestas":11537,"Whether":11538,"ĠfÃ³r":11539,"ĠAudio":11540,"ĠFore":11541,"ĠKa":11542,"Ġalgor":11543,"ĠBeaut":11544,"Ġcompetition":11545,"Ġrule":11546,"!âĢĿ":11547,"Ġhes":11548,"Ġativos":11549,"force":11550,"Ġapost":11551,"ĠConnect":11552,"Ġsurpre":11553,"ĠWeather":11554,"Ġcombined":11555,"ĠTeam":11556,"Ġfulf":11557,"ĠsaudÃ¡vel":11558,"ĠMÃ¡quina":11559,"ĠcenÃ¡rio":11560,"?âĢĿ":11561,"Doc":11562,"ĠFM":11563,"appy":11564,"Ġenables":11565,"Ġ43":11566,"Ġunderg":11567,"ĠpropÃ³sito":11568,"ounce":11569,"Ġsession":11570,"atemala":11571,"gr":11572,"ĠNÂº":11573,"Ġkit":11574,"GE":11575,"Ġlazer":11576,"ĠWild":11577,"ĠVPN":11578,"Ġje":11579,"ĠdisposiÃ§Ã£o":11580,"Ġinterval":11581,"ĠReserve":11582,"eldorf":11583,"Contin":11584,"Ġmoderna":11585,"Ġstatement":11586,"ĠPraga":11587,"Ġtrabalhando":11588,"ĠIlha":11589,"ĠCivil":11590,"ĠAlegre":11591,"ivelmente":11592,"Ġsimultane":11593,"CR":11594,"adise":11595,"ĠWine":11596,"ffet":11597,"Ġzero":11598,"Ġinteressante":11599,"Ġcobertura":11600,"Ġdeveria":11601,"lic":11602,"Ġsets":11603,"Ġalde":11604,"azz":11605,"Ġformatos":11606,"Ġtheme":11607,"Ġdesigns":11608,"Ġmoments":11609,"Ġflexible":11610,"Ġsede":11611,"ĠPier":11612,"Ġcondut":11613,"Ġforg":11614,"alled":11615,"Ġrecre":11616,"Ġminer":11617,"ĠZeal":11618,"Ġregistry":11619,"ĠRegional":11620,"Ã©rcito":11621,"Ġinverno":11622,"ĠNord":11623,"ĠStart":11624,"anging":11625,"ĠDeb":11626,"ĠCuritiba":11627,"Ġwel":11628,"ĠFemin":11629,"Ã³i":11630,"ĠmediÃ§Ã£o":11631,"Ġretorn":11632,"Ġselecionar":11633,"Ġinstrument":11634,"Ġataque":11635,"ĠAcessÃ³rios":11636,"Produtos":11637,"isine":11638,"Ġnessa":11639,"Ġvidas":11640,"ĠAre":11641,"ĠTex":11642,"ĠVil":11643,"ogia":11644,"Ġitiner":11645,"radar":11646,"Start":11647,"ĠEns":11648,"Used":11649,"Ãªnis":11650,"Äģ":11651,"Ġfaixa":11652,"ionais":11653,"ĠMiss":11654,"Ġgets":11655,"ĠTable":11656,"Ġisn":11657,"Ġcoast":11658,"ĠalemÃ£o":11659,"ĠZealand":11660,"riott":11661,"abl":11662,"Ġstores":11663,"ĠJames":11664,"iox":11665,"ĠChann":11666,"ĠAna":11667,"Exc":11668,"Ġbeds":11669,"ĠvisualizaÃ§Ã£o":11670,"ĠWikip":11671,"ĠdÃ³lares":11672,"pm":11673,"world":11674,"eres":11675,"heÃ§a":11676,"Ġproib":11677,"ĠFour":11678,"Ġtrazer":11679,"Ġovercast":11680,"Ġambient":11681,"Ġaparecer":11682,"Ġvantagem":11683,"esquise":11684,"Apro":11685,"Tom":11686,"ĠCand":11687,"avar":11688,"ousing":11689,"Ġbuurt":11690,"Ġproviders":11691,"Ġmontagem":11692,"Ġcausar":11693,"etrÃ³leo":11694,"Ġtarifa":11695,"Ġhistoric":11696,"utsch":11697,"icing":11698,"ĠCafÃ©":11699,"Ġhouver":11700,"ĠTail":11701,"Ġ72":11702,"Ġaquecimento":11703,"ĠfÃŃsico":11704,"ĠÃ³tima":11705,"Ġprobably":11706,"ĠBMW":11707,"elizmente":11708,"Ġdan":11709,"Ġtu":11710,"Ġpad":11711,"arias":11712,"ĠUEFA":11713,"ĠChrome":11714,"ĠConvention":11715,"ĠSev":11716,"Ġestejam":11717,"AtÃ©":11718,"Ġconsegue":11719,"Ġdeterminado":11720,"III":11721,"Ġcouple":11722,"ĠjurÃŃd":11723,"ĠVirgin":11724,"Melhor":11725,"SI":11726,"Ġtail":11727,"Ġfen":11728,"Ġwinter":11729,"riu":11730,"ĠPunta":11731,"volution":11732,"Ġdieta":11733,"Ã³nio":11734,"ĠPopular":11735,"Ġalegria":11736,"Main":11737,"Prom":11738,"iest":11739,"Ġdout":11740,"Ġsnow":11741,"ĠSha":11742,"ĠPict":11743,"Ġ($":11744,"ĠDut":11745,"plac":11746,"Ġmediante":11747,"Ġdeixe":11748,"Ġdynamic":11749,"á¹":11750,"ĠSMS":11751,"ĠrÃ¡dio":11752,"iller":11753,"Ġshirt":11754,"exe":11755,"Ġthank":11756,"arga":11757,"Ġlegais":11758,"ĠOnde":11759,"ĠOutros":11760,"ĠTorre":11761,"Ġthousand":11762,"Consulte":11763,"rief":11764,"Ġvenc":11765,"imar":11766,"ĠAcom":11767,"ige":11768,"ĠalmoÃ§o":11769,"umer":11770,"obby":11771,"ibar":11772,"Ġencontrado":11773,"Ġbarco":11774,"ĠdiÃ¡logo":11775,"Christ":11776,"Ġdecisions":11777,"Ġeventually":11778,"Ã¢mpada":11779,"gate":11780,"vant":11781,"ems":11782,"coin":11783,"Ġneut":11784,"ĠConference":11785,"Ãªmio":11786,"Ġcouro":11787,"Visit":11788,"Norm":11789,"Ġ000":11790,"Ġfals":11791,"ARD":11792,"Ġaffected":11793,"Ġultra":11794,"ĠDepartment":11795,"Ġaus":11796,"Ġhouve":11797,"plicaÃ§Ãµes":11798,"ipos":11799,"ĠEstudos":11800,"ĠMartin":11801,"Have":11802,"Sobre":11803,"ĠrecepÃ§Ã£o":11804,"Ġfala":11805,"Ġextensive":11806,"Ġtrees":11807,"Ã¢nicos":11808,"Ġclinical":11809,"asa":11810,"rob":11811,"ĠCable":11812,"ĠSag":11813,"esto":11814,"Ġconver":11815,"ĠchÃ£o":11816,"Ġdesenho":11817,"Ã³gios":11818,"ĠOfficial":11819,"Univers":11820,"Ġaconteceu":11821,"ĠDomin":11822,"ĠWordPress":11823,"ĠAgreement":11824,"link":11825,"Ġupload":11826,"ĠCant":11827,"ĠYes":11828,"Ġfacto":11829,"Ġaceitar":11830,"Ġchegou":11831,"Ġproporciona":11832,"Ġlabel":11833,"âĨĳ":11834,"Ainda":11835,"atia":11836,"aci":11837,"Ġframe":11838,"ĠDeals":11839,"Ġmelhoria":11840,"ĠPalma":11841,"ĠGerais":11842,"ĠMichael":11843,"Ġestudar":11844,"Ġturismo":11845,"Ġpartnership":11846,"Ġatingir":11847,"Ġsintomas":11848,"ĠdepÃ³sito":11849,"Ġtypically":11850,"ĠInglaterra":11851,"Fac":11852,"Ġparecer":11853,"ĠNY":11854,"ĠAli":11855,"Ġiron":11856,"ĠSolutions":11857,"Ġchair":11858,"rine":11859,"Ġcod":11860,"Ġcant":11861,"ĠFeder":11862,"Ġdelas":11863,"ĠdiÃ¡ria":11864,"Ġdefesa":11865,"ĠDomingo":11866,"Ġaccepted":11867,"how":11868,"ĠoraÃ§Ã£o":11869,"Ġpronto":11870,"ĠWhere":11871,"ipes":11872,"Ġdesktop":11873,"razy":11874,"Ġcontrols":11875,"ĠMENU":11876,"PM":11877,"ĠtÃŃp":11878,"oni":11879,"Ġdog":11880,"Ġstim":11881,"Ġencourag":11882,"Ġdesconto":11883,"Ġdificuldades":11884,"Ġcumprir":11885,"93":11886,"Ref":11887,"ĠBras":11888,"ĠVIP":11889,"Ġdifferences":11890,"Deve":11891,"Ġaimed":11892,"Muito":11893,"Ġconsentimento":11894,"oÃ§Ã£o":11895,"Ġaw":11896,"Ġmir":11897,"ĠClear":11898,"ĠMol":11899,"Ġreferred":11900,"Ġmilk":11901,"Ġlighting":11902,"Ġproposed":11903,"Family":11904,"Da":11905,"Fer":11906,"organ":11907,"asts":11908,"Ġrelativamente":11909,"ĠÃģrea":11910,"Ġpaciente":11911,"BS":11912,"Ġcaval":11913,"roup":11914,"ĠDam":11915,"ĠWil":11916,"Ġplus":11917,"ambique":11918,"ATA":11919,"ĠesperanÃ§a":11920,"ĠlegislaÃ§Ã£o":11921,"ĠMoscow":11922,"Ġsamples":11923,"eu":11924,"jan":11925,"mod":11926,"ĠRO":11927,"Ġbusc":11928,"Ġsalas":11929,"ĠQuando":11930,"Ġferry":11931,"ĠDirectory":11932,"Cart":11933,"prim":11934,"Ġbond":11935,"ĠSud":11936,"Ġcontaining":11937,"Ġpolice":11938,"ĠSolar":11939,"Ġturned":11940,"ĠLandmarks":11941,"Hist":11942,"adura":11943,"Ġcomodidades":11944,"Ġatuais":11945,"ĠÃĹ":11946,"Ġ56":11947,"ĠContent":11948,"Ġspecifically":11949,"Ġruas":11950,"Ġcorporate":11951,"World":11952,"rin":11953,"Ġfaster":11954,"ĠRS":11955,"ĠIV":11956,"ĠFa":11957,"Ġmineral":11958,"Ġcript":11959,"Ġrefere":11960,"Ġrestrict":11961,"Ġdomestic":11962,"Ġexclusivo":11963,"ĠcÃ¢mbio":11964,"ĠIndex":11965,"ĠinÃºmeras":11966,"Ġdoll":11967,"Ġarr":11968,"Ġformats":11969,"Ġrap":11970,"Ġpraias":11971,"ĠBuilding":11972,"Ġbeaches":11973,"ĠClouds":11974,"Ġsymptoms":11975,"Looking":11976,"ĠCorn":11977,"ĠJord":11978,"ĠKal":11979,"ĠMarÃ§o":11980,"Ã±a":11981,"Talvez":11982,"icante":11983,"Ġconference":11984,"ĠGel":11985,"Ġmeal":11986,"intage":11987,"Ġconsists":11988,"Ġimporta":11989,"Ġsurv":11990,"Ġrealizadas":11991,"Ġexistence":11992,"Ġexpression":11993,"Ġstrategic":11994,"Ġcircunst":11995,"Ġacquire":11996,"CI":11997,"estrado":11998,"ĠAV":11999,"Ġades":12000,"Ġessenciais":12001,"instal":12002,"Ġacquainted":12003,"lier":12004,"orca":12005,"Ġmeias":12006,"Ġwife":12007,"Ġconcorr":12008,"Ġespect":12009,"Ġlimite":12010,"Ã¢metro":12011,"Ã³rnia":12012,"ĠViet":12013,"Ġmuscle":12014,"ĠPanasonic":12015,"ĠManufacturer":12016,"ĠtÃ©rm":12017,"isos":12018,"ĠHTML":12019,"Ġcria":12020,"ĠpreparaÃ§Ã£o":12021,"ĠEnterprise":12022,"Ġjurisd":12023,"Utiliz":12024,"andos":12025,"Ġphen":12026,"Ġmenores":12027,"Ġinterno":12028,"Reviews":12029,"Ġesperar":12030,"ĠsatÃ©lite":12031,"Ġextraord":12032,"ĠMulti":12033,"Ġpleasant":12034,"ĠClean":12035,"Ġhit":12036,"ĠPaz":12037,"ĠDress":12038,"ĠLORD":12039,"Ġcrise":12040,"ĠMoon":12041,"ĠTools":12042,"Ġlinguagem":12043,"zech":12044,"ĠtensÃ£o":12045,"inÃ¡rio":12046,"idÃªncia":12047,"Ġfres":12048,"Ġafford":12049,"ĠConverter":12050,"Ġaplicar":12051,"Ġdemanda":12052,"ĠautomÃ¡tico":12053,"Ġresto":12054,"Ġgratuita":12055,"Ġgratuitas":12056,"ĠUsuÃ¡rio":12057,"Ġautoridade":12058,"Ġrespondem":12059,"Ġcriminal":12060,"Ġdeploy":12061,"ĠEvent":12062,"panies":12063,"ĠdiferenÃ§as":12064,"Ġparticipate":12065,"enzhen":12066,"Ġfert":12067,"ĠTal":12068,"ĠRE":12069,"ĠDell":12070,"ĠZel":12071,"Ġdelet":12072,"Ã¡lises":12073,"Ġbless":12074,"Ġkept":12075,"ĠCharles":12076,"Ġreconhecimento":12077,"Ġcomprehensive":12078,"BL":12079,"ls":12080,"pire":12081,"zas":12082,"Ġ~":12083,"Ãªx":12084,"ĠLen":12085,"Ġleaves":12086,"Ġinterna":12087,"ĠAno":12088,"Ġligado":12089,"ĠIndian":12090,"Ġexpertise":12091,"Ġibis":12092,"Ġindustriais":12093,"icer":12094,"Ġbio":12095,"Ġballs":12096,"Ġapan":12097,"Ġinfin":12098,"Ġastronom":12099,"Ġliquid":12100,"inburgh":12101,"Ġfios":12102,"iliar":12103,"ims":12104,"ĠMonday":12105,"Ġmetade":12106,"ĠMarriott":12107,"Ġinsert":12108,"Ġscore":12109,"Ġgreatest":12110,"Ġmilit":12111,"Ġconfiguration":12112,"Ġauthentic":12113,"Who":12114,"lov":12115,"ĠCF":12116,"ontal":12117,"Ġappreci":12118,"Ġheating":12119,"Ġpossess":12120,"Ġfamiliares":12121,"Ġetiqu":12122,"Ġadvertis":12123,"Ġuncom":12124,"ĠespÃ©cie":12125,"ĠcidadÃ£os":12126,"Ġwild":12127,"ĠPok":12128,"Ġcorner":12129,"culino":12130,"Ġdevemos":12131,"Ġcurte":12132,"ĠEngenharia":12133,"erdÃ£o":12134,"Ġbedrooms":12135,"Ġpersonalizar":12136,"Ġprocedimento":12137,"ĠgrÃ¡ficos":12138,"Ġprayer":12139,"ĠVenezuela":12140,"ociaÃ§Ãµes":12141,"120":12142,"Two":12143,"mento":12144,"Ġtiss":12145,"ourg":12146,"Ġinterview":12147,"Ġverm":12148,"onselh":12149,"Ġcriou":12150,"olding":12151,"bean":12152,"ĠAfrican":12153,"ĠAlgarve":12154,"Ġcup":12155,"Ġdeleg":12156,"Ġhi":12157,"ĠPubl":12158,"ÃŃnci":12159,"iking":12160,"Ġcentros":12161,"cony":12162,"Ġconsumidores":12163,"ĠMontreal":12164,"ĠMunich":12165,"Ġtypical":12166,"Fig":12167,"Ġale":12168,"uldade":12169,"agn":12170,"Ġresorts":12171,"ĠJogo":12172,"Ġqualit":12173,"Ġrelacionado":12174,"ĠIndones":12175,"Ġbattle":12176,"Ġtelevision":12177,"Ġmountain":12178,"Ġadvantages":12179,"People":12180,"ĠNegÃ³cios":12181,"kra":12182,"ramento":12183,"ĠCS":12184,"ĠSnow":12185,"aindo":12186,"urais":12187,"aixÃ£o":12188,"Ġencontre":12189,"Ġrequests":12190,"Ġcategories":12191,"Ġsacerd":12192,"Ġaccommodations":12193,"ĠOriente":12194,"MT":12195,"zz":12196,"Ġtemas":12197,"Ġadmit":12198,"Ġ52":12199,"Ġequipada":12200,"ĠGrÃ©cia":12201,"Ġconversion":12202,"ĠTemple":12203,"Ġsaco":12204,"Ġpreviously":12205,"ĠtrÃ¡fego":12206,"Brasil":12207,"Edit":12208,"OUR":12209,"ser":12210,"ĠSQL":12211,"Ġumbre":12212,"Ġsud":12213,"Ġficam":12214,"ĠQuarto":12215,"ĠAtlantic":12216,"RC":12217,"onal":12218,"Ġcounter":12219,"Ġnublado":12220,"ĠIber":12221,"ĠKB":12222,"Ġadvers":12223,"Ġartificial":12224,"ĠGuia":12225,"Ġapproved":12226,"Regist":12227,"juda":12228,"Ġdestinations":12229,"Ġconcorda":12230,"Log":12231,"haps":12232,"ĠnÂº":12233,"ĠSeb":12234,"ĠAction":12235,"chain":12236,"Ġexplos":12237,"irtual":12238,"cluded":12239,"ĠPesquisa":12240,"jiang":12241,"kin":12242,"rote":12243,"urando":12244,"veja":12245,"Ġarre":12246,"Ġcorru":12247,"ĠSaud":12248,"Apenas":12249,"Ġmeetings":12250,"ĠSwiss":12251,"Apartment":12252,"osc":12253,"itt":12254,"Ġfesta":12255,"ĠCreek":12256,"Ġasc":12257,"landa":12258,"ucion":12259,"ĠBlog":12260,"Ġetapas":12261,"ĠOrder":12262,"Ġstarts":12263,"Ġincred":12264,"Ġ1998":12265,"Ġmovie":12266,"Men":12267,"pot":12268,"Ġaper":12269,"Ġsight":12270,"ĠTrib":12271,"ĠToy":12272,"unched":12273,"ĠWireless":12274,"Ġconsigo":12275,"Ġsoil":12276,"ĠTrips":12277,"Ġpedidos":12278,"ÃŃduo":12279,"Ġanalyz":12280,"Ġcarbono":12281,"ĠIstanbul":12282,"fund":12283,"ects":12284,"lying":12285,"alized":12286,"Ġproductivity":12287,"unicaÃ§Ã£o":12288,"Ġ[+]":12289,"evereiro":12290,"Ġpresentation":12291,"Ġselecionadas":12292,"Ġbiggest":12293,"Ġremoved":12294,"AÃĩÃĥO":12295,"Details":12296,"rect":12297,"Ã¡r":12298,"Ġevidence":12299,"Ġarmas":12300,"Ġbebidas":12301,"Follow":12302,"ĠPri":12303,"uters":12304,"Ġconstruct":12305,"Ġfactor":12306,"Qualquer":12307,"Ġsuporta":12308,"Ġcrisis":12309,"Ġoito":12310,"Ġfill":12311,"ĠBab":12312,"ĠDI":12313,"Ġoral":12314,"Ġplaneta":12315,"Ġhumanidade":12316,"ĠFinance":12317,"Address":12318,"Windows":12319,"fun":12320,"oret":12321,"orge":12322,"Ġnoites":12323,"ĠAnti":12324,"Ġ1990":12325,"ĠModern":12326,"Ġannual":12327,"Romantic":12328,"ilia":12329,"Ġatend":12330,"Ġdisput":12331,"ngulo":12332,"Ġbrands":12333,"amanhos":12334,"Ġimproving":12335,"Ġtransportation":12336,"Ġdriving":12337,"Ġplataformas":12338,"ĠDet":12339,"Ġcontribut":12340,"Ġformal":12341,"Ġrace":12342,"ĠLeeds":12343,"Ġpedra":12344,"Ġanalyze":12345,"Lista":12346,"Ġdando":12347,"Ġbons":12348,"ĠvÃŃt":12349,"Ġevil":12350,"credit":12351,"Ġteen":12352,"manhÃ£":12353,"ĠTempo":12354,"Ġbrasileiro":12355,"Come":12356,"Further":12357,"RF":12358,"ĠBou":12359,"ĠLady":12360,"ifts":12361,"hailand":12362,"ibly":12363,"Ġourselves":12364,"ierra":12365,"Ġtraduz":12366,"Constru":12367,"Ġdepende":12368,"ĠFamÃŃlia":12369,"oshiba":12370,"ĠMediterranean":12371,"ulgar":12372,"Ġcomposto":12373,"Ġpresents":12374,"inhar":12375,"Ġmuscular":12376,"Ġletter":12377,"Ġpermanente":12378,"ĠCafe":12379,"Ġcompatible":12380,"ĠorientaÃ§Ã£o":12381,"Ġreducing":12382,"Mant":12383,"cat":12384,"Ġbound":12385,"ĠCot":12386,"Ġlunch":12387,"ectual":12388,"Ġstone":12389,"Ġstories":12390,"Adicionar":12391,"rava":12392,"ĠTransport":12393,"Ġmoeda":12394,"ourage":12395,"Ġcircumst":12396,"inf":12397,"acular":12398,"ĠTotal":12399,"Ġsigns":12400,"Ġoperators":12401,"ĠFerram":12402,"Ġevolution":12403,"Ġbottom":12404,"Bre":12405,"Lim":12406,"Ġtons":12407,"Ġleste":12408,"ĠEt":12409,"ĠDesc":12410,"Ġchap":12411,"Ġvisa":12412,"Ġseeking":12413,"ĠsensaÃ§Ã£o":12414,"Ġtelephone":12415,"Ġlicenci":12416,"Avalia":12417,"ĠFlorida":12418,"LY":12419,"Ġti":12420,"ĠSound":12421,"Ġlamp":12422,"ĠBaby":12423,"Ġ(\"":12424,"ĠagrÃŃc":12425,"Ġinstance":12426,"Ġantigos":12427,"ĠGuerra":12428,"ĠMaio":12429,"Ġlargura":12430,"Ġassinatura":12431,"Ġcadeia":12432,"Net":12433,"ded":12434,"agas":12435,"umento":12436,"Ġchocolate":12437,"Ġaquilo":12438,"Ġremaining":12439,"Ġapoiar":12440,"Ġcinema":12441,"Ġorders":12442,"Ġdesejos":12443,"ĠLaser":12444,"Ġdebate":12445,"Ġrelationships":12446,"Ġwidely":12447,"uzzle":12448,"ĠJoseph":12449,"Ġcontemporary":12450,"ĠSleep":12451,"Ġrecover":12452,"Ġcontar":12453,"obo":12454,"Ġrecords":12455,"yself":12456,"Ġportal":12457,"ĠNovembro":12458,"Ġfloors":12459,"Black":12460,"Ġpaisagem":12461,"Ġencontrada":12462,"Ġknows":12463,"iera":12464,"Ġindustries":12465,"ĠcÃ³pia":12466,"Gre":12467,"HT":12468,"Â©":12469,"Ġwitness":12470,"ĠAbu":12471,"vironments":12472,"Ġrecolher":12473,"UA":12474,"nic":12475,"adow":12476,"Ġ53":12477,"Thank":12478,"Ġcoach":12479,"crever":12480,"ĠaplicÃ¡vel":12481,"Ġbrother":12482,"Ġrisks":12483,"Enjoy":12484,"Script":12485,"ĠCalifÃ³rnia":12486,"Ke":12487,"cr":12488,"fers":12489,"asp":12490,"Ġwalls":12491,"Ġfortes":12492,"Ġrise":12493,"chuva":12494,"ĠNaÃ§Ãµes":12495,"ĠNumber":12496,"dule":12497,"Ġcancer":12498,"ĠvariÃ¡veis":12499,"Atividades":12500,"Ġtratar":12501,"Ġfocused":12502,"Ġfolder":12503,"Ġachieved":12504,"Ġmechanical":12505,"Ġnamed":12506,"ĠRentalcars":12507,"ĠrefeiÃ§Ã£o":12508,"FF":12509,"pol":12510,"Ġswe":12511,"astern":12512,"ĠUt":12513,"Seja":12514,"Ġorganic":12515,"ĠAnalytics":12516,"cell":12517,"ĠCr":12518,"raf":12519,"Ġcapabilities":12520,"Ġoffices":12521,"Ġhelpful":12522,"Ġcuja":12523,"ĠalteraÃ§Ã£o":12524,"Ġstatistics":12525,"Ġfolha":12526,"Ġsynt":12527,"Ġstraight":12528,"Ġadquirir":12529,"ĠNuvens":12530,"Dig":12531,"SÃ³":12532,"itores":12533,"itÃ¡rios":12534,"irus":12535,"ĠalgodÃ£o":12536,"Ġprofit":12537,"Ġpassed":12538,"adrÃ£o":12539,"Ġcomparison":12540,"endeu":12541,"ĠCastelo":12542,"ĠHelp":12543,"Neve":12544,"Ãļ":12545,"Ġinj":12546,"Ġdesk":12547,"Ġcoleta":12548,"Ġlived":12549,"Foram":12550,"Ġ[-":12551,"print":12552,"Ġapresentam":12553,"Ġfrequency":12554,"Ġcommunications":12555,"ĠSilva":12556,"Ġrecognized":12557,"Palavras":12558,"ĠexpansÃ£o":12559,"ĠGirls":12560,"ds":12561,"ĠTu":12562,"ĠNic":12563,"Ġesque":12564,"ears":12565,"dequado":12566,"ĠAccommodation":12567,"ĠSnap":12568,"PP":12569,"wick":12570,"iny":12571,"Ġsport":12572,"Ġacum":12573,"Ġcapable":12574,"Ġaccessible":12575,"Ġminuto":12576,"ĠParts":12577,"Ġderiv":12578,"Ġplanta":12579,"Coisas":12580,"Muitos":12581,"Recommend":12582,"Ġhappened":12583,"Buy":12584,"Ġcrescer":12585,"Ġcookie":12586,"ĠEmirates":12587,"Ġumbrella":12588,"Ã©us":12589,"ĠÃ©t":12590,"Ġmanager":12591,"Ġsofr":12592,"ĠComer":12593,"ĠPhen":12594,"ĠiBook":12595,"ĠColumb":12596,"ĠBrinquedos":12597,"Casas":12598,"Procura":12599,"LS":12600,"hÃ£o":12601,"prene":12602,"Ġhop":12603,"ĠAWS":12604,"acas":12605,"ĠWal":12606,"Ġroot":12607,"Ġescal":12608,"Ġsubmet":12609,"Stud":12610,"ĠacessÃŃvel":12611,"ĠDisney":12612,"Ġfotografias":12613,"Ġexperimental":12614,"yal":12615,"Ġaid":12616,"uru":12617,"ĠRodo":12618,"ĠKen":12619,"Ġelemento":12620,"Ġreservation":12621,"Ġsurvey":12622,"ĠMestrados":12623,"ĠdÃ©cada":12624,"Ġacademic":12625,"Ġ[-]":12626,"ĠAy":12627,"Ġwithd":12628,"ĠSeat":12629,"Ġdefend":12630,"ĠRegul":12631,"Ġfornecimento":12632,"ĠFlorence":12633,"ĠMinistÃ©rio":12634,"Ġchannel":12635,"ĠdiagnÃ³stico":12636,"File":12637,"Holiday":12638,"yth":12639,"Ġthy":12640,"ĠToul":12641,"Ġenfr":12642,"Ġski":12643,"Ġconsumer":12644,"ĠRegulation":12645,"Ġcontinuous":12646,"limited":12647,"Ġmanufacturers":12648,"Ġshoes":12649,"Ġpecado":12650,"Ġaccurate":12651,"uveiro":12652,"Ġborra":12653,"ĠMunicipal":12654,"ocos":12655,"ÃŃram":12656,"veloper":12657,"cool":12658,"ĠverificaÃ§Ã£o":12659,"ĠApplication":12660,"App":12661,"ĠHistor":12662,"DI":12663,"ĠMinas":12664,"ĠVida":12665,"ĠAlto":12666,"rita":12667,"Ġcurrency":12668,"ĠAustria":12669,"Ġclearly":12670,"Ġconectar":12671,"ĠdeclaraÃ§Ã£o":12672,"Che":12673,"Ġinput":12674,"ifies":12675,"ustria":12676,"berto":12677,"Ġmeteo":12678,"iosas":12679,"Ġimproved":12680,"Ġtreated":12681,"Guests":12682,"ĠÃŃcone":12683,"ĠEvents":12684,"Algumas":12685,"Person":12686,"Ġdied":12687,"ĠtÃ¡":12688,"ĠCiÃªncia":12689,"ĠreÃº":12690,"âĢĺ":12691,"ĠOk":12692,"Ġtea":12693,"ansom":12694,"Ġmotivos":12695,"ĠGene":12696,"Ġpensamento":12697,"Ġcontribuir":12698,"ĠLibrary":12699,"Ġnascimento":12700,"friendly":12701,"Ġdie":12702,"ĠPE":12703,"ĠBible":12704,"ĠTX":12705,"unset":12706,"ĠCampo":12707,"ĠAngola":12708,"Ġcomplexo":12709,"Opin":12710,"bed":12711,"oti":12712,"Ã¡mos":12713,"unately":12714,"class":12715,"uracy":12716,"ebook":12717,"Ġ04":12718,"enciar":12719,"ÃŃlio":12720,"olidays":12721,"Consider":12722,"rogas":12723,"reo":12724,"Ġ54":12725,"ousada":12726,"Ġfee":12727,"Ġartistas":12728,"ĠLeia":12729,"ĠDireitos":12730,"Ġterminal":12731,"Pac":12732,"Time":12733,"pcs":12734,"Ġaquis":12735,"itada":12736,"Ġmunicipal":12737,"Ġsuite":12738,"ĠOutlook":12739,"Portugu":12740,"Ġreturned":12741,"Ġevaluate":12742,"Ġjobs":12743,"Ġgentle":12744,"OU":12745,"atto":12746,"Ġmyst":12747,"Ġbiblioteca":12748,"Ġbodies":12749,"Ġlago":12750,"Ġvender":12751,"ĠTit":12752,"ÃŃculo":12753,"Ġ57":12754,"ousness":12755,"Discover":12756,"ĠRefrigerator":12757,"gmail":12758,"Ġancient":12759,"ĠCuba":12760,"Ġparceiro":12761,"ĠMand":12762,"ĠHou":12763,"ĠGE":12764,"azar":12765,"Ġneve":12766,"Ġcamada":12767,"Ġdesigner":12768,"Ġresearchers":12769,"Ġuniversity":12770,"Ġconvenience":12771,"Ġinstrumento":12772,"holm":12773,"ĠJerusalem":12774,"Ġaprimorar":12775,"zinho":12776,"Ġfum":12777,"ĠMah":12778,"ĠBac":12779,"lywood":12780,"Ġenvironments":12781,"iov":12782,"Ġcenters":12783,"Essas":12784,"Ġfinanceiros":12785,"Ġastron":12786,"ĠLittle":12787,"ĠDezembro":12788,"Base":12789,"sem":12790,"ww":12791,"Ġsyn":12792,"itou":12793,"ods":12794,"ĠRose":12795,"Ġentregue":12796,"perature":12797,"Ġhelped":12798,"Ġboost":12799,"2010":12800,"install":12801,"ĠComputer":12802,"ĠSociety":12803,"Oh":12804,"ĠsÃŃm":12805,"Ġmouth":12806,"eco":12807,"ĠRede":12808,"Ġseres":12809,"Ġcolour":12810,"Ġ88":12811,"ĠiPod":12812,"Ġmilhas":12813,"Ġolder":12814,"Ġassessment":12815,"itamos":12816,"Ġcomplic":12817,"ĠDays":12818,"Ġdesativ":12819,"Ġweap":12820,"Ġissued":12821,"Ġpermanecer":12822,"ĠJackson":12823,"Ġfuncionalidade":12824,"ĠAdministraÃ§Ã£o":12825,"Ġspacious":12826,"ĠTexas":12827,"bel":12828,"omatic":12829,"raul":12830,"plica":12831,"ĠJardim":12832,"Ġclara":12833,"rigado":12834,"ĠfazÃª":12835,"ÃŃnas":12836,"rega":12837,"Ġcabe":12838,"Ġprojetado":12839,"ĠMinute":12840,"PreÃ§o":12841,"Ġbrain":12842,"ĠAthens":12843,"Dire":12844,"Pra":12845,"rina":12846,"wear":12847,"Â«":12848,"onym":12849,"Ã§ais":12850,"opol":12851,"Ġbars":12852,"Ġfuncionar":12853,"Ġexemplos":12854,"Ġcorreio":12855,"Ġtourist":12856,"Ġalcance":12857,"Ġfailure":12858,"Hot":12859,"ĠsÃŃ":12860,"ĠSou":12861,"Ġvary":12862,"ĠMÃ©dio":12863,"Ġautonom":12864,"Ġajudam":12865,"ĠGuatemala":12866,"ĠQuad":12867,"Ġgenerated":12868,"Ġconsiste":12869,"Ġpleasure":12870,"iat":12871,"ĠCM":12872,"ocal":12873,"cies":12874,"azine":12875,"ĠprogramaÃ§Ã£o":12876,"ĠApartamento":12877,"Procurar":12878,"2000":12879,"sen":12880,"ĠRua":12881,"Ġestran":12882,"ĠKids":12883,"aires":12884,"Ġhandle":12885,"ĠSkyscanner":12886,"Ġconcerns":12887,"ĠTechnolog":12888,"!!!":12889,"Ġpremium":12890,"ĠequilÃŃbrio":12891,"Ġbegins":12892,"trip":12893,"Ġpoll":12894,"ĠCall":12895,"Ġqueb":12896,"Ã³qu":12897,"plays":12898,"ruit":12899,"Ġintermedi":12900,"Ġvisited":12901,"User":12902,"ĠeconÃ´mica":12903,"Ġexperimentar":12904,"Ġperspective":12905,"\")":12906,"Dr":12907,"hus":12908,"Ġdining":12909,"Ġmit":12910,"ĠSIM":12911,"ĠSelect":12912,"ĠDatas":12913,"Ġteria":12914,"icks":12915,"2011":12916,"Ġgerar":12917,"ĠCultural":12918,"Receba":12919,"ĠlideranÃ§a":12920,"ĠÃ¡rvores":12921,"Full":12922,"ĠDate":12923,"ĠterÃ£o":12924,"Ġintelect":12925,"uche":12926,"Ġstudied":12927,"Ġlimites":12928,"Ġdizem":12929,"ĠAvailable":12930,"idelines":12931,"ĠTaiwan":12932,"ĠDowntown":12933,"Acess":12934,"Ġsizes":12935,"ĠCru":12936,"ecas":12937,"Ã¡ter":12938,"ĠFish":12939,"Ġaquece":12940,"letter":12941,"Ġfinally":12942,"ĠValencia":12943,"Ġtomada":12944,"Ġspecialized":12945,"ĠPapel":12946,"Ġfibra":12947,"Ġstrugg":12948,"Vers":12949,"Ġfax":12950,"Ġnights":12951,"Ġproceed":12952,"Ġyouth":12953,"deaux":12954,"Ġdiagnos":12955,"ĠiStock":12956,"Ġcarta":12957,"Ġlevou":12958,"ĠMaps":12959,"Ġelegant":12960,"ĠMostrar":12961,"FL":12962,"Ġdoors":12963,"ĠTwo":12964,"ĠautomÃ³veis":12965,"Att":12966,"ĠViena":12967,"ĠmantÃ©m":12968,"Ġobjectives":12969,"ĠAfter":12970,"ĠtransformaÃ§Ã£o":12971,"ĠTurkey":12972,"Ġearn":12973,"ĠSmith":12974,"Ġconnections":12975,"ĠestatÃŃsticas":12976,"Perg":12977,"vin":12978,"Ġriv":12979,"eless":12980,"ĠBem":12981,"ĠHal":12982,"Ġrated":12983,"active":12984,"Ġpersist":12985,"Ġ02":12986,"Ġbecoming":12987,"Ã¢mico":12988,"Ġvisiting":12989,"ITE":12990,"Ġpackages":12991,"ĠEscola":12992,"amics":12993,"otion":12994,"ĠLow":12995,"endente":12996,"Ġvalu":12997,"Ġreceiving":12998,"ĠGluten":12999,"Ġenviado":13000,"Ġcomponent":13001,"IVE":13002,"Ġestruturas":13003,"1000":13004,"Cu":13005,"Ġestrange":13006,"Ġouvido":13007,"urgo":13008,"Ġorganized":13009,"ĠAssociaÃ§Ã£o":13010,"ĠPrograms":13011,"Ġimprensa":13012,"Ġborracha":13013,"HOR":13014,"Zone":13015,"eway":13016,"indic":13017,"Ġmesmas":13018,"Ġartista":13019,"Ġcamas":13020,"Ġprinciple":13021,"Ġrealizados":13022,"Ġfounded":13023,"Ġmoving":13024,"Ġrelacionamento":13025,"ĠexigÃªncias":13026,"ĠAvaliaÃ§Ãµes":13027,"Tipo":13028,"Welcome":13029,"ented":13030,"stone":13031,"ĠBÃŃbl":13032,"cher":13033,"ĠOU":13034,"posed":13035,"Ġreceita":13036,"ĠprÃ³ximas":13037,"Ġdepends":13038,"Ġinstruments":13039,"ytical":13040,"Ġculturais":13041,"Ġaluguel":13042,"ĠViagens":13043,"ĠBelgium":13044,"Nov":13045,"ship":13046,"vula":13047,"ĠaÃ§Ãºcar":13048,"Ġcump":13049,"Ġbacter":13050,"urich":13051,"ĠTreat":13052,"ĠKnow":13053,"Ġadquir":13054,"Ġspring":13055,"ĠPortal":13056,"Ġboat":13057,"Ġhelping":13058,"Ġlegit":13059,"Accommod":13060,"ĠEdinburgh":13061,"ascular":13062,"Ġrelevantes":13063,"Ġcaminhada":13064,"Ġadopted":13065,"Ġtag":13066,"eras":13067,"ĠBols":13068,"abiliz":13069,"Ġenfer":13070,"Ġmanaged":13071,"ĠprovÃ¡vel":13072,"iversÃ¡rio":13073,"Ġlaunched":13074,"Ġefect":13075,"clusive":13076,"Ġgratuitos":13077,"Ġdiversidade":13078,"ĠOutdoor":13079,"Ġdedos":13080,"ĠlaboratÃ³rio":13081,"ĠirmÃ£o":13082,"Compartilhe":13083,"Under":13084,"rantes":13085,"oring":13086,"Ġbis":13087,"ĠMission":13088,"ĠTub":13089,"Ġ59":13090,"Ġupgrade":13091,"ancer":13092,"ĠFranc":13093,"Ġcircumstances":13094,"FE":13095,"oÃ§Ãµes":13096,"Ġce":13097,"irÃ£o":13098,"ĠBody":13099,"click":13100,"Inf":13101,"Ġcolumn":13102,"position":13103,"Ġpassion":13104,"Ġartists":13105,"Ġsocio":13106,"Ġ180":13107,"ĠSales":13108,"ĠconveniÃªncia":13109,"urious":13110,"Ġaudience":13111,"enerife":13112,"Ġconstantly":13113,"Ġwarms":13114,"Ġperspectiva":13115,"RES":13116,"log":13117,"idencial":13118,"Ġrol":13119,"Ġdupla":13120,"Ġbranca":13121,"ĠflexÃŃvel":13122,"ĠtendÃªncias":13123,"Ġterritory":13124,"Ġliterature":13125,"ĠOriginal":13126,"Ġloved":13127,"ĠrefeiÃ§Ãµes":13128,"Ġmecanismo":13129,"Nenh":13130,"Ġdada":13131,"isk":13132,"ĠPia":13133,"utical":13134,"ĠEasy":13135,"Ġrelativos":13136,"Ġartist":13137,"Ġwhenever":13138,"Ġconsiderar":13139,"ĠcatÃ¡logo":13140,"ĠAbra":13141,"Ġcujo":13142,"netic":13143,"panhia":13144,"Ġdrugs":13145,"ĠGovernment":13146,"including":13147,"Ġparal":13148,"ĠFic":13149,"Ġusam":13150,"AtravÃ©s":13151,"Ġmilitar":13152,"Reserve":13153,"Ġtaxes":13154,"Ġparticularmente":13155,"Ġvegetarianos":13156,"Ġreconstru":13157,"rizes":13158,"ĠDun":13159,"plan":13160,"Ġstreets":13161,"Ãºcle":13162,"Ãºdio":13163,"icione":13164,"tenimento":13165,"Ġzone":13166,"olesale":13167,"Current":13168,"trans":13169,"Ġduro":13170,"ori":13171,"ĠCott":13172,"appoint":13173,"ĠNon":13174,"ĠVest":13175,"Ġimprimir":13176,"Ã´nus":13177,"Ġincreases":13178,"ĠPeople":13179,"ĠCapital":13180,"Jap":13181,"zinhas":13182,"Ġtried":13183,"Ġcovers":13184,"ĠNÃ¤":13185,"indas":13186,"voluÃ§Ã£o":13187,"Ġ98":13188,"Ġcontinues":13189,"Ġdemands":13190,"ĠÃģgua":13191,"ĠdinÃ¢mica":13192,"ĠOslo":13193,"ushi":13194,"ĠTea":13195,"Ġgraves":13196,"Ġlayer":13197,"Ġvasta":13198,"assem":13199,"ĠApro":13200,"Ġsurpr":13201,"Ġmovimentos":13202,"ĠcomposiÃ§Ã£o":13203,"Ġantecip":13204,"ĠBudapest":13205,"ĠSweden":13206,"DB":13207,"uw":13208,"xic":13209,"Ġdano":13210,"Ġfilled":13211,"ĠSL":13212,"Ġnoturn":13213,"acks":13214,"ÃŃtulos":13215,"ĠhistÃ³rias":13216,"Ġadding":13217,"Ġapresentado":13218,"Ġcarefully":13219,"Ġtables":13220,"Ġrespir":13221,"ĠPanama":13222,"hemical":13223,"ĠQuartos":13224,"fi":13225,"arina":13226,"Ġsorte":13227,"ĠSap":13228,"alizada":13229,"Ġcorros":13230,"Ã³gica":13231,"ĠAssist":13232,"ĠAviv":13233,"Ġknew":13234,"Ġbrasileira":13235,"ĠÃ¡lbum":13236,"ĠChampions":13237,"Ġmyself":13238,"ĠAk":13239,"urre":13240,"acos":13241,"ÃŃne":13242,"ebra":13243,"ĠÃºn":13244,"roduÃ§Ã£o":13245,"ĠUpdate":13246,"Ġcatalog":13247,"Er":13248,"hot":13249,"ĠLearn":13250,"Ġcontained":13251,"inding":13252,"InglÃªs":13253,"Ġlivres":13254,"ĠSpace":13255,"ĠapresentaÃ§Ãµes":13256,"Ġfizeram":13257,"cf":13258,"Ġbab":13259,"Ġ(âĢľ":13260,"ponÃŃvel":13261,"Ġformation":13262,"Ġserving":13263,"Ġcompletos":13264,"ĠSuperior":13265,"Ġbanks":13266,"Ġensuring":13267,"ITY":13268,"Ġcourt":13269,"Apartamento":13270,"Ġcoordin":13271,"ĠcontÃŃnua":13272,"Save":13273,"tudo":13274,"Ġpobre":13275,"Ġnestas":13276,"Ġvosso":13277,"igen":13278,"ĠOak":13279,"Ġweak":13280,"Ġnota":13281,"ruck":13282,"Ġ700":13283,"Ġinspect":13284,"Ġviewing":13285,"Resposta":13286,"Ġconcerned":13287,"Obtenha":13288,"PU":13289,"born":13290,"grad":13291,"lights":13292,"Ġreemb":13293,"ĠHels":13294,"Ġ51":13295,"AMENT":13296,"Ġbatalha":13297,"Ġmedicine":13298,"Ġcompromet":13299,"Ġcontrolled":13300,"Ġenfrent":13301,"Ġsectors":13302,"ĠacadÃªm":13303,"Long":13304,"Ġdrag":13305,"esas":13306,"Ġpovos":13307,"ĠThailand":13308,"ĠFevereiro":13309,"Ġexame":13310,"ĠVatic":13311,"amba":13312,"Ġ1980":13313,"ĠBahia":13314,"ĠtÃ³pico":13315,"Ġintelligence":13316,"IES":13317,"itis":13318,"ĠSK":13319,"ocial":13320,"Ġplate":13321,"ĠLevel":13322,"Ġtopics":13323,"Ġtechnique":13324,"Ġiniciativa":13325,"Â».":13326,"Ġregulations":13327,"ĠlanÃ§ado":13328,"Ġperfeitamente":13329,"ĠAzul":13330,"God":13331,"amas":13332,"ĠPic":13333,"Ġacceler":13334,"ĠStyle":13335,"Ġutilizadas":13336,"Ġidentification":13337,"Ġorden":13338,"ÃĩÃķES":13339,"ĠAutomatic":13340,"Ġdivided":13341,"Ġcollaboration":13342,"Ġinfraestrutura":13343,"Ġbrilhante":13344,"Ġincome":13345,"ĠSaturday":13346,"ĠRico":13347,"Ġabroad":13348,"ryer":13349,"Ġdirector":13350,"Ġdetermined":13351,"Ġselecionados":13352,"ĠtendÃªncia":13353,"Finally":13354,"%),":13355,"ĠpetrÃ³leo":13356,"Ġsaving":13357,"ested":13358,"Ġring":13359,"Ġprec":13360,"ĠChron":13361,"Ã³sitos":13362,"Ġraw":13363,"Ġretail":13364,"ĠPoland":13365,"Ġfinalmente":13366,"Ġsatellite":13367,"ĠdimensÃ£o":13368,"Ġpromotion":13369,"Ġdemocra":13370,"page":13371,"Ġboy":13372,"etos":13373,"Ġprove":13374,"Ġatu":13375,"Ġdesapar":13376,"ĠStorage":13377,"bergues":13378,"periores":13379,"Ġcertificado":13380,"Ġpromov":13381,"shot":13382,"Ġconceitos":13383,"ĠBrown":13384,"Ġfolhas":13385,"Ġimpossible":13386,"ĠHomem":13387,"Ġstructures":13388,"Luxury":13389,"Ġlandscape":13390,"Selecione":13391,"hour":13392,"uum":13393,"ĠVit":13394,"Ġlock":13395,"Ġcamisa":13396,"Prot":13397,"Ġcustomize":13398,"Ġsupporting":13399,"Ġpropag":13400,"ĠScot":13401,"Ġrecomendado":13402,"Ġtiveram":13403,"Ġexamples":13404,"Ġtransmission":13405,"Ġdetalhadas":13406,"Ġaproveitar":13407,"nas":13408,"Ġbought":13409,"ĠAÃ§o":13410,"ĠAff":13411,"ribe":13412,"ĠGuard":13413,"Esper":13414,"Ġconceb":13415,"German":13416,"Mor":13417,"yon":13418,"ĠCairo":13419,"obs":13420,"Ġfollows":13421,"Ġfinanceira":13422,"ĠdimensÃµes":13423,"Ġlembrar":13424,"Ġconcrete":13425,"ĠAcademy":13426,"Ġannounced":13427,"Ġpregnancy":13428,"Sur":13429,"gage":13430,"night":13431,"rafo":13432,"ĠEL":13433,"ifi":13434,"ardins":13435,"ambul":13436,"ĠcarÃ¡ter":13437,"ountry":13438,"Estou":13439,"jection":13440,"Ġbottle":13441,"domin":13442,"ĠEscrit":13443,"Ġsubjects":13444,"ĠelÃ©trico":13445,"xy":13446,"inet":13447,"Ġsai":13448,"ĠSciences":13449,"Ġprovision":13450,"ĠFel":13451,"Ġcontam":13452,"ĠresÃŃduos":13453,"vios":13454,"Ġrelativa":13455,"Ġverifique":13456,"Ġcriada":13457,"Ġcalib":13458,"Ã¼r":13459,"Ġoccurs":13460,"Ġsolicitar":13461,"Ġfootball":13462,"ĠFundaÃ§Ã£o":13463,"Quarto":13464,"Ġdesconhec":13465,"ĠExecutive":13466,"dong":13467,"Ġnation":13468,"ĠSide":13469,"imb":13470,"ĠBL":13471,"ĠRica":13472,"ĠintervenÃ§Ã£o":13473,"Ġ58":13474,"Ġphilos":13475,"ĠPrevious":13476,"icanos":13477,"ĠviolaÃ§Ã£o":13478,"Ġtroubles":13479,"Ġflexibilidade":13480,"Ġcolaboradores":13481,"Ġrecuperar":13482,"ĠÃ³timo":13483,"Ġcorrida":13484,"Ġwaiting":13485,"Ġrevestimento":13486,"ĠDatasheet":13487,"Orig":13488,"you":13489,"ĠSobre":13490,"ĠTol":13491,"ĠRu":13492,"âĢº":13493,"ĠLugares":13494,"ĠGas":13495,"Ġatras":13496,"ĠWednesday":13497,"Ġdespite":13498,"Compar":13499,"Ġsauna":13500,"Ġduplo":13501,"enger":13502,"Ġcontinued":13503,"Ġrecorded":13504,"Ġmissing":13505,"Ġplatforms":13506,"Model":13507,"ĠMinistry":13508,"Ġdiabetes":13509,"Ġingress":13510,"ĠIron":13511,"ĠLor":13512,"Ãµem":13513,"ĠVic":13514,"ximaÃ§Ã£o":13515,"Ġ69":13516,"Ġanywhere":13517,"Ġdelete":13518,"Ġoverview":13519,"ventura":13520,"Ġqueria":13521,"Ġeffectively":13522,"ĠSki":13523,"ĠLuis":13524,"Ġspecified":13525,"Ã©ns":13526,"Ġfantastic":13527,"Ġlavar":13528,"ĠdÃºvidas":13529,"ĠNÃ¤he":13530,"Vamos":13531,"operat":13532,"Ġdram":13533,"inclu":13534,"Ġeast":13535,"Ġfan":13536,"Ã§ada":13537,"Ã©ia":13538,"ĠPub":13539,"ĠBom":13540,"ĠNations":13541,"Ġarredores":13542,"Ġinterc":13543,"Ġencer":13544,"Ġsetores":13545,"Ġrepresents":13546,"Ġbases":13547,"Ġprotein":13548,"ĠBrook":13549,"Ġtentando":13550,"ĠAlexand":13551,"PRO":13552,"VER":13553,"hat":13554,"Ġinhab":13555,"emor":13556,"ĠCzech":13557,"ecemos":13558,"ĠBog":13559,"Ġprolong":13560,"Ġforth":13561,"ĠGon":13562,"viamente":13563,"Ġnotes":13564,"ĠrecÃ©m":13565,"Ġequal":13566,"ĠAmericas":13567,"ĠdiscussÃ£o":13568,"Ġsmartphones":13569,"Ġambientais":13570,"Ġax":13571,"Ġdores":13572,"Ġtamanhos":13573,"inity":13574,"Ġnele":13575,"rator":13576,"Ġlisten":13577,"Ġconsiderada":13578,"Ġfacilidade":13579,"Ġfundos":13580,"Ġintroduz":13581,"ĠedifÃŃcios":13582,"ĠgrÃ¡fico":13583,"Ġphotograph":13584,"ĠParliament":13585,"ĠCarmen":13586,"Ber":13587,"Next":13588,"ĠBali":13589,"abel":13590,"Ġjack":13591,"Ġcheio":13592,"Ġacho":13593,"Ġmalha":13594,"Ġmemor":13595,"Ġearlier":13596,"estrela":13597,"Ġconcepts":13598,"ĠMunique":13599,"ĠTrabalho":13600,"ĠiBooked":13601,"GR":13602,"bane":13603,"fs":13604,"estÃµes":13605,"ĠDol":13606,"ĠGardens":13607,"claim":13608,"Ġamenities":13609,"ĠAlicante":13610,"ĠEstre":13611,"iverpool":13612,"Ġcuisine":13613,"ĠMedical":13614,"ĠSkype":13615,"Ġquantity":13616,"Ġcobre":13617,"Ġperfectly":13618,"ĠAddress":13619,"ĠEvang":13620,"Recomende":13621,"ĠIndonesia":13622,"FP":13623,"Poss":13624,"Ġfestival":13625,"Ġindo":13626,"Ġvinhos":13627,"ĠAo":13628,"ĠAdequado":13629,"ĠToshiba":13630,"tero":13631,"ĠNossa":13632,"ĠVeja":13633,"ĠprevenÃ§Ã£o":13634,"ÃŃnios":13635,"Ġportfol":13636,"ĠconstruÃŃdo":13637,"2008":13638,"Ġapoi":13639,"ĠconcentraÃ§Ã£o":13640,"Ġfotografia":13641,"ĠSingle":13642,"rÃ¡ul":13643,"ĠProteÃ§Ã£o":13644,"!)":13645,"South":13646,"iÃ©":13647,"Ġdrogas":13648,"Ġpiso":13649,"ĠDJ":13650,"Ġnotas":13651,"Ġretorno":13652,"Ġfacilitar":13653,"ACK":13654,"Ġlessons":13655,"Ġproporcionar":13656,"ĠinteligÃªncia":13657,"Ġfuncionalidades":13658,"Power":13659,"ondo":13660,"ĠBomb":13661,"ĠHomes":13662,"ĠNam":13663,"Ġcash":13664,"ituiÃ§Ã£o":13665,"ĠCliente":13666,"weight":13667,"Ġequipes":13668,"ĠXX":13669,"othing":13670,"ĠHistÃ³ria":13671,"Ġfigure":13672,"Ġexhibition":13673,"City":13674,"Ġtente":13675,"Ġpior":13676,"Ġfug":13677,"ĠHan":13678,"Ġtransc":13679,"Ġmetro":13680,"Ġblind":13681,"ĠnegociaÃ§Ã£o":13682,"lah":13683,"2009":13684,"Portugal":13685,"ĠTelef":13686,"Ġcopyright":13687,"Ġfiltro":13688,"Ġataques":13689,"Ġinimigos":13690,"ĠanÃ¡lises":13691,"ĠFactory":13692,"Ã³nico":13693,"ificador":13694,"aily":13695,"Ġtrails":13696,"ĠZIP":13697,"Ġfinished":13698,"ĠAbril":13699,"Ġbread":13700,"Ã±ol":13701,"ĠKorea":13702,"ÃŃncipe":13703,"Apr":13704,"vamos":13705,"ĠCell":13706,"ĠSW":13707,"Ġestoque":13708,"char":13709,"Ġstri":13710,"Ġentidades":13711,"ianabol":13712,"Ġassass":13713,"Ġpossivelmente":13714,"ĠHeav":13715,"Ġexistente":13716,"ĠpreferÃªncias":13717,"Ġatualizar":13718,"Ġattacks":13719,"Jetradar":13720,"sol":13721,"ĠScreen":13722,"ragem":13723,"ĠPinterest":13724,"Ġyellow":13725,"ÃŃr":13726,"ĠNorm":13727,"Ġautores":13728,"ĠZo":13729,"ĠConc":13730,"Ġsigned":13731,"ĠCooper":13732,"Ġtablets":13733,"ĠPraÃ§a":13734,"Ġcontrast":13735,"Ġharmon":13736,"Ġcorrente":13737,"holders":13738,"ĠJerusalÃ©m":13739,"orter":13740,"Ġcaixas":13741,"ometers":13742,"ĠBear":13743,"Ġusage":13744,"ditos":13745,"arium":13746,"Ġprimeiras":13747,"Ġreservados":13748,"ĠInstrum":13749,"ĠÃ³pt":13750,"Ġaffili":13751,"ĠestimaÃ§Ã£o":13752,"Ġclothes":13753,"Ġapanhar":13754,"Ġveter":13755,"ĠBright":13756,"ĠTrat":13757,"Ġformed":13758,"Ġmodule":13759,"ixel":13760,"Ġ05":13761,"ĠTrain":13762,"jeÃ§Ã£o":13763,"Ġnutri":13764,"ĠCondiÃ§Ãµes":13765,"Ġplanejamento":13766,"ĠlÃŃquido":13767,"BD":13768,"Mult":13769,"Pap":13770,"Ġtum":13771,"esper":13772,"Ġfemale":13773,"Ġans":13774,"ĠIM":13775,"Ġencounter":13776,"Ġgenu":13777,"ĠcomunicaÃ§Ãµes":13778,"Ġcrucial":13779,"Ġcosm":13780,"Saint":13781,"VID":13782,"anÃ§o":13783,"rain":13784,"Ġproport":13785,"users":13786,"umps":13787,"Ġchamp":13788,"Ã©rito":13789,"Ġaltos":13790,"ĠINFOR":13791,"Ã©lgica":13792,"ophy":13793,"Ban":13794,"Sk":13795,"Ġboca":13796,"ĠVag":13797,"ĠRey":13798,"Ġguitar":13799,"ĠTrack":13800,"Ġoferecidos":13801,"Ġinteressado":13802,"roller":13803,"ĠindivÃŃduo":13804,"quiry":13805,"ĠtÃ³picos":13806,"FO":13807,"hum":13808,"ĠSara":13809,"ifier":13810,"ĠUPD":13811,"ĠChiang":13812,"ĠcertificaÃ§Ã£o":13813,"ĠLaud":13814,"Ġcustomized":13815,"uckland":13816,"Ġconfirmed":13817,"ĠTourism":13818,"ĠresidÃªncia":13819,"wareness":13820,"ĠTokyo":13821,"bud":13822,"tion":13823,"ÃĬ":13824,"ĠCook":13825,"Ġcertas":13826,"ĠHeart":13827,"Ġinvestimentos":13828,"Ġconnosco":13829,"Ġapresentou":13830,"Ġconfigurar":13831,"Ġdiscussion":13832,"ĠFernando":13833,"Ang":13834,"hal":13835,"Ġtan":13836,"izer":13837,"Ġdisappoint":13838,"Compl":13839,"Ġacts":13840,"ISA":13841,"ÃŃlios":13842,"Ġpreferences":13843,"Ġpermanent":13844,"ĠSmall":13845,"Ġtechnological":13846,"Ġpintura":13847,"Ġleadership":13848,"ĠesqueÃ§a":13849,"MÃ¡":13850,"Ped":13851,"ĠSend":13852,"Ġjulg":13853,"earning":13854,"Ġabra":13855,"ateral":13856,"Ġanalytical":13857,"Ġsevere":13858,"ÃŃmp":13859,"ĠAngel":13860,"Ġmorrer":13861,"Ġweekend":13862,"ĠcientÃŃfica":13863,"ĠCatholic":13864,"inado":13865,"essura":13866,"ĠEar":13867,"enso":13868,"Ġentered":13869,"ratic":13870,"ĠComit":13871,"Ġoperacionais":13872,"Ġliga":13873,"ĠTransfer":13874,"Ġgenerate":13875,"Ġurg":13876,"Trabal":13877,"%).":13878,"?\"":13879,"Ġpowder":13880,"Ġanex":13881,"ulhos":13882,"depend":13883,"Ġdefinition":13884,"ĠBordeaux":13885,"Ġcub":13886,"esterdÃ£o":13887,"acial":13888,"ulu":13889,"Ġaconselh":13890,"Ġpoderiam":13891,"ĠmÃ©dica":13892,"Photos":13893,"Ġespecificamente":13894,"ĠÃ¡rvore":13895,"Create":13896,"Ah":13897,"Nome":13898,"ĠCost":13899,"ĠER":13900,"ĠLar":13901,"ĠLamp":13902,"Ġnoise":13903,"Ġperc":13904,"pecificaÃ§Ãµes":13905,"ĠArc":13906,"Ġconced":13907,"cesa":13908,"Ġsignificativa":13909,"Ġcreates":13910,"ĠreproduÃ§Ã£o":13911,"ĠAtlanta":13912,"Ġsongs":13913,"ĠTerminal":13914,"ĠcircunstÃ¢ncias":13915,"Ġpull":13916,"ader":13917,"Ġtheory":13918,"olos":13919,"ĠMÃºs":13920,"irty":13921,"ĠTs":13922,"ĠVib":13923,"balagem":13924,"Ġtrabalham":13925,"Ġequipados":13926,"Ġcertos":13927,"Ġadministration":13928,"Ġoferecido":13929,"Ġdecidir":13930,"ĠCategories":13931,"ĠPaÃŃses":13932,"rise":13933,"Ġtrial":13934,"Ġpush":13935,"ĠREC":13936,"ĠLA":13937,"vely":13938,"ĠUnidas":13939,"Ġprompt":13940,"Ġhero":13941,"Ġprojecto":13942,"Ġgerenciar":13943,"Ġsujeitos":13944,"Ġrevealed":13945,"Il":13946,"enix":13947,"icÃ¡cia":13948,"Ġbiod":13949,"ĠFord":13950,"Ġsuave":13951,"ĠAlm":13952,"Ġgrade":13953,"Ġdiscrim":13954,"Ġinstitut":13955,"ĠavanÃ§ada":13956,"Ġdisponibilizados":13957,"Alo":13958,"tons":13959,"Ġcraft":13960,"Ġanual":13961,"ĠTweet":13962,"intendo":13963,"ĠAmor":13964,"ĠQU":13965,"Ġsched":13966,"Ġchamadas":13967,"Location":13968,"ĠautorizaÃ§Ã£o":13969,"ĠTurk":13970,"ĠHarbor":13971,"ĠJean":13972,"Ġmillions":13973,"Ġmale":13974,"Ġ130":13975,"Thanks":13976,"ondas":13977,"ergy":13978,"Ġsabem":13979,"Ġenvie":13980,"Ġdiretor":13981,"Ġdesemp":13982,"ĠeletrÃ´nicos":13983,"ĠDaniel":13984,"Ġfest":13985,"ĠTA":13986,"istan":13987,"ĠFlo":13988,"ĠGAM":13989,"Ġjustice":13990,"Ġcomputers":13991,"ĠanalÃŃt":13992,"Ġkeeping":13993,"Ġrecognition":13994,"ĠIrlanda":13995,"Ġrevista":13996,"Ġcarregar":13997,"Ġtalking":13998,"Ġatmosfera":13999,"ĠaÃŃ":14000,"otor":14001,"ivar":14002,"ĠnotificaÃ§Ã£o":14003,"allas":14004,"ĠComb":14005,"Ġsubsequ":14006,"cordo":14007,"Ġcombining":14008,"Ġmoved":14009,"Ġ1996":14010,"ĠGener":14011,"ĠgravaÃ§Ã£o":14012,"Ġamplamente":14013,"Apartamentos":14014,"Ġescrita":14015,"Ġvariables":14016,"GO":14017,"fal":14018,"overy":14019,"rence":14020,"Ã¡ps":14021,"Ġespos":14022,"uble":14023,"Ġservir":14024,"ĠClient":14025,"Ġpoleg":14026,"Ġwebcam":14027,"Ġbuffet":14028,"Ġconhecidas":14029,"ĠArtes":14030,"Ġexpectations":14031,"Ġvaranda":14032,"Ġsuffering":14033,"Ġaventura":14034,"bilidade":14035,"enburg":14036,"omi":14037,"Ġcomigo":14038,"ĠPlease":14039,"ĠTuesday":14040,"ĠRosa":14041,"ĠDanÃ§a":14042,"Ġestabilidade":14043,"Ġobvious":14044,"Ġvisible":14045,"Ġcasino":14046,"Ġhomes":14047,"Ġconvin":14048,"Obter":14049,"Ġwheel":14050,"rogen":14051,"ĠCrianÃ§as":14052,"ĠParlamento":14053,"Popular":14054,"MB":14055,"Very":14056,"wall":14057,"etch":14058,"ĠDLL":14059,"ĠHub":14060,"ĠHaw":14061,"Ġsuperiores":14062,"Ġrecept":14063,"Ġaccuracy":14064,"ĠThursday":14065,"ASS":14066,"Ġfornecem":14067,"ĠCathedral":14068,"Enter":14069,"Ġhearts":14070,"Among":14071,"cams":14072,"gal":14073,"pto":14074,"sor":14075,"Ġice":14076,"Ġoz":14077,"ĠBaix":14078,"ĠRh":14079,"ĠDES":14080,"ĠLav":14081,"Ġarbit":14082,"allel":14083,"ĠChap":14084,"Ġespet":14085,"Ġchoosing":14086,"Ġadequados":14087,"ĠDeclar":14088,"Ġmoedas":14089,"Ġflexibility":14090,"ĠWarsaw":14091,"Ġsweet":14092,"ĠbilhÃµes":14093,"ĠCay":14094,"Ġvindo":14095,"Ġentend":14096,"Ġrodo":14097,"ĠPlano":14098,"ĠClique":14099,"Ġinfection":14100,"Ġworry":14101,"Such":14102,"ĠSenhora":14103,"ĠPho":14104,"Ġreven":14105,"Ġgolf":14106,"Ġruns":14107,"Ġstable":14108,"ighter":14109,"2020":14110,"Ġcertificate":14111,"Ġtornam":14112,"iquei":14113,"rowse":14114,"Ġpropostas":14115,"Ġsonho":14116,"Ġrazo":14117,"ĠObserv":14118,"Ġfinanceiro":14119,"ĠemergÃªncia":14120,"ĠGraph":14121,"ĠMediterr":14122,"Ġhospit":14123,"'d":14124,"NT":14125,"fall":14126,"market":14127,"table":14128,"ecia":14129,"ĠAviso":14130,"ersey":14131,"Ã³f":14132,"ĠGaut":14133,"Ġelet":14134,"Ġconsole":14135,"Ġcargo":14136,"pose":14137,"retanto":14138,"Access":14139,"ĠMasters":14140,"Ġpossibilidades":14141,"Ġidiomas":14142,"Ġmeasurement":14143,"Ġtestemun":14144,"EI":14145,"Ġ<":14146,"Ġstrict":14147,"Ġcontendo":14148,"âĢĿ)":14149,"Ġteacher":14150,"ĠConditions":14151,"Ġpesquisadores":14152,"Ġmaintained":14153,"ĠVisit":14154,"Ġproposal":14155,"ĠconclusÃ£o":14156,"Tourism":14157,"Ġbicicleta":14158,"Nesse":14159,"tr":14160,"Ġic":14161,"Ġquentes":14162,"Ġgig":14163,"ĠDal":14164,"Ġtrend":14165,"Ġcaps":14166,"Ġseguros":14167,"Ġfinalidade":14168,"Ġgraphics":14169,"ĠmÃ³dulo":14170,"ĠesterÃ³":14171,"ĠHouston":14172,"Opt":14173,"Sl":14174,"rey":14175,"icians":14176,"ĠRab":14177,"chas":14178,"Ã¡sticos":14179,"Ġpositions":14180,"Ġhidden":14181,"ĠMinh":14182,"ĠField":14183,"Ġestrang":14184,"ĠNi":14185,"ĠVars":14186,"achi":14187,"resse":14188,"Ġsignal":14189,"Star":14190,"ĠOrle":14191,"Ġtitular":14192,"Ġratings":14193,"ĠDirective":14194,"Ġanteriormente":14195,"Ġpraticamente":14196,"ĠSummer":14197,"Ġdoubt":14198,"ĠBÃŃblia":14199,"BO":14200,"Ġdefe":14201,"ĠSus":14202,"Ġhall":14203,"Ġparedes":14204,"istos":14205,"Ġdesired":14206,"Ġareia":14207,"ĠStadium":14208,"Ġcapa":14209,"Ġresultante":14210,"ĠManage":14211,"ĠPoly":14212,"Ġshel":14213,"ĠVerÃ£o":14214,"ĠTurquia":14215,"ĠlÃŃnguas":14216,"John":14217,"Segundo":14218,"ĠAluguÃ©is":14219,"Ġlinear":14220,"ĠTechnologies":14221,"Bet":14222,"eiramente":14223,"fing":14224,"rack":14225,"ĠMother":14226,"ĠUkra":14227,"Ã¢nc":14228,"Ġimpuls":14229,"Ġ03":14230,"acterÃŃsticas":14231,"ĠMalta":14232,"ĠTurismo":14233,"Ġgravidez":14234,"Ġpredict":14235,"Ġacompanhar":14236,"raulic":14237,"FA":14238,"Live":14239,"stood":14240,"acÃªut":14241,"ĠTenerife":14242,"Ġouv":14243,"resh":14244,"Ġencant":14245,"Ġencontrou":14246,"ĠPlatform":14247,"Ġerrado":14248,"ĠBris":14249,"Ã´nico":14250,"Ġlocalizados":14251,"Ġfoundation":14252,"Ġsignificado":14253,"ĠligaÃ§Ãµes":14254,"Ġmodernos":14255,"imentaÃ§Ã£o":14256,"iabilidade":14257,"Ġrentals":14258,"ĠcotaÃ§Ã£o":14259,"Ġsapatos":14260,"gets":14261,"itudes":14262,"emon":14263,"ĠCou":14264,"teries":14265,"elli":14266,"Ġassets":14267,"encing":14268,"ĠAdventure":14269,"Ġlimits":14270,"Ġenglish":14271,"Ġqueremos":14272,"ĠmilÃŃmetros":14273,"Ġcomponente":14274,"Ġtransformar":14275,"Ġmarked":14276,"Ġreasonable":14277,"Support":14278,"Ġexploitation":14279,"Ġfans":14280,"Ġnative":14281,"Ġbela":14282,"ĠPain":14283,"ĠBingo":14284,"ulse":14285,"Ġrandom":14286,"Ġfrances":14287,"aze":14288,"ĠAlp":14289,"Ġtrends":14290,"ĠExport":14291,"ĠZurich":14292,"Ġetapa":14293,"Atualmente":14294,"ĠUsado":14295,"ĠFilter":14296,"ĠLoja":14297,"ĠBathroom":14298,"Ġintellectual":14299,"Ġacrescent":14300,"Ġcorrigir":14301,"Ġuncomfortable":14302,"LO":14303,"gos":14304,"Ãªnd":14305,"ĠLot":14306,"ogram":14307,"haus":14308,"Ġleitor":14309,"ĠAlc":14310,
[...]
