{"<s>":0,"<pad>":1,"</s>":2,"<unk>":3,"<mask>":4,"!":5,"\"":6,"#":7,"$":8,"%":9,"&":10,"'":11,"(":12,")":13,"*":14,"+":15,",":16,"-":17,".":18,"/":19,"0":20,"1":21,"2":22,"3":23,"4":24,"5":25,"6":26,"7":27,"8":28,"9":29,":":30,";":31,"<":32,"=":33,">":34,"?":35,"@":36,"A":37,"B":38,"C":39,"D":40,"E":41,"F":42,"G":43,"H":44,"I":45,"J":46,"K":47,"L":48,"M":49,"N":50,"O":51,"P":52,"Q":53,"R":54,"S":55,"T":56,"U":57,"V":58,"W":59,"X":60,"Y":61,"Z":62,"[":63,"\\":64,"]":65,"^":66,"_":67,"`":68,"a":69,"b":70,"c":71,"d":72,"e":73,"f":74,"g":75,"h":76,"i":77,"j":78,"k":79,"l":80,"m":81,"n":82,"o":83,"p":84,"q":85,"r":86,"s":87,"t":88,"u":89,"v":90,"w":91,"x":92,"y":93,"z":94,"{":95,"|":96,"}":97,"~":98,"¡":99,"¢":100,"£":101,"¤":102,"¥":103,"¦":104,"§":105,"¨":106,"©":107,"ª":108,"«":109,"¬":110,"®":111,"¯":112,"°":113,"±":114,"²":115,"³":116,"´":117,"µ":118,"¶":119,"·":120,"¸":121,"¹":122,"º":123,"»":124,"¼":125,"½":126,"¾":127,"¿":128,"À":129,"Á":130,"Â":131,"Ã":132,"Ä":133,"Å":134,"Æ":135,"Ç":136,"È":137,"É":138,"Ê":139,"Ë":140,"Ì":141,"Í":142,"Î":143,"Ï":144,"Ð":145,"Ñ":146,"Ò":147,"Ó":148,"Ô":149,"Õ":150,"Ö":151,"×":152,"Ø":153,"Ù":154,"Ú":155,"Û":156,"Ü":157,"Ý":158,"Þ":159,"ß":160,"à":161,"á":162,"â":163,"ã":164,"ä":165,"å":166,"æ":167,"ç":168,"è":169,"é":170,"ê":171,"ë":172,"ì":173,"í":174,"î":175,"ï":176,"ð":177,"ñ":178,"ò":179,"ó":180,"ô":181,"õ":182,"ö":183,"÷":184,"ø":185,"ù":186,"ú":187,"û":188,"ü":189,"ý":190,"þ":191,"ÿ":192,"Ā":193,"ā":194,"Ă":195,"ă":196,"Ą":197,"ą":198,"Ć":199,"ć":200,"Ĉ":201,"ĉ":202,"Ċ":203,"ċ":204,"Č":205,"č":206,"Ď":207,"ď":208,"Đ":209,"đ":210,"Ē":211,"ē":212,"Ĕ":213,"ĕ":214,"Ė":215,"ė":216,"Ę":217,"ę":218,"Ě":219,"ě":220,"Ĝ":221,"ĝ":222,"Ğ":223,"ğ":224,"Ġ":225,"ġ":226,"Ģ":227,"ģ":228,"Ĥ":229,"ĥ":230,"Ħ":231,"ħ":232,"Ĩ":233,"ĩ":234,"Ī":235,"ī":236,"Ĭ":237,"ĭ":238,"Į":239,"į":240,"İ":241,"ı":242,"Ĳ":243,"ĳ":244,"Ĵ":245,"ĵ":246,"Ķ":247,"ķ":248,"ĸ":249,"Ĺ":250,"ĺ":251,"Ļ":252,"ļ":253,"Ľ":254,"ľ":255,"Ŀ":256,"ŀ":257,"Ł":258,"ł":259,"Ń":260,"Ġa":261,"Ġt":262,"Ġd":263,"es":264,"Ġc":265,"Ġp":266,"in":267,"er":268,"Ġs":269,"</":270,"čĊ":271,"Ġ</":272,"Ġo":273,"en":274,"ar":275,"or":276,"on":277,"Ġe":278,"Ġm":279,"os":280,"Ġth":281,"is":282,"an":283,"Ġde":284,"Ġf":285,"re":286,"as":287,"al":288,"at":289,"it":290,"Ġb":291,"Ġn":292,"Ġthe":293,"om":294,"ic":295,"ad":296,"ent":297,"Ġin":298,"Ġw":299,"Ġh":300,"ro":301,"Ġl":302,"el":303,"qu":304,"Ġan":305,"Ġu":306,"Ã£":307,"Ġv":308,"ou":309,"Ã£o":310,"Ã§":311,"ed":312,"ion":313,"id":314,"am":315,"Ġto":316,"il":317,"Ġof":318,"Ġcom":319,"ing":320,"Ġg":321,"em":322,"Ġand":323,"ri":324,"est":325,"Ġre":326,"Ġqu":327,"ra":328,"Ġpar":329,"ec":330,"im":331,"ot":332,"et":333,"ol":334,"Ã¡":335,"Ã©":336,"Ġem":337,"Ġcon":338,"ia":339,"Ġr":340,"ur":341,"ut":342,"Ġse":343,"ac":344,"iv":345,"Ġdo":346,"Ġpro":347,"Ã§Ã£o":348,"us":349,"Ġum":350,"Ġy":351,"le":352,"Ġpara":353,"ess":354,"Ġfor":355,"ir":356,"ul":357,"Ġque":358,"Ġal":359,"ig":360,"ant":361,"Ġas":362,"oc":363,"Ġyou":364,"un":365,"od":366,"ÃŃ":367,"Ġis":368,"ation":369,"Ġda":370,"ter":371,"do":372,"Ġma":373,"Ġsu":374,"Ġest":375,"ist":376,"Ġex":377,"Ġon":378,"Ġst":379,"Ġj":380,"Ġno":381,"if":382,"Ãª":383,"ers":384,"ort":385,"ag":386,"Ã³":387,"Ġch":388,"ce":389,"aÃ§Ã£o":390,"ve":391,"um":392,"ab":393,"ith":394,"st":395,"ente":396,"ade":397,"iz":398,"Ġat":399,"pl":400,"Ġwith":401,"Ġen":402,"ch":403,"Ġhot":404,"ado":405,"Ġos":406,"Ġpr":407,"Ġbe":408,"Ãµ":409,"Ġk":410,"Ġwh":411,"Ãµes":412,"Ġus":413,"Ġac":414,"Ġap":415,"ow":416,"Ġuma":417,"Ġser":418,"Ġit":419,"ĠÃ©":420,"ver":421,"Ġfr":422,"Ġor":423,"ay":424,"ect":425,"and":426,"ly":427,"ip":428,"Ġcont":429,"per":430,"Ġres":431,"Ġdes":432,"Ã§Ãµes":433,"ento":434,"ap":435,"og":436,"Ġthat":437,"Ġne":438,"Ġes":439,"idade":440,"Ġcomp":441,"ens":442,"Ġar":443,"Ġhotel":444,"ud":445,"Ġtr":446,"ill":447,"ados":448,"to":449,"end":450,"ity":451,"th":452,"for":453,"ada":454,"Ġpor":455,"Ġwe":456,"Ġad":457,"vel":458,"Ġsh":459,"ct":460,"Ġper":461,"ica":462,"ei":463,"ci":464,"Ġso":465,"Ġna":466,"Ġim":467,"ost":468,"Ġcl":469,"oss":470,"Ġare":471,"op":472,"Ġpl":473,"Ġun":474,"ate":475,"ht":476,"Ġpre":477,"ĠnÃ£o":478,"Ġyour":479,"Ġcan":480,"port":481,"ta":482,"ere":483,"Ġcar":484,"Ġfrom":485,"du":486,"Ġvoc":487,"Ġou":488,"Ġab":489,"Ġle":490,"ĠvocÃª":491,"Ġam":492,"ib":493,"ial":494,"Ġdis":495,"Ġthis":496,"Ġmais":497,"Ġpod":498,"te":499,"Ġsp":500,"ais":501,"Ãº":502,"ies":503,"Ġtem":504,"Ġby":505,"Ã¡ri":506,"vi":507,"form":508,"ug":509,"Ġman":510,"ust":511,"ire":512,"Ġnot":513,"ine":514,"ando":515,"Ġro":516,"cia":517,"ho":518,"ha":519,"Ġcomo":520,"Ġinter":521,"ite":522,"ores":523,"ast":524,"ok":525,"Ġi":526,"Ġent":527,"ass":528,"Ġout":529,"ive":530,"av":531,"ito":532,"Ġmar":533,"de":534,"ure":535,"Ġgr":536,"io":537,"ment":538,"cl":539,"Ġel":540,"ual":541,"ont":542,"Ġall":543,"ult":544,"Ġdos":545,"art":546,"Ãªn":547,"Ġag":548,"all":549,"Ġtra":550,"ans":551,"ight":552,"ore":553,"Ġco":554,"Ġpart":555,"ave":556,"Ġhe":557,"ak":558,"ang":559,"ard":560,"our":561,"Ġfl":562,"Ġrec":563,"so":564,"ub":565,"az":566,"ind":567,"ĠÃ":568,"Ġter":569,"pt":570,"ide":571,"oun":572,"Ġme":573,"po":574,"res":575,"ld":576,"fer":577,"Ã§a":578,"Ġcons":579,"ura":580,"Ġao":581,"Ġbr":582,"ice":583,"ico":584,"ions":585,"Ġwor":586,"ido":587,"Ġtod":588,"amento":589,"Ġwill":590,"Ġcol":591,"ific":592,"ome":593,"Ġqual":594,"her":595,"ell":596,"ai":597,"co":598,"Ġver":599,"age":600,"Ġinform":601,"Ġesp":602,"ous":603,"ĠÃł":604,"ante":605,"ich":606,"amente":607,"ach":608,"Ġseu":609,"cess":610,"Ġpel":611,"aÃ§Ãµes":612,"ew":613,"Ġbo":614,"ina":615,"ros":616,"Ġass":617,"Ã©m":618,"Ġrel":619,"va":620,"ain":621,"Ġob":622,"gr":623,"und":624,"ong":625,"Ġgo":626,"Ġcas":627,"ated":628,"Ġhave":629,"bre":630,"ida":631,"ional":632,"Ġcor":633,"ign":634,"ĠsÃ£o":635,"Ġsua":636,"able":637,"Ġmin":638,"pon":639,"Ġwas":640,"Ġloc":641,"esta":642,"entes":643,"gu":644,"ber":645,"Ãªncia":646,"que":647,"Ã©is":648,"out":649,"Ġeu":650,"are":651,"Ġour":652,"Ġinst":653,"Ġprodu":654,"ical":655,"ance":656,"rig":657,"adas":658,"mo":659,"ack":660,"Ã§o":661,"Ġmu":662,"Ġpode":663,"Ġmod":664,"Ġreg":665,"Ġpri":666,"Ġfil":667,"Ġhotels":668,"ater":669,"Ġsa":670,"pe":671,"ador":672,"Ġpe":673,"Ġev":674,"Ġnoss":675,"Ġsobre":676,"Ġlo":677,"Ã¢":678,"elh":679,"ru":680,"ations":681,"Ġtrans":682,"act":683,"ase":684,"ĠhotÃ©is":685,"Ġind":686,"ke":687,"Ġfo":688,"Ġport":689,"Ġcam":690,"ish":691,"Ġmore":692,"Ġform":693,"Ġve":694,"ades":695,"ree":696,"ivo":697,"ian":698,"ence":699,"Ġop":700,"esso":701,"Ġgu":702,"Ġenc":703,"Ġdas":704,"Ġfe":705,"Ġcent":706,"Ġsem":707,"one":708,"Ġbl":709,"Ġdire":710,"Ġsol":711,"int":712,"mente":713,"wn":714,"Ġaut":715,"Ġtim":716,"Ġnew":717,"Ġte":718,"Ġvis":719,"ord":720,"amb":721,"iss":722,"Ġincl":723,"agem":724,"ue":725,"eiro":726,"antes":727,"Ġserv":728,"Ġif":729,"Ġaf":730,"Ġwhich":731,"rar":732,"Ġph":733,"Ġmas":734,"ry":735,"ace":736,"der":737,"ias":738,"Ġmelh":739,"pos":740,"Ġposs":741,"ther":742,"aliz":743,"ents":744,"entos":745,"imento":746,"Ġesc":747,"bl":748,"Ġresta":749,"Ġbar":750,"dit":751,"icas":752,"Ġbut":753,"ick":754,"ov":755,"ge":756,"Ġhas":757,"Ġx":758,"bal":759,"Ġrestaur":760,"ĠestÃ¡":761,"Ġz":762,"Ġdif":763,"ear":764,"idades":765,"ĠÃ¡":766,"Ġup":767,"ress":768,"Ġconf":769,"Ġra":770,"Ã³s":771,"til":772,"ata":773,"Ã¡rio":774,"Ġfaz":775,"indo":776,"Ġone":777,"Ġav":778,"ks":779,"plic":780,"ja":781,"Ġcap":782,"Ġprov":783,"Ġintern":784,"Ġpol":785,"Ġtodos":786,"Ġpass":787,"ings":788,"xim":789,"Ġmet":790,"Ġele":791,"Ġair":792,"Ġcri":793,"icos":794,"Ġla":795,"ior":796,"ca":797,"up":798,"ame":799,"lo":800,"ular":801,"ould":802,"ff":803,"rio":804,"ert":805,"Ġpa":806,"Ġproduct":807,"ount":808,"Ġart":809,"olog":810,"Ġval":811,"ose":812,"Ã¢n":813,"ary":814,"Ġimp":815,"Ġentre":816,"ys":817,"ÃŃvel":818,"Ġvi":819,"ras":820,"ora":821,"Ġtamb":822,"Ġtime":823,"Ġother":824,"Ġtri":825,"Ġencont":826,"Ġthere":827,"ese":828,"Ġdel":829,"ĠtambÃ©m":830,"Ġnos":831,"Ġuse":832,"amos":833,"Ã¡rios":834,"ie":835,"Ġmost":836,"Ġacc":837,"Ġalso":838,"Ġsim":839,"dut":840,"Ġtec":841,"Ġalg":842,"Ġfoi":843,"Ġpesso":844,"ft":845,"Ġfun":846,"eira":847,"Ġmes":848,"Ġbus":849,"veis":850,"ices":851,"Ġprogr":852,"erv":853,"idos":854,"cis":855,"Ġmed":856,"Ġger":857,"Ġpres":858,"Ġca":859,"ativ":860,"Ã§os":861,"Ġant":862,"Ġint":863,"Ġfin":864,"Ġthey":865,"Ġsy":866,"Ġcomm":867,"Ġprocess":868,"Ġsal":869,"Ġnov":870,"Ġtheir":871,"Ġcr":872,"Ġequ":873,"anto":874,"aix":875,"ix":876,"ile":877,"itos":878,"iÃ§Ã£o":879,"Ġpo":880,"Ġess":881,"Ġbest":882,"vis":883,"he":884,"Ġsub":885,"Ġits":886,"ors":887,"Ġprodut":888,"Ġmon":889,"Ġact":890,"Ġany":891,"Ġexp":892,"Ġexper":893,"vol":894,"Ġpers":895,"Ġeste":896,"ria":897,"bo":898,"Ġabout":899,"orn":900,"Ġsec":901,"Ġbook":902,"ric":903,"Ġext":904,"Ġsup":905,"Ġemp":906,"Ġvia":907,"Ġeng":908,"Ġprof":909,"reat":910,"Ġsc":911,"Ġcur":912,"Ġwhen":913,"Ġche":914,"Ġespec":915,"Ġdist":916,"Ġbu":917,"Ġdesc":918,"Ġinc":919,"Ãªs":920,"Ġseus":921,"Ġprogram":922,"igh":923,"ubl":924,"Ġrep":925,"Ġflight":926,"Ġfree":927,"Ġmen":928,"ĠprÃ³":929,"Ġhow":930,"Ġvo":931,"ph":932,"Ġseg":933,"Ġer":934,"se":935,"ÃŃn":936,"quer":937,"emb":938,"ond":939,"ece":940,"endo":941,"Ġdur":942,"Ġsoc":943,"Ġweb":944,"Ġoff":945,"Ġservi":946,"Ġwork":947,"Ġorg":948,"Ġresult":949,"Ġinformation":950,"ivers":951,"ita":952,"use":953,"ory":954,"ista":955,"Ġlu":956,"now":957,"Ġsel":958,"rib":959,"Ġjog":960,"ject":961,"Ġcli":962,"enc":963,"Ġlin":964,"min":965,"ities":966,"Ġinf":967,"Ġfind":968,"Ġset":969,"Ġutil":970,"Ġaqu":971,"ari":972,"anc":973,"Ã´":974,"Ġtrabal":975,"Ġmo":976,"ilh":977,"Ġcompl":978,"Ġmuito":979,"view":980,"Ġdest":981,"Ġli":982,"ecess":983,"Ġdi":984,"ici":985,"ates":986,"ps":987,"Ġfazer":988,"Ã§as":989,"Ġliv":990,"Ġconst":991,"Ġpra":992,"ants":993,"Ġmay":994,"Ġrece":995,"Ġwhat":996,"ild":997,"Ġnum":998,"jet":999,"ise":1000,"Ã¡vel":1001,"Ġnas":1002,"ato":1003,"fe":1004,"Ġyear":1005,"Ã¡t":1006,"Ġmy":1007,"Ġimport":1008,"ely":1009,"line":1010,"Ġtempo":1011,"ino":1012,"Ġperson":1013,"Ġwho":1014,"Ġutiliz":1015,"ern":1016,"Ġquando":1017,"pa":1018,"Ġreal":1019,"hn":1020,"Ġcontro":1021,"Ġmelhor":1022,"Ġoper":1023,"Ġhel":1024,"Ġgrand":1025,"ational":1026,"Ġprim":1027,"ement":1028,"enas":1029,"inc":1030,"Ġgen":1031,"Ġnecess":1032,"anÃ§a":1033,"Ġcal":1034,"ws":1035,"Ġpes":1036,"Ġbet":1037,"Ġhis":1038,"itu":1039,"Ġfam":1040,"Ġins":1041,"enh":1042,"anh":1043,"istem":1044,"ares":1045,"Ġir":1046,"Ġequip":1047,"Ġdev":1048,"Ġpodem":1049,"Ġgro":1050,"Ġpelo":1051,"tal":1052,"Ġsuas":1053,"Ġthem":1054,"Ġkm":1055,"Ġdata":1056,"Ġthan":1057,"Ġnat":1058,"Ġbel":1059,"Ġec":1060,"Ġeuro":1061,"Ġspec":1062,"we":1063,"erg":1064,"land":1065,"Ġdesign":1066,"Ġconv":1067,"Ġhigh":1068,"ne":1069,"Ġsee":1070,"Ġnear":1071,"Ġpal":1072,"ĠÃº":1073,"Ġexperi":1074,"par":1075,"tain":1076,"Ġcre":1077,"adores":1078,"ios":1079,"Ġcity":1080,"Ġperm":1081,"Ġdec":1082,"Ġinv":1083,"ake":1084,"Ġshow":1085,"Ġknow":1086,"Ġsm":1087,"als":1088,"ket":1089,"Ġdados":1090,"Ġover":1091,"ugh":1092,"Ġsite":1093,"Ġdia":1094,"Ġlong":1095,"Ġplay":1096,"idas":1097,"way":1098,"tim":1099,"ana":1100,"abil":1101,"Ġpela":1102,"Ġaj":1103,"Ġdef":1104,"stem":1105,"ulo":1106,"resent":1107,"Ġjo":1108,"Ġvez":1109,"Ġtw":1110,"rav":1111,"za":1112,"Ġofer":1113,"Ġmun":1114,"Ġworld":1115,"Ġonly":1116,"ware":1117,"Ġthese":1118,"Ġstud":1119,"Ġbas":1120,"Ġfir":1121,"por":1122,"Ġpubl":1123,"ira":1124,"Ġmot":1125,"Ġid":1126,"right":1127,"Ġsur":1128,"Ġhum":1129,"Ġdown":1130,"Ġget":1131,"ele":1132,"Ġneed":1133,"king":1134,"Ġarqu":1135,"blem":1136,"Ġever":1137,"Ġrespon":1138,"Ã¡l":1139,"ath":1140,"ds":1141,"Ġsome":1142,"Ġsystem":1143,"mer":1144,"Ġflights":1145,"ange":1146,"Ġinclud":1147,"Ġbec":1148,"ites":1149,"ĠinformaÃ§Ãµes":1150,"Ġplan":1151,"ĠatÃ©":1152,"Ġproblem":1153,"Ġmater":1154,"ital":1155,"Ġapp":1156,"Ġpriv":1157,"Ġdispon":1158,"Ã©s":1159,"Ġforn":1160,"Ġadd":1161,"pri":1162,"Ġorgan":1163,"ures":1164,"Ġoutros":1165,"ection":1166,"Ġpartic":1167,"agens":1168,"Ġthro":1169,"Ġtrip":1170,"Ġafter":1171,"Ġoc":1172,"otos":1173,"volv":1174,"cion":1175,"Ġfol":1176,"Ġsk":1177,"Ġcer":1178,"ĠmÃ©":1179,"mos":1180,"Ġrequ":1181,"cel":1182,"ible":1183,"Ġlim":1184,"Ġcomplet":1185,"Ġwere":1186,"Ġvol":1187,"Ġqualquer":1188,"ural":1189,"ax":1190,"Ġhist":1191,"ÃŃs":1192,"Ġsign":1193,"Ġapart":1194,"iros":1195,"ecer":1196,"ene":1197,"Ġbem":1198,"vail":1199,"ied":1200,"cio":1201,"ople":1202,"Ġconc":1203,"ating":1204,"ÃŃt":1205,"ages":1206,"Ġesta":1207,"Ġreview":1208,"Ġsistem":1209,"arch":1210,"Ġthrough":1211,"Ġher":1212,"Ġpeople":1213,"Ġpoder":1214,"ments":1215,"Ġavail":1216,"Ġonline":1217,"ma":1218,"Ġtip":1219,"ider":1220,"cias":1221,"Ġsuper":1222,"Ġcust":1223,"ton":1224,"iver":1225,"Ġvisit":1226,"ics":1227,"isa":1228,"ower":1229,"Ġtest":1230,"Ġdesen":1231,"plo":1232,"ivos":1233,"ibil":1234,"Ġdep":1235,"ram":1236,"ily":1237,"Ġempres":1238,"Ġhol":1239,"Ġinclu":1240,"Ġpop":1241,"udo":1242,"inh":1243,"Ġjust":1244,"Ġlike":1245,"Ġbot":1246,"Ġwell":1247,"Ġtrad":1248,"Ġref":1249,"get":1250,"Ġmodel":1251,"me":1252,"Ġaos":1253,"Ġfac":1254,"ouse":1255,"ĠprÃ³xim":1256,"les":1257,"Ġused":1258,"Ġmer":1259,"Ġke":1260,"Ġvers":1261,"Ġfer":1262,"Ġlist":1263,"Ġdirect":1264,"Ġtur":1265,"go":1266,"Ġgar":1267,"Ġopt":1268,"Ġisso":1269,"ga":1270,"perat":1271,"Ġbra":1272,"Ġnosso":1273,"icion":1274,"Ġdu":1275,"Ġsegu":1276,"iness":1277,"Ġsearch":1278,"Ġmil":1279,"Ġneg":1280,"Ġprom":1281,"Ġcount":1282,"Ġsuch":1283,"Ġfirst":1284,"ÃŃveis":1285,"Ġtravel":1286,"acion":1287,"Ġajud":1288,"Ġprecis":1289,"Ġwhere":1290,"Ġbro":1291,"Ġtechn":1292,"reas":1293,"Ġdevel":1294,"Ġbeen":1295,"Ġevery":1296,"itt":1297,"ral":1298,"Ġjan":1299,"ute":1300,"Ġgl":1301,"ound":1302,"Ġsom":1303,"Ġview":1304,"Ġfile":1305,"ife":1306,"Ġportug":1307,"ather":1308,"Ġrecom":1309,"Ġnet":1310,"Ġcab":1311,"Ġroom":1312,"Ġfre":1313,"air":1314,"Ġtemperat":1315,"Ġprinc":1316,"Ã¡s":1317,"Ġviag":1318,"ĠhÃ¡":1319,"Ġste":1320,"Ġatt":1321,"Ġanos":1322,"Ġanal":1323,"Ġmesmo":1324,"Ġonde":1325,"Ġwindo":1326,"Ġhelp":1327,"ental":1328,"ons":1329,"Ġreserv":1330,"enci":1331,"Ġmake":1332,"Ġescol":1333,"Ġlug":1334,"arn":1335,"Ġaccess":1336,"Ġavailable":1337,"Ġpos":1338,"Ġdevelop":1339,"duc":1340,"Ġaplic":1341,"any":1342,"emos":1343,"Ġday":1344,"Ġvari":1345,"Ġway":1346,"lish":1347,"Ġpessoas":1348,"low":1349,"orm":1350,"Ġjun":1351,"Ġvery":1352,"Ġcomput":1353,"Ġright":1354,"Ġet":1355,"Ġmat":1356,"iÃ§Ãµes":1357,"Ġchar":1358,"Ġunivers":1359,"xt":1360,"Ġsan":1361,"Ġapenas":1362,"Ġdem":1363,"Ġnow":1364,"Ġautom":1365,"uns":1366,"Ġprodutos":1367,"Ġservice":1368,"Ġpesqu":1369,"Ġty":1370,"Ġsoft":1371,"Ġcontrol":1372,"Ġstr":1373,"Ġdoc":1374,"Ġencontrar":1375,"ful":1376,"Ġgood":1377,"Ġban":1378,"Ġsou":1379,"pre":1380,"Ġcontin":1381,"Ġaval":1382,"Ġclass":1383,"Ġpublic":1384,"Ġprot":1385,"Ġmelhores":1386,"Ġeff":1387,"ela":1388,"ner":1389,"ĠnÃ³s":1390,"Ġcada":1391,"Ġbusiness":1392,"Ġdiffer":1393,"Ġvoos":1394,"Ġbre":1395,"amentos":1396,"Ġend":1397,"Ġhome":1398,"Ġsin":1399,"igo":1400,"ĠestÃ£o":1401,"lex":1402,"Ġret":1403,"ction":1404,"Ġcustom":1405,"ock":1406,"Ġdifer":1407,"Ġbras":1408,"izaÃ§Ã£o":1409,"ano":1410,"Ġcasa":1411,"Ġmade":1412,"Ġrestaurants":1413,"atos":1414,"Ġproc":1415,"Ġeurope":1416,"Ġgener":1417,"Ġrem":1418,"aram":1419,"Ġinto":1420,"Ġcome":1421,"ited":1422,"Ġespecial":1423,"rica":1424,"Ġide":1425,"ier":1426,"Ġqualidade":1427,"Ġcond":1428,"Ġwebs":1429,"amp":1430,"els":1431,"jo":1432,"its":1433,"Ġtodas":1434,"Ġmaterial":1435,"hec":1436,"ition":1437,"Ġecon":1438,"Ġmaior":1439,"Ġmarket":1440,"Ġgra":1441,"Ġgrande":1442,"ution":1443,"Ġtwo":1444,"Ġmundo":1445,"Ġexpl":1446,"ets":1447,"da":1448,"Ġped":1449,"Ġdisc":1450,"ours":1451,"Ġwindows":1452,"ron":1453,"aria":1454,"Ġcidade":1455,"Ġback":1456,"ail":1457,"visor":1458,"eng":1459,"ĠÃłs":1460,"ck":1461,"Ã¡g":1462,"tern":1463,"ena":1464,"cios":1465,"Ġmal":1466,"Ġforma":1467,"ty":1468,"Ġestr":1469,"Ġfi":1470,"Ġproducts":1471,"Ġlocal":1472,"ĠserviÃ§os":1473,"ected":1474,"Ġing":1475,"ember":1476,"Ġmany":1477,"acional":1478,"Ġopen":1479,"load":1480,"Ġleg":1481,"ines":1482,"Ġed":1483,"fore":1484,"Ġlocaliz":1485,"arm":1486,"Ġquality":1487,"Ġeas":1488,"Ġbase":1489,"Ġtrabalho":1490,"iais":1491,"vern":1492,"Ġbaix":1493,"Ġsch":1494,"Ġhom":1495,"ara":1496,"ateg":1497,"itas":1498,"Ġprovid":1499,"urs":1500,"ork":1501,"oug":1502,"Ġread":1503,"advisor":1504,"inda":1505,"Ġeles":1506,"Ġtripadvisor":1507,"Ġfal":1508,"Ã¡ria":1509,"Ġquest":1510,"Ġdig":1511,"Ġadv":1512,"Ġmanual":1513,"Ġpat":1514,"ween":1515,"ins":1516,"Ġenerg":1517,"Ġnossos":1518,"Ġbetween":1519,"Ġamb":1520,"Ġfav":1521,"Ġsab":1522,"Ġvida":1523,"Ġservices":1524,"Ġsupport":1525,"ik":1526,"este":1527,"Ġprincip":1528,"cul":1529,"Ġlar":1530,"Ġrestaurantes":1531,"Ġsoftware":1532,"ize":1533,"Ġhost":1534,"Ġcomb":1535,"ument":1536,"Ġdom":1537,"ict":1538,"Ġpower":1539,"Ġspe":1540,"Ġmic":1541,"ender":1542,"Ġrio":1543,"iva":1544,"Ġmain":1545,"Ġgre":1546,"Ġshould":1547,"Ġbeach":1548,"Ġconstru":1549,"Ġquer":1550,"je":1551,"Ġsant":1552,"Ãªncias":1553,"Ġdownload":1554,"Ġparte":1555,"Ġhere":1556,"Ġhor":1557,"Ġcheap":1558,"Ġorig":1559,"Ġhad":1560,"Ġalgum":1561,"iÃ£o":1562,"Ġyears":1563,"Ġfollow":1564,"Ġcost":1565,"Ġcult":1566,"Ġwant":1567,"Ġdesenvolv":1568,"icar":1569,"uÃ§Ã£o":1570,"Ġarm":1571,"Ġbrasil":1572,"Ġred":1573,"Ġcert":1574,"Ġeven":1575,"ull":1576,"Ġtop":1577,"Ġinn":1578,"be":1579,"Ġlook":1580,"Ġtorn":1581,"Ġnossa":1582,"Ġgreat":1583,"Ġtake":1584,"Ġconsider":1585,"Ġsistema":1586,"Ġassim":1587,"Ġprojet":1588,"Ġapplic":1589,"ique":1590,"Ġstay":1591,"Ġsocial":1592,"Ã³g":1593,"ep":1594,"Ġcoll":1595,"Ġthen":1596,"Ġminut":1597,"itar":1598,"Ġatrav":1599,"ux":1600,"Ġlife":1601,"eio":1602,"Ġsw":1603,"Ġwebsite":1604,"pect":1605,"Ġinvest":1606,"Ġchild":1607,"ĠpaÃŃs":1608,"Ġdifferent":1609,"Ġapresent":1610,"Ġmap":1611,"adr":1612,"cil":1613,"Ġtal":1614,"red":1615,"Ġident":1616,"Ġwould":1617,"Ġgroup":1618,"Ġreviews":1619,"ood":1620,"Ġforam":1621,"Ġdiv":1622,"Ġpoint":1623,"uss":1624,"rit":1625,"Ġol":1626,"ples":1627,"Ġcomun":1628,"ĠjÃ¡":1629,"ption":1630,"Ġsitu":1631,"Ġlog":1632,"Ġfavor":1633,"inas":1634,"round":1635,"acter":1636,"Ã¢ncia":1637,"ission":1638,"Ġwater":1639,"Ġainda":1640,"ĠserÃ¡":1641,"Ġhand":1642,"Ġdurante":1643,"inha":1644,"Ġmerc":1645,"Ġri":1646,"ĠatravÃ©s":1647,"ĠmÃ¡":1648,"Ġtotal":1649,"Ġdri":1650,"Ãªm":1651,"ima":1652,"ĠpÃ¡g":1653,"ars":1654,"Ġassoc":1655,"ĠserviÃ§o":1656,"Ġagora":1657,"Ġplac":1658,"Ġparticip":1659,"Ġmult":1660,"Ġavalia":1661,"ua":1662,"ped":1663,"Ġproper":1664,"Ġindust":1665,"br":1666,"ona":1667,"Ġinte":1668,"Ġproject":1669,"Ġaqui":1670,"Ġconte":1671,"Ġarquivo":1672,"enda":1673,"Ġrealiz":1674,"Ġrom":1675,"hes":1676,"anÃ§":1677,"Ġcondit":1678,"Ġeduc":1679,"Ġcontact":1680,"Ġusu":1681,"Ġmus":1682,"Ġdeve":1683,"hing":1684,"Ġunder":1685,"Ġcommun":1686,"Ġstart":1687,"ĠÃ³":1688,"istas":1689,"Ġcle":1690,"Ġexist":1691,"equ":1692,"Ġtodo":1693,"Ġcho":1694,"Ġplace":1695,"Ġsent":1696,"ÃŃst":1697,"ames":1698,"ava":1699,"Ġtransport":1700,"Ġown":1701,"Ġhuman":1702,"ĠmÃ©d":1703,"Ġpost":1704,"let":1705,"ator":1706,"gar":1707,"alth":1708,"ote":1709,"Ġthings":1710,"Ġlight":1711,"Ã©c":1712,"Ġfacil":1713,"ause":1714,"Ġamer":1715,"urn":1716,"Ġpequ":1717,"Ġrespons":1718,"Ã¢m":1719,"Ġtom":1720,"Ġinstal":1721,"Ġstand":1722,"Ġcu":1723,"cer":1724,"Ġperf":1725,"eld":1726,"Ġsl":1727,"Ġsegur":1728,"Ġelect":1729,"Ġfri":1730,"Ã©ri":1731,"Ġef":1732,"ÃŃl":1733,"Ġeach":1734,"Ġho":1735,"Ġnort":1736,"Ġgod":1737,"ismo":1738,"Ġten":1739,"Ġgovern":1740,"ms":1741,"Ġnova":1742,"Ġsat":1743,"Ġens":1744,"Ġviagem":1745,"gua":1746,"Ġdias":1747,"ative":1748,"led":1749,"ren":1750,"Ġproduto":1751,"hip":1752,"ract":1753,"atic":1754,"Ġatual":1755,"atu":1756,"Ġvel":1757,"Ġenglish":1758,"Ġfinal":1759,"Ġmemb":1760,"Ġoffer":1761,"Ġbecause":1762,"Ġusing":1763,"Ġfornec":1764,"Ġadicion":1765,"Ġhouse":1766,"ology":1767,"ltim":1768,"Ġprote":1769,"ters":1770,"ogra":1771,"Ġris":1772,"Ġinternational":1773,"ium":1774,"ĠsÃ³":1775,"dade":1776,"Ġpack":1777,"Ġvai":1778,"Ġsex":1779,"val":1780,"Ġmom":1781,"Ġperto":1782,"Ġsuppl":1783,"Ġconn":1784,"Ġfa":1785,"Ġactiv":1786,"Ġsens":1787,"Ġcompar":1788,"Ã³ria":1789,"Ġhim":1790,"Ġchina":1791,"inho":1792,"Ġrefer":1793,"Ġbraz":1794,"Ġfab":1795,"Ġdescri":1796,"Ġprofess":1797,"Ãºmer":1798,"Ġbed":1799,"Ġwithout":1800,"Ġshe":1801,"Ġedit":1802,"Ġextens":1803,"Ġdeus":1804,"Ġairport":1805,"ness":1806,"icial":1807,"abor":1808,"Ġfund":1809,"ils":1810,"Ġorganiz":1811,"old":1812,"Ġanim":1813,"ols":1814,"Ġorder":1815,"ues":1816,"ll":1817,"Ġpress":1818,"Ġvir":1819,"Ġalguns":1820,"enÃ§Ã£o":1821,"eck":1822,"Ġple":1823,"Ġpur":1824,"onto":1825,"Ġconsum":1826,"Ġdepo":1827,"cial":1828,"Ġip":1829,"ger":1830,"Ġbrazil":1831,"ting":1832,"anÃ§as":1833,"Ġjaneiro":1834,"Ġconhec":1835,"Ġlast":1836,"ete":1837,"inal":1838,"Ġperform":1839,"cept":1840,"Ġenvi":1841,"Ġtipo":1842,"rea":1843,"Ġthose":1844,"Ġinternet":1845,"Ġhealth":1846,"ble":1847,"ech":1848,"Ġgru":1849,"Ġdispos":1850,"Ġexc":1851,"Ġdepois":1852,"man":1853,"Ġcaus":1854,"ologia":1855,"Ġmm":1856,"Ġcop":1857,"Ġcat":1858,"iar":1859,"has":1860,"Ġpartir":1861,"Ġfeat":1862,"Ġfound":1863,"Ġmanu":1864,"ety":1865,"Ġmor":1866,"Ġcorre":1867,"Ġdr":1868,"Ġtrabalh":1869,"Ġcook":1870,"Ġspecial":1871,"Ġmov":1872,"Ġoutras":1873,"esse":1874,"ĠfÃ¡":1875,"Ġapro":1876,"ĠprÃ³ximos":1877,"ĠvÃŃ":1878,"Ġtudo":1879,"ĠalÃ©m":1880,"Ã¡veis":1881,"Ġcentro":1882,"Ġtele":1883,"Ġchr":1884,"anha":1885,"Ã³ri":1886,"Ġmach":1887,"Ġregist":1888,"Ã©t":1889,"icaÃ§Ãµes":1890,"Ġfriend":1891,"Ġtre":1892,"ts":1893,"Ġbom":1894,"Ġrest":1895,"Ã³rio":1896,"Ġantes":1897,"Ġgeral":1898,"Ġclientes":1899,"Ã´n":1900,"ama":1901,"Ġfut":1902,"Ġpark":1903,"ries":1904,"Ġwest":1905,"Ġbefore":1906,"Ġglo":1907,"iro":1908,"Ġseja":1909,"Ã³r":1910,"Ġcompany":1911,"Ġpan":1912,"Ġduring":1913,"iras":1914,"Ġpesquisa":1915,"Ġtrain":1916,"Ġig":1917,"Ġano":1918,"Ġvide":1919,"Ġmont":1920,"Ġbat":1921,"iam":1922,"ĠentÃ£o":1923,"Ġfact":1924,"Ġalta":1925,"igos":1926,"Ġallow":1927,"Ġil":1928,"Ġpac":1929,"Ġlhe":1930,"Ġuso":1931,"Ġdefin":1932,"ribu":1933,"Ġdoes":1934,"Ġpersonal":1935,"Ġingl":1936,"ward":1937,"Ġacesso":1938,"ĠÃºltim":1939,"Ġindiv":1940,"Ġmapa":1941,"Ġpropri":1942,"Ġpopular":1943,"na":1944,"arÃ¡":1945,"itor":1946,"Ã¡rias":1947,"ificaÃ§Ã£o":1948,"Ġline":1949,"Ġestab":1950,"Ġdon":1951,"Ġsame":1952,"Ġcir":1953,"urg":1954,"rent":1955,"Ġcapac":1956,"Ġarea":1957,"ĠapÃ³s":1958,"Ġativ":1959,"Ġcall":1960,"oto":1961,"Ġlearn":1962,"Ġredu":1963,"Ãºbl":1964,"ĠrÃ¡":1965,"Ġvill":1966,"Ġdays":1967,"Ġemb":1968,"Ġnumber":1969,"Ġge":1970,"raÃ§Ã£o":1971,"less":1972,"Ġgratu":1973,"ĠseguranÃ§a":1974,"Ġnovo":1975,"ĠnÃºmer":1976,"ever":1977,"Ġstre":1978,"Ġinstall":1979,"ativo":1980,"Ġclick":1981,"ash":1982,"Ġtour":1983,"Ġur":1984,"Ġfuncion":1985,"Ġbal":1986,"Ġpou":1987,"Ġtar":1988,"Ġlib":1989,"Ġlev":1990,"bil":1991,"Ġfotos":1992,"Ġeconom":1993,"ink":1994,"Ġmag":1995,"Ġtro":1996,"vir":1997,"Ġagain":1998,"Ġtax":1999,"Ġjul":2000,"Ġlevel":2001,"ativa":2002,"Ġmust":2003,"Ġela":2004,"ency":2005,"Ġdiz":2006,"Ġdesde":2007,"Ġpet":2008,"Ã©r":2009,"Ġintegr":2010,"Ġpot":2011,"Ġlux":2012,"Ġcaso":2013,"ĠpreÃ§os":2014,"ale":2015,"Ġempresa":2016,"Ġprice":2017,"ĠnegÃ³":2018,"Ġimpl":2019,"fact":2020,"Ġsempre":2021,"Ġtecn":2022,"Ġvezes":2023,"ning":2024,"ordo":2025,"Ġbi":2026,"Ġwithin":2027,"clus":2028,"imentos":2029,"Ġassoci":2030,"Ġlet":2031,"Ġnome":2032,"ough":2033,"Ġquais":2034,"Ġson":2035,"Ġwhile":2036,"Ġdois":2037,"Ġnatural":2038,"Ġmac":2039,"Ġcateg":2040,"app":2041,"Ġporque":2042,"Ġapr":2043,"Ġgame":2044,"Ġguest":2045,"uras":2046,"Ġincluding":2047,"unt":2048,"odo":2049,"rir":2050,"ism":2051,"Ġobs":2052,"Ġfabric":2053,"Ġlead":2054,"Ġcart":2055,"ÃŃcio":2056,"Ġital":2057,"Ġexec":2058,"Ġremo":2059,"elf":2060,"ba":2061,"Ġambi":2062,"Ġeffect":2063,"Ġquart":2064,"reg":2065,"Ġcompet":2066,"Ġdeta":2067,"Ġpay":2068,"Ġprices":2069,"Ã´m":2070,"Ġbene":2071,"ĠÃ¡gua":2072,"Ġll":2073,"ves":2074,"Ġtv":2075,"Ġmuse":2076,"Ġdeter":2077,"Ġmant":2078,"Ġpap":2079,"Ġresort":2080,"Ġinde":2081,"Ġcentral":2082,"ĠpÃ¡gina":2083,"ping":2084,"Ġquar":2085,"eta":2086,"fort":2087,"Ġexperience":2088,"Ġlig":2089,"Ġalt":2090,"Ġunited":2091,"Ġportugal":2092,"Ġbeing":2093,"Ġobjet":2094,"Ġtam":2095,"earch":2096,"rim":2097,"Ġrequire":2098,"ÃŃf":2099,"Ġreser":2100,"enÃ§a":2101,"ams":2102,"Ġcour":2103,"Ġappro":2104,"Ġalug":2105,"Ġang":2106,"Ġetc":2107,"Ġexpress":2108,"Ġaer":2109,"Ġspeed":2110,"ille":2111,"Ġestud":2112,"aint":2113,"ĠÃ¡rea":2114,"ane":2115,"Ġexem":2116,"Ġaccord":2117,"ze":2118,"Ġfull":2119,"ruct":2120,"iment":2121,"Ġesper":2122,"iu":2123,"ody":2124,"ung":2125,"ĠpreÃ§o":2126,"Ġera":2127,"portun":2128,"Ġcheck":2129,"agement":2130,"ĠpolÃŃt":2131,"Ġaccom":2132,"Ġq":2133,"Ġtak":2134,"Ġsouth":2135,"ten":2136,"ĠinglÃªs":2137,"Ġmud":2138,"Ġphotos":2139,"Ġbenef":2140,"Ġspecific":2141,"Ġsmall":2142,"Ġpresent":2143,"Ġuser":2144,"Ġpc":2145,"Ġresearch":2146,"Ġaddit":2147,"Ġprograma":2148,"post":2149,"izar":2150,"Ġespa":2151,"Ġgarant":2152,"Ġoffers":2153,"Ġfran":2154,"embro":2155,"Ġbuild":2156,"Ġdesenvolvimento":2157,"Ġsus":2158,"Ġlat":2159,"Ġusar":2160,"Ġsing":2161,"ÃŃd":2162,"Ġficar":2163,"Ġface":2164,"Ġrepresent":2165,"room":2166,"af":2167,"Ġnorm":2168,"Ġtrat":2169,"Ġjes":2170,"Ġmonth":2171,"Ġgeneral":2172,"Ġmodern":2173,"Ġenter":2174,"emente":2175,"Ġoutro":2176,"ah":2177,"ved":2178,"Ġdar":2179,"Ġbased":2180,"ĠinformaÃ§Ã£o":2181,"Ġprovide":2182,"angu":2183,"aut":2184,"ized":2185,"Ġdent":2186,"Ġdigital":2187,"Ġfood":2188,"Ġchildren":2189,"Ġcoment":2190,"Ġpont":2191,"ders":2192,"Ġterra":2193,"Ġsil":2194,"Ãºs":2195,"Ġdiferentes":2196,"Ġci":2197,"Ġcould":2198,"Ġhav":2199,"Ġadmin":2200,"issÃ£o":2201,"Ġmenos":2202,"Ġhy":2203,"Ġchrist":2204,"Ġsecond":2205,"Ġpage":2206,"ogle":2207,"pr":2208,"ces":2209,"ories":2210,"Ġcontent":2211,"Ġtab":2212,"Ġlove":2213,"Ġcomer":2214,"Ġvisual":2215,"ven":2216,"Ġcontinu":2217,"Ġaud":2218,"Ġlos":2219,"ences":2220,"Ġjogos":2221,"rel":2222,"Ġstar":2223,"Ġgoogle":2224,"Ġtype":2225,"Ġsay":2226,"elo":2227,"Ġveloc":2228,"Ġestar":2229,"ĠnÃºmero":2230,"Ġcard":2231,"ended":2232,"Ġmanagement":2233,"Ġcountry":2234,"Ġpag":2235,"Ġwom":2236,"Ġsignific":2237,"Ġdeix":2238,"car":2239,"Ġweather":2240,"Ġcenter":2241,"Ġconfig":2242,"Ġlas":2243,"ex":2244,"Ġdocum":2245,"Ġresults":2246,"Ġacordo":2247,"Ġfamily":2248,"Ġhos":2249,"Ġsaid":2250,"Ġprocesso":2251,"ways":2252,"ĠvÃŃde":2253,"Ġjesus":2254,"ones":2255,"Ġmul":2256,"Ġacess":2257,"ying":2258,"Ġsites":2259,"Ġstat":2260,"Ġacom":2261,"ĠaÃ©":2262,"Ġcare":2263,"Ġbreak":2264,"iday":2265,"Ġdevelopment":2266,"ĠsaÃº":2267,"Ġlive":2268,"Ġprepar":2269,"hos":2270,"Ġstate":2271,"ĠrelaÃ§Ã£o":2272,"ĠpÃºbl":2273,"ula":2274,"Ġesse":2275,"Ġkey":2276,"Ġcolor":2277,"Ã³rios":2278,"itch":2279,"irm":2280,"Ġlugar":2281,"Ġjogo":2282,"cle":2283,"Ġlink":2284,"oria":2285,"ĠconteÃº":2286,"ĠsaÃºde":2287,"Ġquartos":2288,"Ġpalav":2289,"Ġdetal":2290,"ason":2291,"Ġland":2292,"Ġcham":2293,"Ġparis":2294,"olÃ³g":2295,"osa":2296,"Ġimportant":2297,"Ã³n":2298,"Ġexcel":2299,"Ġadequ":2300,"Ġquant":2301,"Ġlocated":2302,"ĠavaliaÃ§Ãµes":2303,"ĠrÃ¡p":2304,"ĠpossÃŃvel":2305,"edade":2306,"Ġpens":2307,"Ġboth":2308,"Ġmeu":2309,"Ġmem":2310,"rodu":2311,"Ġengine":2312,"Ġindivid":2313,"iter":2314,"ury":2315,"edi":2316,"Ġprimeiro":2317,"Ġwal":2318,"other":2319,"Ġindic":2320,"Ġcast":2321,"isas":2322,"gest":2323,"Ġaccount":2324,"Ġnational":2325,"Ġpaulo":2326,"Ġbooking":2327,"orto":2328,"Ġenqu":2329,"eno":2330,"Ġmeio":2331,"Ġassist":2332,"Ġdisposit":2333,"Ġresultados":2334,"Ġplease":2335,"Ġmail":2336,"day":2337,"Ġtemperatura":2338,"Ġrele":2339,"ĠcondiÃ§Ãµes":2340,"Ġmotor":2341,"Ġear":2342,"Ġfollowing":2343,"rament":2344,"elho":2345,"Ġcontra":2346,"Ġdivers":2347,"Ġking":2348,"Ġglobal":2349,"Ġimpro":2350,"ĠtÃªm":2351,"Ġblack":2352,"ĠdisponÃŃveis":2353,"Ġrecomm":2354,"Ġsuport":2355,"read":2356,"Ã©cn":2357,"Ġtemperature":2358,"ola":2359,"Ġnight":2360,"Ġdiret":2361,"Ġcombin":2362,"vers":2363,"ĠexperiÃªncia":2364,"Ġmanufact":2365,"ple":2366,"Ġselec":2367,"ential":2368,"book":2369,"Ġinterest":2370,"viron":2371,"Ġreport":2372,"Ġthree":2373,"ically":2374,"Ġenviron":2375,"Ġapar":2376,"Ġauth":2377,"Ġincluindo":2378,"Ġferrament":2379,"Ġha":2380,"uro":2381,"Ġname":2382,"Ġrent":2383,"ĠÃºn":2384,"Ġmeet":2385,"Ġresid":2386,"ĠdisponÃŃvel":2387,"Ġrelacion":2388,"play":2389,"Ġplaces":2390,"aro":2391,"Ã³d":2392,"atch":2393,"Ġoferece":2394,"Ġvelocidade":2395,"ĠtÃ©cn":2396,"Ġren":2397,"Ġopin":2398,"Ġartic":2399,"Ġrad":2400,"Ġold":2401,"ention":2402,"Ã¡tica":2403,"Ġlugares":2404,"ole":2405,"utions":2406,"Ġstandard":2407,"abilidade":2408,"Ġach":2409,"mod":2410,"Ġps":2411,"Ġpermit":2412,"eles":2413,"ified":2414,"Ġnetw":2415,"Ġconta":2416,"Ġameric":2417,"Ġgiv":2418,"Ġpossible":2419,"ude":2420,"Ġadminist":2421,"Ġhard":2422,"Ġupd":2423,"Ġfoc":2424,"Ġeasy":2425,"Ġdestin":2426,"Ġable":2427,"Ġwee":2428,"ibilidade":2429,"Ġmulher":2430,"Ġnature":2431,"Ġlis":2432,"Ġaround":2433,"ĠfamÃŃl":2434,"ually":2435,"Ġresol":2436,"Ġcontr":2437,"Ġalter":2438,"Ġemail":2439,"ĠopÃ§Ãµes":2440,"Ġhapp":2441,"Ġsci":2442,"Ġwind":2443,"Ġlond":2444,"Ġprincipal":2445,"Ġgal":2446,"Ġmass":2447,"Ġimpress":2448,"ĠtrÃªs":2449,"uraÃ§Ã£o":2450,"cos":2451,"Ġdra":2452,"Ġmens":2453,"Ġpelos":2454,"ann":2455,"ĠfÃ¡cil":2456,"Ġchang":2457,"Ġaccording":2458,"Ġhowever":2459,"Ġenquanto":2460,"Ġtor":2461,"Ġestado":2462,"Ġisland":2463,"Ġautor":2464,"Ġessa":2465,"Ġinfl":2466,"Ġempresas":2467,"Ġtransfer":2468,"Ġmuch":2469,"Ġtimes":2470,"Ġchange":2471,"ende":2472,"Ġexemplo":2473,"Ġcin":2474,"Ġideal":2475,"Ġstation":2476,"Ġscho":2477,"Ġsenh":2478,"Ġanother":2479,"Ġprofessional":2480,"ĠcrianÃ§as":2481,"Ġdese":2482,"Ġsince":2483,"Ġgrupo":2484,"Ġcase":2485,"ĠmÃ¡qu":2486,"anda":2487,"Ġobject":2488,"Ġcookies":2489,"Ġneste":2490,"rado":2491,"ability":2492,"ĠproduÃ§Ã£o":2493,"urity":2494,"ativos":2495,"Ġbeg":2496,"Ġregul":2497,"Ġoriginal":2498,"au":2499,"sc":2500,"Ġconvers":2501,"Ġparticular":2502,"Ġstates":2503,"Ġminha":2504,"Ġcurrent":2505,"anho":2506,"ides":2507,"Ġsever":2508,"ample":2509,"Ġapplication":2510,"Ġshop":2511,"Ġlangu":2512,"Ġaccommod":2513,"Ġwin":2514,"ĠcomeÃ§":2515,"Ġvideo":2516,"Ġresist":2517,"Ġquick":2518,"Ġappl":2519,"Ġprivac":2520,"Ġduas":2521,"mar":2522,"Ġlow":2523,"Ġhead":2524,"Ġverdade":2525,"Ġconditions":2526,"rom":2527,"Ġmuitas":2528,"Ġmill":2529,"Ġrooms":2530,"Ġestados":2531,"Ġsomet":2532,"Ġdin":2533,"Ġmuitos":2534,"vert":2535,"Ġgest":2536,"Ġdecor":2537,"of":2538,"Ġinstit":2539,"Ġlista":2540,"ements":2541,"Ġponto":2542,"Ġgames":2543,"rito":2544,"Ġtechnology":2545,"Ġmilh":2546,"ĠcÃ©":2547,"ĠnÃŃvel":2548,"over":2549,"Ġrelated":2550,"Ġshare":2551,"Ġprimeira":2552,"Ġsul":2553,"Ġenvironment":2554,"tar":2555,"Ġmercado":2556,"Ġhoje":2557,"Ġjap":2558,"Ġdat":2559,"Ġwr":2560,"zo":2561,"ney":2562,"Ġobserv":2563,"Ġaddress":2564,"Ġminutos":2565,"Ġdim":2566,"ration":2567,"rada":2568,"Ġpolic":2569,"ube":2570,"Ġtick":2571,"Ġalgumas":2572,"Ġcrist":2573,"Ġsimples":2574,"ling":2575,"Ġprojeto":2576,"Ġestrel":2577,"Ġbody":2578,"ui":2579,"Ġdid":2580,"Ġdet":2581,"Ġtempor":2582,"irit":2583,"ques":2584,"eni":2585,"Ġib":2586,"ird":2587,"Ġpract":2588,"Ġber":2589,"Ġpessoa":2590,"ĠprÃ³p":2591,"Ġpu":2592,"ify":2593,"Ġcamp":2594,"ret":2595,"ĠnegÃ³cios":2596,"Ġheart":2597,"Ġled":2598,"rem":2599,"Ġtoday":2600,"ificar":2601,"Ġcru":2602,"Ġsuc":2603,"Ġcontain":2604,"Ġperg":2605,"Ġmess":2606,"Ġdecis":2607,"isc":2608,"Ġsecurity":2609,"Ġcreate":2610,"cas":2611,"ists":2612,"Ġdetermin":2613,"Ġdisco":2614,"Ġitem":2615,"ister":2616,"fa":2617,"Ġsi":2618,"Ġalways":2619,"Ġwar":2620,"rop":2621,"era":2622,"Ġobter":2623,"Ġaust":2624,"ĠconteÃºdo":2625,"Ġshall":2626,"Ġcomputer":2627,"Ã£os":2628,"ĠversÃ£o":2629,"Ġdentro":2630,"Ġstudy":2631,"Ġusers":2632,"ilo":2633,"ĠanÃ¡l":2634,"Ġmostrar":2635,"Ġgost":2636,"Ġfiles":2637,"hod":2638,"Ġholiday":2639,"egu":2640,"ats":2641,"Ġarch":2642,"Ġportugu":2643,"Ġvista":2644,"Ġkay":2645,"ursos":2646,"Ġlaw":2647,"Ġsac":2648,"iÃµes":2649,"ery":2650,"Ġporto":2651,"onte":2652,"Ġder":2653,"df":2654,"terior":2655,"Ġcentre":2656,"Ġsanta":2657,"Ġgard":2658,"Ġbooks":2659,"Ġaerop":2660,"Ġproduction":2661,"Ġnext":2662,"Ġchur":2663,"ners":2664,"Ġsubst":2665,"Ġfrequ":2666,"fr":2667,"Ġwhite":2668,"ertas":2669,"visÃ£o":2670,"Ġtit":2671,"Ġcomfort":2672,"Ġlocation":2673,"Ġflor":2674,"Ãºn":2675,"Ġprev":2676,"eder":2677,"gas":2678,"Ġtoda":2679,"ances":2680,"ode":2681,"Ġrede":2682,"ĠmÃºs":2683,"Ġdeste":2684,"Ġdess":2685,"Ġcompart":2686,"resc":2687,"Ġfim":2688,"Ġamong":2689,"Ġexecut":2690,"Ġwi":2691,"Ġimagens":2692,"Ġluz":2693,"by":2694,"Ġbeaut":2695,"Ġabs":2696,"Ġcompan":2697,"Ġrecon":2698,"ĠaÃ©reas":2699,"Ġclique":2700,"Ġfeatures":2701,"ious":2702,"Ġsegund":2703,"Ġhoras":2704,"Ġfich":2705,"Ġoptions":2706,"Ġrap":2707,"pend":2708,"Ġans":2709,"Ġsize":2710,"Ġnorth":2711,"bon":2712,"Ġru":2713,"Ã³l":2714,"Ġscre":2715,"Ġselecion":2716,"Ġdireito":2717,"Ġindividual":2718,"ley":2719,"Ġlic":2720,"Ġcoz":2721,"Ġpadr":2722,"Ġprefer":2723,"Ġunders":2724,"Ġsalv":2725,"osto":2726,"Ġmanufactur":2727,"Ġviol":2728,"ĠpaÃŃses":2729,"Ġrun":2730,"Ġii":2731,"mb":2732,"Ġpain":2733,"Ġperformance":2734,"ham":2735,"Ġproblemas":2736,"Ġprivate":2737,"Ġenergia":2738,"Ġcriar":2739,"Ġenjo":2740,"ench":2741,"Ġcreat":2742,"Ġvalor":2743,"Ġbig":2744,"Ġdisso":2745,"Ġprecisa":2746,"Ġce":2747,"Ġinternacional":2748,"Ġclose":2749,"Ġdepart":2750,"Ġoferec":2751,"Ġmomento":2752,"Ġcomputador":2753,"ville":2754,"Ġevent":2755,"Ġplant":2756,"Ġkayak":2757,"Ġperfe":2758,"emp":2759,"Ġdepend":2760,"acionais":2761,"ĠcomentÃ¡rios":2762,"ĠperÃŃ":2763,"itaÃ§Ã£o":2764,"Ġbran":2765,"Ġstill":2766,"dom":2767,"ÃŃc":2768,"Ġapartment":2769,"Ġmodo":2770,"Ġaz":2771,"Ġpi":2772,"Ġdou":2773,"Ġpresid":2774,"Ġless":2775,"oso":2776,"Ġalugu":2777,"Ġnu":2778,"Ġiss":2779,"rad":2780,"Ġmethod":2781,"Ġtyp":2782,"thing":2783,"Ġtext":2784,"Ġaument":2785,"Ã¡tis":2786,"Ġrecursos":2787,"Ġfra":2788,"ĠgrÃ¡tis":2789,"Ġcertific":2790,"Ġquem":2791,"Ġcy":2792,"Ġshort":2793,"Ġapo":2794,"Ġisto":2795,"Ġteam":2796,"Ġbetter":2797,"Ġmob":2798,"ently":2799,"Ã¡f":2800,"leg":2801,"Ġcompon":2802,"ograph":2803,"undo":2804,"Ġnenh":2805,"Ġlot":2806,"Ġnovos":2807,"ume":2808,"Ġmonitor":2809,"Ġfew":2810,"Ġchoose":2811,"Ġfar":2812,"umin":2813,"ago":2814,"Ġdesta":2815,"ero":2816,"Ġadap":2817,"Ġdeliver":2818,"Ġexer":2819,"Ġbuy":2820,"Ġdetails":2821,"Ġnenhum":2822,"Ġconj":2823,"Ġexclus":2824,"Ġnoite":2825,"Ġlarge":2826,"Ġenergy":2827,"Ġpast":2828,"Ġelev":2829,"aixo":2830,"Ġcaracter":2831,"Ġajudar":2832,"ativas":2833,"Ġace":2834,"Ġmicro":2835,"Ġtreat":2836,"Ġcm":2837,"Ġnon":2838,"Ġpen":2839,"aixa":2840,"Ġlivros":2841,"Ġaway":2842,"tle":2843,"Ġimplement":2844,"Ġtamanho":2845,"Ġquarto":2846,"eter":2847,"Ġcaf":2848,"Ġhora":2849,"Ġcarro":2850,"Ġpermite":2851,"ler":2852,"Ġsimil":2853,"Ġmarketing":2854,"Ġtransm":2855,"Ġrequest":2856,"Ġtent":2857,"Ġrev":2858,"ids":2859,"sos":2860,"burg":2861,"Ġep":2862,"Ġnormal":2863,"ĠusuÃ¡rio":2864,"ense":2865,"Ġefe":2866,"Ġversion":2867,"Ġindustri":2868,"Ġnews":2869,"Ġvalue":2870,"Ġwomen":2871,"Ġcontrole":2872,"Ġsenhor":2873,"ĠlocalizaÃ§Ã£o":2874,"Ġbrand":2875,"ÃŃp":2876,"Ġimportante":2877,"Ġdevice":2878,"Ġcoisas":2879,"eto":2880,"Ġtransform":2881,"erto":2882,"Ġsystems":2883,"Ġdisse":2884,"Ġfu":2885,"Ġtecnologia":2886,"Ġproperty":2887,"Ġsepar":2888,"orte":2889,"la":2890,"orr":2891,"Ġworking":2892,"Ġworks":2893,"dia":2894,"Ġbaratos":2895,"Ġchurch":2896,"Ġsaint":2897,"roid":2898,"Ġstock":2899,"fast":2900,"Ã³p":2901,"ector":2902,"edia":2903,"Ġperi":2904,"Ġtemos":2905,"Ġuniversity":2906,"unto":2907,"Ġori":2908,"Ġoutra":2909,"Ġsend":2910,"Ġkeep":2911,"Ġcoloc":2912,"encia":2913,"Ġtermos":2914,"Ġhar":2915,"Ġsaf":2916,"Ġauthor":2917,"Ġrecomend":2918,"Ġfix":2919,"Ġsurf":2920,"ĠdistÃ¢ncia":2921,"Ġquanto":2922,"Ġgive":2923,"iores":2924,"Ġtown":2925,"Ġfeel":2926,"Ġord":2927,"Ġdesemp":2928,"ror":2929,"Ġmodelo":2930,"Ġboa":2931,"ape":2932,"ulaÃ§Ã£o":2933,"Ġlitt":2934,"Ġbath":2935,"entemente":2936,"Ġanalys":2937,"verage":2938,"Ġeuropean":2939,"Ġfeira":2940,"uÃ§Ãµes":2941,"ĠvÃ¡rios":2942,"ately":2943,"Ġappe":2944,"Ġcharacter":2945,"ength":2946,"Ġmeas":2947,"Ġbox":2948,"Ġintel":2949,"Ġdisplay":2950,"Ġbit":2951,"Ġveja":2952,"Ġagainst":2953,"bia":2954,"oj":2955,"Ġcomprar":2956,"Ġestabel":2957,"Ġofertas":2958,"Ġcompanies":2959,"Ġalc":2960,"Ġprec":2961,"ibility":2962,"ledge":2963,"ala":2964,"Ġrecord":2965,"Ġconsult":2966,"ceiros":2967,"ĠanÃ¡lise":2968,"Ġwatch":2969,"unci":2970,"Ġstreet":2971,"Ġlooking":2972,"Ġfat":2973,"Ġsum":2974,"Ġdireitos":2975,"Ġvac":2976,"Ġmanag":2977,"Ġmachine":2978,"Ġfort":2979,"Ġbol":2980,"Ġwall":2981,"Ġprem":2982,"Ġpersonaliz":2983,"ploy":2984,"Ġrestaurant":2985,"Ġhomem":2986,"urar":2987,"Ġsky":2988,"Ġnetwork":2989,"uais":2990,"Ġconce":2991,"itive":2992,"ester":2993,"Ġclou":2994,"Ġlittle":2995,"icaÃ§Ã£o":2996,"Ġnave":2997,"Ġextra":2998,"Ġequipment":2999,"Ġajuda":3000,"Ġclear":3001,"Ġalem":3002,"Ġcompre":3003,"Ġdetalhes":3004,"tand":3005,"ĠvÃŃdeo":3006,"jam":3007,"Ġgrow":3008,"Ġimages":3009,"Ġsty":3010,"Ġcapital":3011,"ede":3012,"Ġta":3013,"ÃŃdo":3014,"Ġpossa":3015,"Ġendere":3016,"Ġcann":3017,"Ġpdf":3018,"Ġbag":3019,"yn":3020,"Ġden":3021,"Ġpron":3022,"ĠusuÃ¡rios":3023,"Ġterms":3024,"Ġreserva":3025,"ĠfamÃŃlia":3026,"Ġseveral":3027,"Ġhours":3028,"Ġprint":3029,"Ġgold":3030,"Ġschool":3031,"Ġmuseum":3032,"Ġann":3033,"Ġsob":3034,"Ġded":3035,"Ġroad":3036,"Ġlongo":3037,"Ġdecl":3038,"Ġmak":3039,"Ġcou":3040,"itz":3041,"Ġbelow":3042,"Ġindepend":3043,"Ġgrav":3044,"Ġforneced":3045,"encial":3046,"zir":3047,"Ġfour":3048,"ee":3049,"Ġfamil":3050,"ka":3051,"Ġestes":3052,"Ġenjoy":3053,"Ġunderstand":3054,"Ġcommunic":3055,"Ġpois":3056,"Ġarquivos":3057,"oth":3058,"Ġmaster":3059,"Ġvento":3060,"ng":3061,"Ġsendo":3062,"Ġconveni":3063,"Ġmusic":3064,"Ġdocument":3065,"astic":3066,"thers":3067,"Ġselect":3068,"Ġcours":3069,"Ġunidos":3070,"Ġbay":3071,"Ã©rias":3072,"ĠestaÃ§Ã£o":3073,"ĠhistÃ³ria":3074,"Ġminutes":3075,"Ġabaixo":3076,"Ã¡st":3077,"Ġlinha":3078,"Ġsteel":3079,"Ġmobile":3080,"ĠpoderÃ¡":3081,"Ġsport":3082,"Ġperfect":3083,"Ġthird":3084,"Ġandroid":3085,"Ġmid":3086,"Ġyork":3087,"Ġpontos":3088,"Ġperman":3089,"Ġspa":3090,"Ã¡lia":3091,"Ġindustry":3092,"com":3093,"ĠmÃ©t":3094,"Ġbon":3095,"Ġmedic":3096,"Ġtermin":3097,"Ġaff":3098,"Ġnem":3099,"Ġsmart":3100,"Ġdan":3101,"atÃ³rio":3102,"Ġsistemas":3103,"Ġpapel":3104,"ila":3105,"ĠgestÃ£o":3106,"Ġarmaz":3107,"Ġgir":3108,"Ġprincipais":3109,"Ġnecessary":3110,"Ġlivre":3111,"enho":3112,"Ġaeroporto":3113,"Ġlanguage":3114,"Ġcursos":3115,"gn":3116,"ving":3117,"Ġmenu":3118,"ÃŃsticas":3119,"ĠperÃŃodo":3120,"ished":3121,"Ġcirc":3122,"lt":3123,"Ġcountries":3124,"Ġconsegu":3125,"Ġinsp":3126,"Ġcustomer":3127,"Ġpouco":3128,"Ġnote":3129,"Ġampl":3130,"Ġatividades":3131,"Ġinteress":3132,"eg":3133,"Ġcourses":3134,"oper":3135,"wer":3136,"Ġcourse":3137,"Ġcapacidade":3138,"Ġic":3139,"Ġknowledge":3140,"Ġmaioria":3141,"iaÃ§Ã£o":3142,"Ġestudo":3143,"Ġbud":3144,"met":3145,"Ġspirit":3146,"izado":3147,"Ġpessoais":3148,"Ġabrir":3149,"Ġsatis":3150,"Ġusa":3151,"Ġimm":3152,"Ġmicros":3153,"rum":3154,"Ġexample":3155,"Ġareas":3156,"Ġnovas":3157,"oney":3158,"Ġfire":3159,"Ġveget":3160,"Ġjour":3161,"Ãºst":3162,"Ġigre":3163,"Ġweek":3164,"unch":3165,"Ġexplor":3166,"Ġproblema":3167,"Ġsegundo":3168,"Ġambiente":3169,"Ġrot":3170,"Ġlado":3171,"Ġonce":3172,"Ġput":3173,"li":3174,"Ġexcell":3175,"Ġnacional":3176,"Ġgratuito":3177,"Ġcliente":3178,"Ġrange":3179,"ready":3180,"ea":3181,"bs":3182,"Ġrecommend":3183,"Ġalready":3184,"cional":3185,"Ġpraia":3186,"Ġsuporte":3187,"Ġhosp":3188,"ĠdescriÃ§Ã£o":3189,"Ġcustomers":3190,"Ġdesco":3191,"Ġdescription":3192,"Ġbab":3193,"ival":3194,"Ġconnect":3195,"ked":3196,"Ġcomplex":3197,"gue":3198,"Ġentanto":3199,"Ġfilm":3200,"Ġperiod":3201,"Ġprovides":3202,"Ġcondition":3203,"Ġrights":3204,"Ġmaj":3205,"Ġphil":3206,"ĠespaÃ§o":3207,"ingu":3208,"ĠnecessÃ¡rio":3209,"ove":3210,"ls":3211,"Ġparty":3212,"Ġclean":3213,"ĠpolÃŃtica":3214,"ĠtÃ£o":3215,"dio":3216,"Ġcontato":3217,"Ġdisp":3218,"Ġimagem":3219,"Ã©g":3220,"ope":3221,"Ġprovided":3222,"Ġsubject":3223,"Ġhd":3224,"Ġstore":3225,"Ġnesta":3226,"Ġmaneira":3227,"Ġreturn":3228,"Ġlocais":3229,"Ġfast":3230,"ogo":3231,"Ġcorpo":3232,"atro":3233,"Ġtex":3234,"Ġoil":3235,"Ġreach":3236,"Ġamor":3237,"Ġlegal":3238,"Ġinvestig":3239,"Ġnor":3240,"Ġfrance":3241,"ots":3242,"Ġquestion":3243,"Ġflex":3244,"Ġaltern":3245,"Ġbreakfast":3246,"Ġfinan":3247,"Ġamerican":3248,"ograf":3249,"Ġcus":3250,"Ġregion":3251,"Ġstor":3252,"Ġspace":3253,"posta":3254,"adia":3255,"Ġkind":3256,"Ġestrut":3257,"Ġpassagens":3258,"Ġarg":3259,"ĠmÃ¡quina":3260,"Ġconcern":3261,"Ġturn":3262,"Ġmeans":3263,"uto":3264,"Ġcampo":3265,"Ġfica":3266,"Ġreservas":3267,"Ġnuma":3268,"Ġdam":3269,"ĠvÃ¡rias":3270,"ony":3271,"Ġtransl":3272,"ĠespecÃŃf":3273,"ban":3274,"Ġestava":3275,"ecimento":3276,"Ġsun":3277,"Ġvirt":3278,"Ġproxim":3279,"Ġaloj":3280,"Ġsido":3281,"ĠaÃ§o":3282,"Ġlt":3283,"Ġeast":3284,"ips":3285,"Ġplane":3286,"Ġrelig":3287,"iers":3288,"Ġvenda":3289,"Ġusando":3290,"Ġseries":3291,"bor":3292,"Ġoffice":3293,"ox":3294,"Ġgas":3295,"Ġplat":3296,"Ġdeb":3297,"ibus":3298,"Ġsuperior":3299,"Ġinclude":3300,"Ġreceber":3301,"Ġlab":3302,"ĠlÃŃ":3303,"Ġcro":3304,"culos":3305,"Ġhostel":3306,"Ġfel":3307,"Ġviagens":3308,"Ġpurpos":3309,"Ġrespect":3310,"ament":3311,"Ġregard":3312,"Ġcompanh":3313,"Ġdrive":3314,"Ġsolutions":3315,"Ġsand":3316,"ivas":3317,"Ġshar":3318,"Ġanalysis":3319,"Ġdeal":3320,"Ġmaking":3321,"Ġnever":3322,"Ġtransporte":3323,"Ġciv":3324,"Ġblog":3325,"Ġescolha":3326,"Ġbelie":3327,"Ġword":3328,"Ġlimit":3329,"mas":3330,"Ġju":3331,"ced":3332,"Ġdiscover":3333,"Ġwhy":3334,"Ġje":3335,"Ġinici":3336,"ring":3337,"Ġserver":3338,"Ġisra":3339,"Ġside":3340,"Ġfur":3341,"Ġestrelas":3342,"ĠserÃ£o":3343,"Ġinflu":3344,"Ġcondu":3345,"Ġguests":3346,"ĠcoraÃ§Ã£o":3347,"rict":3348,"Ġmest":3349,"Ġlord":3350,"Ġneeds":3351,"Ġencontre":3352,"Ġcertain":3353,"Ġsn":3354,"Ġtoget":3355,"Ġdevem":3356,"ĠregiÃ£o":3357,"Ġgreen":3358,"Ġisrael":3359,"Ġnossas":3360,"Ġtogether":3361,"Ġimage":3362,"ĠendereÃ§o":3363,"Ġmetal":3364,"Ġgol":3365,"Ġguard":3366,"Ġben":3367,"lin":3368,"Ġjet":3369,"Ġanaly":3370,"Ġcompare":3371,"ĠÃ´":3372,"Ġeducation":3373,"Ġviaj":3374,"Ġcuid":3375,"ĠsÃ©ri":3376,"Ġstudents":3377,"Ġhistory":3378,"Ġtenha":3379,"Ġexpos":3380,"Ġpalavras":3381,"Ġopportun":3382,"vo":3383,"Ġrat":3384,"Ġsuf":3385,"Ġexcelente":3386,"Ġgrad":3387,"Ġincreas":3388,"Ġsqu":3389,"Ġconfer":3390,"Ġsolic":3391,"own":3392,"Ġsour":3393,"point":3394,"ĠprÃ³ximo":3395,"ifica":3396,"Ġocc":3397,"oma":3398,"iba":3399,"Ġacont":3400,"uc":3401,"ĠprÃ©":3402,"Ġdesempenho":3403,"Ġapl":3404,"Ġmedia":3405,"fic":3406,"Ġnun":3407,"Ġvit":3408,"amin":3409,"itted":3410,"ÃŃnio":3411,"nibus":3412,"ĠmÃ£o":3413,"ising":3414,"Ġcresc":3415,"Ġbarcel":3416,"Ġsingle":3417,"Ġmb":3418,"ush":3419,"Ġvarious":3420,"Ġitalian":3421,"lines":3422,"Ġsea":3423,"Ġba":3424,"Ġbuilding":3425,"idor":3426,"Ġproced":3427,"Ġprotection":3428,"asc":3429,"Ġdez":3430,"Ġamar":3431,"Ġpodemos":3432,"Ġrepl":3433,"vious":3434,"Ġgrandes":3435,"Ġautomatic":3436,"Ġsuites":3437,"Ġtools":3438,"Ġelet":3439,"ĠaplicaÃ§Ã£o":3440,"Ġabr":3441,"Ġestim":3442,"ĠconstruÃ§Ã£o":3443,"ianÃ§a":3444,"Ġtipos":3445,"ĠÃŃn":3446,"Ġpolicy":3447,"yal":3448,"imos":3449,"Ġfront":3450,"ether":3451,"ĠÃ´nibus":3452,"Ġdue":3453,"Ġarr":3454,"Ġconfirm":3455,"Ġtratamento":3456,"oft":3457,"Ġtou":3458,"Ġclos":3459,"Ġado":3460,"Ġmel":3461,"Ġusado":3462,"Ġsegunda":3463,"oda":3464,"Ġvoo":3465,"Ġintrodu":3466,"Ġlondon":3467,"Ġscreen":3468,"Ġfacebook":3469,"onst":3470,"ĠÃ¡reas":3471,"Ġarmazen":3472,"Ġadditional":3473,"Ġgarden":3474,"iful":3475,"Ġindustrial":3476,"Ġmulheres":3477,"Ġcidades":3478,"Ġbutton":3479,"ĠlanÃ§":3480,"Ġcaixa":3481,"ÃŃda":3482,"Ġprop":3483,"Ġactivities":3484,"ured":3485,"Ġmeses":3486,"Ġdeals":3487,"Ġaverage":3488,"Ġfora":3489,"Ġglass":3490,"Ġdeg":3491,"Ġconform":3492,"Ġfuture":3493,"Ġconhecimento":3494,"Ġfig":3495,"ĠutilizaÃ§Ã£o":3496,"ĠpadrÃ£o":3497,"Ġguar":3498,"Ġast":3499,"Ġclub":3500,"bra":3501,"ford":3502,"Ġjohn":3503,"ulation":3504,"Ġestiver":3505,"Ġcancel":3506,"ilt":3507,"Ġdispositivo":3508,"Ġsle":3509,"Ġmol":3510,"Ġrelations":3511,"Ġzo":3512,"ĠsoluÃ§Ãµes":3513,"Ġcommon":3514,"Ġattract":3515,"Ġsav":3516,"Ġeg":3517,"Ġconfid":3518,"Ġferramentas":3519,"Ġsaber":3520,"Ġnut":3521,"Ġrapid":3522,"no":3523,"Ġobrig":3524,"Ġmund":3525,"Ġsuccess":3526,"Ġcommunity":3527,"iga":3528,"ĠindÃºst":3529,"oca":3530,"elas":3531,"Ġficheiro":3532,"Ġsimilar":3533,"Ġdistribu":3534,"Ġproblems":3535,"Ġprest":3536,"ators":3537,"Ġmi":3538,"Ġartigo":3539,"Ġelectron":3540,"leo":3541,"ift":3542,"Ġcorpor":3543,"Ġphys":3544,"Ġfriendly":3545,"Ġcompartilh":3546,"Ġstruct":3547,"Ġfic":3548,"ensÃ£o":3549,"Ġpartners":3550,"self":3551,"ological":3552,"Ġknown":3553,"Ġtelef":3554,"Ġaccommodation":3555,"Ġprin":3556,"Ġbecome":3557,"Ġlabor":3558,"Ġmembros":3559,"Ġparts":3560,"Ġspain":3561,"ĠirÃ¡":3562,"Ġpurch":3563,"Ġey":3564,"Ġcover":3565,"Ġbarcelona":3566,"jas":3567,"Ġobjetivo":3568,"acto":3569,"Ġsoci":3570,"Ġothers":3571,"Ġcut":3572,"Ġfem":3573,"Ġesses":3574,"Ġmight":3575,"Ġstop":3576,"Ġnaveg":3577,"enos":3578,"Ġtiver":3579,"Ġwon":3580,"Ġfinance":3581,"Ġsala":3582,"adamente":3583,"Ġhig":3584,"ulas":3585,"Ġtickets":3586,"Ġsam":3587,"Ġsof":3588,"Ġagre":3589,"Ġdever":3590,"Ġwhether":3591,"Ġthink":3592,"Ġextern":3593,"Ġsug":3594,"Ġpin":3595,"Ġdiscuss":3596,"Ġwood":3597,"Ġbeautiful":3598,"Ġfocus":3599,"Ġstri":3600,"Ġavi":3601,"Ġblue":3602,"Ã©rica":3603,"Ġtemporada":3604,"Ġexplore":3605,"Ġcot":3606,"Ġtool":3607,"Ġago":3608,"Ġjard":3609,"Ġfornecer":3610,"Ġcalled":3611,"ield":3612,"Ġsale":3613,"Ġstrateg":3614,"Ġhp":3615,"Ġhab":3616,"Ġapartments":3617,"Ġinstru":3618,"Ġtas":3619,"ogn":3620,"Ġestablish":3621,"Ġpresente":3622,"Ġtraining":3623,"Ġcheg":3624,"idge":3625,"Ġmembers":3626,"Ġmember":3627,"che":3628,"Ġdll":3629,"Ġjud":3630,"Ġadult":3631,"Ġnunca":3632,"sh":3633,"Ġalto":3634,"Ġmonths":3635,"Ġmete":3636,"ĠcafÃ©":3637,"ovo":3638,"Ġcomplete":3639,"Ġigreja":3640,"Ġinfo":3641,"Ġsure":3642,"Ġguide":3643,"Ġpergunt":3644,"Ġband":3645,"Ġexig":3646,"ised":3647,"Ġpict":3648,"Ġaccept":3649,"Ġmajor":3650,"Ġcerca":3651,"Ġfot":3652,"Ġeverything":3653,"Ġcapaz":3654,"Ġship":3655,"Ġinnov":3656,"Ġlou":3657,"Ġcoun":3658,"Ġpartner":3659,"Ġmini":3660,"intes":3661,"Ġcand":3662,"Ġhistor":3663,"ills":3664,"Ġbor":3665,"Ġcra":3666,"anas":3667,"Ġlake":3668,"Ġoften":3669,"respon":3670,"Ġprogramas":3671,"Ġchat":3672,"ÃŃcios":3673,"Ġemploy":3674,"Ġestrat":3675,"Ġdate":3676,"Ġpropriedade":3677,"Ġtag":3678,"eias":3679,"Ġequipe":3680,"Ġsomething":3681,"ĠproteÃ§Ã£o":3682,"inar":3683,"inte":3684,"Ġtechnical":3685,"Ġage":3686,"Ġpessoal":3687,"ĠsoluÃ§Ã£o":3688,"Ġsimpl":3689,"alu":3690,"Ġmiss":3691,"Ġrespe":3692,"ĠavaliaÃ§Ã£o":3693,"ization":3694,"boa":3695,"Ġinov":3696,"Ġjov":3697,"Ġvest":3698,"Ġexport":3699,"Ġcities":3700,"ding":3701,"Ġaliment":3702,"Ġcrit":3703,"aff":3704,"Ġsemana":3705,"rados":3706,"izados":3707,"Ġarticle":3708,"Ġtanto":3709,"Ġwel":3710,"Ġball":3711,"itation":3712,"ification":3713,"Ġoportun":3714,"Ġuntil":3715,"Ġpoints":3716,"Ġreceive":3717,"Ġpt":3718,"Ġeur":3719,"Ġacad":3720,"Ġevol":3721,"ĠsÃ©rie":3722,"Ġmoney":3723,"Ġmicrosoft":3724,"istic":3725,"Ġadded":3726,"ĠmÃ¡xim":3727,"Ġoferta":3728,"ison":3729,"Ġcabe":3730,"Ġadapt":3731,"Ġaplicativo":3732,"Ġfriends":3733,"Ġresour":3734,"Ġtry":3735,"Ġliber":3736,"Ġmagn":3737,"Ġfield":3738,"Ġven":3739,"Ġteach":3740,"inheiro":3741,"Ġapplications":3742,"Ġaspect":3743,"Ġmist":3744,"Ġanti":3745,"Ġtais":3746,"ĠfÃ©rias":3747,"Ġminist":3748,"ij":3749,"ĠvisÃ£o":3750,"Ġruss":3751,"ribut":3752,"Ġapartamento":3753,"rease":3754,"Ġbeb":3755,"Ġreally":3756,"ĠestratÃ©g":3757,"adora":3758,"Ġtoo":3759,"Ġallows":3760,"Ġsave":3761,"Ġcompat":3762,"Ġconjunto":3763,"Ġpropor":3764,"Ġairlines":3765,"Ġlocalizado":3766,"Ġpequeno":3767,"Ġbaixar":3768,"Ġfall":3769,"esa":3770,"una":3771,"ĠbotÃ£o":3772,"sel":3773,"Ġchu":3774,"Ġcollect":3775,"Ġaug":3776,"ĠÃºltima":3777,"Ġvend":3778,"Ġfarm":3779,"ives":3780,"Ġlater":3781,"ĠcÃ³d":3782,"Ġaction":3783,"Ġperc":3784,"Ġeuropa":3785,"Ġadequado":3786,"Ġreun":3787,"Ġvilla":3788,"Ġtel":3789,"Ġbilh":3790,"ĠmÃ©dia":3791,"Ġsubm":3792,"ules":3793,"Ġplata":3794,"Ġcele":3795,"Ġdirectly":3796,"ĠhÃ³s":3797,"bert":3798,"ĠhÃ³sped":3799,"Ġtela":3800,"Ġful":3801,"Ġexch":3802,"Ã¡ticas":3803,"Ġexcellent":3804,"Ġhaving":3805,"Ġguia":3806,"Ġgerm":3807,"Ġlisboa":3808,"Ġrisk":3809,"Ġhid":3810,"oid":3811,"Ġliving":3812,"Ġpromot":3813,"Ġevents":3814,"Ġcit":3815,"Ġchave":3816,"Ġcreated":3817,"Ġfrancis":3818,"ĠlÃ¡":3819,"Ġlinks":3820,"bol":3821,"zer":3822,"Ġrelax":3823,"Ġmarca":3824,"Ġadicionar":3825,"Ġacomod":3826,"xico":3827,"anced":3828,"Ġhair":3829,"ĠconfianÃ§a":3830,"Ġmadr":3831,"Ġhon":3832,"urt":3833,"Ġprior":3834,"ĠmilhÃµes":3835,"Ġusb":3836,"Ġcultural":3837,"Ġpromo":3838,"Ġdeclar":3839,"Ġamaz":3840,"etes":3841,"Ġmos":3842,"Ġwalk":3843,"uta":3844,"Ġseguintes":3845,"Ġquestions":3846,"inhos":3847,"Ġcivil":3848,"Ġconsul":3849,"Ġpelas":3850,"Ġessas":3851,"Ġabove":3852,"Ġtub":3853,"Ġmadeira":3854,"Ġparcer":3855,"ster":3856,"ises":3857,"imo":3858,"ĠinstalaÃ§Ã£o":3859,"Ġsolution":3860,"ocol":3861,"wards":3862,"Ġaim":3863,"Ġeffici":3864,"Ġltd":3865,"atory":3866,"Ġarte":3867,"Ġspan":3868,"Ġminute":3869,"Ġflo":3870,"Ġextension":3871,"Ġweight":3872,"Ġtable":3873,"Ġrate":3874,"Ġconsist":3875,"Ġdemonst":3876,"Ġhomens":3877,"top":3878,"Ġoptim":3879,"Ġcompos":3880,"Ġcooper":3881,"back":3882,"Ġmunic":3883,"idores":3884,"Ġsafety":3885,"ientes":3886,"Ġeventos":3887,"Ġgovernment":3888,"Ġappear":3889,"via":3890,"Ġmateriais":3891,"Ġsess":3892,"Ġflash":3893,"Ġkitch":3894,"Ġupon":3895,"come":3896,"Ġplayer":3897,"Ġmesma":3898,"Ġcannot":3899,"oles":3900,"word":3901,"Ġtinha":3902,"iser":3903,"Ġsecret":3904,"iso":3905,"avam":3906,"ountain":3907,"Ġpati":3908,"ases":3909,"eline":3910,"ota":3911,"Ġaddition":3912,"Ã©l":3913,"ÃŃm":3914,"Ġenviar":3915,"Ġcum":3916,"Ġinterior":3917,"ĠmÃºsica":3918,"Ġmanter":3919,"Ġmaxim":3920,"ĠcÃ©u":3921,"Ġconcent":3922,"ÃŃtulo":3923,"Ġdesigned":3924,"ering":3925,"Ġbegin":3926,"Ġestas":3927,"Ġrequired":3928,"Ġgiven":3929,"Ġitaly":3930,"Ã©rio":3931,"Ġvisitar":3932,"Ġleft":3933,"Ġprofiss":3934,"Ġcopy":3935,"Ġpret":3936,"Ġalgo":3937,"Ġsucess":3938,"Ġterm":3939,"Ġcell":3940,"Ġstrong":3941,"Ġhal":3942,"Ġchanges":3943,"den":3944,"Ġmim":3945,"Ġroyal":3946,"Ġsimple":3947,"ĠrÃ¡pido":3948,"issionais":3949,"Ġdedic":3950,"Ġstra":3951,"yl":3952,"Ġvid":3953,"Ã³veis":3954,"board":3955,"ule":3956,"Ġwa":3957,"ived":3958,"urais":3959,"Ã¡tico":3960,"Ġauto":3961,"Ġprofissionais":3962,"Ġrelev":3963,"ript":3964,"Ġestadia":3965,"Ġraz":3966,"Ġmadrid":3967,"Ġmaterials":3968,"Ġensure":3969,"ĠextensÃ£o":3970,"Ġfurther":3971,"Ġexistem":3972,"Ġhospital":3973,"pÃ§Ã£o":3974,"ĠamÃ©rica":3975,"side":3976,"Ġalm":3977,"Ġfacilities":3978,"Ġfeder":3979,"Ġnorte":3980,"ired":3981,"iedade":3982,"Ġlei":3983,"ged":3984,"ming":3985,"Ġreino":3986,"Ġexib":3987,"Ġphone":3988,"Ġregular":3989,"Ġfoot":3990,"zh":3991,"Ġestamos":3992,"Ġbrazilian":3993,"Ġdinheiro":3994,"ĠinÃŃcio":3995,"Ġprevious":3996,"Ġself":3997,"Ġrental":3998,"Ġcorr":3999,"Ġpeso":4000,"Ġfly":4001,"Ġtherefore":4002,"Ġmind":4003,"Ġdiss":4004,"eiros":4005,"Ġrevol":4006,"Ġfunct":4007,"ema":4008,"Ġdevido":4009,"Ġescrit":4010,"Ġchin":4011,"light":4012,"Ġquatro":4013,"Ġbaixo":4014,"Ġprofissional":4015,"Ġefici":4016,"Ġfeito":4017,"Ġpric":4018,"ĠcartÃ£o":4019,"ĠpeÃ§as":4020,"ties":4021,"Ġescolher":4022,"box":4023,"Ġtend":4024,"Ġmean":4025,"rou":4026,"Ġboard":4027,"Ġlay":4028,"Ġinit":4029,"sia":4030,"oque":4031,"ili":4032,"ĠhÃ³spedes":4033,"ally":4034,"Ġcabo":4035,"icional":4036,"Ġusados":4037,"iana":4038,"ĠindÃºstria":4039,"ĠespÃŃ":4040,"Ġminim":4041,"Ġincor":4042,"Ġcasas":4043,"ĠeducaÃ§Ã£o":4044,"Ġplus":4045,"Ġremain":4046,"ought":4047,"Ġaproxim":4048,"Ġmig":4049,"Ġprocura":4050,"Ġcel":4051,"Ġriver":4052,"Ġrisco":4053,"Ġdecid":4054,"ĠacessÃ³rios":4055,"Ġprivacy":4056,"Ġbranco":4057,"aba":4058,"ipe":4059,"Ġprecip":4060,"bi":4061,"ificaÃ§Ãµes":4062,"Ġperce":4063,"Ġpaper":4064,"Ġjoin":4065,"ĠcomunicaÃ§Ã£o":4066,"Ġdesenvol":4067,"Ġmaintain":4068,"Ġatr":4069,"Ġadministr":4070,"Ġbad":4071,"ĠfunÃ§Ã£o":4072,"Ġcross":4073,"istics":4074,"pool":4075,"Ġfinancial":4076,"Ġprotect":4077,"ĠÃºnico":4078,"irt":4079,"Ġcozinha":4080,"Ġspeak":4081,"Ġcontribu":4082,"Ġmulti":4083,"Ġmakes":4084,"Ġill":4085,"Ġgroups":4086,"Ġreason":4087,"Ġconh":4088,"Ġprograms":4089,"Ġidade":4090,"Ġimpact":4091,"Ġacqu":4092,"ĠterÃ¡":4093,"Ġly":4094,"Ġestilo":4095,"Ġclim":4096,"Ġachie":4097,"Ġplatform":4098,"uit":4099,"inta":4100,"Ġtradit":4101,"har":4102,"Ġvar":4103,"Ġmillion":4104,"Ġyoung":4105,"Ġespanha":4106,"Ġamount":4107,"Ġconver":4108,"Ġinstrum":4109,"Ġbur":4110,"Ġkingdom":4111,"Ġrob":4112,"ump":4113,"son":4114,"Ġfant":4115,"ges":4116,"Ġchall":4117,"Ġpais":4118,"tery":4119,"Ġfeed":4120,"Ġestudos":4121,"Ġles":4122,"Ġcaminho":4123,"omas":4124,"Ġcorrespon":4125,"ĠfaÃ§a":4126,"Ġinstitu":4127,"Ġsyn":4128,"Ġinclui":4129,"Ġproximidades":4130,"Ġacima":4131,"Ġacomp":4132,"Ġplataform":4133,"Ġnice":4134,"Ġalong":4135,"Ġtarif":4136,"Ġjapan":4137,"Ġtypes":4138,"Ġganh":4139,"cha":4140,"Ġbanco":4141,"Ġeasily":4142,"Ġmec":4143,"Ġincrease":4144,"Ġml":4145,"Ġembora":4146,"Ġofficial":4147,"Ġliter":4148,"Ġbasic":4149,"hi":4150,"ya":4151,"Ġguer":4152,"Ġlav":4153,"Ġgran":4154,"clu":4155,"Ġfit":4156,"row":4157,"Ġpolit":4158,"ulho":4159,"Ġdescob":4160,"gem":4161,"Ġdistance":4162,"Ġplano":4163,"Ġfest":4164,"Ġstudies":4165,"Ġbir":4166,"iza":4167,"Ġfilho":4168,"Ġstyle":4169,"Ġparceria":4170,"Ġguarante":4171,"Ġfib":4172,"Ġfres":4173,"Ġarri":4174,"Ġoce":4175,"izada":4176,"Ġnecessidades":4177,"Ġdry":4178,"Ġphoto":4179,"Ġbathroom":4180,"wh":4181,"Ġquantidade":4182,"Ġgoing":4183,"ĠanÃºn":4184,"uring":4185,"Ġcode":4186,"Ġleast":4187,"ĠprÃ³prio":4188,"Ġalojamento":4189,"Ġorient":4190,"Ġmodelos":4191,"Ġreserve":4192,"zes":4193,"rol":4194,"cie":4195,"Ġobtain":4196,"Ġalun":4197,"zz":4198,"Ġalmo":4199,"Ġatl":4200,"Ġoferecer":4201,"Ġfornece":4202,"Ġpad":4203,"Ġbrows":4204,"Ġpisc":4205,"ĠopÃ§Ã£o":4206,"Ġmad":4207,"Ġpropos":4208,"ging":4209,"Ġvan":4210,"Ġmundial":4211,"Ġwords":4212,"Ġuk":4213,"Ġroup":4214,"Ġregister":4215,"Ġextrem":4216,"Ġesqu":4217,"Ġtreatment":4218,"itect":4219,"Ġther":4220,"Ġmobil":4221,"Ġstep":4222,"Ġjune":4223,"Ġdemand":4224,"orks":4225,"Ġult":4226,"Ġnuv":4227,"Ġcort":4228,"Ġmountain":4229,"Ġcomments":4230,"Ġcollection":4231,"Ġrod":4232,"Ġanimais":4233,"ĠitÃ¡lia":4234,"inos":4235,"Ġimag":4236,"Ġcredit":4237,"Ġadm":4238,"Ġkn":4239,"Ġkitchen":4240,"Ġuniversidade":4241,"Ġcloud":4242,"ĠpÃºblico":4243,"Ġexchange":4244,"eÃ§Ã£o":4245,"Ġhou":4246,"Ġwire":4247,"ility":4248,"Ġconect":4249,"Ġfrente":4250,"Ġsquare":4251,"Ġstaff":4252,"Ġrentals":4253,"Ġbring":4254,"Ġsuggest":4255,"Ġautomat":4256,"Ġsen":4257,"lim":4258,"Ġfunction":4259,"ualmente":4260,"Ġbedroom":4261,"Ġgerenci":4262,"Ġcomfortable":4263,"Ġrock":4264,"Ġdizer":4265,"ĠcÃ³digo":4266,"ime":4267,"Ġsho":4268,"Ġformat":4269,"Ġcommer":4270,"Ġdouble":4271,"Ġintens":4272,"phone":4273,"Ġdro":4274,"ubro":4275,"Ġfrancisco":4276,"Ġtell":4277,"ither":4278,"gs":4279,"etic":4280,"ĠorganizaÃ§Ã£o":4281,"itude":4282,"Ġreservar":4283,"ĠaplicaÃ§Ãµes":4284,"Ġmix":4285,"Ġwish":4286,"unta":4287,"Ġportuguese":4288,"Ġexpedia":4289,"ĠpÃ©":4290,"Ġmanut":4291,"Ġspanish":4292,"ĠmÃªs":4293,"Ġcarri":4294,"Ġrestaurante":4295,"Ġlc":4296,"Ġprojetos":4297,"Ġadj":4298,"Ġmarc":4299,"Ġvolta":4300,"Ġprivacidade":4301,"Ġdaily":4302,"Ġacr":4303,"ĠpÃ¡ginas":4304,"ĠÃ³leo":4305,"Ġelectric":4306,"ocar":4307,"Ġadvert":4308,"Ġrich":4309,"Ġdv":4310,"ilhas":4311,"Ġdispositivos":4312,"Ġara":4313,"Ġfrench":4314,"Ġsomente":4315,"ĠeconÃ´m":4316,"Ġposition":4317,"Ġjunt":4318,"Ġamerica":4319,"Ġeleg":4320,"Ġsust":4321,"Ġcomprom":4322,"Ġcusto":4323,"Ġconstruction":4324,"Ġmensagem":4325,"eda":4326,"aves":4327,"Ġcul":4328,"Ġmelhorar":4329,"Ġevalu":4330,"Ġbuilt":4331,"Ġcruz":4332,"Ġjulho":4333,"Ġatra":4334,"ches":4335,"Ġcontem":4336,"Ġcontinue":4337,"Ġwide":4338,"wa":4339,"Ġpool":4340,"Ġload":4341,"Ġgrupos":4342,"izaÃ§Ãµes":4343,"Ġhostels":4344,"ĠmanutenÃ§Ã£o":4345,"ĠfÃŃs":4346,"Ġunion":4347,"Ġmp":4348,"Ġelim":4349,"Ġportanto":4350,"Ġfeb":4351,"Ġluxury":4352,"Ġamigos":4353,"Ġhour":4354,"iano":4355,"Ġrecu":4356,"Ġpalavra":4357,"Ġtu":4358,"Ġcomunidade":4359,"Ġmessage":4360,"Ġcalcul":4361,"Ġunique":4362,"Ġsignificant":4363,"Ġdimens":4364,"ĠcaracterÃŃsticas":4365,"Ġmanh":4366,"ires":4367,"Ġcasos":4368,"Ġgermany":4369,"Ġrevel":4370,"Ġexpected":4371,"Ġsett":4372,"atura":4373,"Ġvivo":4374,"Ġincludes":4375,"Ġbill":4376,"ania":4377,"idity":4378,"Ġnatureza":4379,"Ġsafe":4380,"Ġvariedade":4381,"Ġchegar":4382,"Ġsignifica":4383,"ocity":4384,"Ġcla":4385,"Ġalguma":4386,"gress":4387,"Ġcama":4388,"Ġwhole":4389,"omes":4390,"Ġpages":4391,"Ġnada":4392,"Ġvale":4393,"Ġfish":4394,"Ġcoisa":4395,"Ġapple":4396,"Ġdiferente":4397,"pro":4398,"Ġpedido":4399,"enÃ§as":4400,"Ġheav":4401,"ÃŃstica":4402,"Ġstorage":4403,"Ġgoverno":4404,"ĠÃºnica":4405,"Ġferramenta":4406,"Ġsell":4407,"Ġhund":4408,"ĠatrÃ¡s":4409,"Ġparque":4410,"Ġemerg":4411,"Ġtexto":4412,"imes":4413,"Ġentrar":4414,"Ġpagamento":4415,"edades":4416,"Ġfever":4417,"door":4418,"isar":4419,"Ġyet":4420,"Ġtravelocity":4421,"Ġentrada":4422,"Ġcausa":4423,"ĠrÃ¡pida":4424,"Ġverm":4425,"Ġdevices":4426,"Ġsound":4427,"Ġrecogn":4428,"Ġdiretamente":4429,"rut":4430,"Ġsustent":4431,"Ġnar":4432,"Ġflu":4433,"ky":4434,"Ġstrength":4435,"Ġmart":4436,"ki":4437,"Ġirm":4438,"Ġtan":4439,"Ã±":4440,"Ġflow":4441,"Ġdeveloped":4442,"Ã³t":4443,"Ġdesaf":4444,"bn":4445,"Ġestacion":4446,"Ġearth":4447,"Ġproduz":4448,"Ġresultado":4449,"Ġfuturo":4450,"Ġmand":4451,"Ġdise":4452,"Ġsept":4453,"ĠfranÃ§a":4454,"Ġresposta":4455,"Ġpossui":4456,"Ġdesk":4457,"Ġaccessories":4458,"Ġtitle":4459,"eth":4460,"ulos":4461,"Ġupdate":4462,"Ġprocessing":4463,"Ġfech":4464,"Ġfonte":4465,"Ġvaria":4466,"ingo":4467,"uri":4468,"Ġcd":4469,"Ġvolume":4470,"Ġapoio":4471,"Ġthus":4472,"Ġtrabalhar":4473,"Ġsucesso":4474,"Ġtelefone":4475,"Ġhigher":4476,"Ġinterf":4477,"Ġterrit":4478,"Ġfive":4479,"Ġrespond":4480,"Ġviv":4481,"vid":4482,"isto":4483,"Ġcommit":4484,"ĠprÃ³pria":4485,"Ġeua":4486,"Ġgarantir":4487,"Ġalb":4488,"Ġposit":4489,"Ġchoice":4490,"Ġrealmente":4491,"Ġtraditional":4492,"Ġlearning":4493,"Ġeconomic":4494,"Ġimprove":4495,"Ġinstant":4496,"Ġquase":4497,"Ġjack":4498,"Ġperfil":4499,"Ã³vel":4500,"Ġapartamentos":4501,"Ġdetail":4502,"Ġms":4503,"Ġresources":4504,"Ġpul":4505,"Ġobt":4506,"Ġcapt":4507,"Ġporta":4508,"Ġbrit":4509,"Ġlivro":4510,"Ġembal":4511,"Ġefet":4512,"Ġdone":4513,"Ġagoda":4514,"Ġcristo":4515,"bour":4516,"ĠforÃ§a":4517,"Ġincluded":4518,"Ġsupply":4519,"ilha":4520,"Ġok":4521,"Ġrecuper":4522,"selves":4523,"Ġcores":4524,"Ġsetembro":4525,"Ġjuly":4526,"Ġpas":4527,"Ġespanh":4528,"Ġquad":4529,"Ġwestern":4530,"ns":4531,"Ġhong":4532,"Ġjur":4533,"Ġutilizar":4534,"Ġacab":4535,"house":4536,"Ġsports":4537,"Ġinclus":4538,"urso":4539,"Ġnav":4540,"ively":4541,"eios":4542,"Ġwik":4543,"Ġconsci":4544,"Ġconstant":4545,"Ġler":4546,"Ġbank":4547,"Ġprojects":4548,"Ġharm":4549,"Ġexpect":4550,"Ġkg":4551,"Ġcasino":4552,"Ġdiffic":4553,"Ġavoid":4554,"Ġskin":4555,"Ġespecially":4556,"Ġlod":4557,"antar":4558,"Ġdifficult":4559,"Ġaustral":4560,"Ġconfort":4561,"Ġconstitu":4562,"ĠhistÃ³r":4563,"Ġrapidamente":4564,"Ġorigin":4565,"Ġod":4566,"Ġvib":4567,"Ġmanager":4568,"Ġue":4569,"Ġgot":4570,"ĠespÃŃrito":4571,"Ġmeeting":4572,"ĠportuguÃªs":4573,"Ġproperties":4574,"Ġcic":4575,"Ġmeteor":4576,"Ġscience":4577,"Ġvirtual":4578,"Ġsuppliers":4579,"ĠcÃ¢m":4580,"Ġinvolv":4581,"Ġfilhos":4582,"ografia":4583,"Ġdeath":4584,"Ġencontra":4585,"Ġhous":4586,"ĠalcanÃ§":4587,"Ġrelationship":4588,"Ġcarre":4589,"Ġinterpre":4590,"Ġinstallation":4591,"Ġsociais":4592,"redit":4593,"Ġbusca":4594,"Ġmission":4595,"Ġchap":4596,"ini":4597,"ecast":4598,"ÃŃg":4599,"Ġtaxa":4600,"ark":4601,"Ġsociety":4602,"ivamente":4603,"Ġcombo":4604,"hib":4605,"Ġali":4606,"ĠprÃ³pri":4607,"Ġespeciais":4608,"Ġagrad":4609,"Ġsales":4610,"Ġreceb":4611,"Ġsource":4612,"eo":4613,"uar":4614,"Ġfather":4615,"Ġentire":4616,"Ġsams":4617,"Ġteste":4618,"osos":4619,"Ġacompanh":4620,"Ġseason":4621,"Ġsociedade":4622,"Ġnam":4623,"ĠavanÃ§":4624,"Ġeletr":4625,"Ġmc":4626,"Ġrole":4627,"Ġpai":4628,"Ġleia":4629,"Ġcases":4630,"Ã¢nt":4631,"Ġoption":4632,"itamente":4633,"Ġcomum":4634,"Ġbast":4635,"ĠcriaÃ§Ã£o":4636,"cy":4637,"Ġox":4638,"ground":4639,"hood":4640,"Ġessential":4641,"Ġinicial":4642,"Ġprova":4643,"otes":4644,"Ġelas":4645,"Ġelem":4646,"Ġescre":4647,"Ġdatab":4648,"Ġclaro":4649,"Ġexiste":4650,"ÃŃdu":4651,"Ġtomar":4652,"Ġconcept":4653,"Ġchann":4654,"ught":4655,"Ġsold":4656,"Ġdre":4657,"Ġran":4658,"Ġtrade":4659,"och":4660,"Ġequipamento":4661,"Ġplastic":4662,"Ġbang":4663,"Ġbeh":4664,"atamente":4665,"Ġcoff":4666,"Ġbanho":4667,"Ġpele":4668,"Ġtouch":4669,"amental":4670,"Ġsatisf":4671,"Ġjardim":4672,"uary":4673,"ĠbÃ¡s":4674,"wood":4675,"Ġmech":4676,"Ġtornar":4677,"ĠtÃŃtulo":4678,"eca":4679,"Ġinsc":4680,"Ġstatus":4681,"ette":4682,"ĠformaÃ§Ã£o":4683,"wire":4684,"ĠaÃ§Ã£o":4685,"Ġartigos":4686,"Ġdol":4687,"Ġpronunci":4688,"ĠduraÃ§Ã£o":4689,"oura":4690,"Ġvidro":4691,"ĠatenÃ§Ã£o":4692,"Ġcompletamente":4693,"lig":4694,"Ġcompra":4695,"Ġactivity":4696,"Ġconsequ":4697,"Ġsolar":4698,"Ġenf":4699,"odos":4700,"Ġrail":4701,"Ġpayment":4702,"isl":4703,"Ġcommunication":4704,"Ġseptember":4705,"Ġalemanha":4706,"Ġthroughout":4707,"Ġrefl":4708,"Ġfevereiro":4709,"aco":4710,"Ġlogo":4711,"Ġgradu":4712,"press":4713,"Ġmaria":4714,"ribution":4715,"cast":4716,"Ġorb":4717,"ĠelÃ©t":4718,"Ġmedical":4719,"Ġprocur":4720,"Ġgb":4721,"Ġpovo":4722,"Ġestat":4723,"Ġfacilmente":4724,"Ġpartes":4725,"Ġjunho":4726,"Ġmanage":4727,"Ġconfl":4728,"Ġfornecedores":4729,"Ġcad":4730,"Ġkong":4731,"Ġcurso":4732,"Ġarchitect":4733,"hic":4734,"Ġrout":4735,"esar":4736,"Ġacadem":4737,"Ġforecast":4738,"Ġsuit":4739,"Ġitems":4740,"Ġestou":4741,"Ġoperation":4742,"ball":4743,"Ġshopping":4744,"cost":4745,"Ġcause":4746,"Ġaprender":4747,"Ġht":4748,"ĠplÃ¡st":4749,"Ġcolabor":4750,"eria":4751,"iram":4752,"Ġusd":4753,"Ġfair":4754,"Ġevid":4755,"Ġblood":4756,"Ġsuperf":4757,"Ġconfidence":4758,"ecÃ§Ã£o":4759,"Ġscient":4760,"Ġdesej":4761,"ĠcomeÃ§ar":4762,"Ġcry":4763,"Ġefeito":4764,"eram":4765,"Ġloja":4766,"Ġtaking":4767,"Ġpriceline":4768,"Ġphot":4769,"hol":4770,"Ġcosta":4771,"Ġcos":4772,"Ġiso":4773,"Ġmort":4774,"Ġdiam":4775,"aza":4776,"Ġsustain":4777,"ĠinstruÃ§Ãµes":4778,"Ġhall":4779,"Ġequipamentos":4780,"Ġsap":4781,"Ġham":4782,"Ġrequirements":4783,"Ġcamera":4784,"ny":4785,"ening":4786,"Ġratio":4787,"Ġpropriedades":4788,"Ġloss":4789,"Ġjogar":4790,"Ġvoltar":4791,"antic":4792,"Ġsamsung":4793,"fo":4794,"rÃ¡f":4795,"orial":4796,"teis":4797,"Ġmount":4798,"Ġvillage":4799,"Ġjetcost":4800,"Ġmetros":4801,"Ġproporcion":4802,"Ġverde":4803,"ĠÃ³tim":4804,"Ġsejam":4805,"Ġpequena":4806,"Ġdatas":4807,"Ġmanufacturer":4808,"Ġtrue":4809,"ifi":4810,"Ġaqueles":4811,"ĠlÃŃn":4812,"Ġenvolv":4813,"Ġpeace":4814,"Ġenough":4815,"illa":4816,"Ġcatal":4817,"Ġdress":4818,"Ġshows":4819,"Ġlevels":4820,"Ġcrescimento":4821,"Ġperguntas":4822,"nes":4823,"ĠtraduÃ§Ã£o":4824,"Ġwelcome":4825,"Ġmechan":4826,"Ġwarm":4827,"ĠfuncionÃ¡rios":4828,"Ġwine":4829,"Ġrar":4830,"Ġuses":4831,"Ġquickly":4832,"Ġordem":4833,"Ġdesfr":4834,"Ġcore":4835,"Ġros":4836,"Ġbaby":4837,"aging":4838,"Ġvehic":4839,"Ġevitar":4840,"Ġturismo":4841,"amic":4842,"Ġalunos":4843,"Ġist":4844,"Ġespecialmente":4845,"put":4846,"Ġcame":4847,"Ġdocumentos":4848,"Ġefeitos":4849,"Ġestacionamento":4850,"Ġcinco":4851,"Ġreprodu":4852,"umento":4853,"Ġabord":4854,"Ġcompleto":4855,"Ġmarch":4856,"Ã©d":4857,"Ġreservations":4858,"Ġcomes":4859,"Ġesfor":4860,"ott":4861,"aga":4862,"Ġunidade":4863,"Ġintell":4864,"ĠcabeÃ§a":4865,"Ġrecent":4866,"Ġhip":4867,"Ġrecover":4868,"Ġafrica":4869,"orias":4870,"ased":4871,"Ġwid":4872,"vc":4873,"Ġcontract":4874,"Ġimportantes":4875,"Ġtrib":4876,"Ġflat":4877,"Ġrain":4878,"Ġimedi":4879,"Ġvolt":4880,"Ġbater":4881,"Ġjer":4882,"Ġcorrect":4883,"Ġfabricante":4884,"ĠnÃŃveis":4885,"enciais":4886,"Ġconselho":4887,"Ġaleg":4888,"Ġapproach":4889,"Ġsaud":4890,"itter":4891,"ifest":4892,"Ãµe":4893,"Ġparceiros":4894,"Ġempre":4895,"Ġprofile":4896,"Ġestrutura":4897,"Ġdiagn":4898,"ĠnegÃ³cio":4899,"Ġunido":4900,"Ġcategoria":4901,"Ġperfeita":4902,"ĠmanhÃ£":4903,"Ġsanto":4904,"ĠvÃ£o":4905,"eceu":4906,"Ġaudio":4907,"Ġclar":4908,"Ġprocessos":4909,"Ġjourney":4910,"men":4911,"Ġcoord":4912,"ensive":4913,"Ġfrank":4914,"Ġunit":4915,"Ġmodels":4916,"Ġfebru":4917,"Ġhosped":4918,"ĠmÃ£":4919,"urgo":4920,"Ġsnow":4921,"Ġcultura":4922,"Ġproud":4923,"Ġgall":4924,"uge":4925,"Ġyes":4926,"Ġwashing":4927,"Ġvariety":4928,"Ġoh":4929,"Ġeat":4930,"Ġsolid":4931,"Ġpacote":4932,"ĠlÃŃder":4933,"Ġviews":4934,"Ġculture":4935,"Ġsabe":4936,"Ġfebruary":4937,"eness":4938,"Ġhotwire":4939,"Ġapps":4940,"Ġcelebr":4941,"osco":4942,"Ġnecessidade":4943,"Ġvene":4944,"Ġformato":4945,"Ġphysical":4946,"ogrÃ¡f":4947,"Ġcommission":4948,"Ġbib":4949,"Ġcheapest":4950,"Ġmg":4951,"Ġpanel":4952,"frica":4953,"Ġpaul":4954,"Ġfaith":4955,"Ġsummer":4956,"mp":4957,"ologies":4958,"Ġfilt":4959,"Ġpath":4960,"Ġamost":4961,"ĠdifÃŃ":4962,"aces":4963,"Ġsufici":4964,"aw":4965,"Ġactive":4966,"Ġpropriet":4967,"gen":4968,"Ġcade":4969,"Ġoutubro":4970,"Ġjos":4971,"Ġescola":4972,"uck":4973,"Ġcai":4974,"Ġround":4975,"hone":4976,"vision":4977,"Ġfill":4978,"Ġsection":4979,"Ġaugust":4980,"orth":4981,"Ġcarreg":4982,"Ġmark":4983,"eiras":4984,"fl":4985,"Ġexce":4986,"Ġblow":4987,"ĠsituaÃ§Ã£o":4988,"Ġintelig":4989,"Ġjovens":4990,"Ġroute":4991,"Ġterceiros":4992,"ĠÃ¡frica":4993,"eza":4994,"Ġanterior":4995,"Ġroma":4996,"Ġcoffee":4997,"Ġcaminh":4998,"Ġdelivery":4999,"Ġask":5000,"Ġprogress":5001,"Ġtotalmente":5002,"Ġanimal":5003,"Ġpreto":5004,"ops":5005,"ificado":5006,"ĠcontÃ©m":5007,"Ġneigh":5008,"Ġacross":5009,"inary":5010,"Ġsint":5011,"Ġconex":5012,"Ġsometimes":5013,"Ġpiscina":5014,"arian":5015,"Ġcolet":5016,"Ġfilter":5017,"dle":5018,"uel":5019,"Ġjorn":5020,"Ġlisbon":5021,"Ġaprend":5022,"Ġrelacionados":5023,"ĠcomissÃ£o":5024,"Ġways":5025,"Ġdesp":5026,"Ġterce":5027,"Ġcapacity":5028,"Ġcient":5029,"ĠgrÃ¡f":5030,"Ġorgulho":5031,"Ġgrowth":5032,"Ġinteresse":5033,"Ġanswer":5034,"onia":5035,"Ġblock":5036,"Ġapply":5037,"Ġreconhec":5038,"ĠÃ¢":5039,"Ġtaken":5040,"Ġvig":5041,"Ġadvant":5042,"Ġbord":5043,"Ġrecommended":5044,"Ġwhe":5045,"ĠfÃ³r":5046,"Ġpil":5047,"Ġforte":5048,"weet":5049,"inhas":5050,"Ġattack":5051,"Ġdocuments":5052,"wers":5053,"izes":5054,"Ġregional":5055,"ĠaviÃ£o":5056,"Ġpaz":5057,"Ġstain":5058,"Ġaltura":5059,"Ġtendo":5060,"Ġdescrib":5061,"Ġadvanced":5062,"Ġenh":5063,"Ġdeles":5064,"rus":5065,"Ġsix":5066,"lands":5067,"Ġmonte":5068,"enced":5069,"rant":5070,"Ġquaisquer":5071,"Ġingred":5072,"Ġnenhuma":5073,"dam":5074,"ĠmÃŃn":5075,"Ġbanh":5076,"Ġgeor":5077,"Ġassess":5078,"Ġoverview":5079,"ĠvÃŃdeos":5080,"Ġconnection":5081,"Ġpressure":5082,"eler":5083,"Ġimper":5084,"berg":5085,"ĠajudÃ¡":5086,"iqu":5087,"Ġcompletely":5088,"utar":5089,"Ġmeus":5090,"Ġcondicion":5091,"Ġalth":5092,"Ġsomos":5093,"ĠdÃ¡":5094,"Ġtut":5095,"Ġlik":5096,"ĠmÃ©dio":5097,"Ġrome":5098,"Ġdoct":5099,"ifique":5100,"aca":5101,"ĠimpressÃ£o":5102,"endimento":5103,"Ġcategory":5104,"Ġdriver":5105,"valho":5106,"Ġoperating":5107,"Ġcurrently":5108,"Ġpec":5109,"Ġmax":5110,"ella":5111,"Ġrespeito":5112,"ĠÃºtil":5113,"Ġuniversal":5114,"Ġconvert":5115,"Ġrota":5116,"ativamente":5117,"Ġluxo":5118,"gon":5119,"Ġmode":5120,"ĠcomparaÃ§Ã£o":5121,"Ġrenov":5122,"Ġcarros":5123,"Ġtranspar":5124,"Ġtrein":5125,"Ġdessa":5126,"gan":5127,"Ġtenho":5128,"ĠpressÃ£o":5129,"vent":5130,"Ġseguinte":5131,"Ġfez":5132,"Ġfavorite":5133,"Ġhappy":5134,"eds":5135,"Ã³m":5136,"Ġselected":5137,"ĠreferÃªncia":5138,"Ġpresidente":5139,"asons":5140,"Ġinteract":5141,"Ġgraph":5142,"mes":5143,"Ġchem":5144,"Ġpoderia":5145,"Ġmilit":5146,"Ġagric":5147,"Ġrecol":5148,"Ġalthough":5149,"tober":5150,"Ġinternacionais":5151,"Ġsexo":5152,"han":5153,"Ġexpand":5154,"Ġmunicip":5155,"cing":5156,"vez":5157,"velmente":5158,"Ġvalores":5159,"Ġeffects":5160,"Ġreduc":5161,"Ġseria":5162,"Ġitself":5163,"Ġmultip":5164,"Ġleve":5165,"Ġsector":5166,"omet":5167,"Ġconclus":5168,"ji":5169,"Ġwed":5170,"Ġresponsible":5171,"Ġton":5172,"Ġdatabase":5173,"Ġvos":5174,"Ġfash":5175,"Ġvamos":5176,"Ġrein":5177,"Ġapesar":5178,"Ġplug":5179,"Ġpreoc":5180,"Ġidi":5181,"Ġenvironmental":5182,"Ġcalif":5183,"ĠopiniÃµes":5184,"iance":5185,"Ġtare":5186,"Ã©tica":5187,"atÃ³rios":5188,"Ġactual":5189,"Ġstory":5190,"Ġsemelh":5191,"Ġgarantia":5192,"Ġsimply":5193,"Ġwifi":5194,"Ġapost":5195,"Ġpoly":5196,"ians":5197,"Ġopportunity":5198,"ĠprÃ¡tica":5199,"asse":5200,"Ġprevent":5201,"Ġseguida":5202,"Ġassociated":5203,"Ġdie":5204,"Ġentrega":5205,"Ġlegisl":5206,"Ġstudio":5207,"Ġeffective":5208,"Ġpurpose":5209,"Ġadjust":5210,"Ġparking":5211,"Ġposso":5212,"Ġdezembro":5213,"Ġzoom":5214,"Ġcommand":5215,"Ġurban":5216,"Ġbloc":5217,"Ġgerman":5218,"Ġpackage":5219,"aster":5220,"Ġrua":5221,"Ġpractice":5222,"iff":5223,"Ġagricult":5224,"iting":5225,"ĠverÃ£o":5226,"Ġdisponibil":5227,"cr":5228,"Ġut":5229,"Ġautocar":5230,"Ġinstalled":5231,"vas":5232,"oke":5233,"Ġtarde":5234,"Ġexercis":5235,"ights":5236,"Ġfm":5237,"Ġexterior":5238,"Ġbarb":5239,"Ġresorts":5240,"Ġargent":5241,"Ġtours":5242,"ivity":5243,"Ġissues":5244,"Ġfurn":5245,"Ġevento":5246,"Ġvisita":5247,"Ġplataforma":5248,"ray":5249,"Ġchi":5250,"Ġlondres":5251,"atas":5252,"Ġbair":5253,"Ġroll":5254,"Ġreduz":5255,"Ġfemin":5256,"Ġblu":5257,"Ġmother":5258,"ĠposiÃ§Ã£o":5259,"Ġoficial":5260,"encies":5261,"los":5262,"Ġti":5263,"Ġthought":5264,"Ġga":5265,"etas":5266,"Ġcabelo":5267,"Ġrub":5268,"ĠmÃ©todo":5269,"idad":5270,"Ġtran":5271,"Ġleave":5272,"Ġoctober":5273,"Ġmiles":5274,"Ã¢met":5275,"Ġumidade":5276,"Ġperd":5277,"Ġdomin":5278,"Ġdocumento":5279,"Ġdor":5280,"essa":5281,"ĠuniÃ£o":5282,"ĠoperaÃ§Ã£o":5283,"Ġfashion":5284,"Ġfranc":5285,"ĠinstalaÃ§Ãµes":5286,"ÃŃdos":5287,"Ġram":5288,"Ġfamiliar":5289,"Ġreceived":5290,"bnb":5291,"Ġtap":5292,"Ġlower":5293,"Ġseem":5294,"Ġformul":5295,"Ġairbnb":5296,"Ġthing":5297,"Ġvant":5298,"Ġexerc":5299,"Ġpurchase":5300,"Ġdistrict":5301,"Ġbelieve":5302,"ividade":5303,"Ġhumanos":5304,"nal":5305,"Ġpremium":5306,"Ġcanada":5307,"ĠespaÃ§os":5308,"Ġyourself":5309,"Ġaumentar":5310,"Ġamster":5311,"key":5312,"Ġhumidity":5313,"Ġisol":5314,"ĠalmoÃ§o":5315,"Ġutilize":5316,"Ġlatest":5317,"uth":5318,"Ġiphone":5319,"Ġfine":5320,"Ġsurface":5321,"Ġvoss":5322,"Ġapresenta":5323,"ĠvocÃªs":5324,"Ġjanuary":5325,"Ġerro":5326,"Ġjunto":5327,"Ġeuropeia":5328,"Ġdesenvolver":5329,"Ġlaunch":5330,"Ġlonger":5331,"Ġlimited":5332,"Ġrealizar":5333,"ĠresponsÃ¡vel":5334,"Ġhabit":5335,"Ġvent":5336,"Ġcanad":5337,"Ġvalid":5338,"Ġerror":5339,"Ġfiz":5340,"Ġradio":5341,"Ġregarding":5342,"Ġespanhol":5343,"Ġfont":5344,"Ġcontinuar":5345,"Ġatmos":5346,"ef":5347,"Ġbanc":5348,"Ġbrowser":5349,"Ġcool":5350,"Ġtaxas":5351,"Ġedif":5352,"Ġconcerning":5353,"Ġrequis":5354,"ĠsuperfÃŃ":5355,"Ġthanks":5356,"Ġfully":5357,"Ġgor":5358,"Ġcup":5359,"Ġsettings":5360,"Ġinterface":5361,"Ġeither":5362,"Ġmorn":5363,"Ġvict":5364,"Ġnovembro":5365,"Ġdorm":5366,"ĠrelÃ³g":5367,"Ġminube":5368,"Ġdecember":5369,"Ġseguir":5370,"Ġangeles":5371,"ably":5372,"Ġprazo":5373,"Ġsong":5374,"iable":5375,"Ġpopulares":5376,"Ġtrack":5377,"Ġsubstitu":5378,"Ã¨":5379,"ened":5380,"Ġmaio":5381,"Ġcarbon":5382,"Ġconcord":5383,"Ġaplicativos":5384,"Ġacredit":5385,"Ġlaser":5386,"Ġpuerto":5387,"Ġsusp":5388,"Ġabsol":5389,"Ġsteps":5390,"Ġredes":5391,"Ġpros":5392,"ologias":5393,"Ġcompanhias":5394,"Ġdyn":5395,"Ġimmedi":5396,"Ġfail":5397,"itten":5398,"Ġtakes":5399,"Ġvem":5400,"Ġmaiores":5401,"Ġorganization":5402,"Ġdegree":5403,"Ġguerra":5404,"Ġexplic":5405,"ĠjoÃ£o":5406,"Ġdescobrir":5407,"Ġresp":5408,"ĠmarÃ§o":5409,"ĠfunÃ§Ãµes":5410,"Ġarmazenamento":5411,"Ġcentenas":5412,"Ġferro":5413,"ml":5414,"enta":5415,"Ġfilme":5416,"Ġability":5417,"Ġgreater":5418,"Ġconhecer":5419,"icamente":5420,"Ġhoriz":5421,"abol":5422,"bio":5423,"Ġfundamental":5424,"Ġbudget":5425,"Ġdial":5426,"Ġfore":5427,"Ġalugar":5428,"ĠaÃ§Ãµes":5429,"Ġmedida":5430,"Ġpasso":5431,"adoras":5432,"Ã¡ss":5433,"Ġko":5434,"Ġorbitz":5435,"Ġmove":5436,"Ġcosts":5437,"Ã¶":5438,"Ġdepos":5439,"Ġbroad":5440,"Ġensino":5441,"Ġcable":5442,"rary":5443,"Ġcompleta":5444,"Ġcompr":5445,"Ġclot":5446,"Ġatividade":5447,"Ġdeixar":5448,"sa":5449,"Ġsetor":5450,"Ġautomatically":5451,"Ġsays":5452,"ĠÃŃnd":5453,"Ġupdated":5454,"Ġcolom":5455,"Ġgain":5456,"Ġincluem":5457,"Ġdeseja":5458,"Ġobras":5459,"Ġcandid":5460,"vida":5461,"Ġminer":5462,"Ġeffort":5463,"Ġpercent":5464,"ĠdÃº":5465,"Ġconduct":5466,"Ġcav":5467,"Ġpow":5468,"Ġvic":5469,"reds":5470,"Ġdemoc":5471,"Ġcontains":5472,"Ġgeralmente":5473,"Ġinfer":5474,"Ġadvent":5475,"ĠtÃ©cnicas":5476,"Ġmaximum":5477,"Ġelimin":5478,"ĠprincÃŃp":5479,"Ġtalvez":5480,"Ġearly":5481,"enn":5482,"Ġpatients":5483,"Ġpok":5484,"ends":5485,"ĠpolÃŃticas":5486,"olÃ³gicas":5487,"Ġinox":5488,"Ġtrust":5489,"Ġfederal":5490,"Ġdub":5491,"Ġfato":5492,"ĠprevisÃ£o":5493,"Ġmiam":5494,"Ġdrop":5495,"Ġultra":5496,"Ġhundreds":5497,"Ġorigem":5498,"Ġstrip":5499,"ellow":5500,"Ġinside":5501,"ĠligaÃ§Ã£o":5502,"Ġalmost":5503,"Ġmatch":5504,"Ġconsidered":5505,"Ġpotential":5506,"Ġpolitical":5507,"Ġacid":5508,"Ġclient":5509,"edo":5510,"Ġpm":5511,"Ġtook":5512,"ĠmÃ£e":5513,"ulg":5514,"Ġusually":5515,"Ġprob":5516,"Ġengenh":5517,"uma":5518,"Ġsop":5519,"vio":5520,"Ġcub":5521,"ĠmÃ¡ximo":5522,"Ġforest":5523,"Ġporn":5524,"Ġadicionais":5525,"Ġcouncil":5526,"Ġstainless":5527,"Ġmedidas":5528,"Ġspr":5529,"Ġchuva":5530,"aming":5531,"ĠeletrÃ´n":5532,"Ġgast":5533,"Ġelectronic":5534,"Ġmiami":5535,"Ġfornecedor":5536,"Ġmunicipal":5537,"Ġlan":5538,"Ġfuncionamento":5539,"Ġcommercial":5540,"ker":5541,"Ġground":5542,"Ġberlin":5543,"Ġmeasure":5544,"Ġvacation":5545,"Ġcontempor":5546,"Ġmaint":5547,"Ġoutside":5548,"Ġformas":5549,"Ġinterpret":5550,"Ġcant":5551,"Ġquiser":5552,"irar":5553,"Ġserve":5554,"Ġsituation":5555,"Ġlhes":5556,"Ã¢ncias":5557,"Ġaven":5558,"Ġhyd":5559,"Ġattractions":5560,"Ġpint":5561,"Ġpert":5562,"Ġstructure":5563,"Ġsd":5564,"enance":5565,"Ġconverter":5566,"culo":5567,"Ġseguro":5568,"Ġmovimento":5569,"Ã³rias":5570,"Ġpictures":5571,"Ġpermitir":5572,"Ġhope":5573,"Ã¢ndia":5574,"quia":5575,"ĠresistÃªncia":5576,"ken":5577,"Ġhear":5578,"ĠpresenÃ§a":5579,"Ġvul":5580,"Ġdivid":5581,"Ġstarting":5582,"Ġazul":5583,"Ġasseg":5584,"Ġaw":5585,"Ġcoast":5586,"Ġprocesses":5587,"Ġvideos":5588,"umo":5589,"Ġagreement":5590,"Ġgama":5591,"ecem":5592,"Ġdoor":5593,"cipl":5594,"ĠquestÃ£o":5595,"olo":5596,"Ġrates":5597,"Ã¢mer":5598,"Ġpassar":5599,"atives":5600,"Ġaluguer":5601,"Ġvegetarian":5602,"Ġpreocup":5603,"Ġax":5604,"Ġvila":5605,"ĠnotÃŃ":5606,"ousand":5607,"Ġmembro":5608,"Ġfloor":5609,"Ġsuite":5610,"ensa":5611,"ĠcrianÃ§a":5612,"Ġhavia":5613,"Ġthousand":5614,"Ġconserv":5615,"Ġfundo":5616,"Ġverificar":5617,"Ġsecure":5618,"Ġpresented":5619,"abilidades":5620,"Ġready":5621,"Ġpequenas":5622,"field":5623,"Ġeth":5624,"Ġmorte":5625,"ĠcÃ¢mer":5626,"Ġalgu":5627,"Ġconsent":5628,"Ġaumento":5629,"ciais":5630,"Ġentr":5631,"Ġedition":5632,"olÃ³gica":5633,"Ġincorpor":5634,"Ġperu":5635,"Ġlap":5636,"Ġtechnologies":5637,"Ġswitch":5638,"Ġthin":5639,"Ġfoto":5640,"Ġautomaticamente":5641,"Ġabril":5642,"ision":5643,"riÃ§Ã£o":5644,"Ġmesa":5645,"Ġrefrig":5646,"Ġcustos":5647,"Ġrecebe":5648,"ĠtÃ©cnica":5649,"umb":5650,"Ġcorret":5651,"iado":5652,"Ġvisto":5653,"ponline":5654,"Ġtriponline":5655,"Ġajust":5656,"postas":5657,"Ġcontext":5658,"Ġparede":5659,"Ġdraw":5660,"Ġticket":5661,"Ġmaintenance":5662,"Ġlost":5663,"Ġforce":5664,"Ã¡logo":5665,"Ġmensagens":5666,"Ġdura":5667,"Ġvas":5668,"rif":5669,"Ġchic":5670,"fully":5671,"ĠalguÃ©m":5672,"Ġguid":5673,"Ġapril":5674,"Ġesperado":5675,"Ġreb":5676,"Ġfalar":5677,"Ġgolf":5678,"Ġrefriger":5679,"Ġwarn":5680,"Ġneeded":5681,"Ġnesse":5682,"Ġocor":5683,"att":5684,"Ġkar":5685,"Ġfactory":5686,"anger":5687,"Ġilha":5688,"iago":5689,"ĠporÃ©m":5690,"Ġads":5691,"Ġolhos":5692,"Ġmultiple":5693,"Ġenab":5694,"erta":5695,"alizaÃ§Ã£o":5696,"Ġatualmente":5697,"Ġcomercial":5698,"otel":5699,"Ġremove":5700,"Ġoportunidade":5701,"Ġagosto":5702,"Ġdestru":5703,"Ġdew":5704,"Ġdiante":5705,"Ġuns":5706,"Ġnovember":5707,"Ġconsumo":5708,"Ġmiddle":5709,"iction":5710,"Ġsor":5711,"ague":5712,"Ġborn":5713,"qui":5714,"ĠÃºltimos":5715,"Ġwonder":5716,"Ġbic":5717,"Ġleis":5718,"Ġpassado":5719,"Ġlinhas":5720,"Ġlength":5721,"Ġdc":5722,"Ġcomprim":5723,"Ġdubl":5724,"Ġmethods":5725,"ature":5726,"Ġperspect":5727,"Ġcompetit":5728,"can":5729,"Ġster":5730,"Ġmarri":5731,"Ġrepubl":5732,"Ġalimentos":5733,"Ġoutdoor":5734,"ych":5735,"Ġaprove":5736,"Ġdamage":5737,"Ġstarted":5738,"prise":5739,"Ġkill":5740,"Ġassin":5741,"Ġmir":5742,"Ġsearches":5743,"Ġmemory":5744,"Ġcompartilhar":5745,"elhos":5746,"Ġtarget":5747,"Ġplayers":5748,"Ġremember":5749,"Ġhalf":5750,"Ġselecione":5751,"Ġpainel":5752,"Ġpalace":5753,"Ġeveryone":5754,"Ġprocurar":5755,"Ġcourt":5756,"Ġdiscount":5757,"Ġarticles":5758,"Ġclasse":5759,"Ġdark":5760,"Ġfalta":5761,"iÃ§a":5762,"Ġalex":5763,"Ġmenor":5764,"Ġequipped":5765,"Ġregr":5766,"enham":5767,"Ġeconomia":5768,"Ġrig":5769,"Ġcath":5770,"Ġsoon":5771,"Ġpurposes":5772,"Ġexperiment":5773,"Ġsentido":5774,"Ġsimplesmente":5775,"Ġating":5776,"Ġparl":5777,"Ġoffering":5778,"ĠopiniÃ£o":5779,"Ġrules":5780,"Ġwrit":5781,"Ġobra":5782,"Ġinstruct":5783,"Ġdrug":5784,"Ġbenefits":5785,"ĠmÃ¡quinas":5786,"Ġjew":5787,"Ġnovamente":5788,"ancy":5789,"Ġpleas":5790,"Ġholy":5791,"Ġcounty":5792,"Ġreference":5793,"Ġdigit":5794,"Ġparece":5795,"Ġchance":5796,"Ġselection":5797,"arem":5798,"Ġlad":5799,"Ġmorning":5800,"Ġmys":5801,"Ã©ria":5802,"ĠÃ¡r":5803,"Ġss":5804,"Ġfight":5805,"Ġbrin":5806,"Ġfeature":5807,"Ġweeks":5808,"Ġquil":5809,"rg":5810,"rico":5811,"Ġtun":5812,"Ġitens":5813,"Ġsituado":5814,"Ġbibli":5815,"Ġpedro":5816,"Ġlg":5817,"idÃ¡vel":5818,"Ġrecentes":5819,"Ã¢nia":5820,"Ġbout":5821,"Ġduration":5822,"Ġjob":5823,"con":5824,"Ġpick":5825,"Ġbols":5826,"Ġpratos":5827,"Ã©n":5828,"Ġkmh":5829,"Ġpublished":5830,"Ġwritten":5831,"Ġolh":5832,"Ġappropri":5833,"Ġkit":5834,"Ġteve":5835,"Ġprocessamento":5836,"ione":5837,"Ġfuncional":5838,"Ġinser":5839,"Ġparam":5840,"Ġnumer":5841,"ography":5842,"Ġot":5843,"Ġesport":5844,"ĠquestÃµes":5845,"ĠassociaÃ§Ã£o":5846,"Ġpcs":5847,"Ġvert":5848,"Ġperda":5849,"Ġprovin":5850,"Ġwoman":5851,"Ġchamp":5852,"ĠmudanÃ§a":5853,"Ġcc":5854,"inÃ¡ria":5855,"Ġforum":5856,"ĠprÃ³xima":5857,"Ġanalyt":5858,"Ġparties":5859,"Ġservidor":5860,"Ġdesse":5861,"Ġlit":5862,"Ġuseful":5863,"Ġhardware":5864,"Ġpiece":5865,"Ġdvd":5866,"Ġorvalho":5867,"Ġnasc":5868,"Ġresponder":5869,"Ġconforme":5870,"Ġsang":5871,"Ġvalley":5872,"Ġcomboio":5873,"Ġcondicionado":5874,"Ġpon":5875,"Ġgh":5876,"Ġpresident":5877,"Ġlack":5878,"Ġrepair":5879,"ÃŃculo":5880,"Ġresponse":5881,"Ġflux":5882,"Ġpossibil":5883,"Ġiv":5884,"ĠediÃ§Ã£o":5885,"iabil":5886,"Ġzona":5887,"ĠgraÃ§as":5888,"Ġautocarro":5889,"Ġtarifas":5890,"Ġnest":5891,"Ġpartida":5892,"Ġlojas":5893,"Ġcurr":5894,"ĠanÃºncios":5895,"Ġlag":5896,"ĠrelatÃ³rio":5897,"Ġlisted":5898,"Ġcomponentes":5899,"Ġoccur":5900,"Ġaustralia":5901,"eix":5902,"Ġnothing":5903,"ĠinoxidÃ¡vel":5904,"Ġdestino":5905,"Ġmanuals":5906,"outh":5907,"Ġsemanas":5908,"Ġindex":5909,"Ġfazem":5910,"Ġsubsc":5911,"ĠdifÃŃcil":5912,"Ġjantar":5913,"Ġskills":5914,"Ġreasons":5915,"Ġpray":5916,"Ġideas":5917,"Ġseen":5918,"Ġfamous":5919,"Ġhighly":5920,"Ġcentury":5921,"Ġpacientes":5922,"Ġpena":5923,"Ġfeita":5924,"Ġcalend":5925,"Ġcarr":5926,"Ġbaixa":5927,"Ã¡b":5928,"Ġheat":5929,"Ġsaiba":5930,"Ġmatter":5931,"Ġlevar":5932,"Ġimpacto":5933,"Ġexplain":5934,"Ġhands":5935,"Ġresponsabilidade":5936,"Ġblowing":5937,"Ġmarav":5938,"ÃŃa":5939,"Ġideia":5940,"ĠtelevisÃ£o":5941,"Ġvou":5942,"Ġquinta":5943,"Ã³sito":5944,"orar":5945,"Ġabert":5946,"ĠassistÃªncia":5947,"Ġlives":5948,"Ġremote":5949,"Ġengineering":5950,"Ġprofund":5951,"Ġreduzir":5952,"Ġelementos":5953,"Ġdele":5954,"ĠmemÃ³ria":5955,"ÃŃduos":5956,"Ġdut":5957,"guas":5958,"Ã©dito":5959,"ĠplÃ¡stico":5960,"Ġestudantes":5961,"Ġom":5962,"Ġarquit":5963,"Ġplaza":5964,"Ġmachin":5965,"Ġouro":5966,"Ġmoment":5967,"Ġbattery":5968,"Ġjose":5969,"Ġpossu":5970,"Ġutilizador":5971,"ĠpopulaÃ§Ã£o":5972,"Ġfazendo":5973,"ĠdistribuiÃ§Ã£o":5974,"ĠalteraÃ§Ãµes":5975,"Ġwashington":5976,"Ġdicas":5977,"Ġcomport":5978,"Ġleaders":5979,"Ġtranslation":5980,"ĠaluguÃ©is":5981,"Ġchalleng":5982,"Ġbree":5983,"Ġconfigur":5984,"Ġplanej":5985,"Ġslee":5986,"Ġcod":5987,"Ġrequer":5988,"Ġhelps":5989,"Ġleading":5990,"ĠfÃ©":5991,"Ġze":5992,"Ġpiz":5993,"ĠvÃ¡l":5994,"Ġpopulation":5995,"ĠmÃ©todos":5996,"Ġpun":5997,"Ġanswers":5998,"Ġcomponents":5999,"Ġnotice":6000,"Ġchristian":6001,"Ġmr":6002,"Ġproviding":6003,"Ġperfeito":6004,"Ġtail":6005,"Ġnota":6006,"Ġrepublic":6007,"Ġwent":6008,"Ġrs":6009,"ĠsuÃŃ":6010,"astre":6011,"Ġcp":6012,"Ġinnovation":6013,"Ġconsulte":6014,"Ġfamos":6015,"Ġinterested":6016,"ym":6017,"Ġthemselves":6018,"Ġdoing":6019,"Ġsuje":6020,"Ġbrisa":6021,"Ġvalues":6022,"ead":6023,"Ġaprov":6024,"Ġfoss":6025,"ĠquÃŃm":6026,"Ġcarpool":6027,"ĠjosÃ©":6028,"iel":6029,"Ġspot":6030,"ulares":6031,"Ġcorrespond":6032,"Ġrei":6033,"Ġsurround":6034,"Ġilumin":6035,"Ġtorna":6036,"Ġincreasing":6037,"Ġamarill":6038,"ĠrelaÃ§Ãµes":6039,"Ġapplied":6040,"Ġsopra":6041,"ello":6042,"akes":6043,"Ġexhib":6044,"Ġath":6045,"Ġjogadores":6046,"Ġspring":6047,"ificados":6048,"Ġbirth":6049,"Ġbastante":6050,"Ġissue":6051,"Ġmanifest":6052,"Ġelements":6053,"Ġmuseu":6054,"xi":6055,"Ġsexual":6056,"Ġtourism":6057,"ko":6058,"Ġwireless":6059,"ĠconfortÃ¡vel":6060,"raft":6061,"Ġcorte":6062,"Ġkids":6063,"Ġeuropeu":6064,"Ġign":6065,"Ġwebsites":6066,"Ġestabelec":6067,"Ġcolle":6068,"Ġnegoc":6069,"Ġcold":6070,"Ġsony":6071,"char":6072,"Ġassum":6073,"Ġburn":6074,"Ġutilizado":6075,"Ġsupplier":6076,"bit":6077,"ey":6078,"ĠcrÃ©dito":6079,"Ġalum":6080,"Ġattention":6081,"Ġsleep":6082,"Ġnavegador":6083,"Ġinteg":6084,"Ġdecision":6085,"zhou":6086,"Ġembalagem":6087,"Ġbright":6088,"Ġpred":6089,"Ġfreem":6090,"Ġata":6091,"dos":6092,"Ġhistorical":6093,"ĠsuperfÃŃcie":6094,"iet":6095,"ĠcombinaÃ§Ã£o":6096,"ĠprÃ¡ticas":6097,"ĠespÃ©":6098,"Ġmostra":6099,"Ġrare":6100,"Ġleit":6101,"Ġconfigura":6102,"Ġgives":6103,"isation":6104,"hai":6105,"ostos":6106,"Ġartes":6107,"rupt":6108,"Ġactions":6109,"hy":6110,"Ġimposs":6111,"Ġmediter":6112,"Ġefica":6113,"Ġoffered":6114,"Ġdeep":6115,"edor":6116,"ĠÃ©p":6117,"Ġfabricantes":6118,"rat":6119,"cies":6120,"Ġexpert":6121,"Ġexact":6122,"ending":6123,"Ġocorr":6124,"Ġrunning":6125,"Ġeyes":6126,"reci":6127,"Ġhill":6128,"Ġnuvens":6129,"Ġye":6130,"Ġsubs":6131,"Ġeram":6132,"Ġforeign":6133,"cam":6134,"Ġconfi":6135,"Ġocean":6136,"Ġargentina":6137,"ju":6138,"Ġalber":6139,"Ġbeha":6140,"Ġinterv":6141,"Ġviajantes":6142,"olis":6143,"Ġclin":6144,"Ã£s":6145,"Ġcolors":6146,"ĠhistÃ³rico":6147,"Ġcompress":6148,"erve":6149,"Ġgerais":6150,"Ġbairro":6151,"Ġdavid":6152,"Ġgel":6153,"Ġfunctions":6154,"Ġlago":6155,"Ġclients":6156,"Ġtrem":6157,"Ġiniti":6158,"Ġbreeze":6159,"usa":6160,"Ġalib":6161,"Ġbear":6162,"Ġcs":6163,"Ġreduce":6164,"Ġct":6165,"Ġbah":6166,"Ġpreserv":6167,"Ġavailability":6168,"ĠmÃ£os":6169,"erd":6170,"ald":6171,"Ġgirls":6172,"Ġcreation":6173,"ĠÃ¡l":6174,"ĠfÃ¡b":6175,"Ġabsor":6176,"Ġcarpooling":6177,"Ġgab":6178,"Ġtruth":6179,"Ġscen":6180,"Ġincom":6181,"ĠciÃªncia":6182,"Ġaudi":6183,"Ġcompanhia":6184,"Ġrequisitos":6185,"Ġexam":6186,"Ġgirl":6187,"Ġmediterr":6188,"ĠpÃ³s":6189,"Ġassociation":6190,"aps":6191,"Ġocup":6192,"ĠfrancÃªs":6193,"aya":6194,"Ġbrinqu":6195,"Ġquente":6196,"Ã¡ticos":6197,"Ġretorn":6198,"Ġidea":6199,"Ġire":6200,"edes":6201,"Ġerros":6202,"fs":6203,"Ġlemb":6204,"Ġphen":6205,"ĠclassificaÃ§Ã£o":6206,"Ġpergunta":6207,"Ġhun":6208,"ĠeconÃ³m":6209,"Ġthough":6210,"Ġhire":6211,"Ġexcept":6212,"Ġamsterdam":6213,"Ġconclu":6214,"Ġcompras":6215,"Ġgoal":6216,"Ġsuitable":6217,"mine":6218,"Ġtecnologias":6219,"Ġalterar":6220,"Ġstars":6221,"Ġalibaba":6222,"Ġexpans":6223,"Ġtranqu":6224,"Ġencontr":6225,"Ġpresence":6226,"Ġfares":6227,"Ġbackup":6228,"Ġappropriate":6229,"ored":6230,"ĠcomÃ©r":6231,"uts":6232,"ĠconfiguraÃ§Ã£o":6233,"Ġamazon":6234,"ob":6235,"oms":6236,"Ġassemb":6237,"wide":6238,"Ġaux":6239,"ĠimportÃ¢ncia":6240,"Ġtalk":6241,"Ġestablished":6242,"Ġrelease":6243,"ĠlÃŃngua":6244,"Ġpous":6245,"gues":6246,"Ġesteja":6247,"Ġscan":6248,"Ġprincipalmente":6249,"Ġasp":6250,"Ġgene":6251,"Ġconnected":6252,"ĠinovaÃ§Ã£o":6253,"Ġclaim":6254,"Ġserem":6255,"Ġhold":6256,"ĠacomodaÃ§Ãµes":6257,"ĠfÃ¡brica":6258,"pal":6259,"osas":6260,"Ġnormalmente":6261,"itado":6262,"ĠdecisÃ£o":6263,"Ġvendas":6264,"ĠeficiÃªncia":6265,"Ġengenharia":6266,"Ġcharge":6267,"Ġsaw":6268,"Ġboutique":6269,"Ġabra":6270,"Ġevang":6271,"ĠsÃ©c":6272,"ĠoperaÃ§Ãµes":6273,"Ġwinter":6274,"Ġcreative":6275,"iling":6276,"Ġmur":6277,"ĠconexÃ£o":6278,"xic":6279,"Ġshirt":6280,"Ġmarcas":6281,"fas":6282,"furt":6283,"ĠdireÃ§Ã£o":6284,"ĠencontrarÃ¡":6285,"Ġcuidados":6286,"plos":6287,"Ġcumpri":6288,"ees":6289,"ilton":6290,"ĠdoenÃ§a":6291,"Ġcomparison":6292,"Ġastron":6293,"ĠpromoÃ§Ãµes":6294,"Ġunidades":6295,"Ġcarry":6296,"Ġrealidade":6297,"Ġdimin":6298,"Ġrefei":6299,"Ġhamb":6300,"Ã¢mica":6301,"eteo":6302,"Ġclouds":6303,"Ġcurta":6304,"Ġdiversas":6305,"Ġbateria":6306,"Ġdates":6307,"Ġlimpe":6308,"Ġadicionado":6309,"Ġsud":6310,"anta":6311,"teza":6312,"ĠmudanÃ§as":6313,"Ġshipping":6314,"Ġsuficiente":6315,"bers":6316,"Ġbarra":6317,"Ġspecifications":6318,"ĠcomÃ©rcio":6319,"Ġviver":6320,"Ġmexico":6321,"Ġdistribution":6322,"Ġfreemeteo":6323,"Ġdisease":6324,"cho":6325,"Ġthank":6326,"ĠcientÃŃf":6327,"zy":6328,"Ġreform":6329,"Ġabst":6330,"Ġrf":6331,"itting":6332,"Ġclassic":6333,"ĠorganizaÃ§Ãµes":6334,"Ġmudar":6335,"ĠespecificaÃ§Ãµes":6336,"Ġoperations":6337,"Ġdetect":6338,"Ġmanufacturers":6339,"ĠpÃ´":6340,"atar":6341,"Ġcarga":6342,"ĠgeraÃ§Ã£o":6343,"Ġpsych":6344,"gi":6345,"elos":6346,"Ġstrategy":6347,"Ġquite":6348,"Ġlines":6349,"ĠbenefÃŃcios":6350,"Ġesquer":6351,"Ġsensor":6352,"Ġaberto":6353,"Ġjogador":6354,"Ġtwitter":6355,"Ġworth":6356,"Ġcomida":6357,"Ġwear":6358,"Ġfins":6359,"Ġetern":6360,"Ġrd":6361,"Ġheld":6362,"Ġpackaging":6363,"Ġprep":6364,"ĠÃºltimo":6365,"ĠfamÃŃlias":6366,"Ġdific":6367,"ĠpÃºblica":6368,"olÃ³gico":6369,"Ġdubai":6370,"Ġdublin":6371,"cles":6372,"Ġdeparture":6373,"gin":6374,"ani":6375,"Ġnearby":6376,"Ġopening":6377,"omb":6378,"Ġideias":6379,"Ġpassword":6380,"Ġcalor":6381,"Ġpreciso":6382,"Ġefficiency":6383,"iles":6384,"Ġiron":6385,"Ġneighbor":6386,"iente":6387,"Ġvegas":6388,"riz":6389,"Ġbeauty":6390,"Ġsingap":6391,"Ġavent":6392,"Ġkb":6393,"ĠsÃ©culo":6394,"Ġfus":6395,"Ġdiversos":6396,"ĠconfiguraÃ§Ãµes":6397,"Ġconference":6398,"ĠromÃ¢nt":6399,"ĠprÃ³prios":6400,"Ġsurve":6401,"Ġfreed":6402,"Ġdetalh":6403,"ĠdomÃŃnio":6404,"Ã³st":6405,"Ġregras":6406,"iramente":6407,"Ġfirm":6408,"Ã¢neo":6409,"Ġplaya":6410,"Ġcomment":6411,"Ġliqu":6412,"Ġnatal":6413,"Ġmestrado":6414,"orf":6415,"acy":6416,"Ġperder":6417,"Ġhouses":6418,"Ġmovement":6419,"Ġresidence":6420,"ĠresoluÃ§Ã£o":6421,"Ġbes":6422,"Ġproduced":6423,"Ġvision":6424,"Ġmeasures":6425,"Ġvindo":6426,"usal":6427,"Ġcoach":6428,"Ã´nia":6429,"Ġrelacionadas":6430,"town":6431,"Ġinstead":6432,"Ġfestival":6433,"idÃ£o":6434,"Ġexcess":6435,"Ġdesl":6436,"Ġaviso":6437,"Ġinvent":6438,"Ġdisponibilidade":6439,"cin":6440,"Ġisl":6441,"udio":6442,"Ġstandards":6443,"uls":6444,"Ġclicking":6445,"ĠexposiÃ§Ã£o":6446,"Ġbeginning":6447,"Ġcopyright":6448,"Ġdestes":6449,"Ġchamado":6450,"Ġambos":6451,"Ġsilver":6452,"Ġwarrant":6453,"Ġarquitet":6454,"Ġscientific":6455,"Ġpositive":6456,"Ġvs":6457,"Ġprofessionals":6458,"ĠprecipitaÃ§Ã£o":6459,"Ġvermelho":6460,"Ġotim":6461,"Ġcerto":6462,"Ġsprings":6463,"ono":6464,"Ġstage":6465,"ubra":6466,"Ġlogin":6467,"Ġmanuais":6468,"Ġinspir":6469,"ĠdÃ©c":6470,"ĠadministraÃ§Ã£o":6471,"Ġfram":6472,"Ġarts":6473,"paign":6474,"mark":6475,"ĠalcanÃ§ar":6476,"Ġquadr":6477,"Ġsym":6478,"Ġwindow":6479,"Ġedge":6480,"Ġdh":6481,"Ġsequ":6482,"veu":6483,"Ġcontas":6484,"Ġsantiago":6485,"xx":6486,"Ġts":6487,"amar":6488,"Ġafric":6489,"Ġfrut":6490,"Ġcollabor":6491,"Ġproperly":6492,"ett":6493,"ĠcÃ¢mera":6494,"Ġpvc":6495,"Ġconvid":6496,"Ġthreat":6497,"ĠpeÃ§a":6498,"Ġlibrary":6499,"ĠmissÃ£o":6500,"Ġemiss":6501,"eces":6502,"Ġpossibilidade":6503,"Ġworldwide":6504,"ĠmÃ³d":6505,"berry":6506,"ĠsaÃŃda":6507,"Ġequival":6508,"Ġtradu":6509,"Ġlcd":6510,"Ġchain":6511,"Ġsentir":6512,"Ġunderstanding":6513,"ĠmÃ³veis":6514,"Ġdetailed":6515,"Ġjournal":6516,"Ġexperiences":6517,"Ġsense":6518,"ĠparticipaÃ§Ã£o":6519,"Ġcreating":6520,"Ġchemical":6521,"Ġnaturais":6522,"Ġdirector":6523,"ads":6524,"Ġobst":6525,"heiros":6526,"Ġgetting":6527,"Ġexercise":6528,"ault":6529,"Ġregistro":6530,"Ġbalance":6531,"Ġlingu":6532,"Ġvinho":6533,"ĠchÃ¡":6534,"Ġdescubra":6535,"Ġampla":6536,"Ġatribu":6537,"Ġconforto":6538,"Ġworkers":6539,"Ġproteger":6540,"Ġhaver":6541,"Ġradi":6542,"ĠestratÃ©gia":6543,"Ġexcurs":6544,"Ġlinked":6545,"Ġcn":6546,"Ġrecente":6547,"ĠnecessÃ¡rios":6548,"Ġbackground":6549,"Ġadopt":6550,"Ġouv":6551,"gio":6552,"ĠgÃ¡s":6553,"Ġcomerciais":6554,"ĠseleÃ§Ã£o":6555,"ĠexperiÃªncias":6556,"Ġincr":6557,"Ġdomain":6558,"Ġry":6559,"Ġcampaign":6560,"Ġbecame":6561,"Ġlatin":6562,"Ġpossam":6563,"Ġelectr":6564,"ĠpromoÃ§Ã£o":6565,"Ġvisitors":6566,"Ġsect":6567,"Ġbasis":6568,"Ġlargest":6569,"Ġliberdade":6570,"iner":6571,"Ġspl":6572,"Ġcampos":6573,"ĠÃŃndice":6574,"Ġhimself":6575,"ĠÃºltimas":6576,"ĠmÃ©xico":6577,"Ġetap":6578,"Ġak":6579,"Ġmente":6580,"Ġvag":6581,"chester":6582,"Ġphilips":6583,"ÃŃculos":6584,"Ġdesenh":6585,"ishing":6586,"ĠcrÃŃt":6587,"Ġpesquisas":6588,"Ġimprov":6589,"Ġintellig":6590,"Ġaward":6591,"Ġcong":6592,"Ġindia":6593,"Ġbarato":6594,"Ġinfra":6595,"Ġtecido":6596,"Ġfio":6597,"Ġtempos":6598,"Ġteu":6599,"Ġgoods":6600,"Ġcolocar":6601,"Ġtags":6602,"Ġfitness":6603,"ston":6604,"ĠalimentaÃ§Ã£o":6605,"wise":6606,"Ġbm":6607,"Ġchinese":6608,"Ġreflect":6609,"Ġimediatamente":6610,"Ġneve":6611,"Ġtraff":6612,"Ġbehavi":6613,"Ġemployees":6614,"Ġfis":6615,"ugg":6616,"Ġimpr":6617,"Ġwhose":6618,"Ġdirig":6619,"Ġfunciona":6620,"ificada":6621,"Ġscript":6622,"Ġmental":6623,"ĠÃºteis":6624,"ran":6625,"rate":6626,"utebol":6627,"Ġpattern":6628,"Ġalumin":6629,"Ġmetro":6630,"Ġpequenos":6631,"Ġescala":6632,"Ġdesfrutar":6633,"Ġprovince":6634,"Ġlimpeza":6635,"bro":6636,"Ġrepar":6637,"Ġfiel":6638,"Ġmotiv":6639,"Ġcategories":6640,"Ġlisting":6641,"Ġdoesn":6642,"Ġfutebol":6643,"ĠrazÃ£o":6644,"Ġsr":6645,"alha":6646,"Ġafet":6647,"Ġclima":6648,"Ġaceit":6649,"Ġpronunciation":6650,"Ġbey":6651,"Ġimmediately":6652,"Ġcen":6653,"Ġtea":6654,"Ġcontrato":6655,"ii":6656,"Ġpolicies":6657,"ĠinvestigaÃ§Ã£o":6658,"Ġau":6659,"Ġprogramme":6660,"Ġdefinit":6661,"azer":6662,"Ġtestes":6663,"Ġtornou":6664,"Ġwrite":6665,"Ġds":6666,"Ġbri":6667,"omin":6668,"Ġja":6669,"Ġmilan":6670,"Ġtentar":6671,"ĠnotÃŃcias":6672,"Ġaires":6673,"Ġinvestment":6674,"Ġcole":6675,"Ġbott":6676,"Ġdomingo":6677,"Ġestrela":6678,"Ġmedi":6679,"ĠnecessÃ¡ria":6680,"Ġexternal":6681,"Ġrailway":6682,"Ġreve":6683,"oking":6684,"idez":6685,"Ġshower":6686,"Ġsalvador":6687,"Ġfrankfurt":6688,"Ġlem":6689,"Ġlider":6690,"Ġportal":6691,"Ġpalm":6692,"lett":6693,"Ġmessages":6694,"ĠescritÃ³rio":6695,"Ġbak":6696,"Ġcontrib":6697,"Ġfoundation":6698,"Ġnavig":6699,"Ġdream":6700,"Ġmt":6701,"Ġcards":6702,"Ġvisa":6703,"ĠseÃ§Ã£o":6704,"Ġencom":6705,"ancing":6706,"Ġgeneration":6707,"Ġpowerful":6708,"Ġbehind":6709,"Ġestavam":6710,"Ġamea":6711,"Ġcriado":6712,"Ġbegan":6713,"Ġsomeone":6714,"Ġescolh":6715,"Ġsample":6716,"more":6717,"stal":6718,"Ġswim":6719,"Ġcarried":6720,"Ġdead":6721,"Ġanything":6722,"Ġcerteza":6723,"Ġincreased":6724,"Ġexperim":6725,"Ġprivado":6726,"Ġsort":6727,"dura":6728,"Ġboas":6729,"Ġmoder":6730,"Ġsetting":6731,"Ġprotocol":6732,"Ġrecovery":6733,"Ġdanos":6734,"Ġempreg":6735,"Ġlonge":6736,"Ġviewed":6737,"Ġeditor":6738,"ĠÃ¡rv":6739,"Ġwars":6740,"ĠclÃŃn":6741,"Ġpassagem":6742,"ariamente":6743,"Ġdiet":6744,"Ġutilizando":6745,"Ġapropri":6746,"bul":6747,"Ġdepending":6748,"Ã©st":6749,"Ġelabor":6750,"Ġbuenos":6751,"Ġsegundos":6752,"Ġelectronics":6753,"olesc":6754,"reu":6755,"Ġdesses":6756,"Ġshared":6757,"Ġreading":6758,"Ġcombust":6759,"ĠalumÃŃnio":6760,"Ġcoming":6761,"Ġrecently":6762,"Ġfilmes":6763,"Ã§ar":6764,"Ġkil":6765,"Ġimpression":6766,"ĠmÃŃd":6767,"Ġvoz":6768,"Ġpotencial":6769,"Ġshang":6770,"Ġski":6771,"ĠpossÃŃveis":6772,"Ġreplac":6773,"Ġinvolved":6774,"Ġcidad":6775,"umes":6776,"osta":6777,"Ġcars":6778,"Ġagree":6779,"Ġtraz":6780,"Ġeuros":6781,"Ġprofessor":6782,"ĠrecomendaÃ§Ãµes":6783,"uaÃ§Ã£o":6784,"enha":6785,"Ġhr":6786,"Ġamigo":6787,"Ġones":6788,"Ġstress":6789,"Ġcanal":6790,"Ġsuffer":6791,"Ġsund":6792,"Ġinterm":6793,"Ã¡til":6794,"ĠmÃ©dico":6795,"ĠrepÃºbl":6796,"Ġdestac":6797,"Ġshown":6798,"Ġapproxim":6799,"Ġguarantee":6800,"Ġsar":6801,"Ġplanning":6802,"Ġintegrated":6803,"Ġclasses":6804,"Ġapresentar":6805,"Ġcf":6806,"Ġmention":6807,"Ġwild":6808,"Ġadolesc":6809,"Ġinstalar":6810,"ĠtransferÃªncia":6811,"Ġunits":6812,"Ġpassage":6813,"Ġcategorias":6814,"uo":6815,"xto":6816,"Ġpic":6817,"Ġfortal":6818,"Ġhighlight":6819,"Ġmassa":6820,"Ġprocurando":6821,"Ġmachinery":6822,"ĠtÃ³p":6823,"ÃŃsticos":6824,"where":6825,"Ġvoice":6826,"Ġalp":6827,"Ġpassos":6828,"Ġactually":6829,"Ġfeedback":6830,"Ġarchitecture":6831,"des":6832,"hold":6833,"zu":6834,"Ġinternal":6835,"ĠpadrÃµes":6836,"Ġgerenciamento":6837,"Ġpp":6838,"Ġgent":6839,"Ġcobert":6840,"Ġicon":6841,"Ġbil":6842,"amo":6843,"Ġproteg":6844,"Ġerr":6845,"Ġlodge":6846,"net":6847,"Ġciclo":6848,"Ġcancelon":6849,"Ġinteiro":6850,"Ġromantic":6851,"Ġconsumption":6852,"Ġanunci":6853,"ĠdiferenÃ§a":6854,"Ġrelevant":6855,"Ġseat":6856,"Ġplaying":6857,"Ġtowards":6858,"Ġrural":6859,"Ġreports":6860,"Ġtiv":6861,"alo":6862,"Ġtradicional":6863,"ĠrepÃºblica":6864,"Ġtree":6865,"reek":6866,"Ġpoucos":6867,"Ġcitiz":6868,"ritos":6869,"Ġsyd":6870,"Ġsched":6871,"Ġenterprise":6872,"Ġrib":6873,"Ġmoda":6874,"Ġaproximadamente":6875,"Ġrodo":6876,"ĠreduÃ§Ã£o":6877,"Ġillust":6878,"Ġanimals":6879,"Ġgi":6880,"Ġsurg":6881,"Ġfunctional":6882,"Ġrather":6883,"Ġadicional":6884,"Ġtrail":6885,"Ġpicture":6886,"Ã©cia":6887,"Ġcrimin":6888,"Ġgratuitamente":6889,"ĠciÃªncias":6890,"Ġfresh":6891,"pass":6892,"Ġambiental":6893,"Ġviajar":6894,"Ġinqu":6895,"Ġcompared":6896,"ĠalemÃ£o":6897,"teriores":6898,"Ġdemais":6899,"Ġmaravilh":6900,"Ġhumano":6901,"Ġconhecido":6902,"Ġinstructions":6903,"Ġhabilidades":6904,"Ġdesport":6905,"Ġhew":6906,"Ġresistance":6907,"Ġtens":6908,"Ġquadro":6909,"ciples":6910,"Ġencoura":6911,"Ġupgr":6912,"ĠvisualizaÃ§Ã£o":6913,"Ã¢nica":6914,"Ġbio":6915,"Ġreality":6916,"Ġstudent":6917,"Ġidentify":6918,"Ġpractices":6919,"Ġconditioning":6920,"Ġdificul":6921,"Ġcres":6922,"anca":6923,"Ġloun":6924,"Ġtower":6925,"Ġky":6926,"Ġresumo":6927,"ship":6928,"isÃ£o":6929,"Ġparticipar":6930,"Ġasked":6931,"Ġsantos":6932,"Ġtoronto":6933,"ĠculinÃ¡ria":6934,"Ġvin":6935,"Ã¡cia":6936,"Ġconsol":6937,"Ġlanguages":6938,"ĠcomeÃ§ou":6939,"Ġchicago":6940,"Ġfase":6941,"Ġencontro":6942,"Ġlarg":6943,"Ġannoun":6944,"Ġspiritual":6945,"mail":6946,"Ġeditar":6947,"Ġseconds":6948,"ien":6949,"Ġpoor":6950,"Ġjanela":6951,"Ġreservation":6952,"Ġpackard":6953,"Ġfactors":6954,"Ġcertificate":6955,"Ġguarda":6956,"Ġupper":6957,"Ġquero":6958,"izing":6959,"ĠmÃ³vel":6960,"izadas":6961,"Ġimportance":6962,"Ġinvern":6963,"Ġgift":6964,"Ġpreench":6965,"Ġlonga":6966,"iture":6967,"Ġseis":6968,"Ġiii":6969,"Ġpure":6970,"Ġextre":6971,"Ġminimum":6972,"agen":6973,"ĠacomodaÃ§Ã£o":6974,"Ġdil":6975,"anos":6976,"das":6977,"Ġpud":6978,"Ġtua":6979,"Ġanton":6980,"Ġhighest":6981,"ĠaÃ§":6982,"ĠlÃ¢m":6983,"Ġador":6984,"ously":6985,"Ġdestination":6986,"Ġaccommodations":6987,"ĠrazÃµes":6988,"Ġclic":6989,"ĠrÃ¡dio":6990,"Ġbul":6991,"tease":6992,"Ġzip":6993,"Ġgolden":6994,"Ġterminal":6995,"Ġteaching":6996,"Ġexisting":6997,"Ġdeixe":6998,"Ġjornal":6999,"enna":7000,"Ġaquele":7001,"Ġmale":7002,"Ġdepartment":7003,"Ġvehicle":7004,"Ġstriptease":7005,"Ġentrev":7006,"Ġtrading":7007,"Ġmarkets":7008,"Ġbattle":7009,"Ã£es":7010,"Ġseven":7011,"Ġjerusal":7012,"Ġsuger":7013,"anhas":7014,"Ġtips":7015,"Ã´met":7016,"Ġrevolution":7017,"Ġgallery":7018,"Ġparad":7019,"Ġyellow":7020,"Ġchile":7021,"Ġcontacto":7022,"Ġmeters":7023,"Ġmilitary":7024,"Ġwalking":7025,"Ġchannel":7026,"Ġsydney":7027,"Ġcanais":7028,"Ġtema":7029,"Ġcontexto":7030,"ĠcÃ©l":7031,"know":7032,"Ġorl":7033,"vie":7034,"dades":7035,"ÃŃdas":7036,"Ġfalls":7037,"Ġcorretamente":7038,"Ġningu":7039,"ief":7040,"ĠcanadÃ¡":7041,"Ġdeposit":7042,"Ġcuidado":7043,"Ġachieve":7044,"ĠninguÃ©m":7045,"Ġadultos":7046,"ĠinstituiÃ§Ãµes":7047,"ĠproprietÃ¡rio":7048,"uk":7049,"Ġnacionais":7050,"empt":7051,"Ġsolo":7052,"rog":7053,"Ġsao":7054,"Ġdivert":7055,"Ġtransmit":7056,"Ġprecipitation":7057,"Ġextract":7058,"Ġlid":7059,"Ġentender":7060,"Ġenfrent":7061,"Ġamostra":7062,"Ġsag":7063,"Ġlif":7064,"Ġrol":7065,"Ġluc":7066,"Ġindividuals":7067,"Ġyouth":7068,"Ġpanor":7069,"Ġnord":7070,"Ġcontents":7071,"ogue":7072,"rÃ³":7073,"Ġpesquis":7074,"Ġparticipantes":7075,"Ġtabela":7076,"vidas":7077,"Ġlinux":7078,"Ġdifference":7079,"Ġfluxo":7080,"ĠparÃ¢met":7081,"Ġbeleza":7082,"ĠjustiÃ§a":7083,"Ġhewlett":7084,"hop":7085,"Ġbod":7086,"Ġafirm":7087,"Ġfatores":7088,"Ġfruit":7089,"apes":7090,"ĠclÃ¡ss":7091,"Ġscale":7092,"Ġreact":7093,"Ġpieces":7094,"Ġdesper":7095,"Ġforms":7096,"Ġprimeiros":7097,"burgo":7098,"Ġeye":7099,"Ġdesktop":7100,"dr":7101,"enses":7102,"Ġresolution":7103,"Ġfamilies":7104,"Ġinitial":7105,"Ġinclusive":7106,"Ġvulner":7107,"Ġfing":7108,"Ġvil":7109,"Ġantig":7110,"Ġfinally":7111,"Ġcaliforn":7112,"Ġfontes":7113,"ĠÃ©poca":7114,"viÃ¡ria":7115,"Ã¢nea":7116,"Ġadvantage":7117,"Ġsain":7118,"aling":7119,"Ġlaws":7120,"Ġdelici":7121,"Ġequil":7122,"Ġportugues":7123,"ĠdecoraÃ§Ã£o":7124,"ĠexecuÃ§Ã£o":7125,"Ġaluguel":7126,"Ġinfant":7127,"ĠedifÃŃcio":7128,"Ġdrivers":7129,"Ġmachines":7130,"Ġoportunidades":7131,"nia":7132,"Ġcomod":7133,"ectual":7134,"Ġxp":7135,"Ġrequires":7136,"ĠcomeÃ§a":7137,"ĠapresentaÃ§Ã£o":7138,"ĠsÃŃ":7139,"Ġrefor":7140,"Ġconcre":7141,"Ġfeliz":7142,"Ġsangue":7143,"Ġice":7144,"ĠdoenÃ§as":7145,"aged":7146,"Ġunto":7147,"Ã©tico":7148,"Ġobjetivos":7149,"Ġrecommendations":7150,"mal":7151,"Ġah":7152,"Ġspread":7153,"Ġmesmos":7154,"ĠatualizaÃ§Ã£o":7155,"Ġmold":7156,"Ġchamada":7157,"ĠjapÃ£o":7158,"erland":7159,"Ġstone":7160,"Ġtrabalhos":7161,"Ġasia":7162,"aka":7163,"Ġconstit":7164,"Ġinstitute":7165,"Ġinstitutions":7166,"Ġepis":7167,"Ġcoc":7168,"Ġcima":7169,"Ġlen":7170,"Ġacer":7171,"Ġcycle":7172,"Ġprinting":7173,"Ġbibliot":7174,"ĠtÃ©cnicos":7175,"Ġconformidade":7176,"works":7177,"ĠvÃª":7178,"fol":7179,"Ġalco":7180,"ste":7181,"ĠagradÃ¡vel":7182,"Ġpaint":7183,"estic":7184,"ounds":7185,"Ġganhar":7186,"Ġfreedom":7187,"Ġutilizados":7188,"Ġras":7189,"Ġchron":7190,"Ġagr":7191,"Ġpresentes":7192,"Ġbroch":7193,"Ġeconomy":7194,"Ġrevest":7195,"Ġproduce":7196,"Ġplaca":7197,"Ġlibert":7198,"deu":7199,"Ġocid":7200,"Ġeficaz":7201,"Ġlate":7202,"Ġobjective":7203,"Ġdining":7204,"ĠrelÃ³gio":7205,"Ġbeyond":7206,"onom":7207,"edos":7208,"Ġincid":7209,"Ġresponsibility":7210,"pn":7211,"oster":7212,"Ġwat":7213,"ĠorÃ§":7214,"head":7215,"ĠformulÃ¡rio":7216,"urb":7217,"une":7218,"Ġdiscipl":7219,"Ġnames":7220,"Ġlima":7221,"Ġtravelers":7222,"Ġforward":7223,"ĠpÃºblicos":7224,"Ġlocations":7225,"Ġaustr":7226,"Ġdedicated":7227,"Ġinscre":7228,"Ġgate":7229,"Ġantec":7230,"Ġmencion":7231,"Ġsatell":7232,"Ġibis":7233,"Ġefficient":7234,"fre":7235,"Ġmerg":7236,"Ġsuits":7237,"Ġtablet":7238,"ĠcontÃŃn":7239,"Ġsalvar":7240,"Ġmonitoring":7241,"Ġopportunities":7242,"ĠiluminaÃ§Ã£o":7243,"ardo":7244,"iclet":7245,"unes":7246,"Ġpasseng":7247,"Ġjoint":7248,"Ġsupports":7249,"ĠcontrÃ¡rio":7250,"ĠdispÃµe":7251,"Ġmecan":7252,"kok":7253,"Ġhen":7254,"Ġjapanese":7255,"Ġterceiro":7256,"Ġtreinamento":7257,"iados":7258,"Ġring":7259,"isso":7260,"oga":7261,"Ġpermitem":7262,"mento":7263,"Ġdeu":7264,"Ġtoque":7265,"ĠmÃº":7266,"Ġatac":7267,"Ġxbox":7268,"gos":7269,"Ġsed":7270,"Ġbeij":7271,"Ãºncia":7272,"Ġestabelecimento":7273,"bt":7274,"Ġrepet":7275,"Ġdens":7276,"Ġofic":7277,"Ġconosco":7278,"Ġserious":7279,"Ġbridge":7280,"ĠmÃ¡xima":7281,"olic":7282,"ĠveÃŃculos":7283,"Ġsumm":7284,"Ġluta":7285,"Ġrating":7286,"ĠÃ¡udio":7287,"oy":7288,"Ġinterview":7289,"ĠcomentÃ¡rio":7290,"Ġhappens":7291,"Ġfuel":7292,"ĠprecisÃ£o":7293,"Ġpesquisar":7294,"Ġwarning":7295,"Ġcollege":7296,"Ġpav":7297,"Ġpix":7298,"Ġmut":7299,"Ġgave":7300,"ĠcoleÃ§Ã£o":7301,"Ġcharacteristics":7302,"Ġsolicitar":7303,"Ġroupa":7304,"Ġdirection":7305,"ĠgraÃ§a":7306,"Ġzero":7307,"Ġpsic":7308,"Ġgiving":7309,"Ġconvenient":7310,"Ġbrux":7311,"Ġcolum":7312,"Ġislands":7313,"Ġoferecemos":7314,"Ġusada":7315,"Ġadvertising":7316,"Ġinstalado":7317,"Ġapplicable":7318,"Ġcastle":7319,"Ġwaste":7320,"ni":7321,"amm":7322,"Ġdistribut":7323,"ĠhorÃ¡rio":7324,"Ġconceito":7325,"Ġorlando":7326,"bu":7327,"Ġcach":7328,"orme":7329,"Ġstick":7330,"Ġkeyword":7331,"Ġfif":7332,"irÃ¡":7333,"Ġcolon":7334,"Ġrussia":7335,"Ġwheel":7336,"Ġplanet":7337,"Ġexclusive":7338,"Ġaffect":7339,"iques":7340,"Ġcanon":7341,"Ġjac":7342,"ĠmilÃ£o":7343,"Ġbilhetes":7344,"Ġora":7345,"Ġsupl":7346,"Ġouvir":7347,"Ġnumbers":7348,"Ġrecomenda":7349,"untos":7350,"Ġchegada":7351,"cks":7352,"Ġencontrados":7353,"Ġessencial":7354,"Ġcomprimento":7355,"eless":7356,"Ġvot":7357,"Ġcircul":7358,"Ġpeix":7359,"Ġmeios":7360,"Ġrecip":7361,"Ġsete":7362,"Ġorganizations":7363,"esis":7364,"osh":7365,"Ġmarina":7366,"Ġatualizar":7367,"Ġcinema":7368,"ĠdeverÃ¡":7369,"Ġvitam":7370,"ql":7371,"Ġearn":7372,"Ġbuff":7373,"Ġcalifornia":7374,"rap":7375,"Ġestrada":7376,"Ġframew":7377,"ati":7378,"Ġhu":7379,"urance":7380,"Ġestate":7381,"Ġcanc":7382,"Ġterror":7383,"Ġcomplement":7384,"Ġrussian":7385,"Ġoem":7386,"ĠvÃ¡":7387,"Ġfavoritos":7388,"Ġgalax":7389,"Ġarc":7390,"Ġhomes":7391,"Ġdrops":7392,"Ġsustainable":7393,"Ġexamin":7394,"Ġportas":7395,"Ġpromover":7396,"Ġmary":7397,"Ġcape":7398,"Ġsalt":7399,"Ġtelevision":7400,"Ãºssia":7401,"Ġraros":7402,"Ġaus":7403,"Ġtoy":7404,"Ġtold":7405,"emun":7406,"Ġamen":7407,"Ġreliable":7408,"Ġidentificar":7409,"Ġsituated":7410,"Ġmercados":7411,"Ġpeter":7412,"Ġprepare":7413,"lers":7414,"ris":7415,"ards":7416,"nam":7417,"Ġgosto":7418,"Ġcolombia":7419,"fin":7420,"Ġkh":7421,"ĠveÃŃculo":7422,"Ġsatur":7423,"Ġadobe":7424,"enge":7425,"Ġrh":7426,"Ġmaps":7427,"Ġocas":7428,"Ġreflet":7429,"Ġroutes":7430,"Ġclicando":7431,"Ġimplementation":7432,"Ġmeaning":7433,"Ġdoctor":7434,"pi":7435,"Ġdout":7436,"Ġalone":7437,"Ġespirit":7438,"Ġcasal":7439,"bles":7440,"Ġvisitantes":7441,"ality":7442,"Ġshut":7443,"ĠpoderÃ£o":7444,"Ã©rios":7445,"Ġplayed":7446,"Ġterrace":7447,"Ġfootball":7448,"ĠfÃ³rum":7449,"tail":7450,"Ġdeveloping":7451,"Ġresolver":7452,"ĠrecuperaÃ§Ã£o":7453,"pet":7454,"Ġguang":7455,"ĠmÃŃnimo":7456,"wan":7457,"Ġpartilh":7458,"Ġavaliar":7459,"Ġentertain":7460,"ĠconversÃ£o":7461,"Ġroupas":7462,"Ġgrau":7463,"Ġotherwise":7464,"Ġcomerci":7465,"ĠpÃ³":7466,"Ġvont":7467,"Ġtrata":7468,"ĠnaÃ§Ãµes":7469,"bar":7470,"elle":7471,"Ġelement":7472,"Ġhumana":7473,"Ġtempl":7474,"Ġtrabalhadores":7475,"ĠnÃºmeros":7476,"ĠtransmissÃ£o":7477,"Ġwarranty":7478,"Ġapproximately":7479,"jos":7480,"rated":7481,"Ġquiet":7482,"Ġcorrig":7483,"ĠlÃŃqu":7484,"Ġrealizado":7485,"Ġhealthy":7486,"Ġremover":7487,"Ġpizza":7488,"Ġmis":7489,"icl":7490,"ays":7491,"Ġmodos":7492,"Ġblo":7493,"Ġbrought":7494,"Ġnetworks":7495,"Ġdescribed":7496,"Ġfaro":7497,"Ġchair":7498,"Ġtourist":7499,"Ġcleaning":7500,"Ġabordagem":7501,"pan":7502,"pla":7503,"Ġspecies":7504,"Ġallowed":7505,"Ġchallenges":7506,"alidade":7507,"Ġny":7508,"Ġcompetitive":7509,"Ġaltamente":7510,"Ġgostaria":7511,"Ġlounge":7512,"Ġnations":7513,"Ġexclu":7514,"Ġdipl":7515,"Ġprecisam":7516,"ĠvisualizaÃ§Ãµes":7517,"Ġblueto":7518,"Ġfacilit":7519,"Ġinstituto":7520,"Ġbangkok":7521,"ĠregiÃµes":7522,"Ġmoon":7523,"Ġclimate":7524,"rando":7525,"Ġtat":7526,"Ġbou":7527,"pload":7528,"Ġtrop":7529,"Ġshanghai":7530,"estrut":7531,"Ġleva":7532,"Ġbluetooth":7533,"olas":7534,"Ġatender":7535,"Ġespecialistas":7536,"Ġinnovative":7537,"tube":7538,"Ġarrival":7539,"Ġminhas":7540,"Ġschools":7541,"Ġlicense":7542,"Ġcelular":7543,"ĠmeteorolÃ³gicas":7544,"Ġinferior":7545,"Ġdiminu":7546,"ecom":7547,"Ġplants":7548,"ĠconteÃºdos":7549,"ĠÃŃndia":7550,"Ġpartnership":7551,"Ġbrinquedos":7552,"van":7553,"Ġperformed":7554,"Ġtask":7555,"Ġsinc":7556,"Ġoz":7557,"roy":7558,"Ġleste":7559,"icionais":7560,"Ġpromote":7561,"Ġinvestimento":7562,"Ġgrowing":7563,"Ġiniciar":7564,"Ġoccup":7565,"ĠfÃŃsica":7566,"eters":7567,"Ġacol":7568,"Ġcompact":7569,"Ġadvance":7570,"Ġcomuns":7571,"Ġpregn":7572,"Ã¢nico":7573,"Ġspect":7574,"Ġgeorge":7575,"irect":7576,"Ġbritish":7577,"Ġdoll":7578,"Ġov":7579,"ÃŃcia":7580,"Ġcurto":7581,"ĠmatÃ©ria":7582,"Ġbaixe":7583,"Ġneighborhood":7584,"Ġvontade":7585,"ÃŃna":7586,"Ġilust":7587,"osp":7588,"Ġasc":7589,"Ġshowing":7590,"Ġbaseado":7591,"ĠdefiniÃ§Ã£o":7592,"Ġmall":7593,"Ġsoul":7594,"Ġlikely":7595,"Ġpreval":7596,"Ġtorre":7597,"Ġbell":7598,"Ġbow":7599,"Ġqueen":7600,"Ġtemple":7601,"ĠmÃºsicas":7602,"heim":7603,"Ġcaused":7604,"lets":7605,"Ġnomes":7606,"Ġlisten":7607,"Ġmouse":7608,"itÃ¡rio":7609,"inder":7610,"ĠaustrÃ¡lia":7611,"rast":7612,"Ġcontagem":7613,"Ġadventure":7614,"Ġress":7615,"Ġka":7616,"udes":7617,"Ġcontrolo":7618,"Ġheavy":7619,"ĠintegraÃ§Ã£o":7620,"Ġlut":7621,"Ġenable":7622,"Ġrecurso":7623,"itions":7624,"Ġcarlos":7625,"Ġdescon":7626,"Ġincent":7627,"ario":7628,"Ġpratic":7629,"Ġtestemun":7630,"Ġdog":7631,"adeira":7632,"Ġagencies":7633,"inham":7634,"Ġtraffic":7635,"Ãł":7636,"ĠcondiÃ§Ã£o":7637,"Ġrealizada":7638,"Ġsilic":7639,"Ġinteresting":7640,"ued":7641,"Ġsymb":7642,"Ġvolunt":7643,"Ġcarta":7644,"Ġattempt":7645,"Ġsinal":7646,"ĠÃ¢mb":7647,"Ã¡n":7648,"Ġbrilh":7649,"Ġintended":7650,"Ġlandsc":7651,"Ġoptional":7652,"ĠlicenÃ§a":7653,"ĠcompatÃŃvel":7654,"ĠeconÃ´mico":7655,"Ġalma":7656,"ifying":7657,"Ġbenefit":7658,"Ġcertificado":7659,"Ġheaven":7660,"Ġeco":7661,"Ġhem":7662,"Ġmah":7663,"Ġchocol":7664,"Ġequipa":7665,"Ġjoy":7666,"Ġsupported":7667,"Ġregulation":7668,"Ġsatellite":7669,"Ġmich":7670,"isco":7671,"Ġhit":7672,"Ġredor":7673,"ĠidentificaÃ§Ã£o":7674,"Ġreligios":7675,"Ġaspectos":7676,"Ġcommitte":7677,"Ġcomplic":7678,"ĠforÃ§as":7679,"Ġtradicionais":7680,"Ġcharl":7681,"Ġcertamente":7682,"ĠfrequÃªncia":7683,"Ġfc":7684,"Ġfriday":7685,"Ġshape":7686,"Ġchristmas":7687,"Ġcombination":7688,"Ġacontece":7689,"hot":7690,"Ġsit":7691,"Ġrid":7692,"Ġquerem":7693,"Ġcritical":7694,"Ġbedrooms":7695,"Ġupload":7696,"Ġemir":7697,"ĠestarÃ¡":7698,"Ġcarib":7699,"Ġmascul":7700,"marks":7701,"Ġsuns":7702,"Ġinterc":7703,"ĠmÃ©dicos":7704,"pers":7705,"Ġsair":7706,"phere":7707,"Ġconvenc":7708,"Ġbasta":7709,"ĠlanÃ§amento":7710,"Ġbanda":7711,"Ġigual":7712,"Ġmanufacturing":7713,"ĠtÃ©r":7714,"ĠvÃ³s":7715,"Ġparents":7716,"Ġcareer":7717,"Ġfields":7718,"itage":7719,"Ġwhom":7720,"Ġairports":7721,"Ġindependent":7722,"Ġchallenge":7723,"Ġwriting":7724,"Ġpne":7725,"Ġfern":7726,"Ġrespostas":7727,"Ġdirectory":7728,"ĠhorÃ¡rios":7729,"Ġfoco":7730,"Ġberlim":7731,"gra":7732,"ilhe":7733,"Ġdaqu":7734,"ipo":7735,"Ġtrying":7736,"Ġbruss":7737,"aixas":7738,"Ġintegral":7739,"ĠsuÃŃÃ§a":7740,"Ġconqu":7741,"rita":7742,"Ġfiref":7743,"Ġgalaxy":7744,"ander":7745,"ĠdÃ³l":7746,"Ġcasamento":7747,"Ġdivulg":7748,"Ġopinion":7749,"Ġcorporate":7750,"ypt":7751,"Ġslow":7752,"Ġfum":7753,"Ġflores":7754,"Ġpractical":7755,"Ġhors":7756,"Ġultim":7757,"uxe":7758,"ĠmÃŃdia":7759,"sk":7760,"Ġcompens":7761,"ĠpotÃªncia":7762,"Ġdespite":7763,"Ġinim":7764,"Ġclothing":7765,"Ġmosc":7766,"Ġrose":7767,"Ġresulting":7768,"Ġnether":7769,"Ġkr":7770,"Ġamanh":7771,"Ġgrant":7772,"ographic":7773,"Ġfurniture":7774,"aug":7775,"Ġfan":7776,"Ġbin":7777,"Ġalternative":7778,"ĠexercÃŃcio":7779,"Ġinverno":7780,"Ġtenham":7781,"ingham":7782,"Ġpensar":7783,"aled":7784,"Ġsmartphone":7785,"Ġlunch":7786,"Ġatendimento":7787,"Ġcarne":7788,"Ġdescre":7789,"Ġembar":7790,"ĠdeclaraÃ§Ã£o":7791,"Ġsunday":7792,"fus":7793,"ĠagÃªncias":7794,"ĠrealizaÃ§Ã£o":7795,"Ġdessas":7796,"ih":7797,"Ġconstante":7798,"Ġparticularly":7799,"Ġtrips":7800,"Ġdesigner":7801,"Ġincluir":7802,"Ġcollected":7803,"Ġoferecem":7804,"Ġpier":7805,"Ġfogo":7806,"Ġcris":7807,"Ġbrown":7808,"Ġswitz":7809,"Ġsimilares":7810,"Ġadults":7811,"Ġdj":7812,"ĠcÃ³p":7813,"Ġchart":7814,"Ġaccordance":7815,"Ġwrong":7816,"Ġcoorden":7817,"Ġenhance":7818,"Ġfrances":7819,"Ġevening":7820,"Ġvisualizar":7821,"Ġarab":7822,"Ġpub":7823,"ĠsÃ¡b":7824,"Ġmedium":7825,"ĠcalÃ§as":7826,"ÃŃstico":7827,"Ġimagin":7828,"ĠcÃ¡":7829,"Ġft":7830,"Ġhi":7831,"Ġoppos":7832,"ixo":7833,"Ġanyone":7834,"Ġdetermine":7835,"Ġdesafios":7836,"Ġabstract":7837,"cop":7838,"Ġdual":7839,"Ġtorno":7840,"Ġconseguir":7841,"Ġexplorar":7842,"Ġbilhete":7843,"Ġswitzerland":7844,"Ġpy":7845,"atem":7846,"Ġgig":7847,"Ġsugar":7848,"Ġtesting":7849,"ĠdanÃ§a":7850,"Ġhilton":7851,"ÃŃamos":7852,"Ġaband":7853,"Ġcomando":7854,"Ġconcl":7855,"Ġzone":7856,"Ġdescar":7857,"Ġdefesa":7858,"cular":7859,"Ġior":7860,"Ġaspects":7861,"Ġbos":7862,"enty":7863,"ĠprÃªm":7864,"Ġsexta":7865,"Ġdestinos":7866,"well":7867,"Ġgarra":7868,"bridge":7869,"Ġia":7870,"Ġvital":7871,"Ġcooperation":7872,"roll":7873,"Ġanalisar":7874,"Ġadministration":7875,"Ġcertainly":7876,"Ġsolicit":7877,"Ġhistoric":7878,"ĠcooperaÃ§Ã£o":7879,"Ġcontribut":7880,"Ġenvio":7881,"Ġcopenh":7882,"Ġregistration":7883,"Ġshoes":7884,"zas":7885,"pton":7886,"phones":7887,"Ġriscos":7888,"Ġdrink":7889,"Ġpacotes":7890,"Ġpagar":7891,"entais":7892,"Ġrc":7893,"Ġoutput":7894,"Ġnerv":7895,"Ġaquecimento":7896,"ded":7897,"Ġbost":7898,"quick":7899,"ĠrÃºssia":7900,"Ġpharm":7901,"Ġdescont":7902,"Ġinfrast":7903,"Ġprimary":7904,"Ġabsolut":7905,"etor":7906,"entic":7907,"Ġemot":7908,"Ġcongr":7909,"Ġraw":7910,"Ġutilizadores":7911,"Ġbrasileira":7912,"Ġintegration":7913,"Ġidioma":7914,"Ġtoil":7915,"Ġprol":7916,"Ġoverall":7917,"Ġescolas":7918,"Ġopened":7919,"Ġlocalizada":7920,"Ġplaced":7921,"Ġecr":7922,"Ġsaying":7923,"Ġmilhares":7924,"Ġnuvem":7925,"Ġdormir":7926,"Ġframework":7927,"Ġinfrastruct":7928,"Ġsweet":7929,"Ġgd":7930,"Ġgps":7931,"Ġmodule":7932,"Ġengland":7933,"Ġconstruir":7934,"Ġcoordin":7935,"ali":7936,"Ġemit":7937,"Ġabertura":7938,"Ġbrussels":7939,"real":7940,"Ġvon":7941,"Ġvinc":7942,"oter":7943,"Ġaprim":7944,"ĠÃ¡sia":7945,"Ġsurv":7946,"ĠgÃªn":7947,"Ġelse":7948,"Ġsimult":7949,"Ġexpensive":7950,"Ġcuis":7951,"Ġreleased":7952,"ĠespecÃŃficos":7953,"Ġsharing":7954,"Ġsnap":7955,"Ġcurrency":7956,"Ġcarrinho":7957,"Ġbens":7958,"Ġboy":7959,"Ġrestrict":7960,"metros":7961,"Ġfotograf":7962,"Ġjovem":7963,"ĠreuniÃ£o":7964,"Ġroyalty":7965,"Ġcapit":7966,"Ġlighting":7967,"Ġplantas":7968,"Ġchannels":7969,"ffici":7970,"Ġposted":7971,"iving":7972,"terest":7973,"Ġprat":7974,"dÃ£o":7975,"necess":7976,"omos":7977,"Ġingredi":7978,"ĠrelatÃ³rios":7979,"Ġbaixos":7980,"Ġdelivered":7981,"Ġliquid":7982,"Ġnetherlands":7983,"ismos":7984,"onda":7985,"Ġchanged":7986,"Ġthinking":7987,"Ġsei":7988,"Ġheating":7989,"Ġregions":7990,"Ġanalis":7991,"Ġpersonalizado":7992,"Ġvestido":7993,"Ġamazing":7994,"edores":7995,"Ġrosa":7996,"Ġoblig":7997,"Ġescrito":7998,"Ġsimul":7999,"Ġjuan":8000,"Ġinfluence":8001,"Ġpasta":8002,"Ġmuita":8003,"Ġobtained":8004,"Ġconflict":8005,"Ġemprego":8006,"Ġcomodidades":8007,"mont":8008,"ĠagÃªncia":8009,"Ġprazer":8010,"iraÃ§Ã£o":8011,"endedor":8012,"Ġboston":8013,"Ġfear":8014,"Ġinfin":8015,"Ġdesenvolvido":8016,"Ġolhar":8017,"ĠtrÃ¡s":8018,"Ġquarta":8019,"Ġsubmitted":8020,"Ġsingapore":8021,"Ġforces":8022,"ĠintroduÃ§Ã£o":8023,"ĠanÃºncio":8024,"iability":8025,"Ġinj":8026,"Ġviz":8027,"rics":8028,"Ġalbum":8029,"Ġwonderful":8030,"Ġanalytics":8031,"ington":8032,"Ġpair":8033,"Ġlevant":8034,"ĠfabricaÃ§Ã£o":8035,"Ġbudap":8036,"Ġnic":8037,"Ġrand":8038,"grad":8039,"Ġsmo":8040,"Ġbern":8041,"Ġenvie":8042,"Ġnucle":8043,"Ġlabel":8044,"amentais":8045,"Ġsignificantly":8046,"Ġiorque":8047,"fit":8048,"Ġave":8049,"arÃ£o":8050,"ĠrevisÃ£o":8051,"Ġferry":8052,"ĠtÃ©cnico":8053,"Ġdepartamento":8054,"wor":8055,"Ġpip":8056,"roduc":8057,"Ġframe":8058,"ĠsessÃ£o":8059,"Ġcarreira":8060,"ĠÃ¢mbito":8061,"quickly":8062,"Ġhotelquickly":8063,"Ġdela":8064,"Ġipad":8065,"Ġconversion":8066,"olina":8067,"Ġpowerpoint":8068,"Ġconveniente":8069,"Ġerrors":8070,"Ġenvol":8071,"Ġliga":8072,"Ġtribun":8073,"aver":8074,"Ġpasseio":8075,"Ġbookings":8076,"Ġreflex":8077,"Ġprovavelmente":8078,"Ġdefe":8079,"Ġboat":8080,"Ġglob":8081,"Ġmestre":8082,"Ġlouis":8083,"ĠcÃ¢mara":8084,"Ġswimming":8085,"Ġale":8086,"Ġstations":8087,"Ġgrat":8088,"Ġbelong":8089,"olÃ³gicos":8090,"burgh":8091,"band":8092,"Ġhuge":8093,"ivel":8094,"apar":8095,"ĠversÃµes":8096,"Ġlistados":8097,"tenha":8098,"Ġhouve":8099,"edas":8100,"Ġadvis":8101,"Ġprague":8102,"Ġposts":8103,"Ġpassageiros":8104,"illo":8105,"ĠcolÃ´m":8106,"Ġphu":8107,"Ġseparate":8108,"ĠlÃ¢mp":8109,"ĠcolÃ´mbia":8110,"las":8111,"Ġattach":8112,"Ġfinalmente":8113,"Ġvertical":8114,"Ġnik":8115,"Ġrico":8116,"fera":8117,"Ġpalest":8118,"Ġbrother":8119,"Ġcovered":8120,"Ġlyon":8121,"Ġpoc":8122,"rie":8123,"Ġformer":8124,"Ġsemi":8125,"Ġautoridades":8126,"abilities":8127,"Ġbiciclet":8128,"oa":8129,"iveness":8130,"Ġgram":8131,"look":8132,"Ġwanted":8133,"Ġjuntamente":8134,"Ġeducational":8135,"Ġigualmente":8136,"Ġdependendo":8137,"Ġsources":8138,"Ġfigure":8139,"Ġpinterest":8140,"Ġmanchester":8141,"Ġamarillas":8142,"Ġgon":8143,"Ġoperacional":8144,"Ġbrasileiro":8145,"Ġfemale":8146,"Ġvibr":8147,"gal":8148,"Ġuv":8149,"Ġyoutube":8150,"Ġacresc":8151,"Ġhero":8152,"Ġleader":8153,"ĠnavegaÃ§Ã£o":8154,"Ġgather":8155,"Ġobrigado":8156,"Ġavenue":8157,"Ġanci":8158,"Ġpaid":8159,"Ġfinish":8160,"Ġdesigns":8161,"Ġbecomes":8162,"Ġtests":8163,"Ġefetuar":8164,"ĠÃŃc":8165,"Ġrp":8166,"Ġenem":8167,"Ġleather":8168,"Ġcerta":8169,"Ġficheiros":8170,"Ġtarefas":8171,"hael":8172,"Ġcash":8173,"ĠautomÃ¡tica":8174,"Ġpublicidade":8175,"Ġparticipation":8176,"Ġtelephone":8177,"Ġsatisfact":8178,"Ġhtml":8179,"Ġaprendiz":8180,"Ġmontagem":8181,"Ġevaluation":8182,"ĠatraÃ§Ãµes":8183,"atÃ³ria":8184,"Ġsugest":8185,"Ġclip":8186,"Ġios":8187,"Ġproduzir":8188,"Ġmotel":8189,"Ġprotected":8190,"Ġbreve":8191,"Ġmoderno":8192,"ĠimplementaÃ§Ã£o":8193,"Ġcutting":8194,"Ġparce":8195,"Ġcafe":8196,"Ġdistin":8197,"Ġnd":8198,"ĠinÃºmer":8199,"ceed":8200,"Ġparticipants":8201,"Ġstatement":8202,"Ġthousands":8203,"hs":8204,"aries":8205,"Ġni":8206,"Ġpolice":8207,"Ġcompliance":8208,"Ġrenew":8209,"Ġopinions":8210,"Ġvenice":8211,"Ġappearance":8212,"Ġassegurar":8213,"jud":8214,"Ġhang":8215,"aving":8216,"Ġantigo":8217,"Ġgordura":8218,"arily":8219,"place":8220,"Ġowner":8221,"Ġdrin":8222,"Ġchanging":8223,"Ġleitura":8224,"Ġdiscl":8225,"Ġsegura":8226,"Ġsaco":8227,"Ġreligious":8228,"Ġconsolid":8229,"Ġcaps":8230,"Ġfolha":8231,"Ġvirus":8232,"Ġobjetos":8233,"Ġcommittee":8234,"rip":8235,"usta":8236,"Ġobtenha":8237,"Ġhospit":8238,"Ġfosse":8239,"uÃ¡rio":8240,"Ġgrade":8241,"Ġmusical":8242,"Ġclosed":8243,"Ġextremamente":8244,"Ġespiritual":8245,"Ġauthority":8246,"ĠbebÃª":8247,"Ġvantagens":8248,"Ġcz":8249,"ĠcÃ¡l":8250,"Ġwilliam":8251,"Ġfeitas":8252,"Ġdecided":8253,"Ġregistered":8254,"iti":8255,"Ġmilk":8256,"Ġfixed":8257,"ĠesforÃ§o":8258,"Ġana":8259,"Ġrica":8260,"Ġfinanci":8261,"Ġestre":8262,"Ġrecentemente":8263,"Ġfees":8264,"Ġinterests":8265,"Ġupdates":8266,"Ġrecebeu":8267,"mon":8268,"Ġbreat":8269,"Ġalf":8270,"Ġku":8271,"Ġdiretor":8272,"Ġcotton":8273,"Ġextremely":8274,"Ġesquerda":8275,"Ġhop":8276,"Ġprovider":8277,"Ġbomb":8278,"Ġassociados":8279,"ĠcartÃµes":8280,"Ġvistas":8281,"Ġacord":8282,"Ġgross":8283,"Ġheight":8284,"ĠportÃ¡til":8285,"Ġbike":8286,"Ġangel":8287,"Ġprepared":8288,"kt":8289,"Ġchal":8290,"ows":8291,"Ġdowntown":8292,"ĠsatÃ©l":8293,"Ġsons":8294,"Ġlamp":8295,"ceu":8296,"Ġoccas":8297,"ĠdÃºvida":8298,"onas":8299,"Ġhorm":8300,"agram":8301,"Ġperigos":8302,"iber":8303,"Ġdireita":8304,"Ġcrime":8305,"Ġtomor":8306,"ĠterraÃ§o":8307,"Ġgardens":8308,"Ġdado":8309,"ener":8310,"Ġfrio":8311,"Ġva":8312,"Ġetiqu":8313,"Ã³lica":8314,"Ġdiscounts":8315,"Ġdisap":8316,"Ġexperts":8317,"ĠmunicÃŃp":8318,"Ġbond":8319,"Ġrepe":8320,"uten":8321,"Ġgoes":8322,"ĠnecessÃ¡rias":8323,"Ġpopul":8324,"Ġespera":8325,"Ġreconh":8326,"ĠespecÃŃfico":8327,"Ġarquitetura":8328,"osen":8329,"Ġaudit":8330,"Ġassistance":8331,"Ġul":8332,"berto":8333,"Ġtransact":8334,"Ġphase":8335,"Ġmoz":8336,"Ġtopo":8337,"Ġentry":8338,"Ġbenefici":8339,"Ã§am":8340,"Ġalarm":8341,"Ġdecide":8342,"ĠministÃ©rio":8343,"ÃŃb":8344,"ĠestaÃ§Ãµes":8345,"mentos":8346,"Ġprivile":8347,"Ã©ticos":8348,"ĠindivÃŃduos":8349,"Ġcastelo":8350,"Ġlac":8351,"rak":8352,"Ġpoll":8353,"Ġindividuais":8354,"Ġleague":8355,"tica":8356,"Ġartific":8357,"mbh":8358,"Ġdemocr":8359,"Ġbirm":8360,"Ġagentes":8361,"Ġpersons":8362,"Ġdefined":8363,"Ġprinter":8364,"ĠcÃ¢mbio":8365,"Ġtai":8366,"endas":8367,"Ġseems":8368,"Ġantonio":8369,"Ġunif":8370,"Ġleite":8371,"Ġservidores":8372,"Ġutiliza":8373,"Ġheritage":8374,"Ġbalc":8375,"Ġcommunications":8376,"Ġstored":8377,"proof":8378,"bourne":8379,"Ġswe":8380,"rees":8381,"Ġbless":8382,"Ġproph":8383,"Ġteams":8384,"Ġplanos":8385,"ÃŃlia":8386,"Ġcompreh":8387,"Ġtinham":8388,"Ġpreparar":8389,"ĠpronÃºncia":8390,"Ġmit":8391,"Ġmodes":8392,"Ġdefici":8393,"Ġdefault":8394,"Ġcomportamento":8395,"Ġthick":8396,"Ġbs":8397,"Ġhub":8398,"Ġester":8399,"ĠpraÃ§a":8400,"ĠamanhÃ£":8401,"Ġcriter":8402,"Ġexecutive":8403,"Ġcommitment":8404,"Ġtarefa":8405,"Ġaceler":8406,"Ġjustice":8407,"Ġprofessores":8408,"Ġvirgin":8409,"Ġsuccessful":8410,"Ġreais":8411,"Ġverifique":8412,"Ġgarante":8413,"Ġaulas":8414,"Ġgmbh":8415,"Ġpossibility":8416,"Ġdiab":8417,"Ġchocolate":8418,"Ġusadas":8419,"Ġrace":8420,"Ġinsert":8421,"Ġstream":8422,"Ġventil":8423,"omo":8424,"Ġscore":8425,"Ġtechniques":8426,"ek":8427,"Ġmovie":8428,"Ġcookie":8429,"Ġcampanha":8430,"Ġmedicine":8431,"Ġponta":8432,"Ġaprendizagem":8433,"Ġsets":8434,"Ġtheme":8435,"Ġlistas":8436,"Ġmalware":8437,"Ġconsumer":8438,"Ġsolve":8439,"Ġbottle":8440,"Ġswed":8441,"cher":8442,"Ġflag":8443,"Ġassunto":8444,"Ġadvice":8445,"Ġamericana":8446,"Ġdestinia":8447,"Ġexecutar":8448,"Ġabrang":8449,"Ġlaptop":8450,"tes":8451,"Ġagency":8452,"Ġobjects":8453,"Ġbehavior":8454,"Ġbuildings":8455,"Ġdesejo":8456,"Ġsher":8457,"Ġireland":8458,"Ġbeijing":8459,"Ġdram":8460,"Ġpump":8461,"raÃ§Ãµes":8462,"rigo":8463,"Ġbelo":8464,"Ġshops":8465,"Ġpretende":8466,"Ġbb":8467,"ĠparÃ¢metros":8468,"ao":8469,"ionais":8470,"Ġpriest":8471,"Ġreceba":8472,"Ġsympt":8473,"Ġinfrastructure":8474,"obil":8475,"cionais":8476,"Ġcontinua":8477,"oro":8478,"Ġshowed":8479,"Ġcontroller":8480,"Ġfulf":8481,"Ġsession":8482,"Ġfantas":8483,"Ġpref":8484,"Ġreput":8485,"Ġidentity":8486,"ĠprincÃŃpios":8487,"Ġpir":8488,"Ġlose":8489,"Ġverdadeiro":8490,"Ġaumenta":8491,"Ġflexible":8492,"pot":8493,"Ġhat":8494,"ilho":8495,"Ġserved":8496,"Ġbelg":8497,"Ġnessa":8498,"Ġorganic":8499,"Ġitaliano":8500,"ĠecrÃ£":8501,"mi":8502,"Ġeasier":8503,"ĠespecÃŃficas":8504,"Ġtaste":8505,"ĠromÃ¢nticos":8506,"uly":8507,"ceis":8508,"Ġimped":8509,"Ġtroca":8510,"ĠirmÃ£os":8511,"Ġberg":8512,"Ġbuying":8513,"Ġeurop":8514,"Ġcomunidades":8515,"ĠdÃª":8516,"Ġpreview":8517,"Ġspac":8518,"Ġregime":8519,"Ġbiblioteca":8520,"work":8521,"Ġservers":8522,"ĠincluÃŃdo":8523,"Ġbrow":8524,"Ġstatistics":8525,"Ġconsulta":8526,"Ġentertainment":8527,"gia":8528,"Ġspend":8529,"Ġdose":8530,"Ġdireto":8531,"Ġfollowed":8532,"Ġcauses":8533,"Ġacessar":8534,"Ġinstitut":8535,"Ġauthorities":8536,"Ġdiseases":8537,"Ġimperial":8538,"Ġdynamic":8539,"Ġfen":8540,"Ġobjeto":8541,"Ġsemelhante":8542,"Ġadicione":8543,"Ġimplant":8544,"Ġdrag":8545,"Ġindependente":8546,"Ġbonus":8547,"Ġcraft":8548,"ales":8549,"Ġgoals":8550,"Ġaceita":8551,"cking":8552,"ĠcombustÃŃvel":8553,"Ġoly":8554,"Ġvaz":8555,"Ġrit":8556,"Ġstad":8557,"Ġletter":8558,"ĠpÃºblicas":8559,"Ġlandmarks":8560,"Ġintroduction":8561,"aj":8562,"Ġeight":8563,"acher":8564,"Ġpresc":8565,"ĠfantÃ¡st":8566,"Ġtomorrow":8567,"anal":8568,"alt":8569,"Ġcampe":8570,"Ġtente":8571,"Ġvienna":8572,"Ġcitizens":8573,"Ġreut":8574,"Ġproposta":8575,"Ġorange":8576,"Ġworked":8577,"Ġprocedure":8578,"zar":8579,"Ġoak":8580,"ancou":8581,"Ġdidn":8582,"Ġcompromisso":8583,"Ġbirmingham":8584,"Ġadequada":8585,"Ġeficiente":8586,"Ġplans":8587,"Ġassembly":8588,"ĠincrÃŃvel":8589,"Ġchosen":8590,"Ġcred":8591,"Ġidentidade":8592,"Ġcompatible":8593,"ned":8594,"Ġexatamente":8595,"Ġnaqu":8596,"Ġidentific":8597,"ĠfundaÃ§Ã£o":8598,"ĠaÃ©rea":8599,"Ġcounter":8600,"Ġministry":8601,"Ġdiego":8602,"rer":8603,"Ġinaug":8604,"Ġagu":8605,"Ġrelation":8606,"ĠÃ¡c":8607,"Ġregisto":8608,"Ġjuntos":8609,"Ġexactly":8610,"Ġfaixa":8611,"Ġagents":8612,"Ġbars":8613,"Ġespecific":8614,"Ġoperate":8615,"Ġcells":8616,"Ġgif":8617,"ango":8618,"Ġadvers":8619,"Ġtasks":8620,"Ġvehicles":8621,"Ġinteligente":8622,"ĠorÃ§amento":8623,"ami":8624,"iry":8625,"Ġray":8626,"Ġdesenho":8627,"Ġcommunities":8628,"Ã©rc":8629,"Ġevolution":8630,"body":8631,"Ġliver":8632,"Ġlists":8633,"Ġteachers":8634,"Ġbanheiro":8635,"ĠquilÃ´met":8636,"Ġkl":8637,"Ġkore":8638,"Ġleon":8639,"ĠpublicaÃ§Ã£o":8640,"Ġurb":8641,"ĠreuniÃµes":8642,"ĠlÃŃderes":8643,"craft":8644,"Ġtheat":8645,"Ġgm":8646,"Ġphilip":8647,"Ġsaved":8648,"Ġegypt":8649,"Ġlady":8650,"Ġexhibition":8651,"Ġguaranteed":8652,"Ġdigitais":8653,"Ġfisc":8654,"Ġmedo":8655,"Ġmistura":8656,"Ġindustries":8657,"Ġannual":8658,"Ġadot":8659,"Ġcultiv":8660,"ĠatualizaÃ§Ãµes":8661,"Ġbomba":8662,"Ġveneza":8663,"Ãªut":8664,"Ġprime":8665,"Ġdepress":8666,"Ġprinciples":8667,"Ġpatient":8668,"Ġmiguel":8669,"Ġwedding":8670,"Ġdanger":8671,"Ġcouro":8672,"Ġkinds":8673,"Ġaims":8674,"Ġparameters":8675,"world":8676,"Ġtir":8677,"orter":8678,"Ġnan":8679,"Ġmetod":8680,"Ġcrie":8681,"ĠaparÃªncia":8682,"ĠevoluÃ§Ã£o":8683,"Ġtutors":8684,"Ġvictoria":8685,"Ġbruxelas":8686,"Ġfirefox":8687,"itam":8688,"Ġhs":8689,"ÃŃtim":8690,"ĠdiÃ¡logo":8691,"Ġmomentos":8692,"Ġoferecendo":8693,"ĠprincÃŃpio":8694,"Ġolymp":8695,"Ġrepos":8696,"ĠexÃ©rc":8697,"Ġprecisar":8698,"ĠsituaÃ§Ãµes":8699,"Ġpuzz":8700,"Ġlicenci":8701,"ĠsustentÃ¡vel":8702,"rias":8703,"apy":8704,"Ġoffic":8705,"Ġlatina":8706,"Ġbrowse":8707,"Ġvancou":8708,"estre":8709,"oli":8710,"Ġvancouver":8711,"gow":8712,"Ġimpos":8713,"Ġrecre":8714,"uesday":8715,"Ġcontemporary":8716,"Ġtoler":8717,"Ġseco":8718,"ĠgrÃ¡ficos":8719,"Ġbancos":8720,"Ġtrails":8721,"Ġdireta":8722,"Ġfrag":8723,"rato":8724,"rov":8725,"Ãªnio":8726,"ĠterÃ§a":8727,"ĠÃ¡guas":8728,"heet":8729,"Ġglas":8730,"Ġtelecom":8731,"Ġdun":8732,"Ġjam":8733,"Ġtras":8734,"Ġunless":8735,"Ġdign":8736,"Ġponte":8737,"Ġlub":8738,"Ġalgod":8739,"Ġprivada":8740,"Ġpossuem":8741,"Ġclinical":8742,"Ġabund":8743,"Ġurl":8744,"Ġensin":8745,"Ġdefinition":8746,"Ġestabelecer":8747,"Ġbillion":8748,"ĠelÃ©trica":8749,"Ġpiso":8750,"oph":8751,"Ġdestroy":8752,"Ġgreece":8753,"Ġtopic":8754,"rob":8755,"Ġenorme":8756,"Ġsmoking":8757,"Ġobserved":8758,"ĠconferÃªncia":8759,"Ġtes":8760,"uros":8761,"Ġaberta":8762,"ĠsÃ©":8763,"Ġjames":8764,"Ġtruck":8765,"Ġfeitos":8766,"ĠpalÃ¡":8767,"Ġdiamond":8768,"ĠcÃ©lulas":8769,"Ġaid":8770,"Ġbac":8771,"ables":8772,"Ġcentros":8773,"Ġpreparation":8774,"ĠprÃ³prias":8775,"ucion":8776,"Ġay":8777,"Ġdies":8778,"Ġdeleg":8779,"Ġplate":8780,"ĠremoÃ§Ã£o":8781,"pat":8782,"Ġlam":8783,"Ġexcl":8784,"Ġbaratas":8785,"Ġgosta":8786,"ĠinstituiÃ§Ã£o":8787,"ĠmÃ³dulo":8788,"aux":8789,"Ġspaces":8790,"Ġbuscar":8791,"Ġallowing":8792,"Ġgenerally":8793,"Ġsignificativamente":8794,"Ġviolence":8795,"Ġescrever":8796,"iced":8797,"Ġwit":8798,"Ġqueb":8799,"Ġinstagram":8800,"Ġcompartilhe":8801,"Ġacerca":8802,"Ġmeter":8803,"anhos":8804,"Ġpoker":8805,"ilidade":8806,"Ġadqui":8807,"Ġalegre":8808,"alh":8809,"usto":8810,"Ġmagic":8811,"uan":8812,"ĠpÃ©s":8813,"Ġforget":8814,"ĠbÃ¡sico":8815,"Ġrefrigerator":8816,"Ġalternativa":8817,"Ġmartin":8818,"Ġrated":8819,"Ġlock":8820,"ĠirÃ£o":8821,"Ġbusinesses":8822,"Ġespecializados":8823,"Ġpedra":8824,"ĠdecisÃµes":8825,"Ġlayer":8826,"Ġmechanical":8827,"usc":8828,"Ġcommitted":8829,"Ġprofit":8830,"Ġinfect":8831,"Ġdriving":8832,"Ġhyper":8833,"Ġinteresses":8834,"Ġinstruments":8835,"Ġsaturday":8836,"Ġnap":8837,"Ġzh":8838,"Ġmichael":8839,"Ġdestinations":8840,"Ġheads":8841,"Ġlargura":8842,"Ġrosto":8843,"Ġclara":8844,"Ġcord":8845,"ĠprovÃŃn":8846,"Ġdelete":8847,"ĠsÃ³l":8848,"Ġfrequency":8849,"Ġsmooth":8850,"rument":8851,"ecido":8852,"Ġades":8853,"Ġnotes":8854,"Ġassign":8855,"Ġaeroport":8856,"Ġfeeling":8857,"Ġwait":8858,"Ġpowder":8859,"ook":8860,"Ġtweet":8861,"Ġcere":8862,"Ġwants":8863,"Ġexe":8864,"agre":8865,"Ġbarco":8866,"ĠÃ³rg":8867,"Ġpaypal":8868,"Ġhyip":8869,"Ġdinner":8870,"ĠaÃ§Ãº":8871,"Ġdb":8872,"Ġneck":8873,"Ġvall":8874,"Ġshen":8875,"Ġteen":8876,"cal":8877,"Ġvive":8878,"Ġinstrument":8879,"Ġalgar":8880,"Ġcompetition":8881,"ĠviolÃªncia":8882,"Ġconfiguration":8883,"ae":8884,"emia":8885,"Ġoral":8886,"Ġmeia":8887,"Ġbuses":8888,"Ġjogue":8889,"Ġcompleted":8890,"Ġsinais":8891,"nel":8892,"Ġfle":8893,"Ġitunes":8894,"Ġpartido":8895,"Ġposterior":8896,"Ġurg":8897,"Ġficou":8898,"Ġsuplem":8899,"ĠsÃŃt":8900,"idel":8901,"Ġrastre":8902,"stru":8903,"Ġsobrev":8904,"Ġbeaches":8905,"Ġcouple":8906,"lti":8907,"Ġbesides":8908,"ription":8909,"Ġpassengers":8910,"Ġrevis":8911,"Ġapi":8912,"Ġpraias":8913,"Ġconvention":8914,"Ġphuket":8915,"Ġpill":8916,"Ġbour":8917,"Ġcomand":8918,"Ġusage":8919,"Ġchampions":8920,"Ġabandon":8921,"rich":8922,"osis":8923,"Ġviet":8924,"Ġseek":8925,"Ġbrasile":8926,"iki":8927,"Ġselecionar":8928,"nesday":8929,"ĠmÃºlti":8930,"nis":8931,"Ġpig":8932,"Ġdell":8933,"ĠexcelÃªncia":8934,"Ġsenha":8935,"pes":8936,"Ġpull":8937,"Ġalert":8938,"ĠsatÃ©lite":8939,"Ġmaneiras":8940,"Ġindian":8941,"Ġdesconto":8942,"Ġmotivo":8943,"ĠcertificaÃ§Ã£o":8944,"Ġnormas":8945,"Ġdeterminar":8946,"Ġvice":8947,"Ġgs":8948,"Ġconhe":8949,"Ġprejud":8950,"time":8951,"Ġdirections":8952,"Ġexcelentes":8953,"lor":8954,"Ġaware":8955,"Ġencontram":8956,"Ġnewslet":8957,"Ġingredients":8958,"Ġsede":8959,"Ġdelic":8960,"Ġswiss":8961,"Ġfornecidos":8962,"ĠficarÃ¡":8963,"Ġpleasant":8964,"yle":8965,"Ġines":8966,"Ġkid":8967,"Ġtermo":8968,"Ġmainly":8969,"Ġsacrif":8970,"ĠlaboratÃ³rio":8971,"Ġcott":8972,"ycl":8973,"Ġlip":8974,"Ġsev":8975,"Ġpedir":8976,"Ġregistry":8977,"Ġtarifa":8978,"Ġbis":8979,"Ġwol":8980,"Ġapanh":8981,"Ġcream":8982,"Ġdefine":8983,"Ġversions":8984,"Ġsupplement":8985,"Ġconhecida":8986,"Ġdefinir":8987,"ĠÃ³timo":8988,"ĠesforÃ§os":8989,"Ġnit":8990,"Ġdesire":8991,"Ġintroduc":8992,"Ġjobs":8993,"Ġpublicado":8994,"Ġreduction":8995,"Ġreported":8996,"ĠdiagnÃ³st":8997,"vest":8998,"Ġgmail":8999,"Ġluxemb":9000,"Ġinstrumentos":9001,"ĠsatisfaÃ§Ã£o":9002,"ĠvÃ¡lv":9003,"zia":9004,"Ġanteriores":9005,"Ġparar":9006,"Ġtornando":9007,"ĠalgodÃ£o":9008,"ricos":9009,"rition":9010,"itiba":9011,"Ġchec":9012,"Ġkal":9013,"Ġsalas":9014,"Ġlaboratory":9015,"Ġpurs":9016,"Ġanc":9017,"Ġcondut":9018,"ogram":9019,"Ġclicar":9020,"Ġadvertis":9021,"ĠespÃ©cies":9022,"Ġglasgow":9023,"Ġbrain":9024,"Ġrubber":9025,"zuela":9026,"Ġtin":9027,"Ġment":9028,"asing":9029,"Ġneut":9030,"Ġroot":9031,"Ġesteve":9032,"Ġingredientes":9033,"Ġaa":9034,"Ġsight":9035,"Ġandar":9036,"veja":9037,"Ġorders":9038,"Ġcob":9039,"ĠÃ³tima":9040,"Ġtoilet":9041,"Ġartificial":9042,"Ġinch":9043,"Ġadqu":9044,"Ġnegative":9045,"Ġamenities":9046,"Ġpia":9047,"ĠbÃŃ":9048,"Ġbug":9049,"Ġretail":9050,"paper":9051,"Ġtransportation":9052,"Ġcuri":9053,"Ġcharacters":9054,"iada":9055,"Ġaccur":9056,"Ġcontrols":9057,"etos":9058,"Ġclube":9059,"Ġmeal":9060,"Ġcorru":9061,"Ġantiga":9062,"Ġtwin":9063,"Ġjar":9064,"Ġups":9065,"Ġdelet":9066,"Ġmeninas":9067,"lla":9068,"rimir":9069,"Ġacontecer":9070,"Ġfotografia":9071,"oming":9072,"Ġvind":9073,"uda":9074,"Ġremov":9075,"Ġconnecting":9076,"Ġstrategic":9077,"Ġjuris":9078,"Ġintermedi":9079,"Ġrt":9080,"Ġcolour":9081,"Ġpresentation":9082,"Ġnumerous":9083,"Ġexplo":9084,"Ġtrilhas":9085,"Ġbob":9086,"Ġtech":9087,"Ġcustomized":9088,"Ġmagaz":9089,"force":9090,"Ġportable":9091,"ÃŃss":9092,"Ġprojetado":9093,"Ġrecords":9094,"ĠcolaboraÃ§Ã£o":9095,"ĠtensÃ£o":9096,"Ġbull":9097,"ension":9098,"Ġformal":9099,"Ġmonday":9100,"ĠcatÃ¡logo":9101,"ĠjurÃŃd":9102,"Ġsilicone":9103,"Ġalic":9104,"Ġheard":9105,"Ġpraga":9106,"Ġpalma":9107,"Ġdizendo":9108,"Ġrevista":9109,"Ġassessment":9110,"Ġfax":9111,"Ġstores":9112,"Ġcontudo":9113,"icais":9114,"Ġcomputadores":9115,"ĠexistÃªncia":9116,"Ġmoral":9117,"Ġgratuita":9118,"ĠexpressÃ£o":9119,"Ġhappen":9120,"dra":9121,"hab":9122,"Ġfrig":9123,"Ġvip":9124,"ĠdepÃ³sito":9125,"ĠautomÃ¡tico":9126,"Ġfornecido":9127,"Ġdeixa":9128,"Ġaventura":9129,"Ġcobertura":9130,"uf":9131,"ank":9132,"Ġfesta":9133,"Ġlift":9134,"Ġsemin":9135,"Ġsubse":9136,"Ġoffices":9137,"Ġautoridade":9138,"ogrÃ¡fica":9139,"Ġmentioned":9140,"onÃªs":9141,"Ġkw":9142,"Ġweak":9143,"Ġguitar":9144,"airs":9145,"Ġpeters":9146,"Ġcircun":9147,"Ġprocedimentos":9148,"Ġgraphics":9149,"zi":9150,"Ġidos":9151,"Ġcamping":9152,"Ġrefere":9153,"Ġdesafio":9154,"Ġbmw":9155,"cket":9156,"Ġbron":9157,"Ġcorner":9158,"Ġprovis":9159,"Ġbeds":9160,"Ġcirurg":9161,"Ġcircum":9162,"Ġprocedures":9163,"Ġinfraestrut":9164,"fri":9165,"Ġmath":9166,"olos":9167,"Ġentret":9168,"Ġconhecimentos":9169,"Ġcertification":9170,"Ġcompreender":9171,"Ã©dia":9172,"Ġprotein":9173,"Ġenviado":9174,"ĠvÃŃrus":9175,"Ġbatalha":9176,"Ġletra":9177,"ĠgraduaÃ§Ã£o":9178,"Ġsubsid":9179,"Ġsecund":9180,"Ġcuritiba":9181,"ĠterritÃ³rio":9182,"Ġhes":9183,"olit":9184,"uste":9185,"ĠconsciÃªncia":9186,"Ġatmosphere":9187,"aland":9188,"rot":9189,"Ġforg":9190,"Ġstories":9191,"Ġdevemos":9192,"ĠdomÃ©st":9193,"Ġrule":9194,"Ġeps":9195,"Ġcamas":9196,"Ġmetres":9197,"Ġartist":9198,"ĠresponsÃ¡veis":9199,"ÃŃfico":9200,"Ġimprovement":9201,"Ġrecl":9202,"Ġexperienced":9203,"Ġbranca":9204,"Ġdegrees":9205,"Ġcosm":9206,"oul":9207,"Ġroof":9208,"Ġowners":9209,"Ġbags":9210,"Ġmelbourne":9211,"ĠcomposiÃ§Ã£o":9212,"Ġshoot":9213,"Ġloading":9214,"ĠquilÃ´metros":9215,"Ġterren":9216,"Ġelegante":9217,"Ġpousadas":9218,"cs":9219,"iÃ¡rio":9220,"itando":9221,"Ġrepresenta":9222,"Ġregulamento":9223,"Ġpromotion":9224,"aper":9225,"Ġsad":9226,"Ġira":9227,"Ġfacul":9228,"Ġparliam":9229,"Ġprayer":9230,"Ġancient":9231,"cars":9232,"water":9233,"Ġnotas":9234,"Ġfeet":9235,"Ġemphas":9236,"Ġcalls":9237,"ĠÃ¡lb":9238,"dy":9239,"kh":9240,"rais":9241,"okan":9242,"Ġvalle":9243,"Ġmajority":9244,"Ġacademic":9245,"Ġsemelhantes":9246,"iares":9247,"Ġlor":9248,"Ġappoint":9249,"Ġskys":9250,"Ġhandle":9251,"Ġexistentes":9252,"Ã´nio":9253,"Ġnavigation":9254,"Ġdance":9255,"ined":9256,"elha":9257,"Ġsoz":9258,"ĠturÃŃsticos":9259,"Ġpedidos":9260,"Ġdiscut":9261,"Ġauthentic":9262,"ĠgrÃ¡fico":9263,"Ġkeywords":9264,"ĠbÃŃbl":9265,"oo":9266,"Ġmanip":9267,"Ġprodutividade":9268,"front":9269,"ĠestatÃŃsticas":9270,"Ġevil":9271,"Ġcabin":9272,"Ġaltas":9273,"Ġpermitindo":9274,"Ġstraight":9275,"Ġintelligence":9276,"Ġtrend":9277,"Ġlimpo":9278,"Ġaccounts":9279,"Ġcapazes":9280,"ĠsaudÃ¡vel":9281,"ĠpÃ´r":9282,"Ġtum":9283,"Ġmd":9284,"eding":9285,"Ġgn":9286,"agon":9287,"Ġagenda":9288,"Ġposicion":9289,"Ġefforts":9290,"Ġcass":9291,"Ġinput":9292,"Ġgosp":9293,"Ġmediterrane":9294,"Ġcem":9295,"ÃŃcul":9296,"Ġcenters":9297,"Ġtrabalhando":9298,"ĠpreparaÃ§Ã£o":9299,"Ġfelt":9300,"icks":9301,"Ġmonum":9302,"Ġcontrolar":9303,"Ġcontrat":9304,"Ġconversa":9305,"Ġadvantages":9306,"Ġcongress":9307,"uba":9308,"Ġfertil":9309,"Ġchrome":9310,"Ġreached":9311,"Ġmestrados":9312,"Ġalimentar":9313,"Ġtuesday":9314,"rific":9315,"Ġleaving":9316,"Ġinstitution":9317,"Ġocorre":9318,"Ġaluminum":9319,"ĠoraÃ§Ã£o":9320,"rimin":9321,"thern":9322,"Ġaccid":9323,"Ġsheet":9324,"ĠconfiÃ¡vel":9325,"Ġdm":9326,"Ġfog":9327,"idamente":9328,"used":9329,"Ġcarn":9330,"ĠmediÃ§Ã£o":9331,"Ġcharles":9332,"Ġuefa":9333,"ogen":9334,"Ġpassa":9335,"atividade":9336,"ĠrecepÃ§Ã£o":9337,"Ġsms":9338,"Ġafterno":9339,"Ġtampa":9340,"ĠesperanÃ§a":9341,"ĠbenefÃŃcio":9342,"Ġost":9343,"Ġprata":9344,"Ġduplo":9345,"Ġataque":9346,"ĠsÃ¡bado":9347,"Ġeb":9348,"Ġbarata":9349,"see":9350,"Ġopera":9351,"Ġsouthern":9352,"Ġslight":9353,"Ġmoderna":9354,"Ġmountains":9355,"Ġaeroportos":9356,"Ġmira":9357,"ĠrÃŃg":9358,"ĠcarÃ¡":9359,"Ġboost":9360,"Ġmasters":9361,"Ġcertified":9362,"Ġtrees":9363,"Ġpom":9364,"inn":9365,"Ġbons":9366,"Ġorgas":9367,"Ġconduz":9368,"Ġdescobri":9369,"Ġwave":9370,"Ġlumin":9371,"Ġcomit":9372,"Ġitiner":9373,"Ġconsiderado":9374,"Ġcombined":9375,"Ġprestig":9376,"Ġbanheira":9377,"Ġastronom":9378,"Ġrue":9379,"Ġrise":9380,"stand":9381,"apor":9382,"Ġalgor":9383,"Ġambientes":9384,"Ġalojamentos":9385,"Ġjean":9386,"Ġremains":9387,"Ġcontribute":9388,"road":9389,"ifications":9390,"elling":9391,"aterra":9392,"Ġexplorer":9393,"Ġstrategies":9394,"Ġhung":9395,"Ġlazer":9396,"Ġtruly":9397,"Ġamericano":9398,"Ġpainting":9399,"ĠvitÃ³ria":9400,"Ġparliament":9401,"cent":9402,"ĠhÃ´":9403,"ika":9404,"Ġassociado":9405,"Ġquantity":9406,"Ġcatalog":9407,"Ġcriteria":9408,"Ġrang":9409,"Ġapreci":9410,"Ġlooks":9411,"Ġupgrade":9412,"Ġfotografias":9413,"mond":9414,"Ġalar":9415,"Ġutilizada":9416,"Ġarmas":9417,"Ġroman":9418,"ĠestratÃ©gias":9419,"ĠdimensÃµes":9420,"Ġsatisfaction":9421,"Ġparal":9422,"ĠestÃº":9423,"Ġterr":9424,"Ġcapa":9425,"Ġsaving":9426,"Ġreduced":9427,"Ġsai":9428,"Ġthy":9429,"aturas":9430,"Ġchip":9431,"ĠcompreensÃ£o":9432,"ĠespecÃŃfica":9433,"uits":9434,"esh":9435,"Ġfasc":9436,"Ġgear":9437,"emin":9438,"Ġemoc":9439,"Ġinterval":9440,"coin":9441,"Ġverify":9442,"Ġfrequentemente":9443,"Ġamostras":9444,"Ġinic":9445,"Ġenvel":9446,"Ġconsole":9447,"Ġminister":9448,"Ġimpostos":9449,"Ġirland":9450,"Ġexpression":9451,"ĠobservaÃ§Ã£o":9452,"Ġbrands":9453,"Ġmediante":9454,"fficient":9455,"ĠaÃ§Ãºcar":9456,"Ġbish":9457,"Ġmarco":9458,"Ġlua":9459,"ursday":9460,"Ġmilhas":9461,"Ġmedicamentos":9462,"Ġborra":9463,"Ġliterature":9464,"Ġwednesday":9465,"ĠtÃ¡":9466,"Ġprocure":9467,"Ġpronto":9468,"Ġmanga":9469,"Ġbrings":9470,"Ġaplicar":9471,"Ġexplos":9472,"Ġdomestic":9473,"Ġtroubl":9474,"Ġfounded":9475,"Ġtx":9476,"otic":9477,"Ġjava":9478,"Ġwhate":9479,"Ġwhatever":9480,"Ġilhas":9481,"Ġmuscle":9482,"Ġtypically":9483,"Ġfigura":9484,"Ġfiltro":9485,"Ġkilomet":9486,"Ġlidar":9487,"Ġveio":9488,"Ġfactor":9489,"Ġextraord":9490,"Ġacolh":9491,"Ġjav":9492,"Ġmexic":9493,"Ġcalib":9494,"Ġwordpress":9495,"Ġbebidas":9496,"Ġsimultane":9497,"Ġstrugg":9498,"Ġpermanent":9499,"ĠinfluÃªncia":9500,"Ġcorrida":9501,"Ġhan":9502,"Ġpassou":9503,"Ġtrabalha":9504,"Ġfishing":9505,"Ġpintura":9506,"Ġentretanto":9507,"Ġafternoon":9508,"Ġsv":9509,"alhas":9510,"irem":9511,"Ġoutlook":9512,"atively":9513,"ev":9514,"Ġtiss":9515,"Ġautonom":9516,"Ġserving":9517,"ylon":9518,"Ġpublish":9519,"Ġpanama":9520,"Ġelectrical":9521,"Ġgente":9522,"erson":9523,"apt":9524,"Ġdistingu":9525,"Ġgets":9526,"ĠcritÃ©rios":9527,"Ġken":9528,"Ġcontamin":9529,"Ġinglaterra":9530,"asonic":9531,"Ġmeetings":9532,"ĠagrÃŃc":9533,"Ġdece":9534,"Ġforem":9535,"Ġondas":9536,"Ġspent":9537,"Ġtransc":9538,"Ġhumanidade":9539,"Ġsciences":9540,"Ġcrown":9541,"Ġmetabol":9542,"Ġpersist":9543,"Ġlarger":9544,"Ġjoseph":9545,"esas":9546,"Ġpush":9547,"Ġvidas":9548,"Ġirrit":9549,"ĠreproduÃ§Ã£o":9550,"Ġpunta":9551,"Ġtradem":9552,"ĠglÃº":9553,"Ġpanasonic":9554,"Ġprobably":9555,"bel":9556,"pack":9557,"ricas":9558,"iring":9559,"uded":9560,"Ġbusc":9561,"Ġcathed":9562,"cp":9563,"Ġbeat":9564,"Ġarre":9565,"Ġagent":9566,"Ġterap":9567,"Ġdefense":9568,"Ġacho":9569,"Ġsamples":9570,"Ġgastron":9571,"host":9572,"Ġcv":9573,"Ġpend":9574,"Ġvote":9575,"Ġveter":9576,"Ġconcert":9577,"Ġsituations":9578,"Ġpacking":9579,"Ġpackages":9580,"Ġvillas":9581,"Ġformatos":9582,"Ġwikip":9583,"roz":9584,"plas":9585,"Ġelevado":9586,"Ġexcellence":9587,"Ġagreed":9588,"Ġwooden":9589,"Ġsurvey":9590,"jar":9591,"Ġtirar":9592,"Ġescal":9593,"Ġcorrel":9594,"Ġapproved":9595,"Ġoriente":9596,"Ġpaisagem":9597,"Ġlembre":9598,"wal":9599,"Ġjp":9600,"Ġminas":9601,"Ġaccessible":9602,"Ġsabor":9603,"Ġcomunic":9604,"Ġbottom":9605,"Ġlandscape":9606,"Ġcobre":9607,"Ġopens":9608,"Ġphilos":9609,"Ġtons":9610,"Ġhus":9611,"Ã§ado":9612,"Ġgord":9613,"Ġisn":9614,"Ġmoeda":9615,"Ġsteam":9616,"Ġmuseus":9617,"Ġappears":9618,"ĠdÃºvidas":9619,"Ġpipe":9620,"Ġwro":9621,"Ġenfer":9622,"Ġteatro":9623,"Ġprotest":9624,"Ġpatrim":9625,"Ġgospel":9626,"isters":9627,"rab":9628,"Ġproib":9629,"Ġcamb":9630,"Ġbaseada":9631,"Ġfacilidades":9632,"Ġluxu":9633,"ĠconclusÃ£o":9634,"Ġlinguagem":9635,"Ġsymptoms":9636,"Ġcancer":9637,"Ġmans":9638,"Ġrab":9639,"Ġmilitar":9640,"coming":9641,"Ġalegria":9642,"Ġimprensa":9643,"ĠtÃ©rm":9644,"Ġbog":9645,"edy":9646,"iaÃ§Ãµes":9647,"Ġmelhoria":9648,"Ġsurpre":9649,"Ġplaneta":9650,"Ġconducted":9651,"Ġmediterranean":9652,"care":9653,"Ġgan":9654,"Ġstim":9655,"Ġtrajet":9656,"Ġcheia":9657,"Ġmenores":9658,"Ġdieta":9659,"Ġmaybe":9660,"Ġarmy":9661,"Ġcalendar":9662,"Ġproviders":9663,"Ġtaxi":9664,"Ġballs":9665,"Ġphotograph":9666,"Ġafrican":9667,"ĠpalÃ¡cio":9668,"ĠglÃºten":9669,"Ġfals":9670,"Ġimobil":9671,"Ġintim":9672,"Ġplataformas":9673,"Ġfechar":9674,"Ġcarbono":9675,"bury":9676,"Ġanne":9677,"Ġfala":9678,"Ġspecifically":9679,"Ġsuporta":9680,"Ġverdadeira":9681,"Ġpreferred":9682,"Ġelevada":9683,"Ġhamburg":9684,"eas":9685,"oras":9686,"oral":9687,"Ġjord":9688,"ĠconstruÃŃdo":9689,"Ġmoments":9690,"Ġcomparar":9691,"Ġruas":9692,"Ġtransmission":9693,"Ġrigor":9694,"quei":9695,"odes":9696,"Ġguatem":9697,"Ġscene":9698,"Ġgluten":9699,"Ġlayout":9700,"Ġvigor":9701,"bus":9702,"Ġcater":9703,"Ġacons":9704,"Ġwash":9705,"Ġcurt":9706,"Ġestudar":9707,"Ġentering":9708,"inter":9709,"Ġparecer":9710,"Ġexemplos":9711,"ĠpropÃ³sito":9712,"ĠhÃ´t":9713,"ilos":9714,"Ġmails":9715,"Ġvisite":9716,"Ġlimite":9717,"Ġmoscow":9718,"lic":9719,"uff":9720,"Ġdaugh":9721,"ĠchÃ£o":9722,"Ġwebcam":9723,"Ġfraca":9724,"col":9725,"itÃ¡ria":9726,"Ġleitor":9727,"alization":9728,"Ġpasse":9729,"Ġdeploy":9730,"Ġjs":9731,"Ġativos":9732,"Ġmanner":9733,"Ġcheaper":9734,"Ġmoving":9735,"Ġtypical":9736,"ĠprovÃŃncia":9737,"Ġalgarve":9738,"Ġapanhar":9739,"Ġeventually":9740,"lev":9741,"Ġasus":9742,"Ġvegan":9743,"Ġzel":9744,"Ġrecomende":9745,"Ġleads":9746,"Ġindustriais":9747,"Ġdeveria":9748,"Ġhorizont":9749,"Ġduty":9750,"Ġborracha":9751,"emat":9752,"Ġespect":9753,"Ġfee":9754,"Ġproductivity":9755,"Ġincred":9756,"Ġcontacts":9757,"Ġaccepted":9758,"Ġcrystal":9759,"Ġvantagem":9760,"Ġcargo":9761,"Ġconcorr":9762,"Ġreconhecimento":9763,"Ġexperimental":9764,"ÃŃbrio":9765,"Ġcomprehensive":9766,"Ġartists":9767,"Ġchegou":9768,"Ġenables":9769,"ĠcenÃ¡rio":9770,"Ġclock":9771,"Ġrelativamente":9772,"Ġescape":9773,"Ġdepth":9774,"Ġnutrition":9775,"Ġconhece":9776,"Ġwitness":9777,"Ġboca":9778,"Ġafford":9779,"Ġinterno":9780,"Ġbrothers":9781,"Ġgrey":9782,"Ġcontinuous":9783,"ĠorientaÃ§Ã£o":9784,"Ġdemocra":9785,"unte":9786,"Ġaffili":9787,"Ġcomplexo":9788,"Ġportuguesa":9789,"rÃ¡":9790,"Ġbach":9791,"ĠtrÃ¡":9792,"Ġcara":9793,"Ġsigns":9794,"Ġdownloads":9795,"Ġcampus":9796,"Ġtribunal":9797,"Ġsid":9798,"Ġfios":9799,"Ġash":9800,"Ġpesquise":9801,"Ġlegend":9802,"Ġidentified":9803,"Ġimproving":9804,"Ġmanaged":9805,"ĠfÃŃsico":9806,"Ġsintomas":9807,"ĠrefeiÃ§Ãµes":9808,"urf":9809,"Ġbloque":9810,"Ġacceler":9811,"Ġturkey":9812,"Ã³nia":9813,"Ġhidden":9814,"Ġassinatura":9815,"Ġmirror":9816,"ĠrodoviÃ¡ria":9817,"rations":9818,"zone":9819,"Ġpink":9820,"anbul":9821,"Ġsoil":9822,"ÃŃnc":9823,"Ġbanks":9824,"ĠlegislaÃ§Ã£o":9825,"Ġalcohol":9826,"Ġstadium":9827,"Ġtant":9828,"Ġpov":9829,"Ġsiga":9830,"arta":9831,"stall":9832,"Ġcria":9833,"Ġmultif":9834,"Ġimproved":9835,"Ġpermanente":9836,"Ġcadeia":9837,"oni":9838,"Ġww":9839,"Ġcontaining":9840,"Ġsacerd":9841,"Ġdaniel":9842,"zhen":9843,"di":9844,"oti":9845,"abl":9846,"Ġwholes":9847,"Ġabus":9848,"Ġblind":9849,"Ġduro":9850,"Ġconstruct":9851,"Ġfibra":9852,"Ġreplacement":9853,"Ġsql":9854,"umul":9855,"Ġcasc":9856,"fego":9857,"Ġdifferences":9858,"Ġlegais":9859,"Ġconcrete":9860,"Ġwife":9861,"Ġscar":9862,"Ġmovies":9863,"Ġacrescent":9864,"lock":9865,"uca":9866,"Ġdeuts":9867,"Ġfaster":9868,"Ġumbre":9869,"Ġtransf":9870,"Ġvalve":9871,"Ġmatt":9872,"Ġexclusivo":9873,"Ġrequested":9874,"Ġlodging":9875,"oh":9876,"Ġdoors":9877,"Ġinterna":9878,"Ġencontrado":9879,"ĠdisposiÃ§Ã£o":9880,"Ġestruturas":9881,"canner":9882,"ku":9883,"adi":9884,"Ġket":9885,"ĠprogramaÃ§Ã£o":9886,"Ġorden":9887,"Ġinteressante":9888,"Ġhonor":9889,"Ġexamples":9890,"ĠrefeiÃ§Ã£o":9891,"ĠdÃ³lares":9892,"gate":9893,"Ġinterfer":9894,"Ġcobr":9895,"Ġpreviously":9896,"Ġnascimento":9897,"Ġpocket":9898,"Ġmai":9899,"Ġintu":9900,"Ġdisplayed":9901,"Ġcrisis":9902,"ĠcÃ³pia":9903,"Ġdiesel":9904,"Ġcair":9905,"Ġpaciente":9906,"Ġbound":9907,"Ġnin":9908,"Ġnubl":9909,"Ġlum":9910,"aker":9911,"Ġdecisions":9912,"Ġconsegue":9913,"ĠtrÃ¡fego":9914,"issÃµes":9915,"Ġartistas":9916,"Ġestrange":9917,"Ġthermal":9918,"Ġproporciona":9919,"Ġsplit":9920,"Ġdal":9921,"aton":9922,"ĠnÃ¡":9923,"berta":9924,"Ġfolder":9925,"Ġbreast":9926,"Ġplanta":9927,"Ġrequests":9928,"Ġaffected":9929,"Ġleadership":9930,"Ġexpertise":9931,"ĠlideranÃ§a":9932,"igar":9933,"Ã³is":9934,"Ã³rica":9935,"Ã³via":9936,"icians":9937,"Ġcontrast":9938,"Ġprocedimento":9939,"Ġacquaint":9940,"Ġlyrics":9941,"Ġskyscanner":9942,"Ġile":9943,"orado":9944,"atia":9945,"Ġflav":9946,"Ġindones":9947,"Ġdirec":9948,"Ġaquis":9949,"Ġbathrooms":9950,"Ġcrise":9951,"Ġoperators":9952,"Ġextensive":9953,"Ġconsentimento":9954,"ĠtÃ³":9955,"Ġchef":9956,"Ġmunich":9957,"Ġatlantic":9958,"ye":9959,"Ġgem":9960,"Ġtrazer":9961,"ĠverificaÃ§Ã£o":9962,"Ġdestas":9963,"mega":9964,"ĠdiferenÃ§as":9965,"Ġcooking":9966,"ĠacessÃŃvel":9967,"Ġdeterminado":9968,"Ġfiber":9969,"Ġdimension":9970,"Ġjurisd":9971,"pens":9972,"inais":9973,"quet":9974,"istÃ£o":9975,"Ġtemas":9976,"ĠgrÃ©cia":9977,"ĠaplicÃ¡vel":9978,"Ġfeaturing":9979,"Ġspecification":9980,"Ġdesejos":9981,"Ġacts":9982,"Ġsecador":9983,"Ġwhenever":9984,"Ġfornecimento":9985,"Ġturned":9986,"Ġbelgium":9987,"Ġrevers":9988,"Ġparks":9989,"star":9990,"ĠdiÃ¡ria":9991,"Ġskip":9992,"Ġdepende":9993,"Ġsenhora":9994,"Ġaconteceu":9995,"Ġtubo":9996,"ĠaproximaÃ§Ã£o":9997,"Ġfantastic":9998,"Ġterritory":9999,"fc":10000,"list":10001,"Ġvint":10002,"Ġmarine":10003,"Ġimprimir":10004,"Ġbasket":10005,"Ġstreets":10006,"Ġaceitar":10007,"Ġdebate":10008,"Ġvpn":10009,"Ġgp":10010,"Ġgt":10011,"rian":10012,"usÃ£o":10013,"iox":10014,"Ġchoos":10015,"Ġmontreal":10016,"Ġtablets":10017,"Ġistanbul":10018,"Ġvenezuela":10019,"Ġmam":10020,"Ġmeias":10021,"Ġwis":10022,"Ġqualit":10023,"Ġpassion":10024,"Ġviewing":10025,"redores":10026,"ĠalteraÃ§Ã£o":10027,"my":10028,"isos":10029,"Ġnoise":10030,"Ġweap":10031,"Ġspray":10032,"Ġlocate":10033,"Ġsubmit":10034,"Ġoito":10035,"Ġvast":10036,"Ġalle":10037,"Ġtemper":10038,"Ġpersonalizar":10039,"Ġbicicleta":10040,"ĠtÃŃp":10041,"Ġnation":10042,"Ġartworks":10043,"eldorf":10044,"Ġsexy":10045,"Ġaparecer":10046,"Ġevidence":10047,"ĠdiagnÃ³stico":10048,"Ġinject":10049,"Ġqueim":10050,"Ġcomposto":10051,"Ġgreatest":10052,"Ġdragon":10053,"Ġelegant":10054,"Ġanex":10055,"ÃŃmetros":10056,"Ġleaves":10057,"Ġformats":10058,"Ġcript":10059,"Ġsecre":10060,"Ġovercast":10061,"Ġlights":10062,"Ã´nica":10063,"Ġclothes":10064,"Ġparceiro":10065,"Ġapk":10066,"Ġbread":10067,"Ġqueremos":10068,"Ġvelho":10069,"Ġaustria":10070,"ĠinteligÃªncia":10071,"ivelmente":10072,"Ġmh":10073,"riÃ§Ãµes":10074,"ecendo":10075,"Ġreceita":10076,"Ġobserve":10077,"Ġwalls":10078,"Ġcathedral":10079,"Ġparques":10080,"Ġpolu":10081,"Ġmetrop":10082,"ĠpetrÃ³":10083,"Ġfamiliares":10084,"ĠdiscussÃ£o":10085,"Ġzealand":10086,"Ġbuffet":10087,"Ġfulfill":10088,"ĠexÃ©rcito":10089,"Ġatuais":10090,"Ġdisney":10091,"Ġflower":10092,"Ġpossess":10093,"Ġpoli":10094,"Ġdelas":10095,"Ġestejam":10096,"Ġincome":10097,"Ġhob":10098,"Ġcausar":10099,"Ġsilva":10100,"Ġcomponent":10101,"Ġfocused":10102,"Ġhouver":10103,"Ġdynam":10104,"med":10105,"ogia":10106,"Ġabri":10107,"Ġseeking":10108,"Ġtables":10109,"Ġacquire":10110,"Ġcumprir":10111,"jac":10112,"Ġbt":10113,"adel":10114,"Ġbrun":10115,"Ġimporta":10116,"Ġconsumidores":10117,"Ġnights":10118,"Ġreducing":10119,"jiang":10120,"Ġtroubles":10121,"Ġgam":10122,"Ãªnis":10123,"Ġcorros":10124,"Ġsole":10125,"Ġessenciais":10126,"Ġremoved":10127,"Ġflorida":10128,"Ġresource":10129,"ĠcidadÃ£os":10130,"Ġcock":10131,"Ġthursday":10132,"Ġteacher":10133,"ĠespaÃ±":10134,"Ã³nio":10135,"ĠprevenÃ§Ã£o":10136,"Ġproposed":10137,"Ġharmon":10138,"Ġsongs":10139,"Ġleisure":10140,"Ġcuisine":10141,"Ġinner":10142,"Ġabu":10143,"Ġdefend":10144,"Ġfacto":10145,"Ġdupla":10146,"Ġlocalizar":10147,"Ġexistence":10148,"ĠdimensÃ£o":10149,"Ġsynth":10150,"Ġolhando":10151,"Ġnublado":10152,"ĠpetrÃ³leo":10153,"aki":10154,"Ġbuurt":10155,"Ġgenu":10156,"Ġgrace":10157,"Ġresto":10158,"Ġresearchers":10159,"Ġobjectives":10160,"ĠeconÃ´mica":10161,"Ġdatasheet":10162,"Ġconcorda":10163,"Ġfailure":10164,"ĠespÃ©cie":10165,"Ġsig":10166,"Ġmouth":10167,"Ġlamin":10168,"elhas":10169,"Ġprecision":10170,"Ġparticipate":10171,"Ġreferred":10172,"Ġaimed":10173,"Ġsapatos":10174,"Ġparadise":10175,"Ġtheory":10176,"urado":10177,"Ġsovi":10178,"ambique":10179,"Ġcriou":10180,"Ġadvog":10181,"Ġcircunst":10182,"xy":10183,"Ġcb":10184,"Ġthir":10185,"Ġtow":10186,"Ġalde":10187,"Ġserra":10188,"ioso":10189,"Ġdiscussion":10190,"Ġchuve":10191,"Ġatingir":10192,"gage":10193,"Ġsas":10194,"eco":10195,"Ġnoites":10196,"chain":10197,"ibar":10198,"Ġencoun":10199,"Ġdistrito":10200,"Ġderiv":10201,"Ġmarriott":10202,"ĠexpansÃ£o":10203,"Ġtaiwan":10204,"Ġtosh":10205,"Ġride":10206,"izando":10207,"Ġcontrolled":10208,"Ġstarts":10209,"Ġmeteo":10210,"Ġcomposition":10211,"Ġhydro":10212,"Ġdificuldades":10213,"Ġspacious":10214,"Ġdando":10215,"onde":10216,"Ġhack":10217,"ĠdiÃ¢met":10218,"Ġkept":10219,"Ġquarter":10220,"Ġfinanceira":10221,"Ġextreme":10222,"ĠlÃ¢mpada":10223,"Ġawards":10224,"eses":10225,"Ġpant":10226,"down":10227,"Ġtrains":10228,"Ġautomot":10229,"Ġmalha":10230,"Ġgratuitas":10231,"Ġrecomendado":10232,"ĠescritÃ³rios":10233,"Ãªx":10234,"Ġatend":10235,"ĠautomÃ³veis":10236,"Ġfaq":10237,"Ġearl":10238,"don":10239,"arial":10240,"elines":10241,"Ã¢nicos":10242,"Ġidiomas":10243,"isms":10244,"iste":10245,"Ġtested":10246,"Ġdemanda":10247,"Ġtopics":10248,"Ġdecoration":10249,"Ġapoiar":10250,"Ġmuseums":10251,"ĠsÃŃmb":10252,"Ġbola":10253,"Ġhaz":10254,"Ġvector":10255,"Ġmetade":10256,"ĠespecificaÃ§Ã£o":10257,"Ġlinear":10258,"Ġbiggest":10259,"Ġterreno":10260,"gica":10261,"ius":10262,"Ġtast":10263,"Ġgender":10264,"Ġassass":10265,"kyo":10266,"Ġjackson":10267,"Ġchapter":10268,"Ġrespir":10269,"ĠinÃºmeras":10270,"Ġumbrella":10271,"Ġvatic":10272,"tered":10273,"Ġcamisa":10274,"Ġchefe":10275,"Ġaquilo":10276,"Ġligado":10277,"Ġesperar":10278,"Ġanalyz":10279,"ĠirmÃ£o":10280,"Ġfilled":10281,"Ġshenzhen":10282,"Ġdian":10283,"Ġnm":10284,"Ġandr":10285,"Ġleeds":10286,"Ġartista":10287,"Ġhosting":10288,"Ġidentification":10289,"Ġpremier":10290,"Ġconnections":10291,"Ġanalyze":10292,"Ġfeminino":10293,"Ġappar":10294,"Ġuncom":10295,"iev":10296,"Ġbela":10297,"Ġadding":10298,"Ġrisks":10299,"Ġpropag":10300,"Ġinstrumento":10301,"ĠrelÃ³gios":10302,"Ġplanejamento":10303,"Ġweld":10304,"Ġvinhos":10305,"Ġalvo":10306,"Ġbirds":10307,"Ġtank":10308,"Ġterceira":10309,"fall":10310,"Ġida":10311,"Ġaws":10312,"Ġgin":10313,"Ġgun":10314,"Ġcatar":10315,"ĠÃ¡rvore":10316,"Ġrevestimento":10317,"lado":10318,"vin":10319,"Ġeis":10320,"aci":10321,"Ġarbit":10322,"Ġpresents":10323,"Ġappreci":10324,"Ġangola":10325,"radar":10326,"Ġwidely":10327,"Ġtube":10328,"itim":10329,"itores":10330,"Ġbingo":10331,"Ġnurs":10332,"Ã¡mos":10333,"Ġproceed":10334,"Ġford":10335,"Ġabre":10336,"Ġassuntos":10337,"Ġcamada":10338,"Ġrelationships":10339,"Ġdiabetes":10340,"Ġvary":10341,"Ġbrinc":10342,"Ġcomputers":10343,"ĠcomunicaÃ§Ãµes":10344,"Ġetapas":10345,"Ġencer":10346,"ĠdiÃ¡rio":10347,"Ġfique":10348,"Ġedin":10349,"Ġindeed":10350,"Ġassistir":10351,"Ġnamed":10352,"ĠequilÃŃbrio":10353,"Ġness":10354,"Ġwet":10355,"Ġestad":10356,"Ġkiss":10357,"Ġconsists":10358,"Ġinstance":10359,"Ġcorreio":10360,"Ġalcance":10361,"Ġemirates":10362,"Ġvintage":10363,"Ġcoleta":10364,"Ġsauna":10365,"Ġportfol":10366,"Ġequipada":10367,"ĠtransformaÃ§Ã£o":10368,"Ġkeeping":10369,"Ġtheatre":10370,"Ġsara":10371,"quec":10372,"Ġanivers":10373,"ugu":10374,"Ġcovers":10375,"Ġpeak":10376,"Ġfinanceiros":10377,"Ġdimensions":10378,"Ġcuba":10379,"ĠcalendÃ¡rio":10380,"Ġexame":10381,"Ġrealizadas":10382,"Ġamarelo":10383,"Ġsustainability":10384,"Ġguatemala":10385,"Ġdada":10386,"Ġsizes":10387,"Ġanual":10388,"Ġrus":10389,"Ġpasseios":10390,"Ġsupre":10391,"Ġdivine":10392,"Ġrelacionado":10393,"Ġolder":10394,"Ġceleb":10395,"Ġcaixas":10396,"Ġwil":10397,"ĠpolÃŃcia":10398,"Ġvalencia":10399,"Ġmemor":10400,"Ġflorence":10401,"Ġreligion":10402,"Ġtoul":10403,"Ġetapa":10404,"Ġacquainted":10405,"dios":10406,"oret":10407,"Ġtoc":10408,"Ġjum":10409,"Ġshell":10410,"Ġtemplo":10411,"Ã´mico":10412,"Ġclearly":10413,"Ġconectar":10414,"ĠlÃŃnguas":10415,"Ġaccurate":10416,"card":10417,"Ġextended":10418,"Ġsignal":10419,"Ġficam":10420,"Ġadquirir":10421,"ĠhistÃ³rias":10422,"Ġmuscular":10423,"Ġipod":10424,"Ã³rnia":10425,"Ġsustentabilidade":10426,"Ġdental":10427,"reo":10428,"Ġamig":10429,"Ġconsec":10430,"Ġrepres":10431,"ĠinstantÃ¢neo":10432,"Ġbodies":10433,"Ġreven":10434,"Ġsep":10435,"Ãºr":10436,"Ġantigos":10437,"Ġmotion":10438,"Ġretro":10439,"Ġpensamento":10440,"Ġflowers":10441,"ĠelÃ©trico":10442,"Ġcriminal":10443,"ifer":10444,"Ġesque":10445,"Ġtrav":10446,"Ġcamps":10447,"Ġscot":10448,"Ġinsurance":10449,"Ġconvinc":10450,"Ġuniverso":10451,"Ġrespondem":10452,"ĠcalifÃ³rnia":10453,"Ġultimate":10454,"Ġrandom":10455,"Ġoct":10456,"Ġbacter":10457,"Ġnele":10458,"Ã©ia":10459,"Ġdisk":10460,"Ġdirective":10461,"Ġhonest":10462,"Ġjoined":10463,"Ġinfantil":10464,"Ġpovos":10465,"rine":10466,"Ġcreek":10467,"arias":10468,"Ġdear":10469,"Ġfet":10470,"omia":10471,"Ġsubmet":10472,"bean":10473,"Ġmultim":10474,"Ġspecialized":10475,"Ġregulations":10476,"Ġspeaking":10477,"Ġbolsa":10478,"eis":10479,"iant":10480,"Ġlind":10481,"Ġdesativ":10482,"Ġcurte":10483,"Ġhelpful":10484,"Ġcustomize":10485,"Ġconsiderando":10486,"Ġfortes":10487,"ĠacadÃªm":10488,"Ġbible":10489,"Ġvr":10490,"Ġkat":10491,"Ġhostal":10492,"Ġfloors":10493,"Ġlagos":10494,"ager":10495,"Ġlived":10496,"Ġcrazy":10497,"Ġflying":10498,"Ġreuters":10499,"Ġaconselh":10500,"eras":10501,"Ġencar":10502,"Ġdeluxe":10503,"Ġreader":10504,"Ġmanufacture":10505,"Ġmedicina":10506,"Ġelemento":10507,"Ġphotography":10508,"Ġcaminhada":10509,"irma":10510,"Ġsha":10511,"ĠvariÃ¡veis":10512,"Ġtratar":10513,"ĠanÃ¡lises":10514,"Ġdrugs":10515,"Ġouvido":10516,"Ġtrial":10517,"Ġremoval":10518,"Ġigrejas":10519,"Ġhydra":10520,"Ġross":10521,"Ġseb":10522,"Ġconsigo":10523,"Ġmoedas":10524,"ailand":10525,"Ġcozinhas":10526,"Ġtexas":10527,"Ġaudience":10528,"Ġcompara":10529,"Ġspare":10530,"Ġxl":10531,"Ġrazo":10532,"ĠconheÃ§a":10533,"Ġedinburgh":10534,"Ġdee":10535,"Ġfug":10536,"Ġcontar":10537,"Ġencontrada":10538,"Ġeastern":10539,"Ġminuto":10540,"Ġtomada":10541,"ĠvÃŃtim":10542,"Ġkeyboard":10543,"Ġathens":10544,"Ġtort":10545,"ĠprÃŃnc":10546,"Ġspons":10547,"aixÃ£o":10548,"Ġkeys":10549,"Ġconvenience":10550,"Ġcancelar":10551,"Ġrecognized":10552,"ĠlÃŃquido":10553,"Ġmasculino":10554,"ĠprÃªmio":10555,"ĠÃŃcone":10556,"Ġtoshiba":10557,"aim":10558,"cÃ³p":10559,"ramento":10560,"eland":10561,"Ġvender":10562,"Ġmeat":10563,"Ġpoland":10564,"Ġnative":10565,"market":10566,"ĠgravaÃ§Ã£o":10567,"ĠlanÃ§ado":10568,"ĠtendÃªncias":10569,"Ġrecolher":10570,"Ġsweden":10571,"life":10572,"Ġprinciple":10573,"Ġtreated":10574,"Ġjetradar":10575,"nik":10576,"Ġdum":10577,"ĠcÃ¢n":10578,"Ġhills":10579,"Ġproof":10580,"Ġbeads":10581,"Ġsmith":10582,"Ġatualizado":10583,"ĠsensaÃ§Ã£o":10584,"Ġevangel":10585,"Ġcrescer":10586,"Ġjerusalem":10587,"Ġbalcony":10588,"gens":10589,"Ġai":10590,"Ġloved":10591,"Ġcapable":10592,"Ġtaxes":10593,"ÃŃduo":10594,"Ġevangelho":10595,"Ġmecanismo":10596,"eres":10597,"Ġthailand":10598,"Ġfed":10599,"Ġantiv":10600,"Ġknows":10601,"Ġbrook":10602,"Ġgenerated":10603,"Ġculturais":10604,"Ġsensitive":10605,"Ġremaining":10606,"Ġvaranda":10607,"Ġevaluate":10608,"Ġacademy":10609,"jan":10610,"rix":10611,"Ġbares":10612,"Ġzur":10613,"Ġsocio":10614,"Ġluck":10615,"Ġselecionadas":10616,"Ġweekend":10617,"Ġvictim":10618,"Ġalexand":10619,"Ġocorrer":10620,"Ġczech":10621,"Ġcircumst":10622,"Ġya":10623,"Ġbeer":10624,"Ġperh":10625,"Ġbiom":10626,"Ġauthors":10627,"Ġhousing":10628,"ulado":10629,"Ġshot":10630,"Ġcamis":10631,"Ġencant":10632,"Ġskill":10633,"Ġapresentam":10634,"Ġbrilhante":10635,"bios":10636,"mat":10637,"onal":10638,"teries":10639,"Ġseres":10640,"Ġourselves":10641,"Ġbarre":10642,"Ġvalu":10643,"Ġvisiting":10644,"Ġorganized":10645,"Ġdizem":10646,"Ġdiversidade":10647,"Ġwaters":10648,"ĠÃ¡lbum":10649,"Ġdano":10650,"Ġchines":10651,"Ġformula":10652,"Ġinvas":10653,"Ġsurger":10654,"Ġtamanhos":10655,"Ġhaw":10656,"Ġsmartphones":10657,"ĠfÃ³rm":10658,"charge":10659,"ĠtÃ³picos":10660,"Ġnuclear":10661,"Ġnt":10662,"Ġlivres":10663,"Ġtechnique":10664,"Ġrecuperar":10665,"ient":10666,"Ġreemb":10667,"Ġshado":10668,"Ġpern":10669,"Ġcapabilities":10670,"Ġpassed":10671,"Ġgratuitos":10672,"endeu":10673,"Ġibook":10674,"Ġfrequent":10675,"Ġconceb":10676,"Ġiniciativa":10677,"Ġcorrente":10678,"Ġincorre":10679,"Ġfaculdade":10680,"ĠresÃŃduos":10681,"Ġelite":10682,"Ġtrim":10683,"Ġfolhas":10684,"Ġlogot":10685,"Ġcontribuir":10686,"Ġpleasure":10687,"Ġocidental":10688,"ĠnÃº":10689,"Ġcorn":10690,"Ġracing":10691,"ierra":10692,"Ġsupporting":10693,"ĠresidÃªncia":10694,"Ġprince":10695,"Ġplatforms":10696,"Ġaxis":10697,"Ġgarrafa":10698,"Ġadul":10699,"Ġareia":10700,"Ġxx":10701,"Ġgerar":10702,"Ġdescans":10703,"Ġinfel":10704,"Ġconvent":10705,"Ġbecoming":10706,"Ġreconstru":10707,"Ġitaliana":10708,"Ġachieved":10709,"Ġintellectual":10710,"ĠedifÃŃcios":10711,"Ġmeasurement":10712,"Ġesportes":10713,"Ġretorno":10714,"Ġgentle":10715,"Ġea":10716,"Ġoslo":10717,"Ġkings":10718,"ibly":10719,"hern":10720,"Ġboot":10721,"Ġformation":10722,"Ġtechnological":10723,"Ġinfraestrutura":10724,"uch":10725,"ystem":10726,"Ġindu":10727,"Ġrans":10728,"Ġprove":10729,"Ġrecept":10730,"Ġmotivos":10731,"Ġsurpr":10732,"ĠanalÃŃt":10733,"ĠÃ³pt":10734,"Ġseleccion":10735,"Ġfuncionalidade":10736,"ĠdÃ©cada":10737,"Ġpregnancy":10738,"Ġjavasc":10739,"bres":10740,"ĠcÃŃ":10741,"Ġindoor":10742,"acular":10743,"Ġapont":10744,"Ġshel":10745,"Ġnoturn":10746,"Ġtravellers":10747,"Ġcuja":10748,"Ġarrang":10749,"ĠintervenÃ§Ã£o":10750,"Ġjavascript":10751,"flow":10752,"Ġtrig":10753,"Ġteles":10754,"Ġdust":10755,"Ġbid":10756,"icidade":10757,"Ġsoph":10758,"Ġbrush":10759,"Ġverific":10760,"Ġcertifique":10761,"Ġresistant":10762,"Ġfinanceiro":10763,"Ġcommerce":10764,"Ġinitiative":10765,"Ġcura":10766,"Ġwo":10767,"Ġviena":10768,"ĠapresentaÃ§Ãµes":10769,"ĠdinÃ¢mica":10770,"Ġtp":10771,"Ġtreas":10772,"Ġhabilidade":10773,"Ġtob":10774,"Ġasi":10775,"izer":10776,"Ġwithdra":10777,"Ġarena":10778,"Ġantib":10779,"Ġreserved":10780,"Ġinteressado":10781,"Ġborder":10782,"Ġpowers":10783,"Ġench":10784,"Ġfilos":10785,"Ġconsiste":10786,"ĠcientÃŃfica":10787,"Ġcollaboration":10788,"ĠÃ¡rvores":10789,"Ġatu":10790,"Ġtrends":10791,"Ġsuced":10792,"Ġfloresta":10793,"Ġwatches":10794,"Ġpecado":10795,"Ġparlamento":10796,"Ġbahia":10797,"Ġbrief":10798,"graph":10799,"radas":10800,"Ġdong":10801,"Ġpho":10802,"Ġthr":10803,"Ġindo":10804,"rup":10805,"Ġdied":10806,"Ġlimites":10807,"Ġenvironments":10808,"Ġhappened":10809,"Ġmillions":10810,"Ġlessons":10811,"Ġpenet":10812,"Ġskype":10813,"ĠflexÃŃvel":10814,"Ġhigi":10815,"Ġperspective":10816,"Ġtemplate":10817,"Ġpior":10818,"ĠmantÃ©m":10819,"Ġissued":10820,"ĠrevoluÃ§Ã£o":10821,"Ġlaunched":10822,"ĠgÃªnero":10823,"Ġperhaps":10824,"Ġtall":10825,"itÃ¡rios":10826,"Ġstable":10827,"Ġcontest":10828,"Ġespess":10829,"iche":10830,"Ġempresarial":10831,"Ġdiscrimin":10832,"Ġinvestimentos":10833,"Ġgaleria":10834,"Ġrentalcars":10835,"Ġdesconhec":10836,"wick":10837,"irl":10838,"Ġunknow":10839,"Ġconsiderar":10840,"Ġprojecto":10841,"ĠmÃ©dica":10842,"Ġpapa":10843,"Ġconfigurar":10844,"Ġchurches":10845,"Ġbitcoin":10846,"Ġrotas":10847,"Ġincreases":10848,"Ġwaiting":10849,"Ġlavar":10850,"Ġstimul":10851,"iest":10852,"kin":10853,"Ġng":10854,"Ġentregue":10855,"Ġlicens":10856,"Ġseller":10857,"Ġbudapest":10858,"cams":10859,"Ġund":10860,"Ġtalking":10861,"Ġfundos":10862,"Ġdrill":10863,"prene":10864,"Ġpermanecer":10865,"ĠsofÃ¡":10866,"Ġliteratura":10867,"Ġavenida":10868,"hire":10869,"Ġtig":10870,"adura":10871,"Ġrm":10872,"Ġsofr":10873,"Ġcasual":10874,"ĠcapÃŃtulo":10875,"Ġlevou":10876,"Ġharbor":10877,"Ġcairo":10878,"Ġrecolh":10879,"Ġhorizonte":10880,"Ġgay":10881,"Ġdesf":10882,"Ġdesert":10883,"Ġhelped":10884,"Ġreservados":10885,"Ġstructures":10886,"Ġmissing":10887,"ĠtendÃªncia":10888,"Ġagricultural":10889,"Ġpuzzle":10890,"Ġhorizontal":10891,"Ġestoque":10892,"aking":10893,"Ġxvi":10894,"Ġfinished":10895,"Ġhelping":10896,"Ġconsidering":10897,"Ġadquir":10898,"here":10899,"wing":10900,"Ġlang":10901,"Ġlob":10902,"Ġreceiving":10903,"Ġparticularmente":10904,"Ġathlet":10905,"Ġencontramos":10906,"Ġjor":10907,"eller":10908,"Ġprovision":10909,"Ġluis":10910,"Ġactividades":10911,"Ġdepends":10912,"Ġemergency":10913,"ĠeletrÃ´nico":10914,"Ġhorse":10915,"ĠdiÃ¢metro":10916,"Ġpak":10917,"Ġteoria":10918,"Ġaviv":10919,"Ġcriada":10920,"Ġuniverse":10921,"Ġflorest":10922,"ĠpreferÃªncias":10923,"Ġrecognition":10924,"Ġmagazine":10925,"Ġentend":10926,"Ġteria":10927,"uracy":10928,"Ġfilters":10929,"Ġaparth":10930,"ĠreligiÃ£o":10931,"Ġratings":10932,"Ġanteriormente":10933,"Ġdrawing":10934,"Ġnestas":10935,"onic":10936,"Ġthou":10937,"Ġbh":10938,"ĠrÃ©":10939,"Ġbases":10940,"Ġconceitos":10941,"Ġearlier":10942,"otas":10943,"Ġnovel":10944,"Ġreception":10945,"Ġhels":10946,"Ġfoods":10947,"Ġprevention":10948,"Ġfuj":10949,"Ġdenomin":10950,"Ġreturned":10951,"ĠtÃ³pico":10952,"oll":10953,"Ġclus":10954,"Ġobvious":10955,"Ġajudam":10956,"Ġautomation":10957,"Ġrelacionamento":10958,"Ġtitular":10959,"Ġcarregar":10960,"ront":10961,"weather":10962,"Ġsigned":10963,"Ġgraves":10964,"ĠconveniÃªncia":10965,"Ġinfluenci":10966,"Ġmineral":10967,"Ġdesporto":10968,"Ġchuveiro":10969,"ĠaÃŃ":10970,"ĠtÃªnis":10971,"Ġbapt":10972,"Ġvine":10973,"urre":10974,"ÃŃram":10975,"ousness":10976,"Ġanywhere":10977,"Ġdeveloper":10978,"ÃŃlio":10979,"Ġconcerns":10980,"Ġhundred":10981,"ĠinscriÃ§Ã£o":10982,"Ġperspectiva":10983,"stein":10984,"Ġantecip":10985,"Ġaprimorar":10986,"ĠpÃ£o":10987,"Ġbc":10988,"Ġnig":10989,"utical":10990,"Ġfinding":10991,"Ġfeatured":10992,"Ġpacific":10993,"Ġaltos":10994,"Ġpreferences":10995,"Ġdrogas":10996,"Ġblocks":10997,"Ġschedule":10998,"born":10999,"win":11000,"Ġespet":11001,"Ġavan":11002,"Ġmovimentos":11003,"Ġaparelho":11004,"Ġbegins":11005,"Ġsubjects":11006,"Ġborde":11007,"ĠemergÃªncia":11008,"Ġconcepts":11009,"ĠquÃŃmica":11010,"alf":11011,"utes":11012,"Ġflip":11013,"issions":11014,"Ġentreprene":11015,"Ġpobre":11016,"Ġwidth":11017,"Ġsunset":11018,"nic":11019,"Ġpent":11020,"eme":11021,"unately":11022,"lywood":11023,"Ġspin":11024,"ĠfazÃª":11025,"Ġsegment":11026,"Ġvisited":11027,"Ġrefund":11028,"Ġefect":11029,"Ġensuring":11030,"Ġexceto":11031,"Ġambientais":11032,"Ġnormally":11033,"Ġoeste":11034,"onta":11035,"Ġhua":11036,"Ġabroad":11037,"Ġbrid":11038,"going":11039,"Ġcarefully":11040,"Ġholidays":11041,"Ġtitan":11042,"ĠÃ¢ng":11043,"Ġjewel":11044,"Ġseed":11045,"unas":11046,"ÃŃnas":11047,"inhar":11048,"Ġsanct":11049,"Ġremoto":11050,"Ġapresentado":11051,"Ġfacilidade":11052,"Ġtrabalhamos":11053,"Ġhearts":11054,"Ġrodas":11055,"Ġselling":11056,"Ġcadeira":11057,"Ġataques":11058,"lov":11059,"wall":11060,"Ġtul":11061,"Ġfans":11062,"Ġrever":11063,"ĠterÃ£o":11064,"Ġstudied":11065,"Ġnegoti":11066,"Ġpromov":11067,"Ġcircu":11068,"Ġinspired":11069,"holm":11070,"Ġdiameter":11071,"Ġchoosing":11072,"Ġransom":11073,"Ġtiro":11074,"Ġcogn":11075,"Ġsofa":11076,"Ġprecisamos":11077,"ĠdivisÃ£o":11078,"Ġsonho":11079,"Ġcontained":11080,"Ġcycl":11081,"Ġmaker":11082,"cat":11083,"pas":11084,"ĠrecÃ©m":11085,"ĠprÃ³ximas":11086,"Ġseguros":11087,"Ġfuncionar":11088,"Ġpretty":11089,"Ġadopted":11090,"Ġunknown":11091,"tico":11092,"Ġequal":11093,"Ġfalse":11094,"Ġqueria":11095,"Ġcontainer":11096,"Ġfarmac":11097,"ĠexibiÃ§Ã£o":11098,"Ġcompromet":11099,"Ġcosmet":11100,"Ġuniform":11101,"ifies":11102,"Ġcha":11103,"Ġcomprov":11104,"Ġcarmen":11105,"Ġnorthern":11106,"Ġrecorded":11107,"Ġcorporation":11108,"ĠnegociaÃ§Ã£o":11109,"Ġpredict":11110,"Ġfernando":11111,"Ġbub":11112,"raine":11113,"Ġker":11114,"Ġkel":11115,"Ġneuro":11116,"Ġrobert":11117,"Ġstreaming":11118,"Ġbali":11119,"ĠviolaÃ§Ã£o":11120,"Ġworkshop":11121,"Ġemployment":11122,"Ġgerenciar":11123,"Ġdesenhos":11124,"Ġcongreg":11125,"ĠmunicÃŃpio":11126,"Ġindonesia":11127,"kes":11128,"Ġcac":11129,"Ġwc":11130,"Ġesco":11131,"arium":11132,"Ġindependentemente":11133,"Ġplas":11134,"iov":11135,"Ġautores":11136,"Ġperfeitamente":11137,"Ġrecording":11138,"Ġimagine":11139,"Ġcolaboradores":11140,"Ġaccuracy":11141,"Ġdedos":11142,"onym":11143,"Ġrelevantes":11144,"limited":11145,"Ġconstantly":11146,"ĠsubstituiÃ§Ã£o":11147,"Ġvasta":11148,"Ġimpossible":11149,"Ġexpansion":11150,"Ġbordeaux":11151,"Ġneither":11152,"Ġajuste":11153,"Ġgenerate":11154,"ĠautorizaÃ§Ã£o":11155,"Ġtropical":11156,"ĠdÃ©":11157,"Ġsir":11158,"Ġdobr":11159,"agu":11160,"Ġcanvas":11161,"ĠnotificaÃ§Ã£o":11162,"Ġentidades":11163,"Ġmining":11164,"Ġlovel":11165,"Ġescrita":11166,"Ġsignificado":11167,"Ġdetermined":11168,"ĠexigÃªncias":11169,"Ġstrap":11170,"Ġhouston":11171,"Ġistock":11172,"Ġmyself":11173,"ĠepisÃ³d":11174,"Ġcher":11175,"Ġsementes":11176,"Ġiran":11177,"Ġstayed":11178,"ĠavanÃ§ada":11179,"Ġcaval":11180,"Ġequivalent":11181,"Ġalicante":11182,"Ġatras":11183,"Ġusam":11184,"Ġagente":11185,"Ġaquece":11186,"Ġprinted":11187,"ĠaniversÃ¡rio":11188,"Ġcircumstances":11189,"erife":11190,"Ġunlimited":11191,"asso":11192,"Ġlaund":11193,"Ġoliv":11194,"Ġhandling":11195,"Ġrealizados":11196,"Ġlots":11197,"Ġtelem":11198,"Ġlembrar":11199,"Ġpeixe":11200,"Ġfascin":11201,"orra":11202,"Ġbird":11203,"istan":11204,"Ġstability":11205,"Ġelder":11206,"Ġmesh":11207,"Ã¢mico":11208,"Ġcujo":11209,"Ġrestore":11210,"Ġnotebook":11211,"Ġnutri":11212,"ĠchinÃªs":11213,"Ġmechanism":11214,"Ġinteractive":11215,"sen":11216,"Ġcay":11217,"Ġinhab":11218,"Ġcontribution":11219,"cts":11220,"Ġflexibilidade":11221,"Ġestimated":11222,"Ġatmosfera":11223,"Ġdivided":11224,"Ġoficiais":11225,"Ġespecificamente":11226,"Ġtm":11227,"anes":11228,"Ã©u":11229,"ĠpontuaÃ§Ã£o":11230,"Ġadministrative":11231,"Ġfizeram":11232,"Ġcatholic":11233,"aus":11234,"Ġanth":11235,"Ġexped":11236,"Ġmontanhas":11237,"Ġpenal":11238,"Ġperfectly":11239,"ascular":11240,"Ġcarregamento":11241,"irts":11242,"ĠimÃ³veis":11243,"Ġaircraft":11244,"Ġentreten":11245,"Ġtried":11246,"Ġmesmas":11247,"Ġtentando":11248,"ĠconcentraÃ§Ã£o":11249,"Ġknew":11250,"Ġwiki":11251,"ĠcontÃŃnua":11252,"gg":11253,"ght":11254,"Ġtn":11255,"Ġthread":11256,"Ġnom":11257,"ĠlÃ³g":11258,"Ġtokyo":11259,"Ãºne":11260,"Ġprompt":11261,"Ġlegitim":11262,"Ġmercure":11263,"Ġcombining":11264,"Ġimpressora":11265,"Ġcrow":11266,"Ġproporcionar":11267,"Ġguidelines":11268,"fia":11269,"tr":11270,"ĠmÃ¡s":11271,"Ġhoney":11272,"uru":11273,"Ġmoist":11274,"Ġatlanta":11275,"Ġattacks":11276,"Ġvosso":11277,"Ġsectors":11278,"ĠÃ¡cido":11279,"Ġinfeliz":11280,"Ġbund":11281,"irus":11282,"Ġapt":11283,"Ġrelativos":11284,"Ġguides":11285,"ĠprovÃ¡vel":11286,"Ġcontinues":11287,"Ġestrang":11288,"Ġarms":11289,"Ġauditor":11290,"Ġapoi":11291,"Ġelevador":11292,"Ġconditioned":11293,"ĠexportaÃ§Ã£o":11294,"Ġhearing":11295,"Ġpousada":11296,"ĠclÃ¡ssico":11297,"ĠsÃŃtio":11298,"Ġsurgery":11299,"ijo":11300,"Ã©dit":11301,"Ġrum":11302,"Ġproport":11303,"Ġdesapar":11304,"Ġspir":11305,"Ġmeta":11306,"Ġfrete":11307,"Ġpagamentos":11308,"Ġvegetarianos":11309,"Ġdesin":11310,"Ġcompil":11311,"Ġservir":11312,"Ġglory":11313,"Ġtenerife":11314,"Ġsevere":11315,"Ġesqui":11316,"Ġbloco":11317,"Ġfeminina":11318,"Ġirlanda":11319,"Ġdating":11320,"ĠsÃŃn":11321,"Ġvenced":11322,"Ġrey":11323,"Ġkim":11324,"Ġencontrou":11325,"Ġspecified":11326,"Ġpope":11327,"Ġtransportes":11328,"Ġdemands":11329,"wave":11330,"eries":11331,"Ġomega":11332,"anga":11333,"Ġformed":11334,"Ġmostrando":11335,"Ġsubc":11336,"Ġstyles":11337,"Ġwarms":11338,"ĠesterÃ³":11339,"Ġaula":11340,"Ġfec":11341,"Ġshin":11342,"Ġtestoster":11343,"Ġrivers":11344,"bilidade":11345,"Ġcontinued":11346,"Ġibm":11347,"Ġhostelworld":11348,"Ġexcep":11349,"Ġgabri":11350,"hado":11351,"Ġhello":11352,"ĠsalÃ£o":11353,"Ġequipes":11354,"Ġmunique":11355,"Ġcompletos":11356,"Ġcertas":11357,"Ġselecionados":11358,"Ġproposal":11359,"Ġchiang":11360,"cement":11361,"Ġparedes":11362,"arda":11363,"Ġinfection":11364,"ÃŃtulos":11365,"Ġvelha":11366,"ĠextensÃµes":11367,"Ġconcerned":11368,"ĠestimaÃ§Ã£o":11369,"ĠeletrÃ´nicos":11370,"Ġcarton":11371,"Ġrelativa":11372,"Ġoperational":11373,"aires":11374,"Ġamericas":11375,"Ã´nus":11376,"Ġeffectively":11377,"Ġsatisfe":11378,"Ġexibir":11379,"Ġfrutas":11380,"Ġkorea":11381,"ĠcarÃ¡ter":11382,"ĠnÃºcle":11383,"tra":11384,"Ġcated":11385,"Ġjude":11386,"str":11387,"Ġhelic":11388,"Ġpublication":11389,"Ġpatro":11390,"Ġhaven":11391,"Ġgranada":11392,"Ġtherapy":11393,"Ġcnc":11394,"ĠvÃ¡lvula":11395,"gl":11396,"Ġnone":11397,"Ġparafus":11398,"Ġpront":11399,"Ġdesigners":11400,"Ġsabemos":11401,"Ġtiveram":11402,"Ġpesquisadores":11403,"Ġentretenimento":11404,"Ġdores":11405,"ĠbÃ©l":11406,"Ġbought":11407,"Ġforth":11408,"Ġont":11409,"Ġlaud":11410,"Ġcertos":11411,"Ġconsiderada":11412,"Ġchamadas":11413,"ĠjaponÃªs":11414,"Ġintervention":11415,"Ġfrutos":11416,"Ġprolong":11417,"Ġsubsequ":11418,"Ġhydraul":11419,"wear":11420,"Ġthomas":11421,"Ġrect":11422,"Ġemo":11423,"Ġunidas":11424,"Ġprimeiras":11425,"Ġanalytical":11426,"var":11427,"isi":11428,"stone":11429,"Ġfacts":11430,"Ġguesthouse":11431,"Ġtratado":11432,"Ġassemble":11433,"ulsion":11434,"omy":11435,"Ġware":11436,"Ġgreek":11437,"Ġphp":11438,"Ġsetores":11439,"Ġjulg":11440,"Ġradical":11441,"Ġannounced":11442,"ĠjerusalÃ©m":11443,"Ġhier":11444,"rizes":11445,"Ġpodes":11446,"Ġrecicl":11447,"Ġcoloque":11448,"cool":11449,"Ġmonet":11450,"Ġfreel":11451,"Ġgraus":11452,"Ġfuncionalidades":11453,"Ġdescontos":11454,"gh":11455,"ĠmÃ¡g":11456,"oty":11457,"Ġconcess":11458,"Ġestabilidade":11459,"ĠprÃ©m":11460,"Ġorch":11461,"Ġtransit":11462,"ianos":11463,"Ġgrave":11464,"Ġflexibility":11465,"Ġzurich":11466,"hor":11467,"Ġvl":11468,"Ġarredores":11469,"Ġbris":11470,"Ġpep":11471,"Ġcartas":11472,"Ġsharp":11473,"Ġintroduz":11474,"Ġvoltage":11475,"ĠesqueÃ§a":11476,"acas":11477,"Ġasian":11478,"Ġchaves":11479,"Ġcofre":11480,"Ã³sitos":11481,"Ġutilizadas":11482,"anÃ§ais":11483,"Ġfunds":11484,"Ġwholesale":11485,"esia":11486,"Ġced":11487,"itis":11488,"Ġstrict":11489,"Ġresc":11490,"Ġiq":11491,"Ġalliance":11492,"Ġminor":11493,"Ġtradition":11494,"Ġmercedes":11495,"Ġconsumers":11496,"Ġstret":11497,"Ġdentre":11498,"Ġbranch":11499,"Ġdetalhadas":11500,"Ġhiv":11501,"Ġcontras":11502,"Ġexperimentar":11503,"Ġinimigos":11504,"Ġdl":11505,"Ġcorp":11506,"Ġpossivelmente":11507,"ĠtradiÃ§Ã£o":11508,"Ġcreates":11509,"Ġcomponente":11510,"Ġsending":11511,"Ġharbour":11512,"Ġvacu":11513,"Ġconfirmed":11514,"ĠbÃ´nus":11515,"enter":11516,"quete":11517,"agar":11518,"Ġcheio":11519,"Ġassets":11520,"Ġamplamente":11521,"Ġdisponibiliza":11522,"Ġentrevista":11523,"Ġdelicious":11524,"pher":11525,"Ġpv":11526,"Ġsgs":11527,"ourg":11528,"Ġmega":11529,"Ġbutter":11530,"Ġempire":11531,"Ġturquia":11532,"Ġfollows":11533,"Ġcausas":11534,"ĠligaÃ§Ãµes":11535,"Ġstatist":11536,"Ġnewsletter":11537,"Ġrepresents":11538,"raliz":11539,"ss":11540,"inaÃ§Ã£o":11541,"Ġsorr":11542,"olar":11543,"Ġsuave":11544,"Ġade":11545,"Ġspam":11546,"Ġnearly":11547,"Ġvisitas":11548,"Ġmerch":11549,"Ġavali":11550,"Ġfrequently":11551,"Ġepid":11552,"ĠhistÃ³ricos":11553,"Ġawar":11554,"Ġalbergues":11555,"Ġlinda":11556,"Ġregress":11557,"Ġinterrupt":11558,"Ġvisible":11559,"Ġdelta":11560,"Ġsuperiores":11561,"Ġoccurs":11562,"Ġvitamin":11563,"Ġdrinks":11564,"rina":11565,"ratos":11566,"Ġrender":11567,"Ġatlet":11568,"Ġunity":11569,"Ġattend":11570,"Ġmalta":11571,"Ġdivision":11572,"Ġexistente":11573,"Ġresistente":11574,"Ġbonito":11575,"ĠexploraÃ§Ã£o":11576,"Ġvariables":11577,"Ġtonel":11578,"Ġmarriage":11579,"Ġtatto":11580,"Ġibooked":11581,"Ġcanto":11582,"iscipl":11583,"Ġspok":11584,"Ġassista":11585,"Ġports":11586,"Ġlimits":11587,"ĠdocumentaÃ§Ã£o":11588,"ĠbilhÃµes":11589,"Ġaproveite":11590,"Ġsujeito":11591,"inity":11592,"Ġmiser":11593,"Ġlie":11594,"rafo":11595,"Ã©ns":11596,"Ġpropostas":11597,"Ġmassage":11598,"Ġgravidez":11599,"Ġdocumentation":11600,"Ġjardins":11601,"Ġphenom":11602,"cc":11603,"Ġmate":11604,"Ġling":11605,"Ġprogresso":11606,"Ġequipado":11607,"Ġsandals":11608,"Ġchips":11609,"Ġchief":11610,"amba":11611,"Ġmatem":11612,"Ġindicadores":11613,"Ġdestaque":11614,"Ġaproveitar":11615,"ĠbÃ©lgica":11616,"bane":11617,"chas":11618,"Ġprison":11619,"akers":11620,"Ġpedag":11621,"Ġwaterproof":11622,"Ġfacilitar":11623,"Ġpertenc":11624,"hops":11625,"uz":11626,"Ġcomigo":11627,"Ġreject":11628,"Ġempt":11629,"Ãµem":11630,"Ġunes":11631,"assem":11632,"Ġmover":11633,"Ġfinalidade":11634,"Ġconsumidor":11635,"Ġreporting":11636,"domin":11637,"ĠindÃºstrias":11638,"Ã±a":11639,"Ġcadastre":11640,"ĠaquisiÃ§Ã£o":11641,"Ġawareness":11642,"ez":11643,"Ġcil":11644,"Ġpall":11645,"Ġrear":11646,"Ġkam":11647,"Ġshock":11648,"avar":11649,"Ġopcional":11650,"Ġturk":11651,"Ġlogistics":11652,"Ġaplica":11653,"ĠdivulgaÃ§Ã£o":11654,"Ġliverpool":11655,"gro":11656,"ycle":11657,"ophy":11658,"viamente":11659,"Ġmarked":11660,"Ġpeg":11661,"Ġholding":11662,"Ġdoubt":11663,"fos":11664,"amaÃ§Ã£o":11665,"Ġsudo":11666,"Ġaren":11667,"Ġtru":11668,"Ġfilms":11669,"Ġencry":11670,"Ġantic":11671,"Ġoperacionais":11672,"Ġconced":11673,"Ġcrucial":11674,"Ġacademia":11675,"Ġentrance":11676,"ĠsugestÃµes":11677,"Ġcirurgia":11678,"ĠestÃºdio":11679,"Ġmast":11680,"Ġvars":11681,"Ġvendedor":11682,"Ġquentes":11683,"Ġisa":11684,"abi":11685,"Ġcombine":11686,"Ġconnosco":11687,"Ġfechado":11688,"Ġsuffering":11689,"Ġvietnam":11690,"Ġtoulouse":11691,"part":11692,"Ġplana":11693,"Ġpersonagens":11694,"Ġreserves":11695,"Ġescolar":11696,"Ġcontinental":11697,"ĠprotecÃ§Ã£o":11698,"Ġpanam":11699,"Ġministro":11700,"Ġpraticamente":11701,"rÃ¡ul":11702,"reen":11703,"Ġinvis":11704,"ifier":11705,"Ġcaro":11706,"Ġspy":11707,"Ġdelay":11708,"Ġscr":11709,"ÃŃnios":11710,"Ġorganisation":11711,"Ġluzes":11712,"Ġmonitoramento":11713,"Ġconsulting":11714,"Ġcapture":11715,"Ġinscreva":11716,"ĠbÃŃblia":11717,"Ġdeutsch":11718,"Ġbp":11719,"Ġlakes":11720,"quar":11721,"Ġativo":11722,"Ġsobret":11723,"Ġnasceu":11724,"Ġbroken":11725,"Ġdigest":11726,"Ġsabem":11727,"ĠmÃŃnima":11728,"Ġsujeitos":11729,"Ġpartilhar":11730,"Ġsymbol":11731,"Ġbrig":11732,"Ġjers":11733,"agn":11734,"Ġcana":11735,"Ġbarri":11736,"Ġzonas":11737,"Ġmapas":11738,"ĠcotaÃ§Ã£o":11739,"ĠhidrÃ¡ul":11740,"Ġfiltros":11741,"Ġrevealed":11742,"Ġencomenda":11743,"Ġastronomical":11744,"ĠpoluiÃ§Ã£o":11745,"cope":11746,"Ġrug":11747,"Ġruns":11748,"igen":11749,"Ġenx":11750,"Ġorganizar":11751,"ĠindivÃŃduo":11752,"Ġcircle":11753,"Ġbiod":11754,"ĠcristÃ£os":11755,"Ġmetropolit":11756,"ĠcircunstÃ¢ncias":11757,"ĠprÃŃncipe":11758,"Ġdall":11759,"Ġrode":11760,"Ġcoluna":11761,"Ġboys":11762,"Ġbooked":11763,"Ġgolfe":11764,"Ġcrescente":11765,"Ġencourage":11766,"Ġhell":11767,"Ġvess":11768,"ogos":11769,"Ġlex":11770,"Ġseguindo":11771,"Ġentered":11772,"Ġintelectual":11773,"Ġpriority":11774,"Ġdecidir":11775,"Ġgeneva":11776,"Ġcorrigir":11777,"Ġdianabol":11778,"hus":11779,"ragem":11780,"Ġestilos":11781,"Ġaper":11782,"avia":11783,"Ġescond":11784,"Ġpoderiam":11785,"Ã³nico":11786,"Ġprincess":11787,"Ġagricultura":11788,"pres":11789,"Ġiva":11790,"Ġvenc":11791,"Ġdogs":11792,"Ġpoleg":11793,"ancer":11794,"Ġoperator":11795,"Ġvolumes":11796,"jeÃ§Ã£o":11797,"Ġintegrado":11798,"Ġgalvan":11799,"Ġoferecidos":11800,"Ġproduzido":11801,"Ġinteraction":11802,"Ġwarsaw":11803,"Ġchronic":11804,"Ġvacuum":11805,"enia":11806,"Ġfd":11807,"Ġqueda":11808,"Ġplenty":11809,"Ġbrist":11810,"Ġrespondeu":11811,"Ġstring":11812,"Ġapresentou":11813,"Ġoferecido":11814,"Ġstockholm":11815,"Ġignor":11816,"Ġdisappoint":11817,"Ġdw":11818,"Ġarco":11819,"Ġrecycl":11820,"ambul":11821,"Ġpoderoso":11822,"Ġllc":11823,"Ġhospedagem":11824,"Ġdialogue":11825,"Ġestrangeiros":11826,"west":11827,"Ġlets":11828,"Ġamester":11829,"Ġindirect":11830,"Ġfavour":11831,"Ġchoices":11832,"Ġembaix":11833,"ĠcardÃŃ":11834,"Ġpositions":11835,"Ġexpectations":11836,"Ġfinanciamento":11837,"Ġdiction":11838,"otec":11839,"ĠsuÃ©cia":11840,"Ġacknow":11841,"Ġminh":11842,"Ġindis":11843,"Ġteus":11844,"Ġmercador":11845,"ĠcompetÃªncias":11846,"Ġcircuit":11847,"Ġjuvent":11848,"ĠsolicitaÃ§Ã£o":11849,"Ġacompanhar":11850,"Ġdominic":11851,"Ġenabled":11852,"Ġaldeia":11853,"Ġtheoret":11854,"Ġvat":11855,"Ġcomem":11856,"Ġparcial":11857,"Ġseal":11858,"ustria":11859,"Ġfreq":11860,"Ġuniversidades":11861,"Ġstartup":11862,"Ġsatan":11863,"Ġpayments":11864,"Ġcancelamento":11865,"shot":11866,"Ġnarr":11867,"Ġcottage":11868,"ĠespaÃ±ol":11869,"Ġmine":11870,"omi":11871,"Ġanel":11872,"Ġcomece":11873,"Ġgym":11874,"Ġrenda":11875,"Ġroub":11876,"Ġdash":11877,"ÃŃlios":11878,"Ġtrabalham":11879,"Ġreasonable":11880,"eos":11881,"voc":11882,"itada":11883,"Ġunfort":11884,"inding":11885,"Ġequipados":11886,"Ġtraveling":11887,"Ġeveryday":11888,"Ġslip":11889,"Ġdinamar":11890,"Ġtransformar":11891,"Ġworkshops":11892,"Ġsnack":11893,"ucks":11894,"Ġdreams":11895,"Ġdisponibilizados":11896,"Ġadolescentes":11897,"Ġcaribbean":11898,"standing":11899,"Ġnint":11900,"Ġwake":11901,"Ġlifest":11902,"elp":11903,"ecia":11904,"Ġsubl":11905,"Ġenorm":11906,"Ġmario":11907,"Ġbrilho":11908,"Ġmelhora":11909,"Ġaccompan":11910,"Ġtransformation":11911,"Ġfunctionality":11912,"fu":11913,"Ġtheater":11914,"Ġtoys":11915,"ulhos":11916,"Ġosaka":11917,"Ġusamos":11918,"Ġolive":11919,"Ġhealthcare":11920,"Ġmoved":11921,"Ġsignificativa":11922,"Ġauthorized":11923,"Ġbolas":11924,"Ġhourly":11925,"Ġtransparent":11926,"holders":11927,"Ġphoen":11928,"mouth":11929,"Ġtinta":11930,"Ġhide":11931,"Ã§ada":11932,"ĠjÃ³":11933,"Ġkir":11934,"ounce":11935,"Ġindica":11936,"iosa":11937,"Ġfacult":11938,"Ġsmaller":11939,"Ġmodernos":11940,"Ġcampinas":11941,"Ġentradas":11942,"Ġepson":11943,"ĠamesterdÃ£o":11944,"bud":11945,"pace":11946,"Ġsco":11947,"Ġvapor":11948,"Ġseaf":11949,"igr":11950,"ĠacÃ§Ã£o":11951,"Ġworry":11952,"outs":11953,"Ġuniversities":11954,"ÃŃmp":11955,"Ġmaintained":11956,"uckland":11957,"ĠexercÃŃcios":11958,"Ġpollution":11959,"Ġespessura":11960,"Ġinfelizmente":11961,"Ġsobretudo":11962,"pap":11963,"Ġeating":11964,"ĠinteraÃ§Ã£o":11965,"Ġcork":11966,"Ġcambridge":11967,"ĠmilÃŃmetros":11968,"Ġpowered":11969,"Ġslim":11970,"Ġconhecidas":11971,"Ġsiem":11972,"Ġbrisbane":11973,"icÃ¡cia":11974,"Ġhort":11975,"enso":11976,"Ġdisord":11977,"Ġproducing":11978,"ĠÃ¡ustria":11979,"Ġcriando":11980,"Ġorganize":11981,"Ġturb":11982,"ĠÃ³b":11983,"Ġrevolucion":11984,"Ġpossibilidades":11985,"Ġauckland":11986,"Ġprocl":11987,"tero":11988,"station":11989,"Ġcontendo":11990,"Ãºrg":11991,"Ġelastic":11992,"Ġtracking":11993,"Ġxxx":11994,"Ġconfira":11995,"Ġchega":11996,"Ġfornecem":11997,"Ġdancing":11998,"Ġcigar":11999,"Ġseeds":12000,"Ġraise":12001,"Ġconsume":12002,"Ġcertificados":12003,"Ġmicrof":12004,"Ġapropriado":12005,"Ġenferm":12006,"Ġnintendo":12007,"away":12008,"Ġanat":12009,"ĠbrasÃŃlia":12010,"Ġslot":12011,"Ġelectro":12012,"Ġmontanha":12013,"rimento":12014,"Ġangle":12015,"Ġvossa":12016,"Ġmichel":12017,"Ġpneum":12018,"Ġdangerous":12019,"Ġpd":12020,"Ġlies":12021,"Ġcarl":12022,"Ġprize":12023,"Ġprecise":12024,"Ġglor":12025,"bility":12026,"Ġtemporary":12027,"Ġfraud":12028,"Ġboxes":12029,"Ġprovisions":12030,"Ġbun":12031,"Ġgaut":12032,"irÃ£o":12033,"Ġorle":12034,"Ġdesired":12035,"Ġamplo":12036,"Ġspots":12037,"Ġairways":12038,"Ġerrado":12039,"Ġhole":12040,"ĠaplicÃ¡veis":12041,"Ġdiversity":12042,"Ġcoloca":12043,"Ġdiagnost":12044,"Ġhabitantes":12045,"Ġfighting":12046,"Ġdot":12047,"Ġcedo":12048,"Ġfator":12049,"oud":12050,"Ġgaming":12051,"Ġaceder":12052,"Ġprocessed":12053,"Ġmenina":12054,"Ġholder":12055,"Ġlocalizados":12056,"Ġadequados":12057,"Ġaddresses":12058,"Ġdisplays":12059,"Ġmanaging":12060,"Ġconclusion":12061,"Ġconquist":12062,"Ġsebast":12063,"cado":12064,"Ġfui":12065,"rey":12066,"ĠparaÃŃ":12067,"plan":12068,"Ġacion":12069,"Ġtemperaturas":12070,"Ġpublicar":12071,"Ġmonthly":12072,"Ġrecebido":12073,"Ġbroadcast":12074,"Ġvitamina":12075,"iat":12076,"Ġovers":12077,"Ġhart":12078,"acial":12079,"Ġstages":12080,"ighter":12081,"Ġmalici":12082,"Ġtornam":12083,"ĠproteÃŃna":12084,"ĠpolÃŃtico":12085,"print":12086,"Ġbreakfasts":12087,"Ġsuccessfully":12088,"Ġmeteorologia":12089,"Ġgratis":12090,"sor":12091,"Ġtang":12092,"Ġgul":12093,"cious":12094,"Ġmeg":12095,"Ġboots":12096,"Ġbanheiros":12097,"Ġconsidera":12098,"Ġtreino":12099,"Ġmolec":12100,"Ġmobilidade":12101,"Ġmixed":12102,"Ġequivalente":12103,"Ġaids":12104,"Ġsierra":12105,"enz":12106,"Ġlens":12107,"acte":12108,"istos":12109,"Ġsaia":12110,"Ġfinland":12111,"Ġnovotel":12112,"Ġextent":12113,"Ġsegue":12114,"Ġattribut":12115,"Ġlearned":12116,"Ġclaramente":12117,"Ġdiplom":12118,"Ġincredible":12119,"wich":12120,"Ġscope":12121,"Ġvoar":12122,"Ġluxuri":12123,"Ġexterno":12124,"Ġcarriers":12125,"ĠexcursÃµes":12126,"Ġbits":12127,"Ġanavar":12128,"ilia":12129,"Ġplen":12130,"ruck":12131,"Ġtaip":12132,"Ġblockchain":12133,"Ġguangzhou":12134,"Ġexploitation":12135,"Ġsb":12136,"rive":12137,"Ġwilling":12138,"Ġmostly":12139,"Ġresolve":12140,"Ġmeasuring":12141,"Ġbebida":12142,"ĠtailÃ¢ndia":12143,"Ġcancell":12144,"rence":12145,"wei":12146,"iliar":12147,"Ġmeals":12148,"Ġjogado":12149,"Ġplacas":12150,"Ġstanding":12151,"ĠcÃ¡ps":12152,"Ġwrote":12153,"py":12154,"ermo":12155,"arl":12156,"Ġcurric":12157,"Ġpromoc":12158,"ĠeficÃ¡cia":12159,"Ġmantenha":12160,"Ġtowns":12161,"Ġtubos":12162,"Ġdifficulties":12163,"hua":12164,"Ġthor":12165,"Ġdoce":12166,"izam":12167,"Ġtrump":12168,"Ġamend":12169,"vios":12170,"ache":12171,"Ġresultante":12172,"Ġregulament":12173,"Ġdetection":12174,"Ġprospect":12175,"Ġprobabilidade":12176,"Ġcomandos":12177,"Ġaffordable":12178,"Ġjorge":12179,"Ġedu":12180,"Ġego":12181,"Ġstated":12182,"Ġsau":12183,"Ġteclado":12184,"fortable":12185,"ĠacessÃŃveis":12186,"Ġjapones":12187,"Ġtextos":12188,"Ġexposure":12189,"Ġjudg":12190,"Ġpromoting":12191,"Ġvigil":12192,"ĠquÃŃmicos":12193,"ĠimpossÃŃvel":12194,"Ġdificuldade":12195,"Ġdistributed":12196,"Ġdollar":12197,"avera":12198,"alia":12199,"ĠlÃª":12200,"Ġprost":12201,"Ġassem":12202,"gry":12203,"Ġintl":12204,"Ġrealize":12205,"Ġregistros":12206,"Ġexterna":12207,"Ġmaravilhoso":12208,"Ġportfolio":12209,"rise":12210,"itudes":12211,"Ġbulg":12212,"Ġmaur":12213,"Ġstan":12214,"Ġplain":12215,"ouses":12216,"encing":12217,"ĠincluÃŃdos":12218,"ĠglÃ³ria":12219,"Ġaparece":12220,"Ġconcentration":12221,"ĠmecÃ¢nica":12222,"vamos":12223,"Ġsounds":12224,"Ġfidel":12225,"Ġnine":12226,"Ġviva":12227,"Ġgang":12228,"eties":12229,"Ġstun":12230,"Ġrecife":12231,"Ġsetup":12232,"Ġfavorito":12233,"Ġwinning":12234,"Ġgostar":12235,"ĠcafÃ©s":12236,"Ġinteressados":12237,"Ġamericanos":12238,"Ġregardless":12239,"Ġreplace":12240,"Ġuncomfortable":12241,"Ġconvinced":12242,"ĠvarsÃ³via":12243,"Ġiz":12244,"Ġtatu":12245,"ĠdÃŃ":12246,"Ġinex":12247,"Ġseam":12248,"Ġends":12249,"Ġminibar":12250,"mann":12251,"Ġembra":12252,"Ġverdadeiramente":12253,"Ġcontempl":12254,"Ġpositivo":12255,"Ġhospedagens":12256,"Ġtraduz":12257,"Ġtrailer":12258,"Ã©ditos":12259,"Ġhydraulic":12260,"eu":12261,"icon":12262,"Ġinher":12263,"Ġsufficient":12264,"Ġapplies":12265,"Ġnorue":12266,"Ġsummary":12267,"ĠrÃŃgido":12268,"hu":12269,"Ġaze":12270,"Ġtive":12271,"Ġhb":12272,"Ġmodules":12273,"peg":12274,"Ġviu":12275,"orno":12276,"Ġjanelas":12277,"Ġcombate":12278,"Ġoriginais":12279,"Ġsurrounded":12280,"Ġthickness":12281,"into":12282,"redo":12283,"rebro":12284,"Ġbordo":12285,"Ġtoward":12286,"Ġquebra":12287,"Ġatenas":12288,"Ġarray":12289,"tood":12290,"Ġselv":12291,"Ġpesca":12292,"Ġbelt":12293,"Ġcorreta":12294,"Ġcristal":12295,"Ġtranslations":12296,"Ġconstantemente":12297,"Ġistambul":12298,"erdale":12299,"table":12300,"enÃ§Ãµes":12301,"Ġrg":12302,"Ġoutono":12303,"Ġcontactar":12304,"Ġcreator":12305,"Ġpermanece":12306,"Ġexpectativas":12307,"iabilidade":12308,"Ġfamoso":12309,"Ġdefinitely":12310,"Ġanteced":12311,"Ġdisclos":12312,"Ġstruggle":12313,"rs":12314,"Ġchick":12315,"Ġentidade":12316,"allel":12317,"ĠfinanÃ§as":12318,"Ġprocessor":12319,"Ġlimpar":12320,"ĠconstruÃŃda":12321,"ĠconsideraÃ§Ã£o":12322,"Ġfundamentais":12323,"Ġsecondary":12324,"Ġindicated":12325,"Ġoriental":12326,"Ġdebian":12327,"Ġdiscovery":12328,"Ġtutorial":12329,"Ġlegislation":12330,"Ġsaindo":12331,"Ġshuttle":12332,"Ġhusband":12333,"ĠdÃ£o":12334,"Ġfapes":12335,"ulu":12336,"ching":12337,"Ġeso":12338,"Ġouvi":12339,"Ġdishes":12340,"Ġassume":12341,"Ġoffline":12342,"Ġnascer":12343,"Ġbeta":12344,"ĠbotÃµes":12345,"Ġtravelling":12346,"ĠcomputaÃ§Ã£o":12347,"Ġsinta":12348,"Ġextensions":12349,"Ġdiverse":12350,"Ġtaught":12351,"ĠÃ³rgÃ£os":12352,"Ġlauderdale":12353,"Ġgamb":12354,"tera":12355,"Ġprogramming":12356,"Ġconhecidos":12357,"Ġegito":12358,"Ġexcluir":12359,"Ġglobais":12360,"tp":12361,"Ġrul":12362,"Ġcontido":12363,"azz":12364,"Ġespelho":12365,"Ġmembership":12366,"Ġobtidos":12367,"Ġaluminium":12368,"Ġfapesp":12369,"ritas":12370,"Ġbass":12371,"uter":12372,"essem":12373,"Ġperante":12374,"Ġmanila":12375,"Ġinvited":12376,"Ġhosts":12377,"like":12378,"ĠbÃ¡sica":12379,"Ġincompl":12380,"Ġhrs":12381,"Ġenemies":12382,"Ġtrajeto":12383,"Ġdaughter":12384,"Ġjersey":12385,"surf":12386,"Ġahead":12387,"enburg":12388,"Ġdeslig":12389,"Ġmodified":12390,"Ġfilha":12391,"ĠinfecÃ§Ã£o":12392,"Ġensures":12393,"Ġletras":12394,"Ã³nica":12395,"Ġindicate":12396,"Ġconsultar":12397,"Ġadjustable":12398,"Ġkilled":12399,"Ġfrancesa":12400,"Ġcatedral":12401,"vey":12402,"Ġknowing":12403,"Ġfacing":12404,"Ġcharming":12405,"Ġinns":12406,"ĠdiretÃ³rio":12407,"Ġcyber":12408,"ĠaprovaÃ§Ã£o":12409,"Ġbearing":12410,"Ġsincron":12411,"Ġdistinct":12412,"Ġphoenix":12413,"erge":12414,"Ġdevol":12415,"Ġingress":12416,"Ġandre":12417,"Ġreis":12418,"Ġchama":12419,"Ġshift":12420,"ateral":12421,"Ġautoc":12422,"Ġxclus":12423,"Ġgerencia":12424,"Ġwhats":12425,"ĠdetecÃ§Ã£o":12426,"Ġrank":12427,"Ġconflitos":12428,"Ġimmediate":12429,"fitri":12430,"Ġboc":12431,"Ġhect":12432,"acht":12433,"agers":12434,"Ġdish":12435,"Ġzen":12436,"Ġspeech":12437,"Ġcusta":12438,"Ġmultifun":12439,"page":12440,"uador":12441,"ouro":12442,"Ġgy":12443,"Ġgone":12444,"elli":12445,"Ġinformed":12446,"Ġbari":12447,"Ġfinais":12448,"Ã¡lias":12449,"Ġadapter":12450,"Ġrecomendamos":12451,"Ġconflito":12452,"Ġgraphic":12453,"Ġfamosa":12454,"Ġmachineryzone":12455,"Ġcolonial":12456,"ĠfÃ³rmula":12457,"Ġtape":12458,"atul":12459,"Ġjin":12460,"Ġreceitas":12461,"Ġcomunicar":12462,"ĠreferÃªncias":12463,"Ġcontratos":12464,"ĠruÃŃdo":12465,"Ġrelaxar":12466,"ĠmÃ³dulos":12467,"Ġprotocolo":12468,"Ġreconhecer":12469,"Ġsheraton":12470,"Ġlogotipo":12471,"Ġtil":12472,"Ġnylon":12473,"clar":12474,"cover":12475,"Ġmostram":12476,"Ġprimavera":12477,"Ġvolunte":12478,"Ġexplica":12479,"Ġolho":12480,"Ġarrived":12481,"Ġsuggestions":12482,"Ġolhada":12483,"ĠemissÃµes":12484,"Ġbristol":12485,"Ġcet":12486,"Ġpants":12487,"Ġjim":12488,"Ġreliability":12489,"Ġaquela":12490,"Ġversat":12491,"Ġlaran":12492,"Ġobjectivo":12493,"Ġceo":12494,"Ġconsultoria":12495,"Ġfourth":12496,"Ġnutrit":12497,"Ġthoughts":12498,"Ġsubscription":12499,"Ġbronze":12500,"Ġtheoretical":12501,"ĠpaixÃ£o":12502,"Ġbd":12503,"Ã©us":12504,"Ġdesnecess":12505,"Ġcalm":12506,"Ġsupplies":12507,"ĠcontribuiÃ§Ã£o":12508,"Ġfiscal":12509,"ĠfarmacÃªut":12510,"Ġlovely":12511,"Ġgauteng":12512,"inum":12513,"Ġeixo":12514,"Ġfs":12515,"emn":12516,"Ã¡culos":12517,"haus":12518,"uble":12519,"Ġguad":12520,"Ġirre":12521,"Ġconsumir":12522,"Ġsacos":12523,"Ġsurpreend":12524,"vam":12525,"ĠvÃªm":12526,"Ġrelativas":12527,"ĠestÃ¡vel":12528,"Ġorganis":12529,"Ġreviewers":12530,"Ġmatters":12531,"Ġbackpack":12532,"Ġambas":12533,"Ġindicators":12534,"Ġhaird":12535,"Ġfestiv":12536,"Ġscanner":12537,"ĠinquÃ©r":12538,"edoria":12539,"ĠreÃºne":12540,"abad":12541,"queza":12542,"Ġescap":12543,"Ġcompletar":12544,"Ġhollywood":12545,"Ġmanualmente":12546,"Ġscrew":12547,"Ġguided":12548,"Ġexceptional":12549,"Ġtissue":12550,"Ġwww":12551,"rin":12552,"Ġsorte":12553,"Ġward":12554,"Ġrow":12555,"Ġrecus":12556,"ĠprecisarÃ¡":12557,"Ġemails":12558,"ĠexposiÃ§Ãµes":12559,"ĠvestuÃ¡rio":12560,"Ġaspecto":12561,"Ġoxid":12562,"ĠconexÃµes":12563,"Ġcooling":12564,"Ġfilosof":12565,"Ġransomware":12566,"Ġtamp":12567,"Ġimplic":12568,"Ġunnecess":12569,"Ġfazemos":12570,"Ġcabos":12571,"Ġstands":12572,"Ġmoroc":12573,"Ġvestir":12574,"Ġcomposed":12575,"castle":12576,"Ġcumprimento":12577,"Ġequilib":12578,"Ġsuplemento":12579,"Ġbrasileiros":12580,"Ġintroduced":12581,"pc":12582,"sters":12583,"Ġpico":12584,"Ġumas":12585,"Ġdiariamente":12586,"Ġdirected":12587,"Ġduplic":12588,"Ġtalent":12589,"Ġpostal":12590,"Ġacquis":12591,"Ġmobility":12592,"Ġinventory":12593,"Ġcopenhagen":12594,"Ġvaluable":12595,"Ġpione":12596,"Ġunfor":12597,"Ġregener":12598,"Ġempr":12599,"Ġespecialista":12600,"Ġpatr":12601,"Ġcombat":12602,"Ġdouro":12603,"Ġukraine":12604,"ĠavanÃ§ados":12605,"Ġpercentage":12606,"Ġfinger":12607,"Ġcongresso":12608,"Ġhur":12609,"Ġparab":12610,"Ġcontacte":12611,"Ġwealth":12612,"Ġregra":12613,"Ġdelhi":12614,"Ġseeing":12615,"Ġcharges":12616,"Ġcopper":12617,"Ġengineer":12618,"Ġvariable":12619,"Ġcolumn":12620,"Ġlifestyle":12621,"Ġtong":12622,"Ġinac":12623,"Ġanch":12624,"Ġved":12625,"Ã©ct":12626,"ocks":12627,"Ġshorter":12628,"Ġmoreover":12629,"Ġpassando":12630,"Ġdescrito":12631,"Ġcomply":12632,"Ġsurge":12633,"ĠtraduÃ§Ãµes":12634,"Ġperfis":12635,"ĠpolÃŃticos":12636,"Ġtratamentos":12637,"romp":12638,"Ġincreasingly":12639,"resso":12640,"zza":12641,"Ġpn":12642,"Ġgat":12643,"Ġsimp":12644,"ribe":12645,"Ġstudios":12646,"Ġlistening":12647,"Ġsabedoria":12648,"Ġcapacidades":12649,"Ġsonhos":12650,"venir":12651,"Ġrecognize":12652,"Ġpatterns":12653,"Ġdynamics":12654,"bing":12655,"Ġsides":12656,"Ġether":12657,"Ġble":12658,"Ġyoga":12659,"Ġji":12660,"Ġmanually":12661,"Ġinvestments":12662,"ĠconfirmaÃ§Ã£o":12663,"Ġestiverem":12664,"Ġcritic":12665,"Ġbringing":12666,"Ġagriculture":12667,"Ġfortaleza":12668,"ĠzelÃ¢ndia":12669,"Ġmhz":12670,"emi":12671,"usion":12672,"Ġfruits":12673,"ariam":12674,"Ġtennis":12675,"Ġactividade":12676,"ĠdisposiÃ§Ãµes":12677,"Ġunderstood":12678,"ĠdeverÃ£o":12679,"Ġachiev":12680,"Ġwidget":12681,"Ġtransparente":12682,"ĠÃ¡lcool":12683,"ĠastronÃ´mico":12684,"Ġeternal":12685,"Ġquebec":12686,"papers":12687,"Ġtb":12688,"Ġdna":12689,"Ġink":12690,"otte":12691,"asts":12692,"Ġpools":12693,"Ġfalando":12694,"ĠlogÃŃstica":12695,"Ġarchive":12696,"Ġazure":12697,"Ġbagagem":12698,"Ġenvolvidos":12699,"Ġexplained":12700,"Ġwikipedia":12701,"Ġunfortunately":12702,"gers":12703,"Ġdour":12704,"quio":12705,"Ġanfitri":12706,"Ġworship":12707,"ĠcrÃ©ditos":12708,"ĠcomeÃ§o":12709,"Ġpeda":12710,"Ġaparecem":12711,"Ġshorts":12712,"Ġcommunicate":12713,"Ġadditionally":12714,"Ġjohnson":12715,"Ġpurchasing":12716,"Ġevaluated":12717,"ĠconfortÃ¡veis":12718,"Ġhigiene":12719,"Ġdallas":12720,"ream":12721,"Ġnick":12722,"Ġconsid":12723,"Ġpersegu":12724,"Ġcerveja":12725,"Ġoptical":12726,"Ġrepresentative":12727,"Ġsubstit":12728,"ĠcaracterÃŃstica":12729,"Ġnavegadores":12730,"Ġpuls":12731,"ĠclÃŃnica":12732,"erb":12733,"Ġmx":12734,"Ġnc":12735,"Ġnad":12736,"Ġgri":12737,"users":12738,"Ġonda":12739,"endar":12740,"resse":12741,"Ã´s":12742,"ituais":12743,"Ġdecreas":12744,"Ġforno":12745,"Ġsabia":12746,"Ġrequirement":12747,"ĠpainÃ©is":12748,"ĠsandÃ¡lias":12749,"Ġbenz":12750,"Ġcloser":12751,"Ġkoh":12752,"Ġsobreviv":12753,"Ġkilometers":12754,"Ġdentes":12755,"Ġcento":12756,"itados":12757,"Ġreje":12758,"acos":12759,"ĠfranÃ§ais":12760,"Ġdescend":12761,"Ġfacial":12762,"Ġtotally":12763,"Ã©rico":12764,"Ġwatching":12765,"Ġiniciativas":12766,"Ġemotional":12767,"Ġsozinho":12768,"Ġinterd":12769,"isse":12770,"ativity":12771,"Ġoperador":12772,"Ġcontrolador":12773,"Ġsushi":12774,"Ġrepresentantes":12775,"Ġexercer":12776,"Ġcouch":12777,"Ġexige":12778,"Ġlateral":12779,"Ġmunicipality":12780,"Ġseattle":12781,"Ġphilosophy":12782,"hal":12783,"Ġpup":12784,"Ġhz":12785,"emas":12786,"Ġretain":12787,"Ã³i":12788,"Ġpegar":12789,"Ġtecidos":12790,"weight":12791,"Ġmultic":12792,"Ġligar":12793,"Ġaustin":12794,"Ġpurchased":12795,"enb":12796,"ondo":12797,"abel":12798,"Ġativa":12799,"Ġdirecion":12800,"Ġserves":12801,"Ġcalle":12802,"Ġsurpres":12803,"Ġmovements":12804,"Ġtransferir":12805,"Ġclaims":12806,"Ġvaginais":12807,"Ġbilba":12808,"Ġpeixes":12809,"bed":12810,"Ġtl":12811,"Ġdito":12812,"Ġlamb":12813,"Ġapre":12814,"ĠsecÃ§Ã£o":12815,"Ġdefender":12816,"Ġunderta":12817,"Ġurugu":12818,"Ġweekly":12819,"Ġlimitado":12820,"Ġdoctors":12821,"Ġyeah":12822,"ĠhaverÃ¡":12823,"Ġlinkedin":12824,"Ġabsolutely":12825,"Ġluxurious":12826,"bow":12827,"Ġald":12828,"Ġpredomin":12829,"Ġtemp":12830,"Ġprofiles":12831,"Ġslov":12832,"Ġapproval":12833,"ĠsubstÃ¢ncias":12834,"ĠperÃŃodos":12835,"zzi":12836,"Ġcomboios":12837,"Ġbolsas":12838,"Ġamarillasc":12839,"fund":12840,"lar":12841,"Ġsut":12842,"ading":12843,"Ġlm":12844,"Ġjas":12845,"Ġalloy":12846,"Ġterras":12847,"Ġcausing":12848,"Ġmoradia":12849,"ĠdiversÃ£o":12850,"Ġharvest":12851,"ĠendereÃ§os":12852,"ĠmobiliÃ¡rio":12853,"Ġsenior":12854,"Ġpolyester":12855,"Ġtrusted":12856,"Ġryokan":12857,"Ġritmo":12858,"Ġslightly":12859,"Ġwisdom":12860,"ĠcÃ¢ncer":12861,"Ġpum":12862,"erst":12863,"Ġenri":12864,"bled":12865,"ĠinspiraÃ§Ã£o":12866,"Ġconsistent":12867,"Ġinesquec":12868,"ĠpanamÃ¡":12869,"dong":12870,"Ġsic":12871,"Ġhabil":12872,"Ġlyn":12873,"intas":12874,"Ġceramic":12875,"Ġescolhe":12876,"Ġhumanity":12877,"Ġdissemin":12878,"Ġcompressor":12879,"Ġhl":12880,"Ġkin":12881,"Ġacus":12882,"Ġrolex":12883,"Ġesposa":12884,"Ġgerente":12885,"Ġpedras":12886,"Ġexciting":12887,"Ġmagnetic":12888,"Ġcandidatos":12889,"Ġghz":12890,"Ġprofundidade":12891,"Ġunnecessary":12892,"ĠcÃ£es":12893,"iah":12894,"Ġmaqu":12895,"Ġgrill":12896,"Ġphones":12897,"Ġbracel":12898,"Ġautomated":12899,"Ġfalha":12900,"ĠameaÃ§a":12901,"Ġdp":12902,"ori":12903,"Ġbung":12904,"imbra":12905,"Ġalign":12906,"Ġstake":12907,"Ġinsul":12908,"Ġdeixou":12909,"Ġcruise":12910,"Ġgases":12911,"Ġbuttons":12912,"Ġganhou":12913,"Ġdiagnosis":12914,"Ġmilitares":12915,"Ġnordeste":12916,"Ġfrigor":12917,"Ġjuventude":12918,"set":12919,"yer":12920,"Ġthai":12921,"Ġcaminhos":12922,"Ġafirma":12923,"Ġvisits":12924,"Ġretir":12925,"Ġdriven":12926,"Ġcourty":12927,"Ġconfigure":12928,"Ġpension":12929,"aroom":12930,"Ġconversar":12931,"ĠcÃ©rebro":12932,"Ġfurthermore":12933,"Ġburning":12934,"organ":12935,"ply":12936,"Ġimun":12937,"Ġraised":12938,"Ġcrimes":12939,"Ġjuntar":12940,"Ġdescript":12941,"Ġpapo":12942,"Ġproximidade":12943,"Ġcongel":12944,"Ġcache":12945,"Ġtransfers":12946,"pad":12947,"vÃ£o":12948,"Ġtire":12949,"aras":12950,"icia":12951,"Ġparagraph":12952,"alizar":12953,"Ġtraders":12954,"Ġtemperatures":12955,"Ġdownloaded":12956,"Ġilleg":12957,"Ġletters":12958,"ĠcomeÃ§ando":12959,"ĠflorenÃ§a":12960,"Ġrusso":12961,"worth":12962,"Ġpand":12963,"Ġentities":12964,"ĠestÃ¡gio":12965,"Ġconfront":12966,"athers":12967,"ĠinterpretaÃ§Ã£o":12968,"Ġincentiv":12969,"fei":12970,"mun":12971,"Ġmumb":12972,"Ġfita":12973,"itou":12974,"Ġls":12975,"Ġmarrak":12976,"Ġrelative":12977,"Ġpeo":12978,"Ġopcionais":12979,"Ġguy":12980,"ĠintenÃ§Ã£o":12981,"ĠmÃ©dias":12982,"Ġperfume":12983,"Ġquantit":12984,"Ġminimal":12985,"Ġperceber":12986,"Ġsurrounding":12987,"Ġsugerimos":12988,"hostal":12989,"xa":12990,"Ġperigo":12991,"Ġespir":12992,"Ġantiox":12993,"Ġsoccer":12994,"Ġrefin":12995,"Ġapresentados":12996,"Ġdivis":12997,"Ġcomparador":12998,"Ġmemorial":12999,"Ġinfohostal":13000,"Ġtells":13001,"Ġetiqueta":13002,"Ġanalyzed":13003,"Ġmetr":13004,"Ġkee":13005,"ĠhÃ¡b":13006,"Ġslides":13007,"Ġmudou":13008,"Ġdebt":13009,"Ġpretend":13010,"Ġstrengthen":13011,"ĠdÃ©cadas":13012,"Ġinquiry":13013,"Ġunesco":13014,"aqu":13015,"cers":13016,"gada":13017,"Ġtt":13018,"ecas":13019,"chal":13020,"Ġrelating":13021,"Ġgetaroom":13022,"ĠaceitaÃ§Ã£o":13023,"Ġatacado":13024,"Ġinhabit":13025,"Ġpam":13026,"Ġbeings":13027,"arios":13028,"Ġjoh":13029,"Ġilim":13030,"Ġinspection":13031,"Ġjudicial":13032,"Ġeliminar":13033,"Ġdesfrute":13034,"ĠconservaÃ§Ã£o":13035,"Ġdesloc":13036,"Ġislam":13037,"Ġantioxid":13038,"Ġaq":13039,"Ġcow":13040,"Ġpit":13041,"Ġmile":13042,"Ġquot":13043,"Ġonto":13044,"Ġstorm":13045,"izador":13046,"Ġincap":13047,"Ġduche":13048,"Ġcopa":13049,"Ġaeron":13050,"Ġagreements":13051,"ogrÃ¡ficas":13052,"Ġblocos":13053,"Ġprosper":13054,"ĠpreocupaÃ§Ã£o":13055,"Ġprotegido":13056,"Ġplasma":13057,"Ġlith":13058,"Ġflut":13059,"Ġmodify":13060,"Ġmodificar":13061,"Ġmoviment":13062,"Ġarran":13063,"Ġvermelha":13064,"Ġconsequences":13065,"Ġsleeps":13066,"ĠcÃŃr":13067,"Ġcoron":13068,"Ġpression":13069,"Ġsono":13070,"Ġmedicamento":13071,"Ġlabour":13072,"Ġreply":13073,"Ġestablishment":13074,"Ġexibido":13075,"ĠproprietÃ¡rios":13076,"Ġintelligent":13077,"Ġlaundry":13078,"Ġtome":13079,"Ġmsc":13080,"Ġliability":13081,"Ġstack":13082,"Ġsham":13083,"Ġnaples":13084,"Ġdisab":13085,"Ġprovoc":13086,"Ġartistic":13087,"Ġfunny":13088,"Ġoperated":13089,"Ġdirectamente":13090,"Ġposto":13091,"Ġaplicada":13092,"Ġdrum":13093,"Ġchristians":13094,"Ġfragr":13095,"Ġexclusivamente":13096,"Ġbonita":13097,"Ġnorway":13098,"ĠferroviÃ¡ria":13099,"ĠreparaÃ§Ã£o":13100,"Ġweapons":13101,"Ġdica":13102,"Ġfides":13103,"Ġanonym":13104,"Ġgil":13105,"Ġjr":13106,"Ġpodia":13107,"ĠmarÃŃtim":13108,"Ġxe":13109,"Ġpolar":13110,"Ġpersonagem":13111,"Ġmalaga":13112,"Ġfundada":13113,"Ġlevando":13114,"Ã³polis":13115,"Ġcircular":13116,"Ġdissert":13117,"Ġmoderate":13118,"Ġsevilha":13119,"Ġluxembourg":13120,"lÃ¢ndia":13121,"Ġfellow":13122,"chi":13123,"Ġfras":13124,"Ġafili":13125,"ĠlimitaÃ§Ãµes":13126,"Ġcorporal":13127,"Ġelectricity":13128,"Ġvivem":13129,"Ġvictor":13130,"Ġfisher":13131,"Ġhighlights":13132,"ĠfÃ£s":13133,"amas":13134,"Ġgelo":13135,"utt":13136,"Ġkas":13137,"Ġprocessador":13138,"Ġdevelopers":13139,"Ġtrousers":13140,"Ġfelicidade":13141,"Ġfresco":13142,"Ġinspiration":13143,"Ġempty":13144,"vd":13145,"Ġsente":13146,"aties":13147,"Ġanabol":13148,"Ġjump":13149,"Ġbeber":13150,"Ġfox":13151,"Ġentregar":13152,"Ġpermission":13153,"Ġsteak":13154,"brid":13155,"Ġmanagers":13156,"Ġgasolina":13157,"Ġdespesas":13158,"Ġlenovo":13159,"ĠcirculaÃ§Ã£o":13160,"Ġgifts":13161,"Ġfilosofia":13162,"Ġbate":13163,"Ġexit":13164,"Ġcoating":13165,"Ġsimplic":13166,"ancar":13167,"Ġdecades":13168,"ĠpublicaÃ§Ãµes":13169,"Ġmatches":13170,"Ġpatch":13171,"Ġdownloading":13172,"Ġmanuel":13173,"Ġembed":13174,"comes":13175,"Ġrobust":13176,"Ġreaction":13177,"Ġgranted":13178,"Ġmetodologia":13179,"Ġofficer":13180,"Ġjpg":13181,"log":13182,"Ġdicion":13183,"ĠpÃ¡t":13184,"Ġbench":13185,"Ġnh":13186,"Ã§al":13187,"Ġesg":13188,"Ġbranc":13189,"Ġmotores":13190,"Ġvisitor":13191,"ĠautomÃ³vel":13192,"Ġenviados":13193,"Ġaccounting":13194,"ĠeconÃ³micas":13195,"Ġwolf":13196,"Ġturkish":13197,"ĠcÃ£o":13198,"Ġportra":13199,"Ġrack":13200,"Ġclassified":13201,"Ġslide":13202,"Ġreferences":13203,"Ġregistrar":13204,"Ġmacro":13205,"Ġexecutivo":13206,"ĠconduÃ§Ã£o":13207,"Ġjacket":13208,"Ġjewelry":13209,"Ġmumbai":13210,"Ġsister":13211,"Ġtocar":13212,"Ġalleg":13213,"Ġatm":13214,"ĠconvenÃ§Ã£o":13215,"Ġespecializado":13216,"Ġlooked":13217,"Ġnaturalmente":13218,"ĠsecretÃ¡ria":13219,"Ġtivemos":13220,"Ġassassin":13221,"Ġtc":13222,"Ġdegrad":13223,"Ġucr":13224,"Ġmarks":13225,"ĠtransiÃ§Ã£o":13226,"aceutical":13227,"Ġconcret":13228,"Ġnomeadamente":13229,"Ġfigures":13230,"Ġegg":13231,"Ġnutric":13232,"Ġadministrador":13233,"Ġgad":13234,"imar":13235,"Ġrj":13236,"achi":13237,"iex":13238,"Ġstructural":13239,"Ġacompanhamento":13240,"Ġesporte":13241,"Ġpierre":13242,"Ġpeoples":13243,"Ġarth":13244,"Ġqualified":13245,"Ġrelat":13246,"Ġescrav":13247,"Ġdrives":13248,"Ġcannes":13249,"Ġrepairs":13250,"Ġbirthday":13251,"hr":13252,"uidade":13253,"Ġaur":13254,"Ġsg":13255,"enÃ§o":13256,"Ġburg":13257,"cht":13258,"lyn":13259,"Ġrecar":13260,"Ġafast":13261,"Ġrainha":13262,"Ġproveni":13263,"ĠmetÃ¡l":13264,"ribute":13265,"Ġrefres":13266,"Ġespecializada":13267,"Ġunderground":13268,"Ġeditorial":13269,"Ġcopo":13270,"Ġchamber":13271,"Ġaparelhos":13272,"Ġmesseng":13273,"Ġdialog":13274,"ĠeletrÃ´nica":13275,"Ġtransactions":13276,"Ġimpedir":13277,"Ġphilipp":13278,"Ġcourtyard":13279,"arks":13280,"rag":13281,"rain":13282,"Ġestiv":13283,"Ġages":13284,"Ġcoverage":13285,"ĠvariÃ¡vel":13286,"Ġdefinido":13287,"Ġdenver":13288,"Ġconstitui":13289,"Ġconvidados":13290,"ĠcrÃŃtica":13291,"Ġenfrentar":13292,"gary":13293,"hem":13294,"Ġsri":13295,"Ġwines":13296,"ecÃ§Ãµes":13297,"Ã¡r":13298,"Ġbelas":13299,"Ã³lio":13300,"Ġoceano":13301,"Ġinitiatives":13302,"Ġadvertisement":13303,"Ġdictionary":13304,"Ġdn":13305,"Ġforced":13306,"Ġchances":13307,"Ġki":13308,"apolis":13309,"Ġmarro":13310,"Ġnewcastle":13311,"Ġvolvo":13312,"ĠhistÃ³rica":13313,"Ġrespective":13314,"Ġfinanceiras":13315,"Ġstraw":13316,"Ġdutch":13317,"Ġsudeste":13318,"Ġfusion":13319,"Ġmathemat":13320,"Ġseafood":13321,"yard":13322,"osidade":13323,"Ġkiev":13324,"viera":13325,"Ġroda":13326,"cler":13327,"Ġtract":13328,"Ġheights":13329,"Ġacting":13330,"ĠpermissÃ£o":13331,"ĠmatÃ©rias":13332,"Ġeuropeus":13333,"Ġcinza":13334,"Ġwallpaper":13335,"Ġdenmark":13336,"ĠdifÃŃceis":13337,"Ġbishop":13338,"Ġluxuosos":13339,"Ġbungal":13340,"Ġprohib":13341,"Ġforever":13342,"Ġdescul":13343,"Ġtestar":13344,"Ġexecution":13345,"Ġcontrad":13346,"Ġperiods":13347,"Ġdamaged":13348,"Ġprotective":13349,"Ġpossibilities":13350,"Ġdhl":13351,"Ġchampionship":13352,"Ġadvogados":13353,"Ġencounter":13354,"how":13355,"vnik":13356,"Ġdubro":13357,"Ġmn":13358,"Ġbolog":13359,"Ġvm":13360,"Ã¡culo":13361,"Ã©e":13362,"urada":13363,"Ġstro":13364,"Ġmargar":13365,"Ġbrad":13366,"posters":13367,"Ġterminar":13368,"Ġacceptance":13369,"Ġhampton":13370,"Ġconcordou":13371,"Ġacredita":13372,"Ġsorry":13373,"Ġattached":13374,"Ġmiseric":13375,"case":13376,"fru":13377,"ĠnaÃ§Ã£o":13378,"eli":13379,"Ġrice":13380,"Ġcomposta":13381,"Ġcriados":13382,"Ġdioc":13383,"Ġinsights":13384,"Ġreviewed":13385,"Ġgamepost":13386,"Ġexclusiva":13387,"Ġattractive":13388,"Ġguarantees":13389,"Ġbreath":13390,"Ġmau":13391,"abeth":13392,"ĠouÃ§a":13393,"Ġapresentaram":13394,"ĠfÃ¡ceis":13395,"Ã©ticas":13396,"ĠdefiniÃ§Ãµes":13397,"Ġaccompl":13398,"Ġquantos":13399,"Ġindicado":13400,"Ġacquired":13401,"Ġcredits":13402,"Ġtraduction":13403,"ĠcÃ¡lculo":13404,"esc":13405,"Ġpets":13406,"Ġpiano":13407,"Ġhorn":13408,"Ġshap":13409,"Ġprecios":13410,"viam":13411,"Ġzomb":13412,"Ġcreme":13413,"Ġsecretary":13414,"Ġprofunda":13415,"Ġabrangente":13416,"Ġassembleia":13417,"kar":13418,"ois":13419,"Ġoas":13420,"onha":13421,"Ġthee":13422,"Ġtoxic":13423,"Ġspo":13424,"Ġmodular":13425,"Ġplays":13426,"Ġheadquar":13427,"Ġjornada":13428,"Ġawarded":13429,"ĠameaÃ§as":13430,"Ġpharmaceutical":13431,"Ġtattoo":13432,"Ġpolegadas":13433,"Ġorleans":13434,"Ġdubrovnik":13435,"war":13436,"oline":13437,"Ġatos":13438,"ĠusÃ¡":13439,"Ġentra":13440,"Ġmarcos":13441,"Ġpequim":13442,"Ġhavana":13443,"Ġarticul":13444,"Ġmethodology":13445,"ĠavanÃ§ado":13446,"Ġdetalhada":13447,"ĠtÃ³quio":13448,"vido":13449,"Ġlect":13450,"Ġlados":13451,"Ġkara":13452,"vik":13453,"Ġeliz":13454,"Ġcriador":13455,"Ġmostrado":13456,"Ġdevo":13457,"ĠmÃ¡r":13458,"Ġfelizes":13459,"Ġcloset":13460,"ĠinclusÃ£o":13461,"Ġconcluir":13462,"Ġcolegas":13463,"Ġdiploma":13464,"Ġbosch":13465,"Ġyama":13466,"Ġtrucks":13467,"Ġmarido":13468,"Ġportland":13469,"Ġblan":13470,"Ġintense":13471,"Ġutility":13472,"Ġtwenty":13473,"Ġobservar":13474,"Ġdescoberta":13475,"Ġacabamento":13476,"ĠnÃºcleo":13477,"off":13478,"Ġease":13479,"ĠgÃ©":13480,"esth":13481,"Ġreward":13482,"Ġnev":13483,"Ġconselhos":13484,"Ġcameras":13485,"Ġaves":13486,"Ġextend":13487,"ĠinfÃ¢ncia":13488,"Ġcalorias":13489,"ĠposiÃ§Ãµes":13490,"Ġjunior":13491,"Ġconden":13492,"Ġenviou":13493,"Ġespero":13494,"Ġmotorcy":13495,"Ġhappiness":13496,"Ġimplemented":13497,"ĠproporÃ§Ã£o":13498,"Ġoccurred":13499,"ĠdeficiÃªncia":13500,"Ġaccompanied":13501,"bras":13502,"Ġgaz":13503,"Ġsubt":13504,"Ġcalgary":13505,"Ġsignature":13506,"Ġholanda":13507,"Ġexpressed":13508,"Ġrepresentatives":13509,"ĠcÃ³digos":13510,"Ġpixel":13511,"ÃŃculas":13512,"Ġtrademark":13513,"vet":13514,"Ġari":13515,"Ġtf":13516,"Ġtone":13517,"Ġwrap":13518,"lying":13519,"Ġspark":13520,"ĠturÃŃstico":13521,"ĠautomaÃ§Ã£o":13522,"ĠÃ³culos":13523,"Ġmacau":13524,"Ġresidents":13525,"Ġreturns":13526,"ĠobrigaÃ§Ãµes":13527,"Ġdemonstrar":13528,"Ġescreveu":13529,"Ġquadrados":13530,"Ġrasp":13531,"Ġcongratul":13532,"Ġnoc":13533,"Ġhay":13534,"Ġnove":13535,"Ġunw":13536,"Ġpobres":13537,"Ġgenetic":13538,"Ġconcurso":13539,"Ġfale":13540,"Ġconsiderados":13541,"Ġsensores":13542,"ĠcatÃ³lica":13543,"Ġmorrer":13544,"Ġgeomet":13545,"Ġregionais":13546,"ĠprÃ©vio":13547,"Ġsugere":13548,"Ġdensity":13549,"Ġcircuito":13550,"Ġtoneladas":13551,"Ġsudoeste":13552,"Ġstunning":13553,"lu":13554,"Ġparan":13555,"Ġestocol":13556,"ĠatuaÃ§Ã£o":13557,"Ġamino":13558,"Ġallposters":13559,"Ġtimor":13560,"Ġpublications":13561,"Ġmalay":13562,"Ġingles":13563,"Ġsitua":13564,"Ġintegrada":13565,"Ġcompreend":13566,"Ġtextil":13567,"Ġtranslate":13568,"Ġadmit":13569,"ĠbÃ¡sicos":13570,"Ġfaithful":13571,"Ġexplains":13572,"ĠocasiÃ£o":13573,"iamente":13574,"Ġadam":13575,"Ġnovidades":13576,"Ġhook":13577,"Ġchurras":13578,"Ġpersonalized":13579,"Ġestocolmo":13580,"Ġvetor":13581,"Ġramos":13582,"Ġcontatos":13583,"Ġadhes":13584,"ambu":13585,"Ġlivrar":13586,"Ġschol":13587,"Ġpersonally":13588,"Ġlowest":13589,"Ġembalagens":13590,"Ġmergulho":13591,"Ġmecanismos":13592,"Ġtij":13593,"osamente":13594,"Ġark":13595,"Ġcarp":13596,"Ġvocab":13597,"Ġnearest":13598,"Ġbaseados":13599,"Ġgovernments":13600,"Ġtentativa":13601,"Ġboliv":13602,"Ġpersonalizados":13603,"Ġsuggested":13604,"Ġfluid":13605,"Ġvossos":13606,"Ġinserir":13607,"Ġemissions":13608,"Ġacordos":13609,"Ġappointed":13610,"ĠhÃ´tel":13611,"surfing":13612,"Ġalive":13613,"Ġalerta":13614,"tex":13615,"Ġescuro":13616,"Ġproven":13617,"Ġgray":13618,"Ġdigite":13619,"Ġcostum":13620,"Ġdivul":13621,"Ġspeaker":13622,"Ġlavand":13623,"Ġcorrectly":13624,"Ġesquerdo":13625,"Ġtransaction":13626,"fun":13627,"tic":13628,"ĠmÃ¡l":13629,"Ġbart":13630,"ingen":13631,"opol":13632,"Ġcontroles":13633,"Ã©ster":13634,"Ġquerer":13635,"Ġexistir":13636,"Ġaltitude":13637,"Ġdecorr":13638,"Ġconfirmation":13639,"Ġaluno":13640,"Ġtherm":13641,"Ġcarrier":13642,"Ġpecados":13643,"ĠexcursÃ£o":13644,"ĠcoleÃ§Ãµes":13645,"ĠausÃªncia":13646,"Ġhuawei":13647,"Ġcake":13648,"Ġns":13649,"Ġseoul":13650,"agne":13651,"Ġtransition":13652,"Ġxml":13653,"gettable":13654,"Ġsins":13655,"Ġapresentando":13656,"Ġmultid":13657,"Ġromance":13658,"Ġmotorola":13659,"Ġindependence":13660,"Ġdissol":13661,"Ġarrive":13662,"Ġoxford":13663,"Ġfilling":13664,"Ġtivesse":13665,"Ġschedul":13666,"Ġfifa":13667,"hotels":13668,"Ġshadow":13669,"Ġunforgettable":13670,"vant":13671,"wi":13672,"orking":13673,"Ġboss":13674,"Ġnr":13675,"Ġcamadas":13676,"Ġnewly":13677,"Ġpublishing":13678,"Ġdeterminados":13679,"Ġnavegar":13680,"Ġaffairs":13681,"Ġblogs":13682,"Ġmigr":13683,"Ġajustar":13684,"Ġenemy":13685,"ĠtÃ¡xi":13686,"Ġbachel":13687,"ĠpoliÃ©ster":13688,"db":13689,"enon":13690,"atÃ³rias":13691,"rota":13692,"Ġmarx":13693,"Ġcolher":13694,"Ġremind":13695,"ĠrestriÃ§Ãµes":13696,"ĠsalvaÃ§Ã£o":13697,"Ġargument":13698,"Ġsessions":13699,"Ġregularly":13700,"Ġpiscinas":13701,"Ġpositiva":13702,"Ġdensidade":13703,"Ġimobili":13704,"bell":13705,"Ġsne":13706,"Ġejac":13707,"stic":13708,"the":13709,"Ġamp":13710,"Ġrefug":13711,"Ġculturas":13712,"Ġtomato":13713,"Ġrestor":13714,"Ġpensamentos":13715,"drome":13716,"Ġpetersburg":13717,"Ġstatistical":13718,"Ġreap":13719,
[...]
